{
  "version": "1.0",
  "truncation": null,
  "padding": null,
  "added_tokens": [
    {
      "id": 0,
      "content": "<|endoftext|>",
      "single_word": false,
      "lstrip": false,
      "rstrip": false,
      "normalized": false,
      "special": true
    }
  ],
  "normalizer": null,
  "pre_tokenizer": {
    "type": "ByteLevel",
    "add_prefix_space": false,
    "trim_offsets": true,
    "use_regex": true
  },
  "post_processor": {
    "type": "ByteLevel",
    "add_prefix_space": true,
    "trim_offsets": false,
    "use_regex": true
  },
  "decoder": {
    "type": "ByteLevel",
    "add_prefix_space": true,
    "trim_offsets": true,
    "use_regex": true
  },
  "model": {
    "type": "BPE",
    "dropout": null,
    "unk_token": null,
    "continuing_subword_prefix": null,
    "end_of_word_suffix": null,
    "fuse_unk": false,
    "byte_fallback": false,
    "vocab": {
      "<|endoftext|>": 0,
      "!": 1,
      "\"": 2,
      "#": 3,
      "$": 4,
      "%": 5,
      "&": 6,
      "'": 7,
      "(": 8,
      ")": 9,
      "*": 10,
      "+": 11,
      ",": 12,
      "-": 13,
      ".": 14,
      "/": 15,
      "0": 16,
      "1": 17,
      "2": 18,
      "3": 19,
      "4": 20,
      "5": 21,
      "6": 22,
      "7": 23,
      "8": 24,
      "9": 25,
      ":": 26,
      ";": 27,
      "<": 28,
      "=": 29,
      ">": 30,
      "?": 31,
      "@": 32,
      "A": 33,
      "B": 34,
      "C": 35,
      "D": 36,
      "E": 37,
      "F": 38,
      "G": 39,
      "H": 40,
      "I": 41,
      "J": 42,
      "K": 43,
      "L": 44,
      "M": 45,
      "N": 46,
      "O": 47,
      "P": 48,
      "Q": 49,
      "R": 50,
      "S": 51,
      "T": 52,
      "U": 53,
      "V": 54,
      "W": 55,
      "X": 56,
      "Y": 57,
      "Z": 58,
      "[": 59,
      "\\": 60,
      "]": 61,
      "`": 62,
      "a": 63,
      "b": 64,
      "c": 65,
      "d": 66,
      "e": 67,
      "f": 68,
      "g": 69,
      "h": 70,
      "i": 71,
      "j": 72,
      "k": 73,
      "l": 74,
      "m": 75,
      "n": 76,
      "o": 77,
      "p": 78,
      "q": 79,
      "r": 80,
      "s": 81,
      "t": 82,
      "u": 83,
      "v": 84,
      "w": 85,
      "x": 86,
      "y": 87,
      "z": 88,
      "{": 89,
      "|": 90,
      "}": 91,
      "~": 92,
      "¢": 93,
      "£": 94,
      "¦": 95,
      "¨": 96,
      "©": 97,
      "°": 98,
      "¹": 99,
      "Â": 100,
      "â": 101,
      "ĉ": 102,
      "Ċ": 103,
      "Ġ": 104,
      "Ģ": 105,
      "ĺ": 106,
      "Ļ": 107,
      "he": 108,
      "Ġt": 109,
      "Ġa": 110,
      "Ġs": 111,
      "Ġw": 112,
      "nd": 113,
      "Ġthe": 114,
      "ed": 115,
      "Ġand": 116,
      "Ġto": 117,
      "Ġb": 118,
      "in": 119,
      "Ġh": 120,
      "Ġwa": 121,
      "re": 122,
      "ou": 123,
      "Ġf": 124,
      "it": 125,
      "Ġl": 126,
      "Ġc": 127,
      "Ġd": 128,
      "er": 129,
      "Ġhe": 130,
      "Ġm": 131,
      "Ġp": 132,
      "Ġwas": 133,
      "om": 134,
      "ĠT": 135,
      "Ġo": 136,
      "ay": 137,
      "ar": 138,
      "is": 139,
      "ing": 140,
      "il": 141,
      "Ġg": 142,
      "id": 143,
      "at": 144,
      "en": 145,
      "Ġn": 146,
      "Ġsa": 147,
      "Ġha": 148,
      "ĠS": 149,
      "ĠThe": 150,
      "an": 151,
      "im": 152,
      "or": 153,
      "on": 154,
      "Ġit": 155,
      "Ġth": 156,
      "ll": 157,
      "le": 158,
      "ĠH": 159,
      "Ġher": 160,
      "et": 161,
      "ot": 162,
      "ir": 163,
      "ĠShe": 164,
      "es": 165,
      "ĠHe": 166,
      "Ġin": 167,
      "ver": 168,
      "ut": 169,
      "ow": 170,
      "ck": 171,
      "ĠThey": 172,
      "Ġe": 173,
      "Ġu": 174,
      "Ġ\"": 175,
      "ld": 176,
      "Ġy": 177,
      "oo": 178,
      "Ġsaid": 179,
      "ily": 180,
      "ig": 181,
      "Ġbe": 182,
      "Ġr": 183,
      "am": 184,
      "Ġst": 185,
      "ĠI": 186,
      "ce": 187,
      "ke": 188,
      "Ġshe": 189,
      "pp": 190,
      "ith": 191,
      "ve": 192,
      "Ġwith": 193,
      "Lily": 194,
      "On": 195,
      "Ġon": 196,
      "Ġof": 197,
      "ked": 198,
      "Ġyou": 199,
      "ri": 200,
      "Ġhis": 201,
      "Ġso": 202,
      "Ġpl": 203,
      "nt": 204,
      "ad": 205,
      "very": 206,
      "Ġday": 207,
      "Ġthat": 208,
      "Ġup": 209,
      "Ġplay": 210,
      "Ġhad": 211,
      "st": 212,
      "ĠLily": 213,
      "Ġthey": 214,
      "Ġwe": 215,
      "Ġmom": 216,
      "'s": 217,
      "Ġfor": 218,
      "el": 219,
      "my": 220,
      "ĠB": 221,
      "un": 222,
      "ould": 223,
      "The": 224,
      "Ġli": 225,
      "ch": 226,
      "ent": 227,
      "Ġhapp": 228,
      "itt": 229,
      "Ġwant": 230,
      "Ġsh": 231,
      "out": 232,
      "her": 233,
      "ly": 234,
      "Ġdo": 235,
      "se": 236,
      "ome": 237,
      "Ġvery": 238,
      "Ġnot": 239,
      "ound": 240,
      "end": 241,
      "ime": 242,
      "ittle": 243,
      "all": 244,
      "Ġwh": 245,
      "Ġtime": 246,
      "Ġlittle": 247,
      "Ġk": 248,
      "Ġthere": 249,
      "al": 250,
      "Ġne": 251,
      "ht": 252,
      "ĠM": 253,
      "Ġre": 254,
      "Ġhappy": 255,
      "Ġbig": 256,
      "Ġsm": 257,
      "ĠĊ": 258,
      ".\"": 259,
      "Ġbut": 260,
      "ĠIt": 261,
      "Ġis": 262,
      "ack": 263,
      "Ġsaw": 264,
      "Ġan": 265,
      "riend": 266,
      "Ġfriend": 267,
      "Ġas": 268,
      "ry": 269,
      "ra": 270,
      "'t": 271,
      "!\"": 272,
      "One": 273,
      "ide": 274,
      "ake": 275,
      "ved": 276,
      "ug": 277,
      "Ġloo": 278,
      "ter": 279,
      "Once": 280,
      "Ġwere": 281,
      "Ġlo": 282,
      "ore": 283,
      "ec": 284,
      "Ġhim": 285,
      "Ġtoo": 286,
      "Ġgo": 287,
      "Ġbo": 288,
      "ĠTim": 289,
      "Ġse": 290,
      "irl": 291,
      "Ġupon": 292,
      "Ġwanted": 293,
      "Ġj": 294,
      "Ġgirl": 295,
      "ard": 296,
      "Ġare": 297,
      "ill": 298,
      "Ġout": 299,
      "Ġthem": 300,
      "Ġat": 301,
      "ind": 302,
      "ur": 303,
      "fu": 304,
      "way": 305,
      "Ġsp": 306,
      "Ġtheir": 307,
      "Ġcould": 308,
      "Ġdid": 309,
      "Ġsmil": 310,
      "ĠA": 311,
      "hen": 312,
      "Ġhave": 313,
      "ain": 314,
      "art": 315,
      "Ġex": 316,
      "hed": 317,
      "Ġwent": 318,
      "rom": 319,
      "?\"": 320,
      "Ġar": 321,
      "ic": 322,
      "Ġcan": 323,
      "lp": 324,
      "Ġnam": 325,
      "ĠJ": 326,
      "ful": 327,
      "Ġfriends": 328,
      "ood": 329,
      "Ġall": 330,
      "hing": 331,
      "Ġhelp": 332,
      "ight": 333,
      "ĠBen": 334,
      "Ġkn": 335,
      "um": 336,
      "ark": 337,
      "one": 338,
      "Ġback": 339,
      "Ġfun": 340,
      "Ġcl": 341,
      "Ġsay": 342,
      "are": 343,
      "You": 344,
      "ĠTom": 345,
      "Ġno": 346,
      "Ġle": 347,
      "Ġnamed": 348,
      "op": 349,
      "Ġsmiled": 350,
      "Ġal": 351,
      "Ġloved": 352,
      "Ġsc": 353,
      "oug": 354,
      "ĠOne": 355,
      "side": 356,
      "elt": 357,
      "Ġasked": 358,
      "Ġtoy": 359,
      "Ġman": 360,
      "ick": 361,
      "Ġfelt": 362,
      "Ġfe": 363,
      "ĠTimmy": 364,
      "Ġlike": 365,
      "Ġlooked": 366,
      "ame": 367,
      "Ġaround": 368,
      "Ġsome": 369,
      "Ġsee": 370,
      "Ġme": 371,
      "omet": 372,
      "Ġbir": 373,
      "ure": 374,
      "Ġro": 375,
      "Ġbr": 376,
      "ĠW": 377,
      "get": 378,
      "Ġboy": 379,
      "Ġwould": 380,
      "ice": 381,
      "Ġstart": 382,
      "ong": 383,
      "Ġbird": 384,
      "ss": 385,
      "Ġsomet": 386,
      "Ġfa": 387,
      "dd": 388,
      "ings": 389,
      "Ġag": 390,
      "Ġwor": 391,
      ",\"": 392,
      "Ġwhat": 393,
      "ade": 394,
      "king": 395,
      "Ġmake": 396,
      "ie": 397,
      "gether": 398,
      "own": 399,
      "ĠBut": 400,
      "Ġtre": 401,
      "Ġran": 402,
      "Ġaway": 403,
      "ag": 404,
      "Ġstarted": 405,
      "ared": 406,
      "ĠYou": 407,
      "if": 408,
      "oud": 409,
      "Ġtogether": 410,
      "Ġsays": 411,
      "Ġmade": 412,
      "Ġcar": 413,
      "Ġsomething": 414,
      "ited": 415,
      "Ġpark": 416,
      "ther": 417,
      "Ġco": 418,
      "Ġsad": 419,
      "Ġnew": 420,
      "Ġother": 421,
      "Ġexc": 422,
      "Ġput": 423,
      "Ġfrom": 424,
      "Ġpr": 425,
      "ell": 426,
      "Ġla": 427,
      "ĠL": 428,
      "Ġmu": 429,
      "ble": 430,
      "Ġagain": 431,
      "Ġhug": 432,
      "Ġhome": 433,
      "Ġwhen": 434,
      "ook": 435,
      "ach": 436,
      "Ġgood": 437,
      "ep": 438,
      "Ġwho": 439,
      "Ġfound": 440,
      "est": 441,
      "ried": 442,
      "hat": 443,
      "Ġthen": 444,
      "Ġfl": 445,
      "Ġdec": 446,
      "Ġch": 447,
      "Ġwal": 448,
      "pped": 449,
      "as": 450,
      "qu": 451,
      "Ġget": 452,
      "Ġplaying": 453,
      "ought": 454,
      "pl": 455,
      "ally": 456,
      "ĠE": 457,
      "Ġsw": 458,
      "Ġthings": 459,
      "ous": 460,
      "Ġexcited": 461,
      "Ġgot": 462,
      "uck": 463,
      "ny": 464,
      "Ġliked": 465,
      "ro": 466,
      "ided": 467,
      "Ġdecided": 468,
      "Ġcame": 469,
      "Ġevery": 470,
      "ave": 471,
      "ax": 472,
      "Ġbl": 473,
      "na": 474,
      "ĠD": 475,
      "Ġyour": 476,
      "ara": 477,
      "Ġv": 478,
      "Ġscared": 479,
      "ust": 480,
      "ĠMom": 481,
      "Ġdown": 482,
      "Ġone": 483,
      "ouse": 484,
      "Ġdog": 485,
      "Ġbec": 486,
      "Ġfind": 487,
      "Ġcare": 488,
      "ist": 489,
      "ue": 490,
      "Ġfeel": 491,
      "udd": 492,
      "Ġthan": 493,
      "Ġab": 494,
      "Ġdad": 495,
      "ap": 496,
      "Ġke": 497,
      "Ġmy": 498,
      "Ġdidn": 499,
      "arn": 500,
      "nna": 501,
      "ways": 502,
      "Ġgr": 503,
      "They": 504,
      "Ġlook": 505,
      "our": 506,
      "Ġmommy": 507,
      "nder": 508,
      "Ġwill": 509,
      "us": 510,
      "Ġalways": 511,
      "Ġgra": 512,
      "ess": 513,
      "ant": 514,
      "fe": 515,
      "Ġpo": 516,
      "Ġabout": 517,
      "Ġtook": 518,
      "Ġkne": 519,
      "Ġlot": 520,
      "bb": 521,
      "Ġtoys": 522,
      "Ġoutside": 523,
      "ĠF": 524,
      "ers": 525,
      "Ġtree": 526,
      "ise": 527,
      "ite": 528,
      "Ġthought": 529,
      "Ġball": 530,
      "Ġmore": 531,
      "eci": 532,
      "ened": 533,
      "ched": 534,
      "Ġta": 535,
      "Ġlearn": 536,
      "Ġold": 537,
      "ĠSam": 538,
      "ret": 539,
      "Ġho": 540,
      "Ġint": 541,
      "ged": 542,
      "Ġknow": 543,
      "Ġcat": 544,
      "Ġlaug": 545,
      "ĠMax": 546,
      "Ġknew": 547,
      "Ġtake": 548,
      "ecial": 549,
      "udden": 550,
      "Ġspecial": 551,
      "Ġsor": 552,
      "ive": 553,
      "fter": 554,
      "uddenly": 555,
      "Ġany": 556,
      "Ġpe": 557,
      "Ġhow": 558,
      "ia": 559,
      "Ġtr": 560,
      "ma": 561,
      "Ġshow": 562,
      "au": 563,
      "ink": 564,
      "Ġmuch": 565,
      "Ġtw": 566,
      "ish": 567,
      "But": 568,
      "and": 569,
      "Ġrun": 570,
      "ven": 571,
      "Ġsorry": 572,
      "Ġsl": 573,
      "Ġhand": 574,
      "Ġhouse": 575,
      "Ġop": 576,
      "Ġor": 577,
      "Ġsk": 578,
      "Ġsun": 579,
      "Ġmo": 580,
      "Ġtried": 581,
      "Ġclo": 582,
      "Ġtold": 583,
      "Ġinto": 584,
      "Ġinside": 585,
      "ate": 586,
      "Ġcouldn": 587,
      "Ġif": 588,
      "dy": 589,
      "Ġen": 590,
      "Ġwater": 591,
      "Ġover": 592,
      "ank": 593,
      "Ġproud": 594,
      "ump": 595,
      "Ġthis": 596,
      "Ġgave": 597,
      "Ġqu": 598,
      "Ġheard": 599,
      "Ġnever": 600,
      "ace": 601,
      "ause": 602,
      "ty": 603,
      "Ġeat": 604,
      "by": 605,
      "Tom": 606,
      "Ġexpl": 607,
      "Ġplayed": 608,
      "ĠSara": 609,
      "Ġroom": 610,
      "Ġeach": 611,
      "ĠEvery": 612,
      "other": 613,
      "Ġpick": 614,
      "Ġpret": 615,
      "ion": 616,
      "etter": 617,
      "ĠWe": 618,
      "ge": 619,
      "Mom": 620,
      "Ġjust": 621,
      "Ġgre": 622,
      "'m": 623,
      "Ġbecause": 624,
      "here": 625,
      "Ġhugged": 626,
      "Ġoff": 627,
      "ĠAnna": 628,
      "ak": 629,
      "Ġwat": 630,
      "Ġcom": 631,
      "oth": 632,
      "Ġneed": 633,
      "Ġbox": 634,
      "ile": 635,
      "Ġstr": 636,
      "Ġnice": 637,
      "Ġmany": 638,
      "Ġbear": 639,
      "uc": 640,
      "Ġsmall": 641,
      "Ġfo": 642,
      "iz": 643,
      "Ġjo": 644,
      "Ġbu": 645,
      "Ġlong": 646,
      "ort": 647,
      "ving": 648,
      "imal": 649,
      "Ġanimal": 650,
      "ine": 651,
      "ough": 652,
      "gry": 653,
      "Ġtry": 654,
      "Ġunt": 655,
      "sel": 656,
      "ild": 657,
      "urt": 658,
      "Ġuntil": 659,
      "ĠJack": 660,
      "Ġlearned": 661,
      "sed": 662,
      "Ġim": 663,
      "Ġkind": 664,
      "Ġbetter": 665,
      "Ġflow": 666,
      "ft": 667,
      "Ġend": 668,
      "Ġlove": 669,
      "Ġcall": 670,
      "Ġad": 671,
      "vent": 672,
      "ĠJo": 673,
      "Ġbest": 674,
      "em": 675,
      "Ġdon": 676,
      "ull": 677,
      "He": 678,
      "Yes": 679,
      "Ġsn": 680,
      "ady": 681,
      "urp": 682,
      "aut": 683,
      "Ġcle": 684,
      "ream": 685,
      "urn": 686,
      "ars": 687,
      "ĠAnd": 688,
      "ĠMia": 689,
      "ber": 690,
      "arden": 691,
      "Ġgarden": 692,
      "ves": 693,
      "Ġeven": 694,
      "Ġfast": 695,
      "ĠC": 696,
      "Ġcareful": 697,
      "Ġbeaut": 698,
      "ĠSo": 699,
      "ĠHer": 700,
      "lly": 701,
      "pt": 702,
      "Th": 703,
      "Ġfi": 704,
      "Ġthanked": 705,
      "Ġsky": 706,
      "Ġbra": 707,
      "Ġby": 708,
      "ies": 709,
      "Ġche": 710,
      "Ġlaughed": 711,
      "It": 712,
      "Ġjump": 713,
      "self": 714,
      "Ġgl": 715,
      "ase": 716,
      "Ġloud": 717,
      "Ġte": 718,
      "wn": 719,
      "iny": 720,
      "Ġway": 721,
      "lew": 722,
      "Ġbeauti": 723,
      "Ġlots": 724,
      "Ġcome": 725,
      "Ġlist": 726,
      "Ġbeautiful": 727,
      "Ġra": 728,
      "Ġwo": 729,
      "Ġhard": 730,
      "Ġfam": 731,
      "Ġanimals": 732,
      "Ġstill": 733,
      "hn": 734,
      "Ġhurt": 735,
      "Ġunder": 736,
      "ect": 737,
      "ning": 738,
      "Ġstay": 739,
      "ĠFrom": 740,
      "ĠThen": 741,
      "ct": 742,
      "Ġlet": 743,
      "ĠHis": 744,
      "Ġboth": 745,
      "Ġsafe": 746,
      "Ġcu": 747,
      "ool": 748,
      "hes": 749,
      "Ġimp": 750,
      "Ġlived": 751,
      "ree": 752,
      "Ġcol": 753,
      "Ġrem": 754,
      "be": 755,
      "Tim": 756,
      "Ġtwo": 757,
      "Ġbad": 758,
      "ople": 759,
      "ane": 760,
      "Ġbook": 761,
      "kay": 762,
      "ucy": 763,
      "Ġwalked": 764,
      "ast": 765,
      "ob": 766,
      "ock": 767,
      "Ġits": 768,
      "urpr": 769,
      "Ġbrave": 770,
      "Ġfamily": 771,
      "Ġshould": 772,
      "ished": 773,
      "Ġflew": 774,
      "Ġsurpr": 775,
      "igh": 776,
      "When": 777,
      "ress": 778,
      "Ġpeople": 779,
      "Ġfin": 780,
      "Ġcalled": 781,
      "Ġstor": 782,
      "Ġred": 783,
      "Ġangry": 784,
      "ip": 785,
      "Ġsoon": 786,
      "Ġfore": 787,
      "No": 788,
      "Ġkept": 789,
      "fore": 790,
      "led": 791,
      "Ġfly": 792,
      "Ġdan": 793,
      "Let": 794,
      "xt": 795,
      "Ġshare": 796,
      "ised": 797,
      "Ġpic": 798,
      "ĠWhen": 799,
      "Ġgoing": 800,
      "Ġpretty": 801,
      "Ġdoor": 802,
      "ĠP": 803,
      "dded": 804,
      "Ġclean": 805,
      "Ġkeep": 806,
      "Ġrock": 807,
      "ummy": 808,
      "Ġadvent": 809,
      "Ġnow": 810,
      "Ġdra": 811,
      "ied": 812,
      "ary": 813,
      "Ġcon": 814,
      "illy": 815,
      "age": 816,
      "Ġbefore": 817,
      "Ġreal": 818,
      "Ġshiny": 819,
      "Ġnoise": 820,
      "Ġopened": 821,
      "Ġide": 822,
      "Ġwind": 823,
      "Ġexplore": 824,
      "Ġcry": 825,
      "Ġsto": 826,
      "Ġdoll": 827,
      "What": 828,
      "Ġground": 829,
      "so": 830,
      "Ben": 831,
      "Ġturn": 832,
      "les": 833,
      "Ġalso": 834,
      "Ġfar": 835,
      "Ġidea": 836,
      "That": 837,
      "Ġey": 838,
      "Ġfr": 839,
      "oon": 840,
      "Ġcolor": 841,
      "Ġwar": 842,
      "Ġfeeling": 843,
      "Ġpicked": 844,
      "oy": 845,
      "imb": 846,
      "Ġnodded": 847,
      "Ġnext": 848,
      "th": 849,
      "Ġun": 850,
      "ĠLucy": 851,
      "Ġwalking": 852,
      "thing": 853,
      "Ġwhile": 854,
      "ture": 855,
      "Ġclimb": 856,
      "eet": 857,
      "Ġma": 858,
      "Ġbed": 859,
      "Ġthr": 860,
      "Ġadventure": 861,
      "ĠDad": 862,
      "uch": 863,
      "Ġsmile": 864,
      "kes": 865,
      "Ġhas": 866,
      "iced": 867,
      "Thank": 868,
      "Ġbeing": 869,
      "ger": 870,
      "ious": 871,
      "Ġfood": 872,
      "ĠSp": 873,
      "Ġdif": 874,
      "aybe": 875,
      "joy": 876,
      "Ġwr": 877,
      "Ġpicture": 878,
      "Ġrepl": 879,
      "Ġclos": 880,
      "ted": 881,
      "ĠG": 882,
      "Ġgive": 883,
      "ff": 884,
      "Ġdel": 885,
      "Ġlooking": 886,
      "Ġwait": 887,
      "Ġbro": 888,
      "ting": 889,
      "ught": 890,
      "Ġthink": 891,
      "Ġtow": 892,
      "ac": 893,
      "Ġtruck": 894,
      "Ġafter": 895,
      "Ġstopped": 896,
      "Ġeyes": 897,
      "Ġlisten": 898,
      "Ġown": 899,
      "Ġwalk": 900,
      "ember": 901,
      "ĠSuddenly": 902,
      "Ġgreat": 903,
      "Ġbre": 904,
      "Ġimport": 905,
      "Ġvo": 906,
      "Suddenly": 907,
      "Ġforest": 908,
      "Ġwonder": 909,
      "ized": 910,
      "Ġenjoy": 911,
      "Ġflowers": 912,
      "Ġever": 913,
      "Ġhands": 914,
      "bbit": 915,
      "Ġnoticed": 916,
      "Ġhead": 917,
      "Ġblue": 918,
      "Ġapp": 919,
      "Ġimportant": 920,
      "Ġshout": 921,
      "Ġnear": 922,
      "Ġquick": 923,
      "Ġremember": 924,
      "Ġdis": 925,
      "Ġreplied": 926,
      "Ġde": 927,
      "irst": 928,
      "Ġfish": 929,
      "able": 930,
      "She": 931,
      "Ġac": 932,
      "Ġsound": 933,
      "Ġshowed": 934,
      "maz": 935,
      "llow": 936,
      "Ġrain": 937,
      "Ġamaz": 938,
      "Ġwatch": 939,
      "Ġrabbit": 940,
      "Ġslide": 941,
      "Ġwork": 942,
      "Ġus": 943,
      "lease": 944,
      "Ġokay": 945,
      "gan": 946,
      "Ġtal": 947,
      "bye": 948,
      "fere": 949,
      "ĠSpot": 950,
      "Ġdiffere": 951,
      "Ġright": 952,
      "bbed": 953,
      "Ġwatched": 954,
      "day": 955,
      "Ġask": 956,
      "Ġmean": 957,
      "Ġbright": 958,
      "Ġeveryone": 959,
      "Ġye": 960,
      "So": 961,
      "Ġstrong": 962,
      "Ġsqu": 963,
      "Ġmor": 964,
      "Ġfollow": 965,
      "Ġuse": 966,
      "Ġbeen": 967,
      "Ġtra": 968,
      "Ġwhere": 969,
      "Ġstick": 970,
      "ered": 971,
      "Ġquickly": 972,
      "We": 973,
      "ath": 974,
      "Ġvoice": 975,
      "ĠN": 976,
      "ĠBob": 977,
      "Ġbecame": 978,
      "ĠSue": 979,
      "Ġyell": 980,
      "ĠMommy": 981,
      "Ġour": 982,
      "Ġsure": 983,
      "Ġdifferent": 984,
      "Ġboat": 985,
      "ng": 986,
      "Ġchild": 987,
      "Ġcuri": 988,
      "Ġstore": 989,
      "Ġplace": 990,
      "Ġhigh": 991,
      "Ġface": 992,
      "Ġgoodbye": 993,
      "unny": 994,
      "ange": 995,
      "ĠR": 996,
      "Anna": 997,
      "aught": 998,
      "Ġwarm": 999,
      "Ġcloser": 1000,
      "Ġhop": 1001,
      "Ġam": 1002,
      "Ġdress": 1003,
      "Ġcr": 1004,
      "Look": 1005,
      "Ġfav": 1006,
      "Ġmag": 1007,
      "Ġcook": 1008,
      "Ġforg": 1009,
      "Ġcurious": 1010,
      "Jo": 1011,
      "Ġbel": 1012,
      "Ġdoes": 1013,
      "ass": 1014,
      "ndma": 1015,
      "Sara": 1016,
      "ount": 1017,
      "co": 1018,
      "Ġtell": 1019,
      "leep": 1020,
      "Ġthree": 1021,
      "Ġnight": 1022,
      "more": 1023,
      "Ġanymore": 1024,
      "ila": 1025,
      "Ġbutter": 1026,
      "Her": 1027,
      "Ġopen": 1028,
      "Ġcake": 1029,
      "ired": 1030,
      "Ġfirst": 1031,
      "itc": 1032,
      "Ġhere": 1033,
      "imes": 1034,
      "Ġbus": 1035,
      "iss": 1036,
      "ached": 1037,
      "Ġblock": 1038,
      "Ġz": 1039,
      "Ġpull": 1040,
      "Ġpain": 1041,
      "orn": 1042,
      "ĠTh": 1043,
      "Ġpu": 1044,
      "Ġsweet": 1045,
      "Ġfell": 1046,
      "Can": 1047,
      "Ġmon": 1048,
      "Ġkid": 1049,
      "ĠJohn": 1050,
      "isy": 1051,
      "Ġcont": 1052,
      "Ġgrabbed": 1053,
      "Ġlea": 1054,
      "Ġba": 1055,
      "Ġonly": 1056,
      "Ġhelped": 1057,
      "Ġbirds": 1058,
      "Ġjumped": 1059,
      "Ġru": 1060,
      "Ġsand": 1061,
      "Ġglad": 1062,
      "itchen": 1063,
      "Ġkitchen": 1064,
      "Ġbit": 1065,
      "Ġper": 1066,
      "'re": 1067,
      "ĠSarah": 1068,
      "After": 1069,
      "Ġfire": 1070,
      "Ġflo": 1071,
      "Ġbunny": 1072,
      "Ġstop": 1073,
      "Ġsing": 1074,
      "Ġhappened": 1075,
      "Ġgrass": 1076,
      "Ġstory": 1077,
      "Ġrealized": 1078,
      "Ġsees": 1079,
      "ĠLet": 1080,
      "nts": 1081,
      "Ġtri": 1082,
      "Ġdr": 1083,
      "ppy": 1084,
      "Ġyummy": 1085,
      "air": 1086,
      "Ġfavor": 1087,
      "Ġshouted": 1088,
      "Ġbrother": 1089,
      "Ġbeh": 1090,
      "Ġfavorite": 1091,
      "ĠJane": 1092,
      "Ġreached": 1093,
      "Ġlady": 1094,
      "Ġprin": 1095,
      "Ġhaving": 1096,
      "ĠAs": 1097,
      "Ġate": 1098,
      "Ġmum": 1099,
      "Ġrest": 1100,
      "Ġdraw": 1101,
      "ĠDo": 1102,
      "Ġgame": 1103,
      "Ġthrough": 1104,
      "Ġcre": 1105,
      "Ġmess": 1106,
      "zy": 1107,
      "Ġsoft": 1108,
      "ĠEveryone": 1109,
      "ins": 1110,
      "Ġunderst": 1111,
      "Ġpare": 1112,
      "Mommy": 1113,
      "Ġreally": 1114,
      "Ġless": 1115,
      "Ġhat": 1116,
      "ather": 1117,
      "Ġthing": 1118,
      "where": 1119,
      "Ġready": 1120,
      "Ġbegan": 1121,
      "Ġbutterf": 1122,
      "Ġworld": 1123,
      "Ġhimself": 1124,
      "ater": 1125,
      "ken": 1126,
      "ĠCan": 1127,
      "ĠJoe": 1128,
      "Ġmagic": 1129,
      "fully": 1130,
      "Ġpretend": 1131,
      "Ġdone": 1132,
      "Ġcut": 1133,
      "Ġmaking": 1134,
      "ĠThat": 1135,
      "Ġ-": 1136,
      "Ġpap": 1137,
      "Ġfix": 1138,
      "Ġcoming": 1139,
      "Ġlooks": 1140,
      "akes": 1141,
      "Ġprom": 1142,
      "Ġworry": 1143,
      "Ġtired": 1144,
      "Ġduck": 1145,
      "Ġpond": 1146,
      "Ġfro": 1147,
      "Ġmouse": 1148,
      "Ġkids": 1149,
      "Ġwhy": 1150,
      "Ġwaved": 1151,
      "Ġpart": 1152,
      "ster": 1153,
      "Ġflower": 1154,
      "eddy": 1155,
      "Ġdelic": 1156,
      "Ġste": 1157,
      "olly": 1158,
      "\".": 1159,
      "Ġcatch": 1160,
      "Ġfill": 1161,
      "Ġname": 1162,
      "Timmy": 1163,
      "aisy": 1164,
      "ign": 1165,
      "Wow": 1166,
      "rel": 1167,
      "As": 1168,
      "Ġused": 1169,
      "Ġcars": 1170,
      "Ġfunny": 1171,
      "Ġtast": 1172,
      "ient": 1173,
      "bo": 1174,
      "Ġtop": 1175,
      "Ġseen": 1176,
      "Ġtouch": 1177,
      "Ġhair": 1178,
      "sh": 1179,
      "uff": 1180,
      "iver": 1181,
      "Ġparents": 1182,
      "Ġhopped": 1183,
      "Ġcool": 1184,
      "Ġanother": 1185,
      "oney": 1186,
      "Ġfarm": 1187,
      "John": 1188,
      "Ġdoing": 1189,
      "Ġcried": 1190,
      "hy": 1191,
      "Ġhold": 1192,
      "Ġsurprise": 1193,
      "Ġblocks": 1194,
      "Ġpus": 1195,
      "Ġgreen": 1196,
      "Ġlight": 1197,
      "Don": 1198,
      "Ġdin": 1199,
      "ation": 1200,
      "Ġread": 1201,
      "Ġwood": 1202,
      "Ġthank": 1203,
      "Ġlesson": 1204,
      "Ġdri": 1205,
      "Ġworked": 1206,
      "Ġfull": 1207,
      "ued": 1208,
      "Ġtrees": 1209,
      "Ġcra": 1210,
      "ards": 1211,
      "Ġrunning": 1212,
      "Ġfloor": 1213,
      "Ġgi": 1214,
      "Ġwindow": 1215,
      "Ġhappily": 1216,
      "Ġdark": 1217,
      "Ġdro": 1218,
      "Ġsat": 1219,
      "Ġyears": 1220,
      "Ġspot": 1221,
      "Ġbehind": 1222,
      "Ġsmell": 1223,
      "andy": 1224,
      "Ġswim": 1225,
      "ul": 1226,
      "Ġpaper": 1227,
      "Ġbutterfly": 1228,
      "Ġwished": 1229,
      "Ġyellow": 1230,
      "Ġbow": 1231,
      "Ġbag": 1232,
      "Ġsleep": 1233,
      "Ġsho": 1234,
      "Ġremembered": 1235,
      "aring": 1236,
      "Ġfrog": 1237,
      "ren": 1238,
      "Ġlost": 1239,
      "ely": 1240,
      "ĠIn": 1241,
      "Ġsurprised": 1242,
      "Ġset": 1243,
      "Ġlikes": 1244,
      "Ġcarefully": 1245,
      "Ġneeded": 1246,
      "ike": 1247,
      "Ġcold": 1248,
      "Ġswing": 1249,
      "Sam": 1250,
      "Ġice": 1251,
      "Ġslow": 1252,
      "Ġheld": 1253,
      "Ġbuy": 1254,
      "Ġhole": 1255,
      "ello": 1256,
      "Hello": 1257,
      "rew": 1258,
      "Ġperf": 1259,
      "Ġlaugh": 1260,
      "Ġleft": 1261,
      "Ġmove": 1262,
      "Ġtall": 1263,
      "Ġdream": 1264,
      "cess": 1265,
      "reed": 1266,
      "Ġanything": 1267,
      "ons": 1268,
      "Ġenjoyed": 1269,
      "Ġwrong": 1270,
      "Ġarri": 1271,
      "inally": 1272,
      "uit": 1273,
      "Ġcontin": 1274,
      "Ġair": 1275,
      "Ġfair": 1276,
      "Ġhear": 1277,
      "Ġfinished": 1278,
      "Ġfollowed": 1279,
      "Ġhun": 1280,
      "Ġdelicious": 1281,
      "ross": 1282,
      "Ġel": 1283,
      "Ġbooks": 1284,
      "Ġherself": 1285,
      "Ġhot": 1286,
      "ens": 1287,
      "Ġchildren": 1288,
      "Ġfriendly": 1289,
      "Ġtable": 1290,
      "'ll": 1291,
      "Ġdir": 1292,
      "ĠAfter": 1293,
      "ĠBenny": 1294,
      "Ġsnow": 1295,
      "lf": 1296,
      "Ġhill": 1297,
      "Ġplease": 1298,
      "Ġclose": 1299,
      "Ġunderstand": 1300,
      "Ġarrived": 1301,
      "ined": 1302,
      "Ġhid": 1303,
      "ds": 1304,
      "Ġcast": 1305,
      "Ġtight": 1306,
      "Ġforgot": 1307,
      "Ġbaby": 1308,
      "Ġarm": 1309,
      "Ġbug": 1310,
      "ĠSally": 1311,
      "Ġmight": 1312,
      "Ġgent": 1313,
      "ield": 1314,
      "Ġelse": 1315,
      "Ġwonderful": 1316,
      "sp": 1317,
      "Ġbuild": 1318,
      "ner": 1319,
      "Ġrel": 1320,
      "Ġbroken": 1321,
      "Ġcolors": 1322,
      "Ġable": 1323,
      "Ġgone": 1324,
      "av": 1325,
      "ĠDaisy": 1326,
      "Ġyes": 1327,
      "irrel": 1328,
      "Ġcontinued": 1329,
      "ĠNow": 1330,
      "ich": 1331,
      "Ġsong": 1332,
      "atter": 1333,
      "Ġwall": 1334,
      "Then": 1335,
      "Ġfilled": 1336,
      "Ġagreed": 1337,
      "Ġsomeone": 1338,
      "Ġsquirrel": 1339,
      "Jack": 1340,
      "asure": 1341,
      "Ġcreat": 1342,
      "room": 1343,
      "From": 1344,
      "ĠLila": 1345,
      "ĠEm": 1346,
      "Ġcount": 1347,
      "Ġpink": 1348,
      "ey": 1349,
      "Ġleaves": 1350,
      "ask": 1351,
      "Ġenough": 1352,
      "Ġlion": 1353,
      "ĠTommy": 1354,
      "Ġvis": 1355,
      "ĠThere": 1356,
      "Ġfinally": 1357,
      "ama": 1358,
      "Ġmoment": 1359,
      "Ġwants": 1360,
      "Ġmorning": 1361,
      "ee": 1362,
      "Ġgetting": 1363,
      "Ġcookies": 1364,
      "Ġstayed": 1365,
      "Ġsometimes": 1366,
      "Ġbreak": 1367,
      "OK": 1368,
      "Ġbeach": 1369,
      "ance": 1370,
      "ĠK": 1371,
      "Ġscary": 1372,
      "Ġdinner": 1373,
      "row": 1374,
      "Ġfew": 1375,
      "ced": 1376,
      "Ġdaddy": 1377,
      "Ġpoin": 1378,
      "Ġgrandma": 1379,
      "red": 1380,
      "app": 1381,
      "Ġturned": 1382,
      "Ġhungry": 1383,
      "Ġothers": 1384,
      "Ġfight": 1385,
      "ries": 1386,
      "ash": 1387,
      "Ġtrying": 1388,
      "Ġfall": 1389,
      "Ġju": 1390,
      "gon": 1391,
      "Ġcream": 1392,
      "Ġmother": 1393,
      "His": 1394,
      "Ġperfect": 1395,
      "key": 1396,
      "ĠMaybe": 1397,
      "Ġwet": 1398,
      "Ġamazing": 1399,
      "Ġpi": 1400,
      "Ġmet": 1401,
      "Ġclimbed": 1402,
      "At": 1403,
      "Ġcastle": 1404,
      "ĠWhat": 1405,
      "oup": 1406,
      "ĠBilly": 1407,
      "icy": 1408,
      "Ġcomp": 1409,
      "Ġpictures": 1410,
      "amp": 1411,
      "ĠThis": 1412,
      "Ġmus": 1413,
      "Ġlistened": 1414,
      "This": 1415,
      "oom": 1416,
      "Ġmakes": 1417,
      "Ġtalk": 1418,
      "Ġfur": 1419,
      "Ġballoon": 1420,
      "Ġwhite": 1421,
      "oring": 1422,
      "Ġpuppy": 1423,
      "Ġclot": 1424,
      "man": 1425,
      "Ġalone": 1426,
      "rot": 1427,
      "Ġbrought": 1428,
      "Ġwasn": 1429,
      "Ġclothes": 1430,
      "Ġpol": 1431,
      "ated": 1432,
      "lc": 1433,
      "Ġmar": 1434,
      "Ġtail": 1435,
      "Oh": 1436,
      "Ġjoy": 1437,
      "Ġsear": 1438,
      "ĠGra": 1439,
      "Ġeverything": 1440,
      "Ġspl": 1441,
      "Ġsmiles": 1442,
      "Ġdeep": 1443,
      "ence": 1444,
      "ctor": 1445,
      "ister": 1446,
      "der": 1447,
      "Ġwoods": 1448,
      "Ġpet": 1449,
      "Ġgrow": 1450,
      "Ġstrange": 1451,
      "wl": 1452,
      "Ġspark": 1453,
      "Ġsail": 1454,
      "Ġsit": 1455,
      "Ġride": 1456,
      "Ġwon": 1457,
      "ĠTo": 1458,
      "ott": 1459,
      "Ġplan": 1460,
      "Ġvisit": 1461,
      "uffy": 1462,
      "Ġpie": 1463,
      "Ġpulled": 1464,
      "Ġfox": 1465,
      "eter": 1466,
      "ĠAmy": 1467,
      "Ġtreat": 1468,
      "ucky": 1469,
      "Ġroll": 1470,
      "Ġdanger": 1471,
      "os": 1472,
      "Ġleave": 1473,
      "Ġpat": 1474,
      "Ġteddy": 1475,
      "apped": 1476,
      "orm": 1477,
      "Ġmusic": 1478,
      "Ġamazed": 1479,
      "Ġasks": 1480,
      "Ġhide": 1481,
      "Ġwaited": 1482,
      "Max": 1483,
      "ever": 1484,
      "Ġtowards": 1485,
      "ang": 1486,
      "me": 1487,
      "ĠJen": 1488,
      "ower": 1489,
      "Ġowner": 1490,
      "Ġfield": 1491,
      "Ġflying": 1492,
      "Ġpre": 1493,
      "Ġland": 1494,
      "ained": 1495,
      "zz": 1496,
      "Ġshared": 1497,
      "Ġpromised": 1498,
      "Ġpen": 1499,
      "ugg": 1500,
      "Ġmoral": 1501,
      "Ġcloud": 1502,
      "Ġsilly": 1503,
      "ames": 1504,
      "ape": 1505,
      "med": 1506,
      "Ġjob": 1507,
      "Ġqui": 1508,
      "igg": 1509,
      "Ġside": 1510,
      "Ġgu": 1511,
      "Ġpaint": 1512,
      "Ġpa": 1513,
      "Okay": 1514,
      "Ġparty": 1515,
      "Ġbelie": 1516,
      "Ġem": 1517,
      "cket": 1518,
      "ol": 1519,
      "Ġlake": 1520,
      "thy": 1521,
      "Ġliving": 1522,
      "gs": 1523,
      "Ġsister": 1524,
      "Ġrace": 1525,
      "Ġwear": 1526,
      "Ġruns": 1527,
      "Ġsec": 1528,
      "ope": 1529,
      "ually": 1530,
      "cle": 1531,
      "avy": 1532,
      "Ġmust": 1533,
      "Ġquiet": 1534,
      "Ġmoney": 1535,
      "Ġgrate": 1536,
      "Maybe": 1537,
      "ĠJim": 1538,
      "sw": 1539,
      "Ġworried": 1540,
      "Ġthinks": 1541,
      "ased": 1542,
      "ises": 1543,
      "ling": 1544,
      "up": 1545,
      "Ġdance": 1546,
      "Ġcolorful": 1547,
      "Ġansw": 1548,
      "Ġpot": 1549,
      "Ġbran": 1550,
      "unch": 1551,
      "Ġgrateful": 1552,
      "eces": 1553,
      "Ġbroke": 1554,
      "Ġpieces": 1555,
      "Ġslowly": 1556,
      "Ġbott": 1557,
      "Ġfaster": 1558,
      "Ġsuch": 1559,
      "ix": 1560,
      "Ġwelc": 1561,
      "Ġbigger": 1562,
      "ze": 1563,
      "Ġtrain": 1564,
      "Ġcup": 1565,
      "fort": 1566,
      "Ġgif": 1567,
      "ph": 1568,
      "Ġsnack": 1569,
      "Ġcho": 1570,
      "Ġreach": 1571,
      "ĠAll": 1572,
      "Ġcandy": 1573,
      "Ġblank": 1574,
      "Ġpro": 1575,
      "Ġriver": 1576,
      "Ġplant": 1577,
      "Ġjoin": 1578,
      "less": 1579,
      "Ġmonster": 1580,
      "Ġwin": 1581,
      "Ġmonkey": 1582,
      "Ġele": 1583,
      "ire": 1584,
      "Ġhelping": 1585,
      "ear": 1586,
      "Ġprincess": 1587,
      "Ġtreasure": 1588,
      "Ġblanket": 1589,
      "Ġblack": 1590,
      "Ġmagical": 1591,
      "Ġve": 1592,
      "Sure": 1593,
      "Ġeverywhere": 1594,
      "set": 1595,
      "Ġbike": 1596,
      "Ġdangerous": 1597,
      "Ġbar": 1598,
      "Ġsmart": 1599,
      "Ġfarmer": 1600,
      "Ġnap": 1601,
      "ĠDaddy": 1602,
      "Ġacross": 1603,
      "Ġmost": 1604,
      "Ġscream": 1605,
      "Ġdragon": 1606,
      "Why": 1607,
      "Ġsign": 1608,
      "ident": 1609,
      "Ġacc": 1610,
      "outh": 1611,
      "Ġje": 1612,
      "Ġdisapp": 1613,
      "Hi": 1614,
      "Ġmouth": 1615,
      "ipped": 1616,
      "Ġstre": 1617,
      "Ġheavy": 1618,
      "ming": 1619,
      "Ġpass": 1620,
      "eared": 1621,
      "Ġtower": 1622,
      "Ġwords": 1623,
      "ored": 1624,
      "Ġbite": 1625,
      "Ġcrying": 1626,
      "Ġstepped": 1627,
      "Ġdirty": 1628,
      "de": 1629,
      "Ġwouldn": 1630,
      "Ġthrew": 1631,
      "ere": 1632,
      "Ġdoctor": 1633,
      "ĠFl": 1634,
      "Ġsame": 1635,
      "Ġbowl": 1636,
      "Ġbee": 1637,
      "Ġdolls": 1638,
      "Ġspr": 1639,
      "Ġbath": 1640,
      "Ġheal": 1641,
      "Ġcarrot": 1642,
      "chool": 1643,
      "Ġbelieve": 1644,
      "Ġstuck": 1645,
      "bble": 1646,
      "ĠMolly": 1647,
      "Ġhig": 1648,
      "Ġclosed": 1649,
      "Ġtwins": 1650,
      "Ġcour": 1651,
      "ĠMr": 1652,
      "Ġheart": 1653,
      "Ġfruit": 1654,
      "Ġatt": 1655,
      "Ġmin": 1656,
      "Mia": 1657,
      "Ġschool": 1658,
      "cked": 1659,
      "Ġeating": 1660,
      "Ġtown": 1661,
      "Ġbuck": 1662,
      "pping": 1663,
      "Ġsuddenly": 1664,
      "Ġteac": 1665,
      "Ġmix": 1666,
      "asket": 1667,
      "Ġbrown": 1668,
      "iting": 1669,
      "Ġbasket": 1670,
      "ĠJill": 1671,
      "Ġcourse": 1672,
      "Ġcoll": 1673,
      "Ġchair": 1674,
      "Ġhoped": 1675,
      "Ġclapped": 1676,
      "Ġpack": 1677,
      "Ġcray": 1678,
      "Ġgentle": 1679,
      "Ġfairy": 1680,
      "ier": 1681,
      "ventually": 1682,
      "Ġstand": 1683,
      "Ġfeels": 1684,
      "Ġbutt": 1685,
      "Ġdrove": 1686,
      "br": 1687,
      "Ġwithout": 1688,
      "Ġswings": 1689,
      "ors": 1690,
      "Ġaccident": 1691,
      "orrow": 1692,
      "Ġpushed": 1693,
      "issed": 1694,
      "Ġtoday": 1695,
      "Ġneigh": 1696,
      "Ġwelcome": 1697,
      "Ġpocket": 1698,
      "Ġhigher": 1699,
      "ts": 1700,
      "Ġexplained": 1701,
      "Ġneighb": 1702,
      "Ġhit": 1703,
      "ract": 1704,
      "Ġpers": 1705,
      "Ġgames": 1706,
      "Ġpiece": 1707,
      "ourn": 1708,
      "ord": 1709,
      "Ġlonger": 1710,
      "Ġyard": 1711,
      "Ġteacher": 1712,
      "Ġfree": 1713,
      "Ġwings": 1714,
      "Ġjourn": 1715,
      "Finally": 1716,
      "Ġben": 1717,
      "Ġcheered": 1718,
      "Ġsmo": 1719,
      "ead": 1720,
      "ible": 1721,
      "Ġforget": 1722,
      "Ġdry": 1723,
      "Ġcorn": 1724,
      "Ġalong": 1725,
      "cy": 1726,
      "Ġhappen": 1727,
      "Ġinst": 1728,
      "Ġsang": 1729,
      "itting": 1730,
      "umb": 1731,
      "ment": 1732,
      "Ġlate": 1733,
      "ho": 1734,
      "Ġneck": 1735,
      "phant": 1736,
      "ĠMary": 1737,
      "Ġupset": 1738,
      "Ġyoung": 1739,
      "Ġadventures": 1740,
      "Ġthrow": 1741,
      "vel": 1742,
      "Ġnoises": 1743,
      "Ġapple": 1744,
      "Ġshoes": 1745,
      "Ġsinging": 1746,
      "Ġmiss": 1747,
      "Ġlon": 1748,
      "Ġturns": 1749,
      "Ġsea": 1750,
      "Ġstories": 1751,
      "Ġwell": 1752,
      "Ġelephant": 1753,
      "Ġtrou": 1754,
      "Ġlunch": 1755,
      "Ġdist": 1756,
      "bby": 1757,
      "oun": 1758,
      "Ġkey": 1759,
      "Ġlonely": 1760,
      "Ġtom": 1761,
      "Ġhugs": 1762,
      "ountain": 1763,
      "Ġstreet": 1764,
      "Ġbelong": 1765,
      "Ġowl": 1766,
      "Ġsecret": 1767,
      "Lila": 1768,
      "Ġplac": 1769,
      "ches": 1770,
      "Ġmat": 1771,
      "ek": 1772,
      "Ġwish": 1773,
      "Ġfence": 1774,
      "Ġexploring": 1775,
      "Ġsoup": 1776,
      "Ġwise": 1777,
      "Ġnearby": 1778,
      "Ġyear": 1779,
      "Ġshook": 1780,
      "Ġmoved": 1781,
      "Ġpurp": 1782,
      "Ġbring": 1783,
      "Ġshap": 1784,
      "Ġshop": 1785,
      "yard": 1786,
      "Ġcaught": 1787,
      "Ġmine": 1788,
      "Ġes": 1789,
      "fused": 1790,
      "Ġinv": 1791,
      "Do": 1792,
      "aughty": 1793,
      "ocked": 1794,
      "Ġbackyard": 1795,
      "Ġnaughty": 1796,
      "bow": 1797,
      "Ġjar": 1798,
      "Ġstars": 1799,
      "Ġstar": 1800,
      "Ġwhe": 1801,
      "Ġexp": 1802,
      "ĠEmma": 1803,
      "Ġsu": 1804,
      "Ġrocks": 1805,
      "ward": 1806,
      "ĠGrandma": 1807,
      "Ġseemed": 1808,
      "Ġdropped": 1809,
      "Ġrelie": 1810,
      "Ġswam": 1811,
      "weet": 1812,
      "Ġthough": 1813,
      "Ġph": 1814,
      "adow": 1815,
      "Ġdrink": 1816,
      "ush": 1817,
      "aughter": 1818,
      "llo": 1819,
      "Ġtaking": 1820,
      "Ġdes": 1821,
      "Ġca": 1822,
      "Ġmail": 1823,
      "Ġorange": 1824,
      "Ġpurple": 1825,
      "Ġ3": 1826,
      "Ġwoke": 1827,
      "Ġbucket": 1828,
      "Ġcow": 1829,
      "Ġstu": 1830,
      "ions": 1831,
      "ces": 1832,
      "Ġresp": 1833,
      "col": 1834,
      "And": 1835,
      "Ġpast": 1836,
      "sy": 1837,
      "Ġnest": 1838,
      "Ġbench": 1839,
      "ung": 1840,
      "Ġshapes": 1841,
      "Ġfit": 1842,
      "Ġtiny": 1843,
      "Ġob": 1844,
      "Ġaf": 1845,
      "ity": 1846,
      "Ġsitting": 1847,
      "ĠThank": 1848,
      "Ġsounds": 1849,
      "Ġwondered": 1850,
      "Ġbusy": 1851,
      "Ġmark": 1852,
      "Ġrainbow": 1853,
      "to": 1854,
      "Ġnose": 1855,
      "Ġdaughter": 1856,
      "ese": 1857,
      "ĠO": 1858,
      "ĠFluffy": 1859,
      "read": 1860,
      "fish": 1861,
      "Ġnothing": 1862,
      "Ġkite": 1863,
      "Ġcou": 1864,
      "Ġpig": 1865,
      "og": 1866,
      "Ġmad": 1867,
      "Ġarms": 1868,
      "Ġjuice": 1869,
      "thday": 1870,
      "ining": 1871,
      "Ġholding": 1872,
      "Ġbranch": 1873,
      "Ġcoat": 1874,
      "ĠInside": 1875,
      "Ġcir": 1876,
      "Ġtakes": 1877,
      "cing": 1878,
      "Ġforever": 1879,
      "Ġrelieved": 1880,
      "Ġcarry": 1881,
      "pper": 1882,
      "raid": 1883,
      "Ġcute": 1884,
      "Ġmil": 1885,
      "Ġcomes": 1886,
      "Ġafraid": 1887,
      "Ġdriver": 1888,
      "ose": 1889,
      "vered": 1890,
      "Ġsick": 1891,
      "ail": 1892,
      "idge": 1893,
      "ĠFinally": 1894,
      "Ġboun": 1895,
      "Ġspoon": 1896,
      "Ġgift": 1897,
      "Of": 1898,
      "ittens": 1899,
      "sting": 1900,
      "Ġpeace": 1901,
      "Ġking": 1902,
      "unt": 1903,
      "Ġpatient": 1904,
      "Ġlift": 1905,
      "ours": 1906,
      "Ġletter": 1907,
      "cer": 1908,
      "Ġact": 1909,
      "sc": 1910,
      "Ġpromise": 1911,
      "Ġhuge": 1912,
      "Ġsunny": 1913,
      "Ġround": 1914,
      "Ġtou": 1915,
      "Ġtouched": 1916,
      "let": 1917,
      "Ġintere": 1918,
      "Ġhello": 1919,
      "Ġbirthday": 1920,
      "Ġfing": 1921,
      "Ġdays": 1922,
      "Ġonto": 1923,
      "Ġaccidentally": 1924,
      "Ġexciting": 1925,
      "Ġcheese": 1926,
      "Ġlaughing": 1927,
      "Ġjourney": 1928,
      "board": 1929,
      "Ġband": 1930,
      "Ġgrab": 1931,
      "eth": 1932,
      "Ġret": 1933,
      "ĠCome": 1934,
      "Ġgigg": 1935,
      "Ġcreature": 1936,
      "Ġdisco": 1937,
      "shine": 1938,
      "Ġcozy": 1939,
      "Ġimag": 1940,
      "Ġpower": 1941,
      "gged": 1942,
      "ĠMama": 1943,
      "alm": 1944,
      "arp": 1945,
      "Later": 1946,
      "Ġkick": 1947,
      "Ġswimming": 1948,
      "Ġinc": 1949,
      "gg": 1950,
      "Ġbush": 1951,
      "ped": 1952,
      "Ġlife": 1953,
      "Ġinstead": 1954,
      "Ġshell": 1955,
      "ĠSammy": 1956,
      "Ġbread": 1957,
      "Hey": 1958,
      "Ġmist": 1959,
      "Ġcomfort": 1960,
      "Ġbottle": 1961,
      "Ġwatching": 1962,
      "Ġsuc": 1963,
      "Ġreturn": 1964,
      "Ġwra": 1965,
      "Ġear": 1966,
      "Ġwhist": 1967,
      "ness": 1968,
      "Tommy": 1969,
      "Ġsharp": 1970,
      "Ġmilk": 1971,
      "Ġhope": 1972,
      "ten": 1973,
      "Ġsunshine": 1974,
      "Ġspin": 1975,
      "Ġcave": 1976,
      "Ġeas": 1977,
      "ĠSoon": 1978,
      "Ġcollect": 1979,
      "Ġtalked": 1980,
      "ĠTweet": 1981,
      "pa": 1982,
      "Ġspo": 1983,
      "Ġbought": 1984,
      "Ġsearched": 1985,
      "mer": 1986,
      "Ġlucky": 1987,
      "itch": 1988,
      "Ġhoney": 1989,
      "Ġpudd": 1990,
      "Ġpointed": 1991,
      "Ġgather": 1992,
      "Ġent": 1993,
      "Ġroad": 1994,
      "Ġhor": 1995,
      "Ġfan": 1996,
      "Ġanyone": 1997,
      "Ġsandw": 1998,
      "Ġlater": 1999,
      "ball": 2000,
      "Ġapples": 2001,
      "Ġce": 2002,
      "irt": 2003,
      "Ġsmiling": 2004,
      "itten": 2005,
      "blem": 2006,
      "Ġproblem": 2007,
      "round": 2008,
      "Ġputs": 2009,
      "Bob": 2010,
      "Ġgives": 2011,
      "els": 2012,
      "ize": 2013,
      "Ġmeet": 2014,
      "Lucy": 2015,
      "Ġinteresting": 2016,
      "Ġhealthy": 2017,
      "Ġmach": 2018,
      "Ġtasty": 2019,
      "eb": 2020,
      "oman": 2021,
      "Ġpres": 2022,
      "Ġstorm": 2023,
      "Ġplane": 2024,
      "Ġwoman": 2025,
      "ĠJimmy": 2026,
      "Ġspid": 2027,
      "Ġprot": 2028,
      "Ġwide": 2029,
      "Good": 2030,
      "ove": 2031,
      "Ġeag": 2032,
      "Ġpile": 2033,
      "Ġvill": 2034,
      "erly": 2035,
      "aur": 2036,
      "Ġadm": 2037,
      "ub": 2038,
      "Ġclever": 2039,
      "ont": 2040,
      "Ġkiss": 2041,
      "Ġmatter": 2042,
      "amed": 2043,
      "Ġzoom": 2044,
      "Ġprotect": 2045,
      "Ġloves": 2046,
      "Ġfeather": 2047,
      "Ġtrouble": 2048,
      "Ġpath": 2049,
      "Ġperson": 2050,
      "Ġducks": 2051,
      "Ġcrayons": 2052,
      "Ġshining": 2053,
      "ndpa": 2054,
      "Ġclouds": 2055,
      "ĠWith": 2056,
      "owed": 2057,
      "ĠEll": 2058,
      "Ġpract": 2059,
      "cks": 2060,
      "Ġpop": 2061,
      "Ġsmelled": 2062,
      "Ġpill": 2063,
      "Ġhon": 2064,
      "Ġfront": 2065,
      "Ġmud": 2066,
      "Ġrope": 2067,
      "Ġdanced": 2068,
      "Ġpresent": 2069,
      "Ġap": 2070,
      "Ġsaf": 2071,
      "Ġspotted": 2072,
      "Ġbutton": 2073,
      "Ġminut": 2074,
      "Ġzoo": 2075,
      "Ġval": 2076,
      "Ġorgan": 2077,
      "Ġcheer": 2078,
      "Ġappeared": 2079,
      "Ġquest": 2080,
      "Ġpar": 2081,
      "Ġwhich": 2082,
      "Ġpuzz": 2083,
      "Ġmyster": 2084,
      "Just": 2085,
      "Ġseat": 2086,
      "Come": 2087,
      "Ġscreamed": 2088,
      "Jim": 2089,
      "Ġthin": 2090,
      "Ġasleep": 2091,
      "ert": 2092,
      "Ġrespect": 2093,
      "Ġteach": 2094,
      "ond": 2095,
      "Ġsnake": 2096,
      "Ġwild": 2097,
      "ale": 2098,
      "nn": 2099,
      "epend": 2100,
      "Ġsur": 2101,
      "Ġneighbor": 2102,
      "Molly": 2103,
      "Ġlovely": 2104,
      "Ġhorse": 2105,
      "isa": 2106,
      "Ġgently": 2107,
      "Ġwhole": 2108,
      "Ġsnowman": 2109,
      "oose": 2110,
      "Ġanswer": 2111,
      "Ġgiant": 2112,
      "Ġwearing": 2113,
      "Ġplaces": 2114,
      "Ġsearch": 2115,
      "Mum": 2116,
      "Ġbark": 2117,
      "ular": 2118,
      "Ġtrip": 2119,
      "Ġmed": 2120,
      "Ġshr": 2121,
      "Ġimpress": 2122,
      "Ġsplas": 2123,
      "Every": 2124,
      "een": 2125,
      "Ġdirt": 2126,
      "la": 2127,
      "Ġcorner": 2128,
      "cean": 2129,
      "In": 2130,
      "ometimes": 2131,
      "Ġtasted": 2132,
      "Ġocean": 2133,
      "nic": 2134,
      "Ġlive": 2135,
      "itty": 2136,
      "ĠEmily": 2137,
      "Ġconfused": 2138,
      "Ġmind": 2139,
      "Ġrolled": 2140,
      "Ġgoes": 2141,
      "Ġpicnic": 2142,
      "ato": 2143,
      "Ġslid": 2144,
      "St": 2145,
      "Ġcalm": 2146,
      "ĠMittens": 2147,
      "Ġdi": 2148,
      "Ġsupp": 2149,
      "Ġspent": 2150,
      "Ġash": 2151,
      "Ġdrive": 2152,
      "Ġcard": 2153,
      "ssed": 2154,
      "Ġser": 2155,
      "Ġtries": 2156,
      "Ġforgive": 2157,
      "Ġphone": 2158,
      "Ġrude": 2159,
      "Ġmachine": 2160,
      "Ġoven": 2161,
      "Ġspider": 2162,
      "Ġpour": 2163,
      "Ġteeth": 2164,
      "Ġlast": 2165,
      "Ġpan": 2166,
      "Ġcookie": 2167,
      "Ġdelight": 2168,
      "Ġpretended": 2169,
      "Ġhelpful": 2170,
      "Ġfurry": 2171,
      "izz": 2172,
      "Ġfeet": 2173,
      "ĠGo": 2174,
      "umber": 2175,
      "ĠHow": 2176,
      "Ġlay": 2177,
      "unk": 2178,
      "Ġrec": 2179,
      "Ġworm": 2180,
      "ĠCh": 2181,
      "Ġmountain": 2182,
      "ex": 2183,
      "Ġwave": 2184,
      "Ġlad": 2185,
      "Ġban": 2186,
      "Ġchick": 2187,
      "Ġring": 2188,
      "Ġfaces": 2189,
      "Ġwip": 2190,
      "Ġeventually": 2191,
      "Ġcart": 2192,
      "Ġemb": 2193,
      "Ġshy": 2194,
      "hile": 2195,
      "Ġtalking": 2196,
      "Ġtomorrow": 2197,
      "Ġfold": 2198,
      "Ġchocol": 2199,
      "ones": 2200,
      "Ġtid": 2201,
      "Ġfoot": 2202,
      "Ġsel": 2203,
      "Ġremind": 2204,
      "Ġbuilding": 2205,
      "Ġsal": 2206,
      "Ġrob": 2207,
      "Ġspread": 2208,
      "Ġvillage": 2209,
      "ife": 2210,
      "Ġtun": 2211,
      "Ġbubble": 2212,
      "Ġign": 2213,
      "Ġwore": 2214,
      "arge": 2215,
      "Ġcoin": 2216,
      "Ġ'": 2217,
      "ĠJenny": 2218,
      "Ġblew": 2219,
      "Ġwrite": 2220,
      "Ġcouch": 2221,
      "Ġladder": 2222,
      "Ġsmooth": 2223,
      "Ġtreats": 2224,
      "My": 2225,
      "Ġstret": 2226,
      "Ġchased": 2227,
      "Ġtool": 2228,
      "arra": 2229,
      "Ġpush": 2230,
      "Ġhiding": 2231,
      "Ġembarra": 2232,
      "Ġcoo": 2233,
      "Ġwhenever": 2234,
      "ighed": 2235,
      "Ġknee": 2236,
      "Soon": 2237,
      "lex": 2238,
      "Ġfighting": 2239,
      "Ġant": 2240,
      "Ġstep": 2241,
      "Ġwaiting": 2242,
      "Ġbugs": 2243,
      "Ġneckl": 2244,
      "Ġpool": 2245,
      "ator": 2246,
      "Ġsongs": 2247,
      "Ġfinish": 2248,
      "oph": 2249,
      "Ġcross": 2250,
      "Ġbell": 2251,
      "Ġpuddle": 2252,
      "mo": 2253,
      "Ġfixed": 2254,
      "Ġsol": 2255,
      "als": 2256,
      "Ġstir": 2257,
      "Ġshelf": 2258,
      "Ġrobot": 2259,
      "Ġstra": 2260,
      "Ġchocolate": 2261,
      "Ġselfish": 2262,
      "Ġtaste": 2263,
      "ult": 2264,
      "Ġbanan": 2265,
      "Ġpaw": 2266,
      "Ġstring": 2267,
      "Ġsack": 2268,
      "Ġbarked": 2269,
      "Ġrep": 2270,
      "Ġleaf": 2271,
      "umpy": 2272,
      "Ġcrab": 2273,
      "not": 2274,
      "box": 2275,
      "Ġspe": 2276,
      "Ġmaybe": 2277,
      "Ġple": 2278,
      "Ġlarge": 2279,
      "Ġhum": 2280,
      "ĠJake": 2281,
      "Ġtidy": 2282,
      "ĠJust": 2283,
      "lebr": 2284,
      "Ġnet": 2285,
      "Ġstone": 2286,
      "Ġwash": 2287,
      "Ġcelebr": 2288,
      "Ġcannot": 2289,
      "Mama": 2290,
      "ĠSt": 2291,
      "ĠEverywhere": 2292,
      "Ġgen": 2293,
      "Ġspray": 2294,
      "ungle": 2295,
      "Please": 2296,
      "Ġpeaceful": 2297,
      "Ġcloth": 2298,
      "old": 2299,
      "Ġscar": 2300,
      "Dad": 2301,
      "Ġjungle": 2302,
      "Ġmissed": 2303,
      "ĠSometimes": 2304,
      "ird": 2305,
      "Ġcolour": 2306,
      "iger": 2307,
      "Ġhel": 2308,
      "arm": 2309,
      "ĠLe": 2310,
      "Ġembarrassed": 2311,
      "Ġbat": 2312,
      "Ġdeter": 2313,
      "oin": 2314,
      "Ġlanded": 2315,
      "Ġdecor": 2316,
      "Ġsharing": 2317,
      "Ġhonest": 2318,
      "elly": 2319,
      "Now": 2320,
      "lice": 2321,
      "dge": 2322,
      "Ġnecklace": 2323,
      "Ġforward": 2324,
      "Ġdeterm": 2325,
      "Ġjumping": 2326,
      "airs": 2327,
      "Ġshirt": 2328,
      "Sarah": 2329,
      "ĠPlease": 2330,
      "Ġcarrots": 2331,
      "Ġknocked": 2332,
      "Ġtrust": 2333,
      "Ġmoon": 2334,
      "Ġmeant": 2335,
      "ĠTV": 2336,
      "Ġtightly": 2337,
      "getable": 2338,
      "Ġmeadow": 2339,
      "Ġsticks": 2340,
      "Ġcreative": 2341,
      "Ġvegetable": 2342,
      "Ġbal": 2343,
      "Ġstood": 2344,
      "most": 2345,
      "Ġsuccess": 2346,
      "ying": 2347,
      "aking": 2348,
      "Ġbreath": 2349,
      "ĠTheir": 2350,
      "Ġgener": 2351,
      "Ġdisappoin": 2352,
      "ned": 2353,
      "Ġtea": 2354,
      "Ġwhis": 2355,
      "Ġsour": 2356,
      "Ġemp": 2357,
      "Ġgrew": 2358,
      "Ġplate": 2359,
      "ĠTeddy": 2360,
      "Ġlegs": 2361,
      "Ġalmost": 2362,
      "Ġempty": 2363,
      "orry": 2364,
      "Ġgray": 2365,
      "Ġhears": 2366,
      "ĠDon": 2367,
      "Ġashamed": 2368,
      "dle": 2369,
      "Ġcarried": 2370,
      "ground": 2371,
      "Ġwhistle": 2372,
      "ian": 2373,
      "Ġgas": 2374,
      "ĠOn": 2375,
      "Ġpillow": 2376,
      "den": 2377,
      "Ġunderstood": 2378,
      "Be": 2379,
      "ony": 2380,
      "Ġsplash": 2381,
      "ĠSome": 2382,
      "'d": 2383,
      "ital": 2384,
      "To": 2385,
      "erp": 2386,
      "Ġber": 2387,
      "arl": 2388,
      "ustr": 2389,
      "Ġsheep": 2390,
      "Ġhosp": 2391,
      "Ġlem": 2392,
      "Ġsave": 2393,
      "hin": 2394,
      "Ġyelled": 2395,
      "vous": 2396,
      "Ġhospital": 2397,
      "Ġnut": 2398,
      "Ġsnacks": 2399,
      "Ġjew": 2400,
      "ĠLisa": 2401,
      "Ġhours": 2402,
      "Ġtells": 2403,
      "ork": 2404,
      "ĠWhy": 2405,
      "Ġpolice": 2406,
      "Ġdisappointed": 2407,
      "obby": 2408,
      "Ġwhisp": 2409,
      "Ġsparkly": 2410,
      "Ġkitten": 2411,
      "ĠTogether": 2412,
      "ĠEven": 2413,
      "Where": 2414,
      "ĠAnn": 2415,
      "Ġknowing": 2416,
      "Ġpay": 2417,
      "Ġship": 2418,
      "Ġthese": 2419,
      "Ġhidden": 2420,
      "Ġline": 2421,
      "urse": 2422,
      "Ġfrustr": 2423,
      "Ġgold": 2424,
      "ĠMum": 2425,
      "ets": 2426,
      "ina": 2427,
      "Ġrad": 2428,
      "Ġtest": 2429,
      "Ġgroup": 2430,
      "Ġgenerous": 2431,
      "Ġchew": 2432,
      "Ġtaught": 2433,
      "Ġbored": 2434,
      "Ġreturned": 2435,
      "Ġnods": 2436,
      "Ġmysterious": 2437,
      "Ġstanding": 2438,
      "Ġbedroom": 2439,
      "Ġhur": 2440,
      "Ġplants": 2441,
      "iff": 2442,
      "Ġseed": 2443,
      "Ġminutes": 2444,
      "Ġblow": 2445,
      "Ġpizz": 2446,
      "Ġpri": 2447,
      "Ġwaves": 2448,
      "Ġeasy": 2449,
      "Ġpolite": 2450,
      "Ġglass": 2451,
      "Ġprince": 2452,
      "Ġseek": 2453,
      "Ġpuzzle": 2454,
      "Ġshore": 2455,
      "Ġscarf": 2456,
      "Ġwolf": 2457,
      "Ġsandwich": 2458,
      "Ġpowerful": 2459,
      "usie": 2460,
      "Ġpassed": 2461,
      "Ġner": 2462,
      "Ġsighed": 2463,
      "Ġdrew": 2464,
      "Ġclass": 2465,
      "ĠPeter": 2466,
      "kin": 2467,
      "fl": 2468,
      "Ġdetermined": 2469,
      "Ġsleepy": 2470,
      "Ġthankful": 2471,
      "Ġspicy": 2472,
      "Ġfancy": 2473,
      "Ġnervous": 2474,
      "Ġfrustrated": 2475,
      "Ġmessy": 2476,
      "Ġjelly": 2477,
      "Ġfig": 2478,
      "Jane": 2479,
      "Ġpizza": 2480,
      "Ġfinger": 2481,
      "work": 2482,
      "ĠBe": 2483,
      "Ġav": 2484,
      "Ġspoil": 2485,
      "Stop": 2486,
      "Ġmatch": 2487,
      "Ġreg": 2488,
      "Ġgun": 2489,
      "af": 2490,
      "Ġfear": 2491,
      "Ġcaterp": 2492,
      "Ġcaterpill": 2493,
      "Ġpir": 2494,
      "osaur": 2495,
      "Ġlock": 2496,
      "Ġcloset": 2497,
      "Ġsold": 2498,
      "ano": 2499,
      "aul": 2500,
      "Ġesc": 2501,
      "ella": 2502,
      "Ġtick": 2503,
      "Ġgrumpy": 2504,
      "Ġmot": 2505,
      "Ġpoor": 2506,
      "Ġfeed": 2507,
      "Ġexcite": 2508,
      "oop": 2509,
      "Ġgate": 2510,
      "Ġgathered": 2511,
      "There": 2512,
      "Ġhang": 2513,
      "Ġvan": 2514,
      "Ġcirc": 2515,
      "Ġpin": 2516,
      "Ġbridge": 2517,
      "Ġoften": 2518,
      "ote": 2519,
      "uce": 2520,
      "iddle": 2521,
      "Ġanswered": 2522,
      "Ġwis": 2523,
      "itter": 2524,
      "Ġdinosaur": 2525,
      "sist": 2526,
      "issors": 2527,
      "Ġkissed": 2528,
      "Ġhopping": 2529,
      "gly": 2530,
      "Ġyourself": 2531,
      "Ġtwirl": 2532,
      "Ġchest": 2533,
      "Ġflag": 2534,
      "ĠZ": 2535,
      "Ġugly": 2536,
      "pack": 2537,
      "era": 2538,
      "ĠBr": 2539,
      "Ġscissors": 2540,
      "Are": 2541,
      "selves": 2542,
      "mb": 2543,
      "Ġdeer": 2544,
      "Ġfil": 2545,
      "Ġcaterpillar": 2546,
      "ensive": 2547,
      "Ġworking": 2548,
      "izzy": 2549,
      "Ġsna": 2550,
      "illed": 2551,
      "ĠBl": 2552,
      "Ġmummy": 2553,
      "Ġburn": 2554,
      "Ġexpensive": 2555,
      "Ġsaved": 2556,
      "Ġlit": 2557,
      "Ġexcitement": 2558,
      "Ġcand": 2559,
      "Ġtears": 2560,
      "Ġcries": 2561,
      "Ġwagged": 2562,
      "ecially": 2563,
      "Ġmiddle": 2564,
      "Sorry": 2565,
      "Ġtaken": 2566,
      "Ġscr": 2567,
      "Ġok": 2568,
      "Ġleg": 2569,
      "Ġtrue": 2570,
      "que": 2571,
      "Ġspend": 2572,
      "Ġones": 2573,
      "Ġpleased": 2574,
      "Ġvase": 2575,
      "Ġcrown": 2576,
      "Ġasking": 2577,
      "pecially": 2578,
      "Ġdrop": 2579,
      "Ġespecially": 2580,
      "Ġboring": 2581,
      "Ġvegetables": 2582,
      "Ġboss": 2583,
      "ual": 2584,
      "ĠRex": 2585,
      "body": 2586,
      "ugar": 2587,
      "Ġgiggled": 2588,
      "Ġtie": 2589,
      "ete": 2590,
      "ser": 2591,
      "oof": 2592,
      "Sp": 2593,
      "Ġeld": 2594,
      "Ġbrush": 2595,
      "ates": 2596,
      "Jimmy": 2597,
      "Ġcage": 2598,
      "Ġrocket": 2599,
      "Ġpacked": 2600,
      "Ġcomfortable": 2601,
      "Ġdancing": 2602,
      "ĠJohnny": 2603,
      "Ġmir": 2604,
      "Ġtent": 2605,
      "Ġmistake": 2606,
      "Ġcap": 2607,
      "light": 2608,
      "Ġclown": 2609,
      "Who": 2610,
      "Ġstuff": 2611,
      "Ġmedic": 2612,
      "Ġpicks": 2613,
      "Ġwander": 2614,
      "Ġnumber": 2615,
      "Ġsugar": 2616,
      "ushed": 2617,
      "Ġknight": 2618,
      "Ġdrum": 2619,
      "Their": 2620,
      "ĠLeo": 2621,
      "iness": 2622,
      "Ġsight": 2623,
      "Ġdest": 2624,
      "ots": 2625,
      "Ġgets": 2626,
      "Ġfake": 2627,
      "Ġbake": 2628,
      "Ġdistance": 2629,
      "?\".": 2630,
      "Ġdrawing": 2631,
      "Ġmedicine": 2632,
      "Ġlying": 2633,
      "ggs": 2634,
      "ror": 2635,
      "Ġsweetie": 2636,
      "Ġfruits": 2637,
      "Ġpress": 2638,
      "Ġeggs": 2639,
      "Ġglue": 2640,
      "aged": 2641,
      "Ġfeathers": 2642,
      "Ġsplashed": 2643,
      "Ġbone": 2644,
      "Ġweek": 2645,
      "Ġflut": 2646,
      "Ġmoving": 2647,
      "Ġlead": 2648,
      "Ġpray": 2649,
      "Ġlazy": 2650,
      "Ġwalks": 2651,
      "Ġbecome": 2652,
      "Ġdisappeared": 2653,
      "Ġsmelly": 2654,
      "Ġchange": 2655,
      "Ġtwist": 2656,
      "yal": 2657,
      "Ġlemon": 2658,
      "Ġfis": 2659,
      "Ġmov": 2660,
      "Ġelderly": 2661,
      "Ġcri": 2662,
      "Ġlose": 2663,
      "ha": 2664,
      "ory": 2665,
      "Ġcrawl": 2666,
      "Ġplayground": 2667,
      "Ġdogs": 2668,
      "Ġweak": 2669,
      "Sally": 2670,
      "Ġincred": 2671,
      "Ġcalling": 2672,
      "Ġbody": 2673,
      "Ġbathroom": 2674,
      "Ġlicked": 2675,
      "Ġclap": 2676,
      "ĠIf": 2677,
      "Billy": 2678,
      "Ġyog": 2679,
      "Ġgar": 2680,
      "ĠOK": 2681,
      "Ġexam": 2682,
      "Ġcrack": 2683,
      "Ġroar": 2684,
      "uggest": 2685,
      "Me": 2686,
      "Ġsuggest": 2687,
      "Joe": 2688,
      "Ġhorn": 2689,
      "Ġmoms": 2690,
      "Ġquestions": 2691,
      "Ġmirror": 2692,
      "Ġadd": 2693,
      "Ġnoisy": 2694,
      "enny": 2695,
      "Ġfather": 2696,
      "Ġwrote": 2697,
      "Gra": 2698,
      "Ġloyal": 2699,
      "Ġfluffy": 2700,
      "ĠAt": 2701,
      "Ġeager": 2702,
      "ating": 2703,
      "eez": 2704,
      "Ġext": 2705,
      "ĠBlue": 2706,
      "Ġfamous": 2707,
      "Ġmic": 2708,
      "Ġord": 2709,
      "Ġclear": 2710,
      "Ġyours": 2711,
      "land": 2712,
      "Ġcheck": 2713,
      "Ġskipped": 2714,
      "Ġrid": 2715,
      "Ġglow": 2716,
      "Ġdrank": 2717,
      "Ġwheel": 2718,
      "Ġed": 2719,
      "Ġsell": 2720,
      "Ġdish": 2721,
      "Ġmarch": 2722,
      "ti": 2723,
      "Ġincredible": 2724,
      "Ġrare": 2725,
      "Ġlamp": 2726,
      "Ġmap": 2727,
      "ination": 2728,
      "Ġcontent": 2729,
      "Ġqueen": 2730,
      "Ġjuicy": 2731,
      "Ġrich": 2732,
      "Ġstones": 2733,
      "Ġcovered": 2734,
      "Ġsailed": 2735,
      "elp": 2736,
      "Ġind": 2737,
      "hip": 2738,
      "Ġfigure": 2739,
      "ĠEnd": 2740,
      "Amy": 2741,
      "imp": 2742,
      "Ġrelax": 2743,
      "Ġtape": 2744,
      "Ġborrow": 2745,
      "Ġteam": 2746,
      "Ġruined": 2747,
      "Ġsoap": 2748,
      "Ġnod": 2749,
      "Ġdig": 2750,
      "illi": 2751,
      "Ġshoot": 2752,
      "Ġmeasure": 2753,
      "Ġcleaned": 2754,
      "Ġballs": 2755,
      "ately": 2756,
      "Ġstraw": 2757,
      "umbled": 2758,
      "fic": 2759,
      "Ġdiscovered": 2760,
      "Ġaw": 2761,
      "Ġshows": 2762,
      "Ġrealised": 2763,
      "Ġadventur": 2764,
      "cept": 2765,
      "Ġcoins": 2766,
      "Ġneeds": 2767,
      "Ġextra": 2768,
      "Ġbranches": 2769,
      "asing": 2770,
      "Ġswan": 2771,
      "Ġchicken": 2772,
      "Ġtag": 2773,
      "Ġoffered": 2774,
      "Ġdiffic": 2775,
      "Ġmod": 2776,
      "Ġtiger": 2777,
      "Well": 2778,
      "Ġdecide": 2779,
      "Ġadventurous": 2780,
      "Ġbalance": 2781,
      "Ġjoke": 2782,
      "Ġbarn": 2783,
      "Ġham": 2784,
      "Ġtowel": 2785,
      "ique": 2786,
      "ĠNo": 2787,
      "keep": 2788,
      "ĠLittle": 2789,
      "Ġturt": 2790,
      "Ġboys": 2791,
      "Ġmotor": 2792,
      "Ġdifficult": 2793,
      "Ġthick": 2794,
      "Ġboard": 2795,
      "Jill": 2796,
      "alous": 2797,
      "Ġfine": 2798,
      "rag": 2799,
      "Ġbubbles": 2800,
      "Ġorganized": 2801,
      "Ġjealous": 2802,
      "Help": 2803,
      "Ġhappening": 2804,
      "Ġeye": 2805,
      "Ġtoug": 2806,
      "imed": 2807,
      "Ġweird": 2808,
      "Ġdolp": 2809,
      "Ġunique": 2810,
      "Ġfrown": 2811,
      "Ġlifted": 2812,
      "Ġtrack": 2813,
      "Ġbottom": 2814,
      "Ġcolourful": 2815,
      "Mummy": 2816,
      "Ġcover": 2817,
      "port": 2818,
      "Ġisland": 2819,
      "Ġknife": 2820,
      "ĠBrown": 2821,
      "Ġfright": 2822,
      "Sue": 2823,
      "Ġcraw": 2824,
      "Ġhose": 2825,
      "ĠKitty": 2826,
      "cil": 2827,
      "ject": 2828,
      "Spot": 2829,
      "Ġcrawled": 2830,
      "ĠSusie": 2831,
      "lla": 2832,
      "Ġmanaged": 2833,
      "Ġpencil": 2834,
      "Ġgarage": 2835,
      "Ġcircle": 2836,
      "Ġperform": 2837,
      "olog": 2838,
      "Ġarg": 2839,
      "Ġcost": 2840,
      "Ġhunt": 2841,
      "Ġonce": 2842,
      "Ġbald": 2843,
      "Ġlearning": 2844,
      "Ġjewel": 2845,
      "Ġkindness": 2846,
      "!\".": 2847,
      "ĠBobby": 2848,
      "Ġsaying": 2849,
      "lies": 2850,
      "Ġwand": 2851,
      "ĠMark": 2852,
      "Ġtough": 2853,
      "und": 2854,
      "Ġword": 2855,
      "Ġter": 2856,
      "Ġchase": 2857,
      "Ġbatter": 2858,
      "Ġberries": 2859,
      "Ġmighty": 2860,
      "Ġballoons": 2861,
      "Ġapolog": 2862,
      "ready": 2863,
      "ured": 2864,
      "ages": 2865,
      "Ġhurts": 2866,
      "Ġguit": 2867,
      "keeper": 2868,
      "iv": 2869,
      "Ġshake": 2870,
      "Ġunus": 2871,
      "Ġfavour": 2872,
      "Ġsil": 2873,
      "Ġpointing": 2874,
      "ipper": 2875,
      "Ġang": 2876,
      "Ġalready": 2877,
      "Ġlouder": 2878,
      "alk": 2879,
      "ipp": 2880,
      "Ġdizzy": 2881,
      "Ġbelonged": 2882,
      "Ġadded": 2883,
      "Ġunusual": 2884,
      "Ġenjoying": 2885,
      "Ġbirdie": 2886,
      "Ġnorm": 2887,
      "Ġwhale": 2888,
      "Ġstrawber": 2889,
      "Ġguess": 2890,
      "Ġlibr": 2891,
      "head": 2892,
      "Ġvalu": 2893,
      "Ġcheerful": 2894,
      "uggled": 2895,
      "Ġspun": 2896,
      "How": 2897,
      "Ġfool": 2898,
      "Ġpump": 2899,
      "Ġfavourite": 2900,
      "Ġedge": 2901,
      "rage": 2902,
      "Ġgrace": 2903,
      "Ġfour": 2904,
      "Ġharder": 2905,
      "Ġref": 2906,
      "Ġimpressed": 2907,
      "Ġtrunk": 2908,
      "Ġmarket": 2909,
      "Ġwrapped": 2910,
      "Ġloudly": 2911,
      "Ġgiving": 2912,
      "Ġbanana": 2913,
      "emo": 2914,
      "Ġturtle": 2915,
      "Ġsword": 2916,
      "Ġguitar": 2917,
      "Ġnormal": 2918,
      "Ġhero": 2919,
      "Ġgrand": 2920,
      "Ġrecord": 2921,
      "Ġharm": 2922,
      "Ġbossy": 2923,
      "Ġtrucks": 2924,
      "ilt": 2925,
      "Ġgrown": 2926,
      "illiant": 2927,
      "aw": 2928,
      "anged": 2929,
      "Ġboxes": 2930,
      "Ġsmoke": 2931,
      "Ġescape": 2932,
      "ĠEllie": 2933,
      "ery": 2934,
      "Ġears": 2935,
      "Ġterri": 2936,
      "Ġbrilliant": 2937,
      "Ġproudly": 2938,
      "Ġcab": 2939,
      "fast": 2940,
      "cient": 2941,
      "Ġscare": 2942,
      "ipe": 2943,
      "Ġchoose": 2944,
      "Ġinvited": 2945,
      "ature": 2946,
      "ola": 2947,
      "erry": 2948,
      "Ġagainst": 2949,
      "ym": 2950,
      "Ġdreamed": 2951,
      "Ġhats": 2952,
      "Ġcompet": 2953,
      "Ġjack": 2954,
      "Ġcircles": 2955,
      "Ġskin": 2956,
      "Ġpainting": 2957,
      "Ġbreakfast": 2958,
      "Ġsafely": 2959,
      "Ġgoat": 2960,
      "bborn": 2961,
      "Ġmeans": 2962,
      "Ġmelt": 2963,
      "Ġlaughs": 2964,
      "Ġpil": 2965,
      "Ġstubborn": 2966,
      "Ġfrightened": 2967,
      "Ġcabin": 2968,
      "Here": 2969,
      "Ġaccept": 2970,
      "Ġdepend": 2971,
      "gy": 2972,
      "Ġslipped": 2973,
      "Ġancient": 2974,
      "Ġstudy": 2975,
      "Ġdesign": 2976,
      "Ġhelps": 2977,
      "ĠTweety": 2978,
      "Ġflash": 2979,
      "Ġbrothers": 2980,
      "ĠDan": 2981,
      "Ġvaluable": 2982,
      "Ġpee": 2983,
      "Ġwrap": 2984,
      "ĠFred": 2985,
      "Ġstream": 2986,
      "Ġlog": 2987,
      "Ġclay": 2988,
      "Ġhappiness": 2989,
      "orge": 2990,
      "Ġunl": 2991,
      "edient": 2992,
      "Ġwalls": 2993,
      "Ġwake": 2994,
      "Ġsuccessful": 2995,
      "Ġfridge": 2996,
      "Ġtoast": 2997,
      "Ġbuttons": 2998,
      "laimed": 2999,
      "Ġfier": 3000,
      "Ġfoolish": 3001,
      "Ġcrayon": 3002,
      "Ġrough": 3003,
      "Ġlean": 3004,
      "ouses": 3005,
      "Ġbloom": 3006,
      "ĠPete": 3007,
      "Ġexclaimed": 3008,
      "Ġshape": 3009,
      "Ġfierce": 3010,
      "Ġdelicate": 3011,
      "ĠBobo": 3012,
      "Ġoffice": 3013,
      "Ġsuggested": 3014,
      "ado": 3015,
      "Ġfat": 3016,
      "Ġwagon": 3017,
      "omed": 3018,
      "Ġnosy": 3019,
      "atch": 3020,
      "az": 3021,
      "Ġdreams": 3022,
      "Ġmovie": 3023,
      "Ġnicely": 3024,
      "Ġicy": 3025,
      "Ġobedient": 3026,
      "Ġcudd": 3027,
      "Ġcompetit": 3028,
      "Ġcity": 3029,
      "Ġgrandpa": 3030,
      "Ġmixed": 3031,
      "Ġtomato": 3032,
      "ye": 3033,
      "ĠMy": 3034,
      "Ġshark": 3035,
      "Ġegg": 3036,
      "Ġspace": 3037,
      "Ġhouses": 3038,
      "Ġknows": 3039,
      "Ġfrag": 3040,
      "Ġuseful": 3041,
      "Ġkinds": 3042,
      "Ġdead": 3043,
      "Ġstri": 3044,
      "Ġwiped": 3045,
      "Ġpoured": 3046,
      "ĠToday": 3047,
      "Ġmem": 3048,
      "Ġexcitedly": 3049,
      "Ġnotice": 3050,
      "oppy": 3051,
      "Ġstove": 3052,
      "Ġfalls": 3053,
      "Ġaunt": 3054,
      "Ġthu": 3055,
      "Ġrose": 3056,
      "Ġtools": 3057,
      "Ġlocked": 3058,
      "pes": 3059,
      "Ġsounded": 3060,
      "eorge": 3061,
      "Ġshells": 3062,
      "uth": 3063,
      "Ġcher": 3064,
      "ĠRose": 3065,
      "arry": 3066,
      "wards": 3067,
      "Ġlights": 3068,
      "ext": 3069,
      "Ġenc": 3070,
      "Ġshadow": 3071,
      "Ġexplored": 3072,
      "ention": 3073,
      "Ġson": 3074,
      "Ġtimes": 3075,
      "ache": 3076,
      "Ġcro": 3077,
      "Ġbushes": 3078,
      "Ġwitch": 3079,
      "Ġdough": 3080,
      "Ġfragile": 3081,
      "dom": 3082,
      "Ġlow": 3083,
      "Ġfountain": 3084,
      "Ġweal": 3085,
      "Ġseem": 3086,
      "vice": 3087,
      "Ġresc": 3088,
      "Ġspoiled": 3089,
      "Ġindepend": 3090,
      "apping": 3091,
      "Em": 3092,
      "Ġbags": 3093,
      "Ġthemselves": 3094,
      "Ġstumbled": 3095,
      "kn": 3096,
      "oot": 3097,
      "Ġlab": 3098,
      "ray": 3099,
      "Ġthoughtful": 3100,
      "Ġshowing": 3101,
      "Ġrode": 3102,
      "Ġjog": 3103,
      "Ġdependable": 3104,
      "Ġeng": 3105,
      "Ġraced": 3106,
      "Ġstretch": 3107,
      "Ġabove": 3108,
      "Ġfingers": 3109,
      "inal": 3110,
      "arth": 3111,
      "Ġbuilt": 3112,
      "Ġsmaller": 3113,
      "Ġspinning": 3114,
      "Ġplayful": 3115,
      "Ġclock": 3116,
      "ines": 3117,
      "ormous": 3118,
      "Ġbrightly": 3119,
      "Ġhelm": 3120,
      "Ġreminded": 3121,
      "Ġtwig": 3122,
      "Ġpractice": 3123,
      "Ġkicked": 3124,
      "Ġenormous": 3125,
      "corn": 3126,
      "Ġrat": 3127,
      "Ġprint": 3128,
      "ĠElla": 3129,
      "Ġdelighted": 3130,
      "Ġtummy": 3131,
      "Ġadmired": 3132,
      "Ġorig": 3133,
      "Ġcounted": 3134,
      "Ġtele": 3135,
      "ĠNemo": 3136,
      "Ġparrot": 3137,
      "Ġusing": 3138,
      "Ġswe": 3139,
      "Ġsolve": 3140,
      "Ġbitter": 3141,
      "Ġways": 3142,
      "ĠU": 3143,
      "ĠBu": 3144,
      "Ġshone": 3145,
      "Ġacorn": 3146,
      "Ġindependent": 3147,
      "Ġchanged": 3148,
      "Ġlaw": 3149,
      "Ġjam": 3150,
      "ĠMrs": 3151,
      "Ġroof": 3152,
      "Ġzip": 3153,
      "ither": 3154,
      "ience": 3155,
      "Ġwhispered": 3156,
      "reen": 3157,
      "Ġcop": 3158,
      "Ġsunfl": 3159,
      "Ġchir": 3160,
      "Ġjolly": 3161,
      "known": 3162,
      "Ġcone": 3163,
      "eeze": 3164,
      "Ġcam": 3165,
      "Ġstronger": 3166,
      "Ġsteal": 3167,
      "Ġpainted": 3168,
      "Ġhoop": 3169,
      "Ġloll": 3170,
      "Ġcleaning": 3171,
      "Ġterrible": 3172,
      "Ġoriginal": 3173,
      "Ġsniff": 3174,
      "iable": 3175,
      "Ġbrace": 3176,
      "Ġhammer": 3177,
      "Ġchose": 3178,
      "anut": 3179,
      "Ġhanded": 3180,
      "Ġbees": 3181,
      "ĠBella": 3182,
      "ipop": 3183,
      "ĠYour": 3184,
      "mbre": 3185,
      "Ġmis": 3186,
      "Ġserious": 3187,
      "Ġumbre": 3188,
      "Ġtunn": 3189,
      "Ġmoder": 3190,
      "Ġfre": 3191,
      "ĠMar": 3192,
      "ict": 3193,
      "Ġbeak": 3194,
      "Ġleaving": 3195,
      "Ġlollipop": 3196,
      "Ġhairy": 3197,
      "Ġpopcorn": 3198,
      "Ġfinding": 3199,
      "Ġunknown": 3200,
      "uring": 3201,
      "Ġclum": 3202,
      "inary": 3203,
      "Ġjoined": 3204,
      "iew": 3205,
      "Ġboats": 3206,
      "Ġsauce": 3207,
      "het": 3208,
      "Ġallowed": 3209,
      "Ġreliable": 3210,
      "Ġdust": 3211,
      "Ġpotato": 3212,
      "robe": 3213,
      "anger": 3214,
      "Ġview": 3215,
      "Ġbean": 3216,
      "Ġpicking": 3217,
      "upid": 3218,
      "Ġyet": 3219,
      "Ġdove": 3220,
      "Ġbounce": 3221,
      "Ġpumpkin": 3222,
      "Ġbump": 3223,
      "Ġcostum": 3224,
      "com": 3225,
      "Ġguard": 3226,
      "Ġforth": 3227,
      "Ġdoesn": 3228,
      "Ġdolphin": 3229,
      "Ġsalad": 3230,
      "Ġadvice": 3231,
      "Ġrubb": 3232,
      "aghet": 3233,
      "aghetti": 3234,
      "See": 3235,
      "Ġtank": 3236,
      "ĠDucky": 3237,
      "Ġmodern": 3238,
      "Ġhay": 3239,
      "Ġgasped": 3240,
      "Ġsink": 3241,
      "Ġpost": 3242,
      "Ġtor": 3243,
      "Ġstamp": 3244,
      "Ġthose": 3245,
      "Ġclumsy": 3246,
      "gu": 3247,
      "Ġcreate": 3248,
      "Ġmetal": 3249,
      "Ġing": 3250,
      "Ġhalf": 3251,
      "amond": 3252,
      "Ġregular": 3253,
      "Ġgem": 3254,
      "Ġbarber": 3255,
      "Ġthinking": 3256,
      "Ġow": 3257,
      "ilty": 3258,
      "Ġsleeping": 3259,
      "Ġguilty": 3260,
      "Ġyarn": 3261,
      "redient": 3262,
      "Ġingredient": 3263,
      "Ġwealthy": 3264,
      "Ġspaghetti": 3265,
      "Ġtelling": 3266,
      "Ġdiamond": 3267,
      "Ġmarble": 3268,
      "Ġmagn": 3269,
      "Ġprep": 3270,
      "Ġrushed": 3271,
      "Ġcheap": 3272,
      "Ġsearching": 3273,
      "isk": 3274,
      "ĠAlice": 3275,
      "ugged": 3276,
      "Ġstairs": 3277,
      "ations": 3278,
      "Ġgoose": 3279,
      "Ġcompass": 3280,
      "Ġstat": 3281,
      "Ġstupid": 3282,
      "Ġflex": 3283,
      "ebra": 3284,
      "Ġengine": 3285,
      "Ġchar": 3286,
      "Ġpeanut": 3287,
      "Ġpirate": 3288,
      "Ġpatch": 3289,
      "Ġdriving": 3290,
      "Ġrub": 3291,
      "Ġarrow": 3292,
      "ĠGrandpa": 3293,
      "ophie": 3294,
      "ĠWhenever": 3295,
      "ĠFr": 3296,
      "Ġthunder": 3297,
      "Ġholds": 3298,
      "Ġmissing": 3299,
      "eezed": 3300,
      "Ġdull": 3301,
      "io": 3302,
      "Ġmask": 3303,
      "ĠSn": 3304,
      "ĠFin": 3305,
      "Ġangel": 3306,
      "Ġpopular": 3307,
      "illa": 3308,
      "Ġjacket": 3309,
      "Ġzebra": 3310,
      "Ġmeal": 3311,
      "Ġgraceful": 3312,
      "Ġcarrying": 3313,
      "Ġcrazy": 3314,
      "Ġdreaming": 3315,
      "Ġshiver": 3316,
      "cod": 3317,
      "Ġwashed": 3318,
      "Ġumbrella": 3319,
      "irsty": 3320,
      "Ġcamera": 3321,
      "Ġknock": 3322,
      "Ġsquare": 3323,
      "time": 3324,
      "Ġbeet": 3325,
      "Ġstage": 3326,
      "Ġlibrary": 3327,
      "Ġcur": 3328,
      "Ġflexible": 3329,
      "Ġdestro": 3330,
      "Ġsparkled": 3331,
      "Ġimpressive": 3332,
      "Ġbull": 3333,
      "Ġcareless": 3334,
      "umbers": 3335,
      "oomy": 3336,
      "Ġfriendship": 3337,
      "Ġimagined": 3338,
      "Ġseeds": 3339,
      "Ġtruth": 3340,
      "Ġtied": 3341,
      "Ġdeliver": 3342,
      "ĠMike": 3343,
      "uper": 3344,
      "Ġpersist": 3345,
      "Ġcomb": 3346,
      "Ġshel": 3347,
      "Mary": 3348,
      "Ġpebble": 3349,
      "Ġpige": 3350,
      "ric": 3351,
      "Ġprize": 3352,
      "Ġingredients": 3353,
      "Ġfresh": 3354,
      "Go": 3355,
      "Ġopens": 3356,
      "ision": 3357,
      "Ġnature": 3358,
      "Ġending": 3359,
      "Ġenth": 3360,
      "Ġcompassion": 3361,
      "Ġhandle": 3362,
      "Ġrubbed": 3363,
      "Ġreward": 3364,
      "Ġpatter": 3365,
      "Ġcrocod": 3366,
      "Ġencou": 3367,
      "Ġsne": 3368,
      "Ġmailbox": 3369,
      "Ġstranger": 3370,
      "ĠWhile": 3371,
      "Ġwing": 3372,
      "Ġenthus": 3373,
      "Ġenvel": 3374,
      "Ġsudden": 3375,
      "Ġspilled": 3376,
      "If": 3377,
      "Ġpenny": 3378,
      "Ġsadly": 3379,
      "Ġdiscover": 3380,
      "Ġload": 3381,
      "arsh": 3382,
      "Ġflashlight": 3383,
      "Ġbutterflies": 3384,
      "ief": 3385,
      "Ġdesk": 3386,
      "Ġreading": 3387,
      "loo": 3388,
      "Ġpattern": 3389,
      "Ġearly": 3390,
      "Ġtem": 3391,
      "Ġthirsty": 3392,
      "Ġwire": 3393,
      "Ġwheels": 3394,
      "fa": 3395,
      "ĠDave": 3396,
      "Ġsuit": 3397,
      "ince": 3398,
      "awn": 3399,
      "Ġbracelet": 3400,
      "Ġshocked": 3401,
      "Ġrece": 3402,
      "ement": 3403,
      "Ġnumbers": 3404,
      "Ġrug": 3405,
      "Ġgum": 3406,
      "comfort": 3407,
      "Ġspring": 3408,
      "ibb": 3409,
      "Ġfork": 3410,
      "Ġorder": 3411,
      "Ġobject": 3412,
      "Ġpeeked": 3413,
      "Ġhumble": 3414,
      "Ġavo": 3415,
      "Ġpant": 3416,
      "Ġenv": 3417,
      "Ġuncomfort": 3418,
      "Ġbadly": 3419,
      "Ġwarned": 3420,
      "Ġuncomfortable": 3421,
      "ĠBear": 3422,
      "Ġanx": 3423,
      "Ġcomput": 3424,
      "bled": 3425,
      "Ġcere": 3426,
      "Ġtorn": 3427,
      "Ġpengu": 3428,
      "Ġsorts": 3429,
      "ellig": 3430,
      "Ġpow": 3431,
      "Ġtravel": 3432,
      "Ġcryst": 3433,
      "While": 3434,
      "Ġsurf": 3435,
      "Ġintellig": 3436,
      "Ġliz": 3437,
      "gest": 3438,
      "Ġcooking": 3439,
      "Ġbent": 3440,
      "Ġcompl": 3441,
      "Ġearth": 3442,
      "Ġahead": 3443,
      "Ġstatue": 3444,
      "ĠMummy": 3445,
      "Ġanxious": 3446,
      "ĠPe": 3447,
      "Ġplaced": 3448,
      "Ġscale": 3449,
      "Ġtowers": 3450,
      "Ġnote": 3451,
      "Ġpale": 3452,
      "Ġspoke": 3453,
      "Yay": 3454,
      "Ġtrap": 3455,
      "iches": 3456,
      "Ġolder": 3457,
      "Ġwindows": 3458,
      "Ġbiggest": 3459,
      "Ġsunflower": 3460,
      "Ġgrowing": 3461,
      "Ġslides": 3462,
      "Ġcomplet": 3463,
      "Ġpup": 3464,
      "Ġnail": 3465,
      "Ġflute": 3466,
      "Ġbeetle": 3467,
      "Ġmel": 3468,
      "Ġcelebrate": 3469,
      "Ġstack": 3470,
      "Ġcounting": 3471,
      "Ġmole": 3472,
      "Ġharmless": 3473,
      "ĠMandy": 3474,
      "Ġtunnel": 3475,
      "Ġscatter": 3476,
      "Ġscoot": 3477,
      "host": 3478,
      "Ġmush": 3479,
      "Ġcupboard": 3480,
      "Ġstops": 3481,
      "Ġer": 3482,
      "ikes": 3483,
      "Ġbeauty": 3484,
      "Ġsuper": 3485,
      "Ġpersistent": 3486,
      "Ġdeaf": 3487,
      "Ġcrane": 3488,
      "Ġshut": 3489,
      "Ġvalue": 3490,
      "ĠBill": 3491,
      "Ġcrocodile": 3492,
      "Ġnurse": 3493,
      "Ġgifted": 3494,
      "Ġrefused": 3495,
      "Ġperm": 3496,
      "Ġyawn": 3497,
      "Ġraven": 3498,
      "Ġcharming": 3499,
      "Ġhung": 3500,
      "Ġtrick": 3501,
      "Ġdestroy": 3502,
      "Ġghost": 3503,
      "Ġordinary": 3504,
      "uddy": 3505,
      "Ġquestion": 3506,
      "Ġcereal": 3507,
      "Ġcartoon": 3508,
      "Ġneat": 3509,
      "Ġflour": 3510,
      "Ġsnuggled": 3511,
      "Ġbase": 3512,
      "Ġpiano": 3513,
      "Ġcurt": 3514,
      "ud": 3515,
      "cream": 3516,
      "Ġchasing": 3517,
      "Ġpretending": 3518,
      "Ġlively": 3519,
      "Ġsandwiches": 3520,
      "Ġsend": 3521,
      "Ġcurtain": 3522,
      "Ġsett": 3523,
      "ctop": 3524,
      "Ġcourage": 3525,
      "ĠKim": 3526,
      "ctopus": 3527,
      "Ġgloomy": 3528,
      "Ow": 3529,
      "ĠToby": 3530,
      "Ġsupport": 3531,
      "Ġcamp": 3532,
      "Ġpony": 3533,
      "Ġuniver": 3534,
      "Ġenvelope": 3535,
      "ices": 3536,
      "Ġsofa": 3537,
      "ĠHere": 3538,
      "ĠLola": 3539,
      "Ġpackage": 3540,
      "used": 3541,
      "Ġnames": 3542,
      "Ġtur": 3543,
      "Ġcomputer": 3544,
      "Ġtriang": 3545,
      "Daisy": 3546,
      "Ġblueber": 3547,
      "Ġlizard": 3548,
      "Ġparade": 3549,
      "Ġattract": 3550,
      "aby": 3551,
      "Ġuncle": 3552,
      "Ġintelligent": 3553,
      "Ġmay": 3554,
      "ĠGive": 3555,
      "Ġvi": 3556,
      "aches": 3557,
      "aid": 3558,
      "Ġjumps": 3559,
      "Ġdrawer": 3560,
      "Ġhunter": 3561,
      "Ġspeed": 3562,
      "Ġoctopus": 3563,
      "ĠLook": 3564,
      "cu": 3565,
      "erable": 3566,
      "Ġalert": 3567,
      "Ġrules": 3568,
      "Ġcreatures": 3569,
      "orant": 3570,
      "Ġstation": 3571,
      "Benny": 3572,
      "Ġmushroom": 3573,
      "ĠEventually": 3574,
      "Ġhelmet": 3575,
      "gust": 3576,
      "Alice": 3577,
      "Ġmiserable": 3578,
      "Ġtwirled": 3579,
      "ubby": 3580,
      "ips": 3581,
      "Ġsoldier": 3582,
      "Ġhurry": 3583,
      "Ġneedle": 3584,
      "ceed": 3585,
      "Ġdisgust": 3586,
      "heart": 3587,
      "Ġturkey": 3588,
      "Ġanywhere": 3589,
      "Ġshaking": 3590,
      "Ġtask": 3591,
      "Ġcrystal": 3592,
      "Ġcollar": 3593,
      "enry": 3594,
      "oe": 3595,
      "Ġbicy": 3596,
      "Ġresist": 3597,
      "Ġdug": 3598,
      "coa": 3599,
      "aff": 3600,
      "stri": 3601,
      "arlie": 3602,
      "Ġcarp": 3603,
      "Re": 3604,
      "Ġpracticed": 3605,
      "Ġbandage": 3606,
      "Ġthief": 3607,
      "iest": 3608,
      "Ġignorant": 3609,
      "Ġener": 3610,
      "illie": 3611,
      "Ġled": 3612,
      "Ġhelpless": 3613,
      "Ġpepper": 3614,
      "cut": 3615,
      "Ġseal": 3616,
      "Ġphot": 3617,
      "ĠWh": 3618,
      "tter": 3619,
      "Ġmill": 3620,
      "Ġbounced": 3621,
      "Ġvide": 3622,
      "Ġradio": 3623,
      "Ġpand": 3624,
      "Ġmuff": 3625,
      "Ġpigeon": 3626,
      "Ġfireman": 3627,
      "Ġjeep": 3628,
      "urb": 3629,
      "Ġnobody": 3630,
      "Ġimpat": 3631,
      "ĠPolly": 3632,
      "Ġcocoa": 3633,
      "Ġjet": 3634,
      "Ġgir": 3635,
      "Ġtrash": 3636,
      "Ġleash": 3637,
      "Ġcompassionate": 3638,
      "Ġtrump": 3639,
      "Ġfu": 3640,
      "Ġcricket": 3641,
      "Ġchubby": 3642,
      "Ġpasta": 3643,
      "Ġshine": 3644,
      "Ġscreen": 3645,
      "Ġsecond": 3646,
      "ĠGeorge": 3647,
      "Ġthread": 3648,
      "Ġrepe": 3649,
      "Ġattractive": 3650,
      "orable": 3651,
      "Ġdisturb": 3652,
      "Ġdecorate": 3653,
      "Ġbeep": 3654,
      "Ġtire": 3655,
      "ummer": 3656,
      "Ġletters": 3657,
      "Ġstirred": 3658,
      "Ġstretched": 3659,
      "Ġtooth": 3660,
      "Ġsucceed": 3661,
      "Ġotter": 3662,
      "Ġwishes": 3663,
      "ĠBrownie": 3664,
      "Ġimpatient": 3665,
      "Ġchance": 3666,
      "Ġbrighter": 3667,
      "Ġcompetitive": 3668,
      "Ġstickers": 3669,
      "Ġanyway": 3670,
      "Ġsteps": 3671,
      "ĠCl": 3672,
      "Ġquar": 3673,
      "Ġtroubled": 3674,
      "arian": 3675,
      "Ġpants": 3676,
      "ccol": 3677,
      "Ġattic": 3678,
      "Ġjug": 3679,
      "ccoli": 3680,
      "stic": 3681,
      "Ġrestless": 3682,
      "Ġfurther": 3683,
      "Ġdisgusting": 3684,
      "noon": 3685,
      "Ġitself": 3686,
      "Ġafternoon": 3687,
      "aurant": 3688,
      "Ġdess": 3689,
      "Ġbet": 3690,
      "Ġmug": 3691,
      "Ġcube": 3692,
      "ĠAl": 3693,
      "ses": 3694,
      "Ġadorable": 3695,
      "Give": 3696,
      "Ġrestaurant": 3697,
      "Ġcarpet": 3698,
      "Ġcase": 3699,
      "Ġcandle": 3700,
      "Ġpressed": 3701,
      "Ġtap": 3702,
      "Ġclub": 3703,
      "Ġshoe": 3704,
      "Ġpun": 3705,
      "Ġdistant": 3706,
      "olin": 3707,
      "Ġfearful": 3708,
      "Ġcooked": 3709,
      "Ġenvious": 3710,
      "Ġrespectful": 3711,
      "llie": 3712,
      "Ġtray": 3713,
      "aked": 3714,
      "Ġostri": 3715,
      "opter": 3716,
      "icopter": 3717,
      "iastic": 3718,
      "Ġallig": 3719,
      "Ġfort": 3720,
      "Ġtrumpet": 3721,
      "Ġenthusiastic": 3722,
      "Ġhipp": 3723,
      "Ġskip": 3724,
      "gn": 3725,
      "Ġwaff": 3726,
      "Ġnuts": 3727,
      "come": 3728,
      "Ġsomewhere": 3729,
      "Ġnowhere": 3730,
      "irit": 3731,
      "Ġfilthy": 3732,
      "Ġgor": 3733,
      "Ġscrew": 3734,
      "night": 3735,
      "Ġhelicopter": 3736,
      "Ġsweetheart": 3737,
      "aroo": 3738,
      "Ġants": 3739,
      "angaroo": 3740,
      "Ġbatht": 3741,
      "ĠAre": 3742,
      "Ġvine": 3743,
      "Ġexper": 3744,
      "Ġbathtub": 3745,
      "Ġribb": 3746,
      "Ġreco": 3747,
      "Little": 3748,
      "Ġsoar": 3749,
      "Ġbroccoli": 3750,
      "ĠWould": 3751,
      "Ġpipe": 3752,
      "Ġstarts": 3753,
      "Ġcards": 3754,
      "gging": 3755,
      "Ġmonkeys": 3756,
      "ps": 3757,
      "Ġhook": 3758,
      "Ġleop": 3759,
      "Ġadmire": 3760,
      "Ġharsh": 3761,
      "Ġpor": 3762,
      "Ġbri": 3763,
      "Ġrepair": 3764,
      "Ġbelt": 3765,
      "Ġgiggle": 3766,
      "Ġkangaroo": 3767,
      "Ġexplain": 3768,
      "Ġlistening": 3769,
      "ĠSh": 3770,
      "Ġpoem": 3771,
      "Ġunpack": 3772,
      "Ġbarking": 3773,
      "Ġshouts": 3774,
      "par": 3775,
      "Ġsent": 3776,
      "Ġbicycle": 3777,
      "Grandma": 3778,
      "imi": 3779,
      "opl": 3780,
      "Ġtemp": 3781,
      "eropl": 3782,
      "stairs": 3783,
      "Ġsandbox": 3784,
      "Ġbackpack": 3785,
      "Ġmeas": 3786,
      "Ġmama": 3787,
      "Ġcountry": 3788,
      "Ġscooter": 3789,
      "Ġhappier": 3790,
      "Ġcows": 3791,
      "Ġmessage": 3792,
      "Ġaeropl": 3793,
      "ĠWhere": 3794,
      "Ġquite": 3795,
      "Ġsepar": 3796,
      "ĠTweetie": 3797,
      "cycle": 3798,
      "gie": 3799,
      "Ġcush": 3800,
      "ĠSm": 3801,
      "Ġspeak": 3802,
      "Ġsummer": 3803,
      "Ġspell": 3804,
      "Ġten": 3805,
      "Ġimpro": 3806,
      "ĠJoey": 3807,
      "iskers": 3808,
      "uct": 3809,
      "Ġforgave": 3810,
      "Ġobser": 3811,
      "hood": 3812,
      "Ġstared": 3813,
      "Ġlid": 3814,
      "Ġfirework": 3815,
      "Ġyogurt": 3816,
      "Ġdessert": 3817,
      "Ġur": 3818,
      "Ġtripped": 3819,
      "Ġsquash": 3820,
      "..": 3821,
      "ĠLee": 3822,
      "Ġspirit": 3823,
      "Ġwheat": 3824,
      "Ġleopard": 3825,
      "Ġgiven": 3826,
      "Ġhedge": 3827,
      "Ġsort": 3828,
      "Ġmodest": 3829,
      "ĠEverything": 3830,
      "Ġcomet": 3831,
      "Ġpaws": 3832,
      "Ġostrich": 3833,
      "Ġgorilla": 3834,
      "Ġmeat": 3835,
      "Ġbreat": 3836,
      "shed": 3837,
      "Ġmelon": 3838,
      "Daddy": 3839,
      "apa": 3840,
      "ipping": 3841,
      "Ġpaid": 3842,
      "Ġrescue": 3843,
      "Ġalligator": 3844,
      "Ġmule": 3845,
      "Ġsplit": 3846,
      "Ġprov": 3847,
      "ĠSophie": 3848,
      "Ġpurse": 3849,
      "Ġshade": 3850,
      "Ġhippo": 3851,
      "Ġsle": 3852,
      "year": 3853,
      "Ġcact": 3854,
      "Ġhuman": 3855,
      "Ġsize": 3856,
      "Everyone": 3857,
      "Ġinse": 3858,
      "Ġviolin": 3859,
      "Ġpilot": 3860,
      "Jenny": 3861,
      "ĠAlex": 3862,
      "Ġstarting": 3863,
      "Ġhall": 3864,
      "Ġjellyfish": 3865,
      "Ġbin": 3866,
      "ĠSnow": 3867,
      "Ġpal": 3868,
      "Ġraft": 3869,
      "Ġrecogn": 3870,
      "Ġholes": 3871,
      "Ġsheet": 3872,
      "Ġcats": 3873,
      "Ġfle": 3874,
      "Ġroared": 3875,
      "ucked": 3876,
      "Bye": 3877,
      "Ġorganize": 3878,
      "Ġlightning": 3879,
      "Ġrice": 3880,
      "Ġgrabs": 3881,
      "Ġswinging": 3882,
      "Ġbur": 3883,
      "bul": 3884,
      "eer": 3885,
      "Ġfinds": 3886,
      "ophone": 3887,
      "ĠPat": 3888,
      "Ġfive": 3889,
      "ci": 3890,
      "Ġpanda": 3891,
      "Ġriding": 3892,
      "Ġpushing": 3893,
      "ĠRed": 3894,
      "Ġtax": 3895,
      "Ġbananas": 3896,
      "Ġtriangle": 3897,
      "Ġhaircut": 3898,
      "Ġbuzz": 3899,
      "Ġbehave": 3900,
      "ĠJerry": 3901,
      "lcano": 3902,
      "Ġoat": 3903,
      "Ġenergy": 3904,
      "Ġcactus": 3905,
      "seum": 3906,
      "Ġknot": 3907,
      "Ġchalk": 3908,
      "ebook": 3909,
      "aled": 3910,
      "Ġended": 3911,
      "Ġnotebook": 3912,
      "Ġbikes": 3913,
      "Ġevening": 3914,
      "Ġrod": 3915,
      "inking": 3916,
      "Ġscold": 3917,
      "Ġsalt": 3918,
      "Ġporch": 3919,
      "iling": 3920,
      "Ġeither": 3921,
      "Ġchain": 3922,
      "Ġpulls": 3923,
      "Ġluck": 3924,
      "Ġmuseum": 3925,
      "Ġped": 3926,
      "Ġlear": 3927,
      "Ġlearnt": 3928,
      "ĠAndy": 3929,
      "Ġbears": 3930,
      "urch": 3931,
      "Ġvolcano": 3932,
      "Ġpalace": 3933,
      "Ġlend": 3934,
      "Ġstrawberry": 3935,
      "Ġwallet": 3936,
      "Ġeras": 3937,
      "Ġfrowned": 3938,
      "Ġjokes": 3939,
      "Ġappre": 3940,
      "Ġsweater": 3941,
      "Ġboots": 3942,
      "Ġavoc": 3943,
      "Ġlaund": 3944,
      "Ġrolling": 3945,
      "Ġappreci": 3946,
      "Ġstrugg": 3947,
      "Ġtrains": 3948,
      "Ġsock": 3949,
      "Ġshopkeeper": 3950,
      "Ġmath": 3951,
      "Ġmild": 3952,
      "Ġlaundry": 3953,
      "Ġbarrel": 3954,
      "Ġsilver": 3955,
      "iron": 3956,
      "Ġputting": 3957,
      "Ġmagnet": 3958,
      "ube": 3959,
      "Ġvisited": 3960,
      "play": 3961,
      "Ġdrawings": 3962,
      "Ġhadn": 3963,
      "Ġtaxi": 3964,
      "Ġreind": 3965,
      "Ġhive": 3966,
      "Ġpapers": 3967,
      "Ġsteak": 3968,
      "Ġmicr": 3969,
      "Ġpole": 3970,
      "ĠTr": 3971,
      "Ġlions": 3972,
      "Ġsticker": 3973,
      "ooped": 3974,
      "ĠBet": 3975,
      "Ġneighbour": 3976,
      "Ġunlock": 3977,
      "icer": 3978,
      "Ġquarrel": 3979,
      "Ġgoal": 3980,
      "Ġjudge": 3981,
      "Ġtricks": 3982,
      "Ġol": 3983,
      "Ġfalling": 3984,
      "Ġsaus": 3985,
      "Ġpenguin": 3986,
      "Ġzoomed": 3987,
      "astic": 3988,
      "ĠBunny": 3989,
      "Ġambul": 3990,
      "Ġink": 3991,
      "Ġsailor": 3992,
      "elery": 3993,
      "Ġshield": 3994,
      "Ġshelter": 3995,
      "cast": 3996,
      "Ġclapping": 3997,
      "Ġpad": 3998,
      "Ġclimbing": 3999,
      "hino": 4000,
      "Ġalive": 4001,
      "Ġrag": 4002,
      "Ġinsist": 4003,
      "Ġairport": 4004,
      "Ġleaned": 4005,
      "Ġapologized": 4006,
      "ĠBuddy": 4007,
      "edy": 4008,
      "Ġsmells": 4009,
      "ffe": 4010,
      "Ġmicrophone": 4011,
      "Ġtube": 4012,
      "Ġmarched": 4013,
      "ffee": 4014,
      "Ġdisplay": 4015,
      "Ġshakes": 4016,
      "Ġavail": 4017,
      "Ġsoftly": 4018,
      "Ġreindeer": 4019,
      "Ġsandcast": 4020,
      "ĠWhiskers": 4021,
      "Ġgro": 4022,
      "Ġambulance": 4023,
      "Ġfilm": 4024,
      "Ġcolours": 4025,
      "happy": 4026,
      "aggie": 4027,
      "Ġdive": 4028,
      "anic": 4029,
      "Ġoy": 4030,
      "Ġdishes": 4031,
      "Ġsprink": 4032,
      "Ġchecked": 4033,
      "Ġbelongs": 4034,
      "Ġrubber": 4035,
      "ense": 4036,
      "Ġcostume": 4037,
      "sely": 4038,
      "Ha": 4039,
      "Ġfields": 4040,
      "Ġaeroplane": 4041,
      "chanic": 4042,
      "Ġshrimp": 4043,
      "Ġshovel": 4044,
      "Ġskill": 4045,
      "ges": 4046,
      "Ġwool": 4047,
      "Ġrhino": 4048,
      "Ġavailable": 4049,
      "Ġyach": 4050,
      "Ġpushes": 4051,
      "Ġsoil": 4052,
      "Ġcelery": 4053,
      "Ġincl": 4054,
      "Ġmechanic": 4055,
      "ĠPaul": 4056,
      "ron": 4057,
      "ophy": 4058,
      "ĠSmith": 4059,
      "Ġeraser": 4060,
      "Ġpeek": 4061,
      "Ġshouldn": 4062,
      "Ġhoping": 4063,
      "Ġmedal": 4064,
      "nam": 4065,
      "Ġelev": 4066,
      "Ġart": 4067,
      "Ġplanet": 4068,
      "nger": 4069,
      "ĠPapa": 4070,
      "Ġbasketball": 4071,
      "Ġpolish": 4072,
      "Ġstom": 4073,
      "Ġgrapes": 4074,
      "Ġkitty": 4075,
      "Ġtrophy": 4076,
      "Ġperfectly": 4077,
      "Ġraining": 4078,
      "Ġbul": 4079,
      "Ġimagine": 4080,
      "Ġinsect": 4081,
      "Ġfeelings": 4082,
      "ait": 4083,
      "reeze": 4084,
      "Ġmarry": 4085,
      "Ġwinter": 4086,
      "Ġfisher": 4087,
      "Ġunhappy": 4088,
      "Ġshort": 4089,
      "Ġrever": 4090,
      "Ġcomplete": 4091,
      "Ġplayer": 4092,
      "Ġdiary": 4093,
      "Ġclosely": 4094
    },
    "merges": [
      "h e",
      "Ġ t",
      "Ġ a",
      "Ġ s",
      "Ġ w",
      "n d",
      "Ġt he",
      "e d",
      "Ġa nd",
      "Ġt o",
      "Ġ b",
      "i n",
      "Ġ h",
      "Ġw a",
      "r e",
      "o u",
      "Ġ f",
      "i t",
      "Ġ l",
      "Ġ c",
      "Ġ d",
      "e r",
      "Ġ he",
      "Ġ m",
      "Ġ p",
      "Ġwa s",
      "o m",
      "Ġ T",
      "Ġ o",
      "a y",
      "a r",
      "i s",
      "in g",
      "i l",
      "Ġ g",
      "i d",
      "a t",
      "e n",
      "Ġ n",
      "Ġs a",
      "Ġh a",
      "Ġ S",
      "ĠT he",
      "a n",
      "i m",
      "o r",
      "o n",
      "Ġ it",
      "Ġt h",
      "l l",
      "l e",
      "Ġ H",
      "Ġhe r",
      "e t",
      "o t",
      "i r",
      "ĠS he",
      "e s",
      "ĠH e",
      "Ġ in",
      "v er",
      "u t",
      "o w",
      "c k",
      "ĠThe y",
      "Ġ e",
      "Ġ u",
      "Ġ \"",
      "l d",
      "Ġ y",
      "o o",
      "Ġsa id",
      "il y",
      "i g",
      "Ġb e",
      "Ġ r",
      "a m",
      "Ġs t",
      "Ġ I",
      "c e",
      "k e",
      "Ġs he",
      "p p",
      "it h",
      "v e",
      "Ġw ith",
      "L ily",
      "O n",
      "Ġo n",
      "Ġo f",
      "k ed",
      "Ġy ou",
      "r i",
      "Ġh is",
      "Ġs o",
      "Ġp l",
      "n t",
      "a d",
      "ver y",
      "Ġd ay",
      "Ġth at",
      "Ġu p",
      "Ġpl ay",
      "Ġha d",
      "s t",
      "Ġ Lily",
      "Ġthe y",
      "Ġw e",
      "Ġm om",
      "' s",
      "Ġf or",
      "e l",
      "m y",
      "Ġ B",
      "u n",
      "ou ld",
      "T he",
      "Ġl i",
      "c h",
      "en t",
      "Ġha pp",
      "it t",
      "Ġwa nt",
      "Ġs h",
      "ou t",
      "he r",
      "l y",
      "Ġd o",
      "s e",
      "om e",
      "Ġ very",
      "Ġn ot",
      "ou nd",
      "e nd",
      "im e",
      "itt le",
      "a ll",
      "Ġw h",
      "Ġt ime",
      "Ġl ittle",
      "Ġ k",
      "Ġthe re",
      "a l",
      "Ġn e",
      "h t",
      "Ġ M",
      "Ġ re",
      "Ġhapp y",
      "Ġb ig",
      "Ġs m",
      "Ġ Ċ",
      ". \"",
      "Ġb ut",
      "ĠI t",
      "Ġ is",
      "a ck",
      "Ġsa w",
      "Ġa n",
      "ri end",
      "Ġf riend",
      "Ġa s",
      "r y",
      "r a",
      "' t",
      "! \"",
      "On e",
      "id e",
      "a ke",
      "v ed",
      "u g",
      "Ġl oo",
      "t er",
      "On ce",
      "Ġwe re",
      "Ġl o",
      "o re",
      "e c",
      "Ġh im",
      "Ġto o",
      "Ġg o",
      "Ġb o",
      "ĠT im",
      "Ġs e",
      "ir l",
      "Ġup on",
      "Ġwant ed",
      "Ġ j",
      "Ġg irl",
      "ar d",
      "Ġa re",
      "il l",
      "Ġ out",
      "Ġthe m",
      "Ġa t",
      "i nd",
      "u r",
      "f u",
      "w ay",
      "Ġs p",
      "Ġthe ir",
      "Ġc ould",
      "Ġd id",
      "Ġsm il",
      "Ġ A",
      "he n",
      "Ġha ve",
      "a in",
      "ar t",
      "Ġe x",
      "he d",
      "Ġw ent",
      "r om",
      "? \"",
      "Ġa r",
      "i c",
      "Ġc an",
      "l p",
      "Ġn am",
      "Ġ J",
      "fu l",
      "Ġfriend s",
      "oo d",
      "Ġa ll",
      "h ing",
      "Ġhe lp",
      "ig ht",
      "ĠB en",
      "Ġk n",
      "u m",
      "ar k",
      "on e",
      "Ġb ack",
      "Ġf un",
      "Ġc l",
      "Ġs ay",
      "a re",
      "Y ou",
      "ĠT om",
      "Ġn o",
      "Ġl e",
      "Ġnam ed",
      "o p",
      "Ġsmil ed",
      "Ġa l",
      "Ġlo ved",
      "Ġs c",
      "ou g",
      "Ġ One",
      "s ide",
      "el t",
      "Ġas ked",
      "Ġto y",
      "Ġm an",
      "i ck",
      "Ġf elt",
      "Ġf e",
      "ĠTim my",
      "Ġli ke",
      "Ġloo ked",
      "am e",
      "Ġar ound",
      "Ġs ome",
      "Ġse e",
      "Ġm e",
      "om et",
      "Ġb ir",
      "u re",
      "Ġr o",
      "Ġb r",
      "Ġ W",
      "g et",
      "Ġbo y",
      "Ġw ould",
      "i ce",
      "Ġst art",
      "on g",
      "Ġbir d",
      "s s",
      "Ġs omet",
      "Ġf a",
      "d d",
      "ing s",
      "Ġa g",
      "Ġw or",
      ", \"",
      "Ġwh at",
      "ad e",
      "k ing",
      "Ġm ake",
      "i e",
      "get her",
      "ow n",
      "ĠB ut",
      "Ġt re",
      "Ġr an",
      "Ġa way",
      "a g",
      "Ġstart ed",
      "ar ed",
      "Ġ You",
      "i f",
      "ou d",
      "Ġto gether",
      "Ġsay s",
      "Ġm ade",
      "Ġc ar",
      "Ġsomet hing",
      "it ed",
      "Ġp ark",
      "t her",
      "Ġc o",
      "Ġsa d",
      "Ġne w",
      "Ġo ther",
      "Ġex c",
      "Ġp ut",
      "Ġf rom",
      "Ġp r",
      "e ll",
      "Ġl a",
      "Ġ L",
      "Ġm u",
      "b le",
      "Ġag ain",
      "Ġh ug",
      "Ġh ome",
      "Ġw hen",
      "oo k",
      "a ch",
      "Ġg ood",
      "e p",
      "Ġwh o",
      "Ġf ound",
      "es t",
      "ri ed",
      "h at",
      "Ġthe n",
      "Ġf l",
      "Ġd ec",
      "Ġc h",
      "Ġwa l",
      "pp ed",
      "a s",
      "q u",
      "Ġg et",
      "Ġplay ing",
      "oug ht",
      "p l",
      "all y",
      "Ġ E",
      "Ġs w",
      "Ġth ings",
      "ou s",
      "Ġexc ited",
      "Ġg ot",
      "u ck",
      "n y",
      "Ġli ked",
      "r o",
      "id ed",
      "Ġdec ided",
      "Ġc ame",
      "Ġe very",
      "a ve",
      "a x",
      "Ġb l",
      "n a",
      "Ġ D",
      "Ġyou r",
      "ar a",
      "Ġ v",
      "Ġsc ared",
      "u st",
      "ĠM om",
      "Ġd own",
      "Ġon e",
      "ou se",
      "Ġdo g",
      "Ġbe c",
      "Ġf ind",
      "Ġc are",
      "is t",
      "u e",
      "Ġfe el",
      "u dd",
      "Ġth an",
      "Ġa b",
      "Ġd ad",
      "a p",
      "Ġ ke",
      "Ġm y",
      "Ġdid n",
      "ar n",
      "n na",
      "way s",
      "Ġg r",
      "The y",
      "Ġloo k",
      "ou r",
      "Ġmom my",
      "nd er",
      "Ġw ill",
      "u s",
      "Ġal ways",
      "Ġg ra",
      "es s",
      "an t",
      "f e",
      "Ġp o",
      "Ġab out",
      "Ġtoo k",
      "Ġkn e",
      "Ġl ot",
      "b b",
      "Ġtoy s",
      "Ġout side",
      "Ġ F",
      "er s",
      "Ġtre e",
      "is e",
      "it e",
      "Ġth ought",
      "Ġb all",
      "Ġm ore",
      "ec i",
      "en ed",
      "c hed",
      "Ġt a",
      "Ġle arn",
      "Ġo ld",
      "ĠS am",
      "re t",
      "Ġh o",
      "Ġin t",
      "g ed",
      "Ġkn ow",
      "Ġc at",
      "Ġla ug",
      "ĠM ax",
      "Ġkne w",
      "Ġt ake",
      "eci al",
      "udd en",
      "Ġsp ecial",
      "Ġs or",
      "i ve",
      "f ter",
      "udden ly",
      "Ġan y",
      "Ġp e",
      "Ġh ow",
      "i a",
      "Ġt r",
      "m a",
      "Ġsh ow",
      "a u",
      "in k",
      "Ġmu ch",
      "Ġt w",
      "is h",
      "B ut",
      "a nd",
      "Ġr un",
      "v en",
      "Ġsor ry",
      "Ġs l",
      "Ġha nd",
      "Ġh ouse",
      "Ġo p",
      "Ġo r",
      "Ġs k",
      "Ġs un",
      "Ġm o",
      "Ġt ried",
      "Ġcl o",
      "Ġto ld",
      "Ġint o",
      "Ġin side",
      "at e",
      "Ġcould n",
      "Ġ if",
      "d y",
      "Ġ en",
      "Ġwa ter",
      "Ġo ver",
      "an k",
      "Ġpr oud",
      "um p",
      "Ġth is",
      "Ġg ave",
      "Ġ qu",
      "Ġhe ard",
      "Ġne ver",
      "a ce",
      "au se",
      "t y",
      "Ġe at",
      "b y",
      "T om",
      "Ġex pl",
      "Ġplay ed",
      "ĠS ara",
      "Ġro om",
      "Ġe ach",
      "ĠE very",
      "ot her",
      "Ġp ick",
      "Ġp ret",
      "i on",
      "et ter",
      "ĠW e",
      "g e",
      "M om",
      "Ġj ust",
      "Ġg re",
      "' m",
      "Ġbec ause",
      "he re",
      "Ġhug ged",
      "Ġof f",
      "ĠA nna",
      "a k",
      "Ġwa t",
      "Ġc om",
      "ot h",
      "Ġne ed",
      "Ġbo x",
      "il e",
      "Ġst r",
      "Ġn ice",
      "Ġman y",
      "Ġbe ar",
      "u c",
      "Ġsm all",
      "Ġf o",
      "i z",
      "Ġj o",
      "Ġb u",
      "Ġl ong",
      "or t",
      "v ing",
      "im al",
      "Ġan imal",
      "in e",
      "oug h",
      "g ry",
      "Ġt ry",
      "Ġu nt",
      "s el",
      "il d",
      "ur t",
      "Ġunt il",
      "ĠJ ack",
      "Ġlearn ed",
      "s ed",
      "Ġ im",
      "Ġk ind",
      "Ġb etter",
      "Ġfl ow",
      "f t",
      "Ġe nd",
      "Ġlo ve",
      "Ġc all",
      "Ġa d",
      "v ent",
      "ĠJ o",
      "Ġb est",
      "e m",
      "Ġd on",
      "u ll",
      "H e",
      "Y es",
      "Ġs n",
      "ad y",
      "ur p",
      "a ut",
      "Ġc le",
      "re am",
      "ur n",
      "ar s",
      "ĠA nd",
      "ĠM ia",
      "b er",
      "ard en",
      "Ġg arden",
      "v es",
      "Ġe ven",
      "Ġfa st",
      "Ġ C",
      "Ġcare ful",
      "Ġbe aut",
      "ĠS o",
      "ĠH er",
      "ll y",
      "p t",
      "T h",
      "Ġf i",
      "Ġthan ked",
      "Ġsk y",
      "Ġb ra",
      "Ġb y",
      "i es",
      "Ġc he",
      "Ġlaug hed",
      "I t",
      "Ġj ump",
      "sel f",
      "Ġg l",
      "a se",
      "Ġl oud",
      "Ġt e",
      "w n",
      "in y",
      "Ġwa y",
      "le w",
      "Ġbeaut i",
      "Ġlot s",
      "Ġc ome",
      "Ġl ist",
      "Ġbeauti ful",
      "Ġr a",
      "Ġw o",
      "Ġh ard",
      "Ġf am",
      "Ġanimal s",
      "Ġst ill",
      "h n",
      "Ġh urt",
      "Ġu nder",
      "ec t",
      "n ing",
      "Ġst ay",
      "ĠF rom",
      "ĠThe n",
      "c t",
      "Ġl et",
      "ĠH is",
      "Ġb oth",
      "Ġsa fe",
      "Ġc u",
      "oo l",
      "he s",
      "Ġim p",
      "Ġli ved",
      "re e",
      "Ġco l",
      "Ġre m",
      "b e",
      "T im",
      "Ġtw o",
      "Ġb ad",
      "op le",
      "an e",
      "Ġb ook",
      "k ay",
      "uc y",
      "Ġwal ked",
      "a st",
      "o b",
      "o ck",
      "Ġit s",
      "urp r",
      "Ġbra ve",
      "Ġfam ily",
      "Ġsh ould",
      "is hed",
      "Ġf lew",
      "Ġs urpr",
      "ig h",
      "W hen",
      "re ss",
      "Ġpe ople",
      "Ġf in",
      "Ġcall ed",
      "Ġst or",
      "Ġr ed",
      "Ġan gry",
      "i p",
      "Ġso on",
      "Ġf ore",
      "N o",
      "Ġke pt",
      "f ore",
      "l ed",
      "Ġf ly",
      "Ġd an",
      "L et",
      "x t",
      "Ġsh are",
      "is ed",
      "Ġp ic",
      "ĠW hen",
      "Ġgo ing",
      "Ġpret ty",
      "Ġdo or",
      "Ġ P",
      "dd ed",
      "Ġcle an",
      "Ġke ep",
      "Ġro ck",
      "um my",
      "Ġad vent",
      "Ġn ow",
      "Ġd ra",
      "i ed",
      "ar y",
      "Ġc on",
      "il ly",
      "ag e",
      "Ġbe fore",
      "Ġre al",
      "Ġsh iny",
      "Ġno ise",
      "Ġop ened",
      "Ġ ide",
      "Ġw ind",
      "Ġexpl ore",
      "Ġc ry",
      "Ġst o",
      "Ġdo ll",
      "W hat",
      "Ġgr ound",
      "s o",
      "B en",
      "Ġt urn",
      "le s",
      "Ġal so",
      "Ġf ar",
      "Ġide a",
      "T hat",
      "Ġe y",
      "Ġf r",
      "o on",
      "Ġcol or",
      "Ġwa r",
      "Ġfeel ing",
      "Ġpick ed",
      "o y",
      "im b",
      "Ġno dded",
      "Ġne xt",
      "t h",
      "Ġu n",
      "ĠL ucy",
      "Ġwal king",
      "t hing",
      "Ġwh ile",
      "t ure",
      "Ġcl imb",
      "e et",
      "Ġm a",
      "Ġb ed",
      "Ġth r",
      "Ġadvent ure",
      "ĠD ad",
      "u ch",
      "Ġsmil e",
      "k es",
      "Ġha s",
      "ic ed",
      "Th ank",
      "Ġbe ing",
      "g er",
      "i ous",
      "Ġf ood",
      "ĠS p",
      "Ġd if",
      "ay be",
      "j oy",
      "Ġw r",
      "Ġpic ture",
      "Ġre pl",
      "Ġclo s",
      "t ed",
      "Ġ G",
      "Ġg ive",
      "f f",
      "Ġd el",
      "Ġloo king",
      "Ġwa it",
      "Ġbr o",
      "t ing",
      "ug ht",
      "Ġth ink",
      "Ġto w",
      "a c",
      "Ġtr uck",
      "Ġa fter",
      "Ġsto pped",
      "Ġey es",
      "Ġlist en",
      "Ġo wn",
      "Ġwal k",
      "em ber",
      "ĠS uddenly",
      "Ġgre at",
      "Ġb re",
      "Ġimp ort",
      "Ġv o",
      "S uddenly",
      "Ġfore st",
      "Ġwo nder",
      "iz ed",
      "Ġen joy",
      "Ġflow ers",
      "Ġe ver",
      "Ġhand s",
      "bb it",
      "Ġnot iced",
      "Ġhe ad",
      "Ġbl ue",
      "Ġa pp",
      "Ġimport ant",
      "Ġsh out",
      "Ġne ar",
      "Ġqu ick",
      "Ġrem ember",
      "Ġd is",
      "Ġrepl ied",
      "Ġd e",
      "ir st",
      "Ġf ish",
      "a ble",
      "S he",
      "Ġa c",
      "Ġs ound",
      "Ġshow ed",
      "ma z",
      "ll ow",
      "Ġr ain",
      "Ġa maz",
      "Ġwat ch",
      "Ġra bbit",
      "Ġsl ide",
      "Ġwor k",
      "Ġu s",
      "le ase",
      "Ġo kay",
      "g an",
      "Ġt al",
      "by e",
      "fe re",
      "ĠSp ot",
      "Ġdif fere",
      "Ġr ight",
      "bb ed",
      "Ġwat ched",
      "d ay",
      "Ġas k",
      "Ġme an",
      "Ġbr ight",
      "Ġevery one",
      "Ġy e",
      "S o",
      "Ġstr ong",
      "Ġs qu",
      "Ġm or",
      "Ġfo llow",
      "Ġu se",
      "Ġbe en",
      "Ġt ra",
      "Ġw here",
      "Ġst ick",
      "er ed",
      "Ġquick ly",
      "W e",
      "at h",
      "Ġvo ice",
      "Ġ N",
      "ĠB ob",
      "Ġbec ame",
      "ĠS ue",
      "Ġy ell",
      "ĠMom my",
      "Ġ our",
      "Ġs ure",
      "Ġdiffere nt",
      "Ġbo at",
      "n g",
      "Ġch ild",
      "Ġcu ri",
      "Ġst ore",
      "Ġpl ace",
      "Ġh igh",
      "Ġfa ce",
      "Ġgood bye",
      "un ny",
      "an ge",
      "Ġ R",
      "A nna",
      "a ught",
      "Ġwar m",
      "Ġclos er",
      "Ġh op",
      "Ġa m",
      "Ġd ress",
      "Ġc r",
      "L ook",
      "Ġfa v",
      "Ġm ag",
      "Ġc ook",
      "Ġfor g",
      "Ġcuri ous",
      "J o",
      "Ġbe l",
      "Ġdo es",
      "a ss",
      "nd ma",
      "S ara",
      "ou nt",
      "c o",
      "Ġt ell",
      "le ep",
      "Ġth ree",
      "Ġn ight",
      "m ore",
      "Ġany more",
      "il a",
      "Ġbut ter",
      "H er",
      "Ġop en",
      "Ġc ake",
      "ir ed",
      "Ġf irst",
      "it c",
      "Ġhe re",
      "im es",
      "Ġb us",
      "is s",
      "a ched",
      "Ġbl ock",
      "Ġ z",
      "Ġp ull",
      "Ġp ain",
      "or n",
      "ĠT h",
      "Ġp u",
      "Ġsw eet",
      "Ġfe ll",
      "C an",
      "Ġm on",
      "Ġk id",
      "ĠJo hn",
      "is y",
      "Ġcon t",
      "Ġgra bbed",
      "Ġle a",
      "Ġb a",
      "Ġon ly",
      "Ġhelp ed",
      "Ġbird s",
      "Ġjump ed",
      "Ġr u",
      "Ġsa nd",
      "Ġgl ad",
      "itc hen",
      "Ġk itchen",
      "Ġb it",
      "Ġp er",
      "' re",
      "ĠSara h",
      "A fter",
      "Ġfi re",
      "Ġfl o",
      "Ġb unny",
      "Ġst op",
      "Ġs ing",
      "Ġhapp ened",
      "Ġgra ss",
      "Ġstor y",
      "Ġreal ized",
      "Ġse es",
      "ĠL et",
      "nt s",
      "Ġt ri",
      "Ġd r",
      "pp y",
      "Ġy ummy",
      "a ir",
      "Ġfav or",
      "Ġshout ed",
      "Ġbr other",
      "Ġbe h",
      "Ġfavor ite",
      "ĠJ ane",
      "Ġre ached",
      "Ġl ady",
      "Ġpr in",
      "Ġha ving",
      "ĠA s",
      "Ġat e",
      "Ġm um",
      "Ġre st",
      "Ġdra w",
      "ĠD o",
      "Ġg ame",
      "Ġthr ough",
      "Ġc re",
      "Ġm ess",
      "z y",
      "Ġso ft",
      "ĠEvery one",
      "in s",
      "Ġunder st",
      "Ġp are",
      "Mom my",
      "Ġre ally",
      "Ġl ess",
      "Ġh at",
      "at her",
      "Ġth ing",
      "w here",
      "Ġre ady",
      "Ġbe gan",
      "Ġbutter f",
      "Ġwor ld",
      "Ġhim self",
      "at er",
      "k en",
      "ĠC an",
      "ĠJo e",
      "Ġmag ic",
      "fu lly",
      "Ġpret end",
      "Ġd one",
      "Ġc ut",
      "Ġma king",
      "ĠT hat",
      "Ġ -",
      "Ġp ap",
      "Ġfi x",
      "Ġcom ing",
      "Ġlook s",
      "ak es",
      "Ġp rom",
      "Ġwor ry",
      "Ġt ired",
      "Ġd uck",
      "Ġpo nd",
      "Ġf ro",
      "Ġm ouse",
      "Ġkid s",
      "Ġwh y",
      "Ġwa ved",
      "Ġp art",
      "st er",
      "Ġflow er",
      "ed dy",
      "Ġdel ic",
      "Ġst e",
      "o lly",
      "\" .",
      "Ġcat ch",
      "Ġf ill",
      "Ġnam e",
      "Tim my",
      "a isy",
      "ig n",
      "W ow",
      "re l",
      "A s",
      "Ġu sed",
      "Ġcar s",
      "Ġfun ny",
      "Ġta st",
      "i ent",
      "b o",
      "Ġto p",
      "Ġse en",
      "Ġto uch",
      "Ġha ir",
      "s h",
      "u ff",
      "i ver",
      "Ġpare nts",
      "Ġho pped",
      "Ġc ool",
      "Ġan other",
      "one y",
      "Ġfar m",
      "Jo hn",
      "Ġdo ing",
      "Ġc ried",
      "h y",
      "Ġho ld",
      "Ġsurpr ise",
      "Ġblock s",
      "Ġp us",
      "Ġgre en",
      "Ġl ight",
      "D on",
      "Ġd in",
      "at ion",
      "Ġre ad",
      "Ġw ood",
      "Ġthan k",
      "Ġless on",
      "Ġd ri",
      "Ġwor ked",
      "Ġf ull",
      "u ed",
      "Ġtre es",
      "Ġc ra",
      "ard s",
      "Ġrun ning",
      "Ġflo or",
      "Ġg i",
      "Ġwind ow",
      "Ġhapp ily",
      "Ġd ark",
      "Ġd ro",
      "Ġs at",
      "Ġye ars",
      "Ġsp ot",
      "Ġbeh ind",
      "Ġsm ell",
      "and y",
      "Ġsw im",
      "u l",
      "Ġpap er",
      "Ġbutterf ly",
      "Ġw ished",
      "Ġyell ow",
      "Ġb ow",
      "Ġb ag",
      "Ġs leep",
      "Ġsh o",
      "Ġremember ed",
      "ar ing",
      "Ġfro g",
      "re n",
      "Ġlo st",
      "el y",
      "ĠI n",
      "Ġsurpr ised",
      "Ġs et",
      "Ġli kes",
      "Ġcare fully",
      "Ġneed ed",
      "i ke",
      "Ġco ld",
      "Ġsw ing",
      "S am",
      "Ġ ice",
      "Ġsl ow",
      "Ġhe ld",
      "Ġbu y",
      "Ġho le",
      "ell o",
      "H ello",
      "re w",
      "Ġper f",
      "Ġlaug h",
      "Ġle ft",
      "Ġmo ve",
      "Ġt all",
      "Ġd ream",
      "c ess",
      "re ed",
      "Ġany thing",
      "on s",
      "Ġenjoy ed",
      "Ġwr ong",
      "Ġar ri",
      "in ally",
      "u it",
      "Ġcont in",
      "Ġa ir",
      "Ġfa ir",
      "Ġhe ar",
      "Ġfin ished",
      "Ġfollow ed",
      "Ġh un",
      "Ġdelic ious",
      "ro ss",
      "Ġe l",
      "Ġbook s",
      "Ġher self",
      "Ġh ot",
      "en s",
      "Ġchild ren",
      "Ġfriend ly",
      "Ġta ble",
      "' ll",
      "Ġd ir",
      "ĠA fter",
      "ĠBen ny",
      "Ġsn ow",
      "l f",
      "Ġh ill",
      "Ġp lease",
      "Ġclo se",
      "Ġunderst and",
      "Ġarri ved",
      "in ed",
      "Ġh id",
      "d s",
      "Ġc ast",
      "Ġt ight",
      "Ġforg ot",
      "Ġba by",
      "Ġar m",
      "Ġb ug",
      "ĠS ally",
      "Ġm ight",
      "Ġg ent",
      "ie ld",
      "Ġel se",
      "Ġwonder ful",
      "s p",
      "Ġbu ild",
      "n er",
      "Ġre l",
      "Ġbro ken",
      "Ġcolor s",
      "Ġa ble",
      "Ġg one",
      "a v",
      "ĠD aisy",
      "Ġy es",
      "ir rel",
      "Ġcontin ued",
      "ĠN ow",
      "i ch",
      "Ġs ong",
      "at ter",
      "Ġwa ll",
      "The n",
      "Ġfill ed",
      "Ġag reed",
      "Ġsome one",
      "Ġsqu irrel",
      "J ack",
      "as ure",
      "Ġcre at",
      "ro om",
      "F rom",
      "ĠL ila",
      "ĠE m",
      "Ġc ount",
      "Ġp ink",
      "e y",
      "Ġlea ves",
      "as k",
      "Ġen ough",
      "Ġli on",
      "ĠTom my",
      "Ġv is",
      "ĠThe re",
      "Ġfin ally",
      "am a",
      "Ġmom ent",
      "Ġwant s",
      "Ġmor ning",
      "e e",
      "Ġget ting",
      "Ġcook ies",
      "Ġstay ed",
      "Ġsomet imes",
      "Ġbre ak",
      "O K",
      "Ġbe ach",
      "an ce",
      "Ġ K",
      "Ġsc ary",
      "Ġdin ner",
      "r ow",
      "Ġfe w",
      "c ed",
      "Ġdad dy",
      "Ġpo in",
      "Ġgra ndma",
      "r ed",
      "a pp",
      "Ġturn ed",
      "Ġhun gry",
      "Ġother s",
      "Ġf ight",
      "ri es",
      "as h",
      "Ġtry ing",
      "Ġf all",
      "Ġj u",
      "g on",
      "Ġc ream",
      "Ġm other",
      "H is",
      "Ġperf ect",
      "ke y",
      "ĠM aybe",
      "Ġw et",
      "Ġamaz ing",
      "Ġp i",
      "Ġm et",
      "Ġclimb ed",
      "A t",
      "Ġcast le",
      "ĠW hat",
      "ou p",
      "ĠB illy",
      "ic y",
      "Ġcom p",
      "Ġpicture s",
      "am p",
      "ĠTh is",
      "Ġmu s",
      "Ġlist ened",
      "Th is",
      "o om",
      "Ġm akes",
      "Ġtal k",
      "Ġf ur",
      "Ġball oon",
      "Ġwh ite",
      "or ing",
      "Ġpu ppy",
      "Ġcl ot",
      "m an",
      "Ġal one",
      "r ot",
      "Ġbr ought",
      "Ġwas n",
      "Ġclot hes",
      "Ġpo l",
      "at ed",
      "l c",
      "Ġm ar",
      "Ġta il",
      "O h",
      "Ġjo y",
      "Ġse ar",
      "ĠG ra",
      "Ġevery thing",
      "Ġsp l",
      "Ġsmil es",
      "Ġde ep",
      "en ce",
      "ct or",
      "is ter",
      "d er",
      "Ġwood s",
      "Ġp et",
      "Ġgr ow",
      "Ġstr ange",
      "w l",
      "Ġsp ark",
      "Ġsa il",
      "Ġs it",
      "Ġr ide",
      "Ġw on",
      "ĠT o",
      "ot t",
      "Ġpl an",
      "Ġvis it",
      "uff y",
      "Ġp ie",
      "Ġpull ed",
      "Ġfo x",
      "et er",
      "ĠA my",
      "Ġtre at",
      "uck y",
      "Ġro ll",
      "Ġdan ger",
      "o s",
      "Ġle ave",
      "Ġp at",
      "Ġt eddy",
      "a pped",
      "or m",
      "Ġmus ic",
      "Ġamaz ed",
      "Ġask s",
      "Ġh ide",
      "Ġwa ited",
      "M ax",
      "e ver",
      "Ġtow ards",
      "an g",
      "m e",
      "ĠJ en",
      "ow er",
      "Ġown er",
      "Ġf ield",
      "Ġfly ing",
      "Ġp re",
      "Ġla nd",
      "ain ed",
      "z z",
      "Ġsh ared",
      "Ġprom ised",
      "Ġp en",
      "ug g",
      "Ġmor al",
      "Ġcl oud",
      "Ġs illy",
      "am es",
      "ap e",
      "m ed",
      "Ġjo b",
      "Ġqu i",
      "ig g",
      "Ġs ide",
      "Ġg u",
      "Ġpain t",
      "Ġp a",
      "O kay",
      "Ġpart y",
      "Ġbel ie",
      "Ġe m",
      "ck et",
      "o l",
      "Ġl ake",
      "th y",
      "Ġli ving",
      "g s",
      "Ġs ister",
      "Ġr ace",
      "Ġwe ar",
      "Ġrun s",
      "Ġs ec",
      "op e",
      "u ally",
      "c le",
      "av y",
      "Ġmu st",
      "Ġqui et",
      "Ġm oney",
      "Ġgr ate",
      "M aybe",
      "ĠJ im",
      "s w",
      "Ġwor ried",
      "Ġthink s",
      "as ed",
      "is es",
      "l ing",
      "u p",
      "Ġdan ce",
      "Ġcolor ful",
      "Ġan sw",
      "Ġp ot",
      "Ġbr an",
      "un ch",
      "Ġgrate ful",
      "ec es",
      "Ġbro ke",
      "Ġpi eces",
      "Ġslow ly",
      "Ġb ott",
      "Ġfast er",
      "Ġs uch",
      "i x",
      "Ġwe lc",
      "Ġbig ger",
      "z e",
      "Ġtra in",
      "Ġcu p",
      "f ort",
      "Ġg if",
      "p h",
      "Ġsn ack",
      "Ġch o",
      "Ġre ach",
      "ĠA ll",
      "Ġc andy",
      "Ġbl ank",
      "Ġpr o",
      "Ġr iver",
      "Ġpl ant",
      "Ġjo in",
      "le ss",
      "Ġmon ster",
      "Ġw in",
      "Ġmon key",
      "Ġe le",
      "i re",
      "Ġhelp ing",
      "e ar",
      "Ġprin cess",
      "Ġtre asure",
      "Ġblank et",
      "Ġbl ack",
      "Ġmagic al",
      "Ġ ve",
      "S ure",
      "Ġevery where",
      "s et",
      "Ġb ike",
      "Ġdanger ous",
      "Ġb ar",
      "Ġsm art",
      "Ġfarm er",
      "Ġn ap",
      "ĠDad dy",
      "Ġac ross",
      "Ġmo st",
      "Ġsc ream",
      "Ġdra gon",
      "W hy",
      "Ġs ign",
      "id ent",
      "Ġac c",
      "out h",
      "Ġj e",
      "Ġdis app",
      "H i",
      "Ġm outh",
      "i pped",
      "Ġst re",
      "Ġhe avy",
      "m ing",
      "Ġp ass",
      "e ared",
      "Ġtow er",
      "Ġwor ds",
      "or ed",
      "Ġb ite",
      "Ġcry ing",
      "Ġste pped",
      "Ġdir ty",
      "d e",
      "Ġwould n",
      "Ġth rew",
      "e re",
      "Ġdo ctor",
      "ĠF l",
      "Ġsa me",
      "Ġbow l",
      "Ġbe e",
      "Ġdoll s",
      "Ġsp r",
      "Ġb ath",
      "Ġhe al",
      "Ġcar rot",
      "ch ool",
      "Ġbelie ve",
      "Ġst uck",
      "b ble",
      "ĠM olly",
      "Ġh ig",
      "Ġclo sed",
      "Ġtw ins",
      "Ġc our",
      "ĠM r",
      "Ġhe art",
      "Ġfr uit",
      "Ġat t",
      "Ġm in",
      "M ia",
      "Ġs chool",
      "ck ed",
      "Ġeat ing",
      "Ġto wn",
      "Ġb uck",
      "pp ing",
      "Ġs uddenly",
      "Ġte ac",
      "Ġm ix",
      "ask et",
      "Ġbr own",
      "it ing",
      "Ġb asket",
      "ĠJ ill",
      "Ġcour se",
      "Ġco ll",
      "Ġch air",
      "Ġhop ed",
      "Ġcl apped",
      "Ġp ack",
      "Ġcr ay",
      "Ġgent le",
      "Ġfair y",
      "i er",
      "vent ually",
      "Ġst and",
      "Ġfeel s",
      "Ġbut t",
      "Ġdro ve",
      "b r",
      "Ġwith out",
      "Ġsw ings",
      "or s",
      "Ġacc ident",
      "or row",
      "Ġpus hed",
      "is sed",
      "Ġto day",
      "Ġne igh",
      "Ġwelc ome",
      "Ġpo cket",
      "Ġhig her",
      "t s",
      "Ġexpl ained",
      "Ġneigh b",
      "Ġh it",
      "ra ct",
      "Ġp ers",
      "Ġg ames",
      "Ġpie ce",
      "our n",
      "or d",
      "Ġlong er",
      "Ġy ard",
      "Ġteac her",
      "Ġf ree",
      "Ġw ings",
      "Ġj ourn",
      "F inally",
      "Ġb en",
      "Ġche ered",
      "Ġsm o",
      "e ad",
      "i ble",
      "Ġfor get",
      "Ġd ry",
      "Ġc orn",
      "Ġal ong",
      "c y",
      "Ġhapp en",
      "Ġin st",
      "Ġsa ng",
      "itt ing",
      "um b",
      "m ent",
      "Ġl ate",
      "h o",
      "Ġne ck",
      "ph ant",
      "ĠM ary",
      "Ġup set",
      "Ġyou ng",
      "Ġadventure s",
      "Ġthr ow",
      "ve l",
      "Ġno ises",
      "Ġapp le",
      "Ġsho es",
      "Ġsing ing",
      "Ġm iss",
      "Ġl on",
      "Ġturn s",
      "Ġse a",
      "Ġstor ies",
      "Ġwe ll",
      "Ġele phant",
      "Ġtr ou",
      "Ġl unch",
      "Ġd ist",
      "bb y",
      "ou n",
      "Ġke y",
      "Ġlon ely",
      "Ġto m",
      "Ġhug s",
      "ount ain",
      "Ġstre et",
      "Ġbel ong",
      "Ġo wl",
      "Ġsec ret",
      "L ila",
      "Ġpl ac",
      "c hes",
      "Ġm at",
      "e k",
      "Ġw ish",
      "Ġf ence",
      "Ġexpl oring",
      "Ġs oup",
      "Ġw ise",
      "Ġnear by",
      "Ġye ar",
      "Ġsh ook",
      "Ġmo ved",
      "Ġp urp",
      "Ġbr ing",
      "Ġsh ap",
      "Ġsh op",
      "y ard",
      "Ġc aught",
      "Ġm ine",
      "Ġ es",
      "fu sed",
      "Ġin v",
      "D o",
      "aught y",
      "ock ed",
      "Ġback yard",
      "Ġn aughty",
      "b ow",
      "Ġj ar",
      "Ġst ars",
      "Ġst ar",
      "Ġw he",
      "Ġex p",
      "ĠEm ma",
      "Ġs u",
      "Ġrock s",
      "w ard",
      "ĠGra ndma",
      "Ġsee med",
      "Ġdro pped",
      "Ġrel ie",
      "Ġsw am",
      "w eet",
      "Ġth ough",
      "Ġp h",
      "ad ow",
      "Ġdr ink",
      "us h",
      "aught er",
      "ll o",
      "Ġta king",
      "Ġd es",
      "Ġc a",
      "Ġma il",
      "Ġor ange",
      "Ġpurp le",
      "Ġ 3",
      "Ġwo ke",
      "Ġbuck et",
      "Ġc ow",
      "Ġst u",
      "ion s",
      "c es",
      "Ġre sp",
      "co l",
      "A nd",
      "Ġp ast",
      "s y",
      "Ġn est",
      "Ġben ch",
      "un g",
      "Ġshap es",
      "Ġf it",
      "Ġt iny",
      "Ġo b",
      "Ġa f",
      "it y",
      "Ġs itting",
      "ĠTh ank",
      "Ġsound s",
      "Ġwonder ed",
      "Ġbus y",
      "Ġm ark",
      "Ġrain bow",
      "t o",
      "Ġno se",
      "Ġd aughter",
      "es e",
      "Ġ O",
      "ĠFl uffy",
      "re ad",
      "f ish",
      "Ġnot hing",
      "Ġk ite",
      "Ġc ou",
      "Ġp ig",
      "o g",
      "Ġm ad",
      "Ġarm s",
      "Ġju ice",
      "th day",
      "in ing",
      "Ġhold ing",
      "Ġbran ch",
      "Ġco at",
      "ĠIn side",
      "Ġc ir",
      "Ġta kes",
      "c ing",
      "Ġfore ver",
      "Ġrelie ved",
      "Ġcar ry",
      "pp er",
      "ra id",
      "Ġcut e",
      "Ġm il",
      "Ġcom es",
      "Ġaf raid",
      "Ġdri ver",
      "o se",
      "ver ed",
      "Ġs ick",
      "a il",
      "id ge",
      "ĠF inally",
      "Ġb oun",
      "Ġsp oon",
      "Ġgif t",
      "O f",
      "itt ens",
      "st ing",
      "Ġpe ace",
      "Ġk ing",
      "u nt",
      "Ġpat ient",
      "Ġli ft",
      "our s",
      "Ġl etter",
      "c er",
      "Ġa ct",
      "s c",
      "Ġprom ise",
      "Ġhug e",
      "Ġsun ny",
      "Ġr ound",
      "Ġto u",
      "Ġtou ched",
      "le t",
      "Ġint ere",
      "Ġhe llo",
      "Ġbir thday",
      "Ġf ing",
      "Ġday s",
      "Ġon to",
      "Ġaccident ally",
      "Ġexc iting",
      "Ġche ese",
      "Ġlaug hing",
      "Ġjourn ey",
      "bo ard",
      "Ġb and",
      "Ġgra b",
      "et h",
      "Ġre t",
      "ĠC ome",
      "Ġg igg",
      "Ġcreat ure",
      "Ġdis co",
      "sh ine",
      "Ġco zy",
      "Ġim ag",
      "Ġp ower",
      "g ged",
      "ĠM ama",
      "al m",
      "ar p",
      "L ater",
      "Ġk ick",
      "Ġswim ming",
      "Ġin c",
      "g g",
      "Ġbus h",
      "p ed",
      "Ġli fe",
      "Ġinst ead",
      "Ġshe ll",
      "ĠSam my",
      "Ġbre ad",
      "He y",
      "Ġm ist",
      "Ġcom fort",
      "Ġbott le",
      "Ġwatch ing",
      "Ġs uc",
      "Ġret urn",
      "Ġw ra",
      "Ġe ar",
      "Ġwh ist",
      "n ess",
      "Tom my",
      "Ġsh arp",
      "Ġmil k",
      "Ġhop e",
      "t en",
      "Ġsun shine",
      "Ġsp in",
      "Ġc ave",
      "Ġe as",
      "ĠSo on",
      "Ġcoll ect",
      "Ġtal ked",
      "ĠT weet",
      "p a",
      "Ġsp o",
      "Ġb ought",
      "Ġsear ched",
      "m er",
      "Ġl ucky",
      "it ch",
      "Ġh oney",
      "Ġp udd",
      "Ġpoin ted",
      "Ġg ather",
      "Ġ ent",
      "Ġro ad",
      "Ġh or",
      "Ġf an",
      "Ġany one",
      "Ġsand w",
      "Ġl ater",
      "b all",
      "Ġapp les",
      "Ġc e",
      "ir t",
      "Ġsmil ing",
      "itt en",
      "ble m",
      "Ġpro blem",
      "r ound",
      "Ġput s",
      "B ob",
      "Ġgi ves",
      "el s",
      "iz e",
      "Ġme et",
      "L ucy",
      "Ġintere sting",
      "Ġheal thy",
      "Ġm ach",
      "Ġtast y",
      "e b",
      "om an",
      "Ġpre s",
      "Ġstor m",
      "Ġpl ane",
      "Ġw oman",
      "ĠJim my",
      "Ġsp id",
      "Ġpr ot",
      "Ġw ide",
      "G ood",
      "o ve",
      "Ġe ag",
      "Ġp ile",
      "Ġv ill",
      "er ly",
      "a ur",
      "Ġad m",
      "u b",
      "Ġcle ver",
      "on t",
      "Ġk iss",
      "Ġm atter",
      "am ed",
      "Ġz oom",
      "Ġprot ect",
      "Ġlo ves",
      "Ġfe ather",
      "Ġtrou ble",
      "Ġp ath",
      "Ġpers on",
      "Ġduck s",
      "Ġcray ons",
      "Ġsh ining",
      "nd pa",
      "Ġcloud s",
      "ĠW ith",
      "ow ed",
      "ĠE ll",
      "Ġp ract",
      "ck s",
      "Ġp op",
      "Ġsmell ed",
      "Ġp ill",
      "Ġh on",
      "Ġfr ont",
      "Ġmu d",
      "Ġr ope",
      "Ġdan ced",
      "Ġpres ent",
      "Ġa p",
      "Ġsa f",
      "Ġspot ted",
      "Ġbutt on",
      "Ġmin ut",
      "Ġz oo",
      "Ġv al",
      "Ġor gan",
      "Ġche er",
      "Ġapp eared",
      "Ġqu est",
      "Ġp ar",
      "Ġwh ich",
      "Ġpu zz",
      "Ġmy ster",
      "J ust",
      "Ġse at",
      "C ome",
      "Ġscream ed",
      "J im",
      "Ġth in",
      "Ġas leep",
      "er t",
      "Ġresp ect",
      "Ġte ach",
      "o nd",
      "Ġsn ake",
      "Ġw ild",
      "a le",
      "n n",
      "ep end",
      "Ġs ur",
      "Ġneighb or",
      "M olly",
      "Ġlove ly",
      "Ġhor se",
      "is a",
      "Ġgent ly",
      "Ġwho le",
      "Ġsnow man",
      "oo se",
      "Ġansw er",
      "Ġgi ant",
      "Ġwe aring",
      "Ġplac es",
      "Ġsear ch",
      "M um",
      "Ġb ark",
      "ul ar",
      "Ġtri p",
      "Ġm ed",
      "Ġsh r",
      "Ġimp ress",
      "Ġspl as",
      "E very",
      "e en",
      "Ġdir t",
      "l a",
      "Ġcorn er",
      "ce an",
      "I n",
      "omet imes",
      "Ġtast ed",
      "Ġo cean",
      "n ic",
      "Ġli ve",
      "itt y",
      "ĠEm ily",
      "Ġcon fused",
      "Ġm ind",
      "Ġroll ed",
      "Ġgo es",
      "Ġpic nic",
      "at o",
      "Ġsl id",
      "S t",
      "Ġc alm",
      "ĠM ittens",
      "Ġd i",
      "Ġsu pp",
      "Ġsp ent",
      "Ġas h",
      "Ġdri ve",
      "Ġc ard",
      "ss ed",
      "Ġs er",
      "Ġtri es",
      "Ġforg ive",
      "Ġph one",
      "Ġru de",
      "Ġmach ine",
      "Ġo ven",
      "Ġspid er",
      "Ġp our",
      "Ġte eth",
      "Ġla st",
      "Ġp an",
      "Ġcook ie",
      "Ġdel ight",
      "Ġpretend ed",
      "Ġhelp ful",
      "Ġfur ry",
      "iz z",
      "Ġfe et",
      "ĠG o",
      "um ber",
      "ĠH ow",
      "Ġl ay",
      "un k",
      "Ġre c",
      "Ġwor m",
      "ĠC h",
      "Ġm ountain",
      "e x",
      "Ġwa ve",
      "Ġl ad",
      "Ġb an",
      "Ġch ick",
      "Ġr ing",
      "Ġfa ces",
      "Ġw ip",
      "Ġe ventually",
      "Ġc art",
      "Ġem b",
      "Ġsh y",
      "h ile",
      "Ġtal king",
      "Ġtom orrow",
      "Ġfo ld",
      "Ġcho col",
      "on es",
      "Ġt id",
      "Ġfo ot",
      "Ġs el",
      "Ġrem ind",
      "Ġbuild ing",
      "Ġsa l",
      "Ġro b",
      "Ġsp read",
      "Ġvill age",
      "if e",
      "Ġt un",
      "Ġbu bble",
      "Ġ ign",
      "Ġw ore",
      "ar ge",
      "Ġco in",
      "Ġ '",
      "ĠJen ny",
      "Ġb lew",
      "Ġwr ite",
      "Ġcou ch",
      "Ġlad der",
      "Ġsmo oth",
      "Ġtreat s",
      "M y",
      "Ġst ret",
      "Ġch ased",
      "Ġtoo l",
      "ar ra",
      "Ġpus h",
      "Ġhid ing",
      "Ġemb arra",
      "Ġc oo",
      "Ġwhen ever",
      "ig hed",
      "Ġkne e",
      "S oon",
      "le x",
      "Ġfight ing",
      "Ġa nt",
      "Ġst ep",
      "Ġwait ing",
      "Ġbug s",
      "Ġneck l",
      "Ġp ool",
      "at or",
      "Ġsong s",
      "Ġfin ish",
      "op h",
      "Ġc ross",
      "Ġbe ll",
      "Ġpudd le",
      "m o",
      "Ġfix ed",
      "Ġso l",
      "al s",
      "Ġst ir",
      "Ġshe lf",
      "Ġrob ot",
      "Ġst ra",
      "Ġchocol ate",
      "Ġsel fish",
      "Ġtast e",
      "ul t",
      "Ġban an",
      "Ġpa w",
      "Ġstr ing",
      "Ġsa ck",
      "Ġbar ked",
      "Ġre p",
      "Ġlea f",
      "ump y",
      "Ġcra b",
      "n ot",
      "bo x",
      "Ġsp e",
      "Ġm aybe",
      "Ġp le",
      "Ġl arge",
      "Ġh um",
      "ĠJ ake",
      "Ġtid y",
      "ĠJ ust",
      "le br",
      "Ġn et",
      "Ġst one",
      "Ġwas h",
      "Ġce lebr",
      "Ġcan not",
      "M ama",
      "ĠS t",
      "ĠEvery where",
      "Ġg en",
      "Ġspr ay",
      "ung le",
      "P lease",
      "Ġpeace ful",
      "Ġcl oth",
      "o ld",
      "Ġsc ar",
      "D ad",
      "Ġj ungle",
      "Ġm issed",
      "ĠS ometimes",
      "ir d",
      "Ġcol our",
      "ig er",
      "Ġhe l",
      "ar m",
      "ĠL e",
      "Ġembarra ssed",
      "Ġb at",
      "Ġd eter",
      "o in",
      "Ġland ed",
      "Ġdec or",
      "Ġsh aring",
      "Ġhon est",
      "ell y",
      "N ow",
      "l ice",
      "d ge",
      "Ġneckl ace",
      "Ġfor ward",
      "Ġdeter m",
      "Ġjump ing",
      "air s",
      "Ġsh irt",
      "Sara h",
      "ĠP lease",
      "Ġcarrot s",
      "Ġkn ocked",
      "Ġtr ust",
      "Ġmo on",
      "Ġme ant",
      "ĠT V",
      "Ġtight ly",
      "get able",
      "Ġme adow",
      "Ġstick s",
      "Ġcreat ive",
      "Ġve getable",
      "Ġb al",
      "Ġst ood",
      "mo st",
      "Ġsuc cess",
      "y ing",
      "a king",
      "Ġbre ath",
      "ĠThe ir",
      "Ġgen er",
      "Ġdisapp oin",
      "n ed",
      "Ġte a",
      "Ġwh is",
      "Ġs our",
      "Ġem p",
      "Ġgre w",
      "Ġpl ate",
      "ĠT eddy",
      "Ġle gs",
      "Ġal most",
      "Ġemp ty",
      "or ry",
      "Ġgr ay",
      "Ġhe ars",
      "ĠD on",
      "Ġash amed",
      "d le",
      "Ġcar ried",
      "g round",
      "Ġwhist le",
      "i an",
      "Ġg as",
      "Ġ On",
      "Ġpill ow",
      "d en",
      "Ġunderst ood",
      "B e",
      "on y",
      "Ġspl ash",
      "ĠS ome",
      "' d",
      "it al",
      "T o",
      "er p",
      "Ġb er",
      "ar l",
      "ust r",
      "Ġshe ep",
      "Ġho sp",
      "Ġle m",
      "Ġsa ve",
      "h in",
      "Ġyell ed",
      "v ous",
      "Ġhosp ital",
      "Ġn ut",
      "Ġsnack s",
      "Ġje w",
      "ĠL isa",
      "Ġh ours",
      "Ġtell s",
      "or k",
      "ĠW hy",
      "Ġpol ice",
      "Ġdisappoin ted",
      "o bby",
      "Ġwhis p",
      "Ġspark ly",
      "Ġk itten",
      "ĠTo gether",
      "ĠE ven",
      "W here",
      "ĠA nn",
      "Ġknow ing",
      "Ġp ay",
      "Ġsh ip",
      "Ġthe se",
      "Ġhid den",
      "Ġl ine",
      "ur se",
      "Ġfr ustr",
      "Ġgo ld",
      "ĠM um",
      "et s",
      "in a",
      "Ġr ad",
      "Ġt est",
      "Ġgr oup",
      "Ġgener ous",
      "Ġche w",
      "Ġta ught",
      "Ġb ored",
      "Ġreturn ed",
      "Ġno ds",
      "Ġmyster ious",
      "Ġstand ing",
      "Ġbed room",
      "Ġh ur",
      "Ġplant s",
      "if f",
      "Ġse ed",
      "Ġminut es",
      "Ġbl ow",
      "Ġp izz",
      "Ġp ri",
      "Ġwa ves",
      "Ġeas y",
      "Ġpol ite",
      "Ġgl ass",
      "Ġprin ce",
      "Ġsee k",
      "Ġpuzz le",
      "Ġsh ore",
      "Ġscar f",
      "Ġwo lf",
      "Ġsandw ich",
      "Ġpower ful",
      "us ie",
      "Ġpass ed",
      "Ġn er",
      "Ġs ighed",
      "Ġd rew",
      "Ġcl ass",
      "ĠP eter",
      "k in",
      "f l",
      "Ġdeterm ined",
      "Ġsleep y",
      "Ġthank ful",
      "Ġsp icy",
      "Ġfan cy",
      "Ġner vous",
      "Ġfrustr ated",
      "Ġmess y",
      "Ġj elly",
      "Ġf ig",
      "J ane",
      "Ġpizz a",
      "Ġfing er",
      "w ork",
      "ĠB e",
      "Ġa v",
      "Ġspo il",
      "St op",
      "Ġmat ch",
      "Ġre g",
      "Ġg un",
      "a f",
      "Ġfe ar",
      "Ġcat erp",
      "Ġcaterp ill",
      "Ġp ir",
      "os aur",
      "Ġlo ck",
      "Ġclos et",
      "Ġso ld",
      "an o",
      "au l",
      "Ġes c",
      "ell a",
      "Ġt ick",
      "Ġgr umpy",
      "Ġm ot",
      "Ġpo or",
      "Ġfe ed",
      "Ġexc ite",
      "oo p",
      "Ġg ate",
      "Ġgather ed",
      "The re",
      "Ġha ng",
      "Ġv an",
      "Ġcir c",
      "Ġp in",
      "Ġbr idge",
      "Ġof ten",
      "ot e",
      "u ce",
      "id dle",
      "Ġansw ered",
      "Ġw is",
      "itt er",
      "Ġdin osaur",
      "s ist",
      "iss ors",
      "Ġk issed",
      "Ġho pping",
      "g ly",
      "Ġyour self",
      "Ġtw irl",
      "Ġche st",
      "Ġfl ag",
      "Ġ Z",
      "Ġu gly",
      "p ack",
      "er a",
      "ĠB r",
      "Ġsc issors",
      "A re",
      "sel ves",
      "m b",
      "Ġde er",
      "Ġf il",
      "Ġcaterpill ar",
      "ens ive",
      "Ġwor king",
      "iz zy",
      "Ġs na",
      "ill ed",
      "ĠB l",
      "Ġm ummy",
      "Ġb urn",
      "Ġexp ensive",
      "Ġsa ved",
      "Ġl it",
      "Ġexcite ment",
      "Ġc and",
      "Ġte ars",
      "Ġc ries",
      "Ġwa gged",
      "eci ally",
      "Ġm iddle",
      "S orry",
      "Ġta ken",
      "Ġsc r",
      "Ġo k",
      "Ġle g",
      "Ġtr ue",
      "qu e",
      "Ġsp end",
      "Ġon es",
      "Ġple ased",
      "Ġv ase",
      "Ġcr own",
      "Ġas king",
      "p ecially",
      "Ġdr op",
      "Ġes pecially",
      "Ġb oring",
      "Ġvegetable s",
      "Ġbo ss",
      "u al",
      "ĠR ex",
      "bo dy",
      "ug ar",
      "Ġgigg led",
      "Ġt ie",
      "et e",
      "s er",
      "oo f",
      "S p",
      "Ġe ld",
      "Ġbr ush",
      "at es",
      "Jim my",
      "Ġc age",
      "Ġrock et",
      "Ġpack ed",
      "Ġcomfort able",
      "Ġdan cing",
      "ĠJohn ny",
      "Ġm ir",
      "Ġt ent",
      "Ġmist ake",
      "Ġc ap",
      "l ight",
      "Ġcl own",
      "W ho",
      "Ġst uff",
      "Ġmed ic",
      "Ġpick s",
      "Ġwa nder",
      "Ġn umber",
      "Ġs ugar",
      "us hed",
      "Ġkn ight",
      "Ġdr um",
      "The ir",
      "ĠLe o",
      "in ess",
      "Ġs ight",
      "Ġd est",
      "ot s",
      "Ġget s",
      "Ġf ake",
      "Ġb ake",
      "Ġdist ance",
      "?\" .",
      "Ġdraw ing",
      "Ġmedic ine",
      "Ġl ying",
      "g gs",
      "r or",
      "Ġsweet ie",
      "Ġfruit s",
      "Ġp ress",
      "Ġe ggs",
      "Ġgl ue",
      "ag ed",
      "Ġfeather s",
      "Ġsplas hed",
      "Ġb one",
      "Ġwe ek",
      "Ġfl ut",
      "Ġmo ving",
      "Ġle ad",
      "Ġpr ay",
      "Ġla zy",
      "Ġwalk s",
      "Ġbec ome",
      "Ġdisapp eared",
      "Ġsmell y",
      "Ġch ange",
      "Ġtw ist",
      "y al",
      "Ġlem on",
      "Ġf is",
      "Ġmo v",
      "Ġeld erly",
      "Ġc ri",
      "Ġlo se",
      "h a",
      "or y",
      "Ġcra wl",
      "Ġplay ground",
      "Ġdog s",
      "Ġwe ak",
      "S ally",
      "Ġinc red",
      "Ġcall ing",
      "Ġbo dy",
      "Ġbath room",
      "Ġli cked",
      "Ġcl ap",
      "ĠI f",
      "B illy",
      "Ġy og",
      "Ġg ar",
      "Ġ OK",
      "Ġex am",
      "Ġcr ack",
      "Ġro ar",
      "ugg est",
      "M e",
      "Ġs uggest",
      "Jo e",
      "Ġh orn",
      "Ġmom s",
      "Ġquest ions",
      "Ġmir ror",
      "Ġa dd",
      "Ġno isy",
      "en ny",
      "Ġf ather",
      "Ġwr ote",
      "G ra",
      "Ġlo yal",
      "Ġfl uffy",
      "ĠA t",
      "Ġeag er",
      "at ing",
      "ee z",
      "Ġex t",
      "ĠBl ue",
      "Ġfam ous",
      "Ġm ic",
      "Ġor d",
      "Ġcle ar",
      "Ġyour s",
      "l and",
      "Ġche ck",
      "Ġsk ipped",
      "Ġr id",
      "Ġgl ow",
      "Ġdr ank",
      "Ġwhe el",
      "Ġ ed",
      "Ġse ll",
      "Ġd ish",
      "Ġmar ch",
      "t i",
      "Ġincred ible",
      "Ġr are",
      "Ġl amp",
      "Ġm ap",
      "in ation",
      "Ġcont ent",
      "Ġqu een",
      "Ġju icy",
      "Ġr ich",
      "Ġst ones",
      "Ġco vered",
      "Ġsail ed",
      "el p",
      "Ġ ind",
      "h ip",
      "Ġfig ure",
      "ĠE nd",
      "A my",
      "im p",
      "Ġrel ax",
      "Ġt ape",
      "Ġb orrow",
      "Ġte am",
      "Ġru ined",
      "Ġso ap",
      "Ġno d",
      "Ġd ig",
      "ill i",
      "Ġsho ot",
      "Ġme asure",
      "Ġclean ed",
      "Ġball s",
      "at ely",
      "Ġstra w",
      "umb led",
      "f ic",
      "Ġdisco vered",
      "Ġa w",
      "Ġshow s",
      "Ġreal ised",
      "Ġadvent ur",
      "ce pt",
      "Ġco ins",
      "Ġneed s",
      "Ġext ra",
      "Ġbran ches",
      "as ing",
      "Ġsw an",
      "Ġchick en",
      "Ġt ag",
      "Ġoff ered",
      "Ġdif fic",
      "Ġmo d",
      "Ġt iger",
      "W ell",
      "Ġdec ide",
      "Ġadventur ous",
      "Ġbal ance",
      "Ġjo ke",
      "Ġb arn",
      "Ġha m",
      "Ġtow el",
      "i que",
      "Ġ No",
      "ke ep",
      "ĠL ittle",
      "Ġt urt",
      "Ġboy s",
      "Ġmot or",
      "Ġdiffic ult",
      "Ġth ick",
      "Ġbo ard",
      "J ill",
      "al ous",
      "Ġf ine",
      "ra g",
      "Ġbubble s",
      "Ġorgan ized",
      "Ġje alous",
      "H elp",
      "Ġhappen ing",
      "Ġey e",
      "Ġto ug",
      "im ed",
      "Ġwe ird",
      "Ġdo lp",
      "Ġun ique",
      "Ġfr own",
      "Ġlift ed",
      "Ġtr ack",
      "Ġbott om",
      "Ġcolour ful",
      "M ummy",
      "Ġco ver",
      "p ort",
      "Ġis land",
      "Ġkn ife",
      "ĠBr own",
      "Ġfr ight",
      "S ue",
      "Ġcra w",
      "Ġho se",
      "ĠK itty",
      "c il",
      "j ect",
      "Sp ot",
      "Ġcraw led",
      "ĠS usie",
      "ll a",
      "Ġman aged",
      "Ġpen cil",
      "Ġgar age",
      "Ġcir cle",
      "Ġperf orm",
      "ol og",
      "Ġar g",
      "Ġco st",
      "Ġh unt",
      "Ġon ce",
      "Ġba ld",
      "Ġlearn ing",
      "Ġjew el",
      "Ġkind ness",
      "!\" .",
      "ĠB obby",
      "Ġsay ing",
      "l ies",
      "Ġwa nd",
      "ĠM ark",
      "Ġtoug h",
      "u nd",
      "Ġwor d",
      "Ġt er",
      "Ġch ase",
      "Ġb atter",
      "Ġber ries",
      "Ġmight y",
      "Ġballoon s",
      "Ġap olog",
      "re ady",
      "ur ed",
      "ag es",
      "Ġhurt s",
      "Ġg uit",
      "keep er",
      "i v",
      "Ġsh ake",
      "Ġun us",
      "Ġfav our",
      "Ġs il",
      "Ġpoin ting",
      "i pper",
      "Ġan g",
      "Ġal ready",
      "Ġloud er",
      "al k",
      "i pp",
      "Ġd izzy",
      "Ġbelong ed",
      "Ġa dded",
      "Ġunus ual",
      "Ġenjoy ing",
      "Ġbird ie",
      "Ġn orm",
      "Ġwh ale",
      "Ġstraw ber",
      "Ġgu ess",
      "Ġli br",
      "he ad",
      "Ġval u",
      "Ġcheer ful",
      "ugg led",
      "Ġsp un",
      "H ow",
      "Ġf ool",
      "Ġp ump",
      "Ġfavour ite",
      "Ġed ge",
      "ra ge",
      "Ġgra ce",
      "Ġf our",
      "Ġhard er",
      "Ġre f",
      "Ġimpress ed",
      "Ġtr unk",
      "Ġmark et",
      "Ġwra pped",
      "Ġloud ly",
      "Ġgi ving",
      "Ġbanan a",
      "em o",
      "Ġturt le",
      "Ġsw ord",
      "Ġguit ar",
      "Ġnorm al",
      "Ġher o",
      "Ġgra nd",
      "Ġrec ord",
      "Ġh arm",
      "Ġboss y",
      "Ġtruck s",
      "il t",
      "Ġgr own",
      "illi ant",
      "a w",
      "an ged",
      "Ġbox es",
      "Ġsmo ke",
      "Ġesc ape",
      "ĠEll ie",
      "er y",
      "Ġe ars",
      "Ġter ri",
      "Ġbr illiant",
      "Ġproud ly",
      "Ġca b",
      "f ast",
      "c ient",
      "Ġsc are",
      "ip e",
      "Ġch oose",
      "Ġinv ited",
      "at ure",
      "ol a",
      "er ry",
      "Ġagain st",
      "y m",
      "Ġdream ed",
      "Ġhat s",
      "Ġcomp et",
      "Ġj ack",
      "Ġcirc les",
      "Ġsk in",
      "Ġpain ting",
      "Ġbreak fast",
      "Ġsaf ely",
      "Ġgo at",
      "bb orn",
      "Ġmean s",
      "Ġm elt",
      "Ġlaugh s",
      "Ġp il",
      "Ġstu bborn",
      "Ġfright ened",
      "Ġcab in",
      "He re",
      "Ġac cept",
      "Ġd epend",
      "g y",
      "Ġsl ipped",
      "Ġan cient",
      "Ġstu dy",
      "Ġdes ign",
      "Ġhelp s",
      "ĠTweet y",
      "Ġfl ash",
      "Ġbrother s",
      "ĠD an",
      "Ġvalu able",
      "Ġpe e",
      "Ġwra p",
      "ĠF red",
      "Ġst ream",
      "Ġlo g",
      "Ġcl ay",
      "Ġhapp iness",
      "or ge",
      "Ġun l",
      "ed ient",
      "Ġwall s",
      "Ġwa ke",
      "Ġsuccess ful",
      "Ġfr idge",
      "Ġto ast",
      "Ġbutt ons",
      "la imed",
      "Ġfi er",
      "Ġfool ish",
      "Ġcray on",
      "Ġr ough",
      "Ġle an",
      "ous es",
      "Ġbl oom",
      "ĠP ete",
      "Ġexc laimed",
      "Ġsh ape",
      "Ġfier ce",
      "Ġdelic ate",
      "ĠBob o",
      "Ġoff ice",
      "Ġsuggest ed",
      "ad o",
      "Ġf at",
      "Ġwa gon",
      "om ed",
      "Ġno sy",
      "at ch",
      "a z",
      "Ġdream s",
      "Ġmov ie",
      "Ġnice ly",
      "Ġ icy",
      "Ġob edient",
      "Ġc udd",
      "Ġcompet it",
      "Ġc ity",
      "Ġgra ndpa",
      "Ġmix ed",
      "Ġtom ato",
      "y e",
      "ĠM y",
      "Ġsh ark",
      "Ġe gg",
      "Ġsp ace",
      "Ġh ouses",
      "Ġknow s",
      "Ġf rag",
      "Ġuse ful",
      "Ġkind s",
      "Ġde ad",
      "Ġst ri",
      "Ġwip ed",
      "Ġpour ed",
      "ĠTo day",
      "Ġme m",
      "Ġexcited ly",
      "Ġnot ice",
      "o ppy",
      "Ġsto ve",
      "Ġfall s",
      "Ġa unt",
      "Ġth u",
      "Ġro se",
      "Ġtool s",
      "Ġlo cked",
      "p es",
      "Ġsound ed",
      "e orge",
      "Ġshell s",
      "ut h",
      "Ġc her",
      "ĠR ose",
      "ar ry",
      "w ards",
      "Ġlight s",
      "e xt",
      "Ġen c",
      "Ġsh adow",
      "Ġexpl ored",
      "ent ion",
      "Ġs on",
      "Ġt imes",
      "ac he",
      "Ġc ro",
      "Ġbus hes",
      "Ġw itch",
      "Ġd ough",
      "Ġfrag ile",
      "d om",
      "Ġl ow",
      "Ġf ountain",
      "Ġwe al",
      "Ġsee m",
      "v ice",
      "Ġre sc",
      "Ġspoil ed",
      "Ġind epend",
      "app ing",
      "E m",
      "Ġbag s",
      "Ġthem selves",
      "Ġst umbled",
      "k n",
      "o ot",
      "Ġla b",
      "r ay",
      "Ġthought ful",
      "Ġshow ing",
      "Ġro de",
      "Ġjo g",
      "Ġdepend able",
      "Ġen g",
      "Ġra ced",
      "Ġstret ch",
      "Ġab ove",
      "Ġfing ers",
      "in al",
      "art h",
      "Ġbu ilt",
      "Ġsmall er",
      "Ġspin ning",
      "Ġplay ful",
      "Ġclo ck",
      "in es",
      "orm ous",
      "Ġbright ly",
      "Ġhel m",
      "Ġremind ed",
      "Ġtw ig",
      "Ġpract ice",
      "Ġkick ed",
      "Ġen ormous",
      "c orn",
      "Ġr at",
      "Ġprin t",
      "ĠEll a",
      "Ġdelight ed",
      "Ġt ummy",
      "Ġadm ired",
      "Ġor ig",
      "Ġcount ed",
      "Ġte le",
      "ĠN emo",
      "Ġpar rot",
      "Ġus ing",
      "Ġsw e",
      "Ġsol ve",
      "Ġb itter",
      "Ġway s",
      "Ġ U",
      "ĠB u",
      "Ġsh one",
      "Ġac orn",
      "Ġindepend ent",
      "Ġch anged",
      "Ġla w",
      "Ġj am",
      "ĠMr s",
      "Ġr oof",
      "Ġz ip",
      "it her",
      "i ence",
      "Ġwhisp ered",
      "re en",
      "Ġc op",
      "Ġsun fl",
      "Ġch ir",
      "Ġjo lly",
      "kn own",
      "Ġc one",
      "ee ze",
      "Ġc am",
      "Ġstrong er",
      "Ġste al",
      "Ġpain ted",
      "Ġh oop",
      "Ġlo ll",
      "Ġclean ing",
      "Ġterri ble",
      "Ġorig inal",
      "Ġsn iff",
      "ia ble",
      "Ġbra ce",
      "Ġham mer",
      "Ġcho se",
      "an ut",
      "Ġhand ed",
      "Ġbe es",
      "ĠB ella",
      "ip op",
      "ĠYou r",
      "mb re",
      "Ġm is",
      "Ġser ious",
      "Ġu mbre",
      "Ġtun n",
      "Ġmo der",
      "Ġf re",
      "ĠM ar",
      "ic t",
      "Ġbe ak",
      "Ġlea ving",
      "Ġloll ipop",
      "Ġhair y",
      "Ġpop corn",
      "Ġfind ing",
      "Ġun known",
      "ur ing",
      "Ġcl um",
      "in ary",
      "Ġjo ined",
      "ie w",
      "Ġboat s",
      "Ġsa uce",
      "he t",
      "Ġall owed",
      "Ġrel iable",
      "Ġd ust",
      "Ġpot ato",
      "ro be",
      "an ger",
      "Ġv iew",
      "Ġbe an",
      "Ġpick ing",
      "up id",
      "Ġy et",
      "Ġdo ve",
      "Ġboun ce",
      "Ġpump kin",
      "Ġb ump",
      "Ġcost um",
      "c om",
      "Ġgu ard",
      "Ġfor th",
      "Ġdoes n",
      "Ġdolp hin",
      "Ġsal ad",
      "Ġad vice",
      "Ġru bb",
      "ag het",
      "aghet ti",
      "S ee",
      "Ġt ank",
      "ĠD ucky",
      "Ġmoder n",
      "Ġh ay",
      "Ġgas ped",
      "Ġs ink",
      "Ġpo st",
      "Ġto r",
      "Ġst amp",
      "Ġth ose",
      "Ġclum sy",
      "g u",
      "Ġcre ate",
      "Ġmet al",
      "Ġ ing",
      "Ġha lf",
      "am ond",
      "Ġreg ular",
      "Ġg em",
      "Ġbar ber",
      "Ġthin king",
      "Ġo w",
      "il ty",
      "Ġsleep ing",
      "Ġgu ilty",
      "Ġy arn",
      "red ient",
      "Ġing redient",
      "Ġweal thy",
      "Ġsp aghetti",
      "Ġtell ing",
      "Ġdi amond",
      "Ġmar ble",
      "Ġmag n",
      "Ġpre p",
      "Ġr ushed",
      "Ġche ap",
      "Ġsearch ing",
      "is k",
      "ĠA lice",
      "ug ged",
      "Ġst airs",
      "ation s",
      "Ġg oose",
      "Ġcomp ass",
      "Ġst at",
      "Ġst upid",
      "Ġf lex",
      "eb ra",
      "Ġeng ine",
      "Ġch ar",
      "Ġpe anut",
      "Ġpir ate",
      "Ġpat ch",
      "Ġdri ving",
      "Ġru b",
      "Ġar row",
      "ĠGra ndpa",
      "oph ie",
      "ĠWhen ever",
      "ĠF r",
      "Ġthu nder",
      "Ġhold s",
      "Ġmiss ing",
      "eez ed",
      "Ġd ull",
      "i o",
      "Ġm ask",
      "ĠS n",
      "ĠF in",
      "Ġang el",
      "Ġpop ular",
      "ill a",
      "Ġjack et",
      "Ġz ebra",
      "Ġme al",
      "Ġgrace ful",
      "Ġcarry ing",
      "Ġcra zy",
      "Ġdream ing",
      "Ġsh iver",
      "co d",
      "Ġwas hed",
      "Ġumbre lla",
      "irst y",
      "Ġcam era",
      "Ġkn ock",
      "Ġsqu are",
      "t ime",
      "Ġbe et",
      "Ġst age",
      "Ġlibr ary",
      "Ġc ur",
      "Ġflex ible",
      "Ġdest ro",
      "Ġspark led",
      "Ġimpress ive",
      "Ġbu ll",
      "Ġcare less",
      "umb ers",
      "oom y",
      "Ġfriends hip",
      "Ġimag ined",
      "Ġseed s",
      "Ġtr uth",
      "Ġt ied",
      "Ġdel iver",
      "ĠM ike",
      "up er",
      "Ġpers ist",
      "Ġcom b",
      "Ġshe l",
      "M ary",
      "Ġpe bble",
      "Ġpig e",
      "ri c",
      "Ġpri ze",
      "Ġingredient s",
      "Ġfre sh",
      "G o",
      "Ġopen s",
      "is ion",
      "Ġn ature",
      "Ġend ing",
      "Ġent h",
      "Ġcompass ion",
      "Ġhand le",
      "Ġru bbed",
      "Ġre ward",
      "Ġp atter",
      "Ġcro cod",
      "Ġenc ou",
      "Ġsn e",
      "Ġmail box",
      "Ġstr anger",
      "ĠW hile",
      "Ġw ing",
      "Ġenth us",
      "Ġen vel",
      "Ġs udden",
      "Ġsp illed",
      "I f",
      "Ġpen ny",
      "Ġsad ly",
      "Ġdisco ver",
      "Ġlo ad",
      "ars h",
      "Ġflash light",
      "Ġbutterf lies",
      "ie f",
      "Ġdes k",
      "Ġread ing",
      "l oo",
      "Ġpatter n",
      "Ġear ly",
      "Ġt em",
      "Ġth irsty",
      "Ġw ire",
      "Ġwhe els",
      "f a",
      "ĠD ave",
      "Ġs uit",
      "in ce",
      "a wn",
      "Ġbrace let",
      "Ġsh ocked",
      "Ġre ce",
      "em ent",
      "Ġn umbers",
      "Ġr ug",
      "Ġg um",
      "com fort",
      "Ġspr ing",
      "i bb",
      "Ġfor k",
      "Ġor der",
      "Ġob ject",
      "Ġpee ked",
      "Ġhum ble",
      "Ġav o",
      "Ġp ant",
      "Ġen v",
      "Ġun comfort",
      "Ġbad ly",
      "Ġwar ned",
      "Ġuncomfort able",
      "ĠB ear",
      "Ġan x",
      "Ġcomp ut",
      "b led",
      "Ġc ere",
      "Ġtor n",
      "Ġpen gu",
      "Ġsor ts",
      "ell ig",
      "Ġp ow",
      "Ġtra vel",
      "Ġcry st",
      "W hile",
      "Ġsur f",
      "Ġint ellig",
      "Ġli z",
      "g est",
      "Ġcoo king",
      "Ġb ent",
      "Ġcom pl",
      "Ġe arth",
      "Ġa head",
      "Ġstat ue",
      "ĠM ummy",
      "Ġanx ious",
      "ĠP e",
      "Ġplac ed",
      "Ġsc ale",
      "Ġtow ers",
      "Ġnot e",
      "Ġpa le",
      "Ġspo ke",
      "Y ay",
      "Ġtra p",
      "ic hes",
      "Ġold er",
      "Ġwindow s",
      "Ġbig gest",
      "Ġsunfl ower",
      "Ġgrow ing",
      "Ġslid es",
      "Ġcomp let",
      "Ġpu p",
      "Ġn ail",
      "Ġflut e",
      "Ġbeet le",
      "Ġm el",
      "Ġcelebr ate",
      "Ġst ack",
      "Ġcount ing",
      "Ġmo le",
      "Ġharm less",
      "ĠM andy",
      "Ġtunn el",
      "Ġsc atter",
      "Ġsc oot",
      "ho st",
      "Ġmu sh",
      "Ġcup board",
      "Ġstop s",
      "Ġ er",
      "i kes",
      "Ġbeaut y",
      "Ġs uper",
      "Ġpersist ent",
      "Ġde af",
      "Ġcr ane",
      "Ġsh ut",
      "Ġval ue",
      "ĠB ill",
      "Ġcrocod ile",
      "Ġn urse",
      "Ġgif ted",
      "Ġre fused",
      "Ġper m",
      "Ġy awn",
      "Ġra ven",
      "Ġchar ming",
      "Ġhun g",
      "Ġtri ck",
      "Ġdestro y",
      "Ġg host",
      "Ġord inary",
      "udd y",
      "Ġquest ion",
      "Ġcere al",
      "Ġcart oon",
      "Ġne at",
      "Ġfl our",
      "Ġsn uggled",
      "Ġb ase",
      "Ġpi ano",
      "Ġc urt",
      "u d",
      "c ream",
      "Ġch asing",
      "Ġpretend ing",
      "Ġlive ly",
      "Ġsandw iches",
      "Ġs end",
      "Ġcurt ain",
      "Ġset t",
      "ct op",
      "Ġcou rage",
      "ĠK im",
      "ctop us",
      "Ġgl oomy",
      "O w",
      "ĠTo by",
      "Ġsupp ort",
      "Ġc amp",
      "Ġp ony",
      "Ġun iver",
      "Ġenvel ope",
      "ic es",
      "Ġso fa",
      "ĠHe re",
      "ĠL ola",
      "Ġpack age",
      "us ed",
      "Ġnam es",
      "Ġt ur",
      "Ġcomput er",
      "Ġtri ang",
      "D aisy",
      "Ġblue ber",
      "Ġliz ard",
      "Ġpar ade",
      "Ġatt ract",
      "a by",
      "Ġun cle",
      "Ġintellig ent",
      "Ġm ay",
      "ĠG ive",
      "Ġv i",
      "ac hes",
      "a id",
      "Ġjump s",
      "Ġdraw er",
      "Ġhunt er",
      "Ġspe ed",
      "Ġo ctopus",
      "ĠL ook",
      "c u",
      "er able",
      "Ġal ert",
      "Ġru les",
      "Ġcreature s",
      "or ant",
      "Ġst ation",
      "Ben ny",
      "Ġmush room",
      "ĠE ventually",
      "Ġhelm et",
      "g ust",
      "A lice",
      "Ġmis erable",
      "Ġtwirl ed",
      "u bby",
      "ip s",
      "Ġsold ier",
      "Ġhur ry",
      "Ġneed le",
      "ce ed",
      "Ġdis gust",
      "he art",
      "Ġtur key",
      "Ġany where",
      "Ġsh aking",
      "Ġt ask",
      "Ġcryst al",
      "Ġcoll ar",
      "en ry",
      "o e",
      "Ġb icy",
      "Ġre sist",
      "Ġd ug",
      "co a",
      "a ff",
      "st ri",
      "arl ie",
      "Ġcar p",
      "R e",
      "Ġpract iced",
      "Ġband age",
      "Ġth ief",
      "i est",
      "Ġign orant",
      "Ġen er",
      "ill ie",
      "Ġl ed",
      "Ġhelp less",
      "Ġpe pper",
      "c ut",
      "Ġse al",
      "Ġph ot",
      "ĠW h",
      "t ter",
      "Ġm ill",
      "Ġboun ced",
      "Ġv ide",
      "Ġrad io",
      "Ġp and",
      "Ġmu ff",
      "Ġpige on",
      "Ġfire man",
      "Ġje ep",
      "ur b",
      "Ġno body",
      "Ġimp at",
      "ĠP olly",
      "Ġco coa",
      "Ġj et",
      "Ġg ir",
      "Ġtra sh",
      "Ġle ash",
      "Ġcompassion ate",
      "Ġtr ump",
      "Ġf u",
      "Ġcri cket",
      "Ġch ubby",
      "Ġpast a",
      "Ġsh ine",
      "Ġsc reen",
      "Ġsec ond",
      "ĠG eorge",
      "Ġth read",
      "Ġrep e",
      "Ġattract ive",
      "or able",
      "Ġdist urb",
      "Ġdecor ate",
      "Ġbe ep",
      "Ġt ire",
      "um mer",
      "Ġletter s",
      "Ġstir red",
      "Ġstret ched",
      "Ġto oth",
      "Ġsuc ceed",
      "Ġo tter",
      "Ġwis hes",
      "ĠBrown ie",
      "Ġimpat ient",
      "Ġch ance",
      "Ġbright er",
      "Ġcompetit ive",
      "Ġstick ers",
      "Ġany way",
      "Ġstep s",
      "ĠC l",
      "Ġqu ar",
      "Ġtrou bled",
      "ar ian",
      "Ġpant s",
      "c col",
      "Ġatt ic",
      "Ġj ug",
      "ccol i",
      "st ic",
      "Ġrest less",
      "Ġfur ther",
      "Ġdisgust ing",
      "n oon",
      "Ġit self",
      "Ġafter noon",
      "aur ant",
      "Ġd ess",
      "Ġb et",
      "Ġm ug",
      "Ġcu be",
      "ĠA l",
      "s es",
      "Ġad orable",
      "G ive",
      "Ġrest aurant",
      "Ġcarp et",
      "Ġc ase",
      "Ġcand le",
      "Ġpress ed",
      "Ġt ap",
      "Ġcl ub",
      "Ġsho e",
      "Ġp un",
      "Ġdist ant",
      "ol in",
      "Ġfear ful",
      "Ġcoo ked",
      "Ġenv ious",
      "Ġrespect ful",
      "ll ie",
      "Ġtr ay",
      "a ked",
      "Ġo stri",
      "op ter",
      "ic opter",
      "ia stic",
      "Ġall ig",
      "Ġfor t",
      "Ġtrump et",
      "Ġenthus iastic",
      "Ġh ipp",
      "Ġsk ip",
      "g n",
      "Ġwa ff",
      "Ġnut s",
      "c ome",
      "Ġsome where",
      "Ġnow here",
      "ir it",
      "Ġfil thy",
      "Ġg or",
      "Ġsc rew",
      "n ight",
      "Ġhel icopter",
      "Ġsweet heart",
      "ar oo",
      "Ġa nts",
      "ang aroo",
      "Ġbat ht",
      "ĠA re",
      "Ġv ine",
      "Ġexp er",
      "Ġbatht ub",
      "Ġr ibb",
      "Ġre co",
      "L ittle",
      "Ġso ar",
      "Ġbro ccoli",
      "ĠW ould",
      "Ġp ipe",
      "Ġstart s",
      "Ġc ards",
      "gg ing",
      "Ġmonkey s",
      "p s",
      "Ġh ook",
      "Ġle op",
      "Ġadm ire",
      "Ġh arsh",
      "Ġp or",
      "Ġb ri",
      "Ġrep air",
      "Ġbel t",
      "Ġgigg le",
      "Ġk angaroo",
      "Ġexpl ain",
      "Ġlisten ing",
      "ĠS h",
      "Ġpo em",
      "Ġun pack",
      "Ġbark ing",
      "Ġshout s",
      "p ar",
      "Ġs ent",
      "Ġbicy cle",
      "Gra ndma",
      "im i",
      "op l",
      "Ġtem p",
      "er opl",
      "st airs",
      "Ġsand box",
      "Ġback pack",
      "Ġme as",
      "Ġm ama",
      "Ġcount ry",
      "Ġscoot er",
      "Ġhapp ier",
      "Ġcow s",
      "Ġmess age",
      "Ġa eropl",
      "ĠW here",
      "Ġqu ite",
      "Ġse par",
      "ĠTweet ie",
      "cy cle",
      "g ie",
      "Ġc ush",
      "ĠS m",
      "Ġspe ak",
      "Ġs ummer",
      "Ġsp ell",
      "Ġt en",
      "Ġimp ro",
      "ĠJoe y",
      "isk ers",
      "uc t",
      "Ġforg ave",
      "Ġob ser",
      "h ood",
      "Ġst ared",
      "Ġl id",
      "Ġfire work",
      "Ġyog urt",
      "Ġdess ert",
      "Ġu r",
      "Ġtri pped",
      "Ġsqu ash",
      ". .",
      "ĠL ee",
      "Ġsp irit",
      "Ġwhe at",
      "Ġleop ard",
      "Ġgi ven",
      "Ġhe dge",
      "Ġsor t",
      "Ġmod est",
      "ĠEvery thing",
      "Ġc omet",
      "Ġpaw s",
      "Ġostri ch",
      "Ġgor illa",
      "Ġme at",
      "Ġbre at",
      "s hed",
      "Ġmel on",
      "Dad dy",
      "ap a",
      "i pping",
      "Ġpa id",
      "Ġresc ue",
      "Ġallig ator",
      "Ġmu le",
      "Ġspl it",
      "Ġpro v",
      "ĠS ophie",
      "Ġp urse",
      "Ġsh ade",
      "Ġhipp o",
      "Ġs le",
      "y ear",
      "Ġca ct",
      "Ġhum an",
      "Ġs ize",
      "Every one",
      "Ġin se",
      "Ġvi olin",
      "Ġpil ot",
      "J enny",
      "ĠA lex",
      "Ġstart ing",
      "Ġha ll",
      "Ġjelly fish",
      "Ġb in",
      "ĠSn ow",
      "Ġp al",
      "Ġra ft",
      "Ġreco gn",
      "Ġho les",
      "Ġshe et",
      "Ġcat s",
      "Ġf le",
      "Ġro ared",
      "uck ed",
      "B ye",
      "Ġorgan ize",
      "Ġlight ning",
      "Ġr ice",
      "Ġgrab s",
      "Ġswing ing",
      "Ġb ur",
      "b ul",
      "e er",
      "Ġfind s",
      "oph one",
      "ĠP at",
      "Ġf ive",
      "c i",
      "Ġpand a",
      "Ġrid ing",
      "Ġpus hing",
      "ĠR ed",
      "Ġt ax",
      "Ġbanan as",
      "Ġtriang le",
      "Ġhair cut",
      "Ġbu zz",
      "Ġbeh ave",
      "ĠJ erry",
      "lc ano",
      "Ġo at",
      "Ġener gy",
      "Ġcact us",
      "se um",
      "Ġkn ot",
      "Ġch alk",
      "eb ook",
      "al ed",
      "Ġend ed",
      "Ġnot ebook",
      "Ġb ikes",
      "Ġeven ing",
      "Ġro d",
      "in king",
      "Ġsc old",
      "Ġsal t",
      "Ġpor ch",
      "il ing",
      "Ġe ither",
      "Ġch ain",
      "Ġpull s",
      "Ġl uck",
      "Ġmu seum",
      "Ġp ed",
      "Ġle ar",
      "Ġlear nt",
      "ĠAnd y",
      "Ġbear s",
      "ur ch",
      "Ġvo lcano",
      "Ġpal ace",
      "Ġl end",
      "Ġstrawber ry",
      "Ġwall et",
      "Ġer as",
      "Ġfrown ed",
      "Ġjo kes",
      "Ġapp re",
      "Ġswe ater",
      "Ġbo ots",
      "Ġavo c",
      "Ġla und",
      "Ġroll ing",
      "Ġappre ci",
      "Ġstr ugg",
      "Ġtra ins",
      "Ġso ck",
      "Ġshop keeper",
      "Ġm ath",
      "Ġm ild",
      "Ġlaund ry",
      "Ġbar rel",
      "Ġsil ver",
      "ir on",
      "Ġput ting",
      "Ġmagn et",
      "u be",
      "Ġvis ited",
      "pl ay",
      "Ġdraw ings",
      "Ġhad n",
      "Ġtax i",
      "Ġre ind",
      "Ġh ive",
      "Ġpap ers",
      "Ġste ak",
      "Ġmic r",
      "Ġpo le",
      "ĠT r",
      "Ġli ons",
      "Ġstick er",
      "oo ped",
      "ĠB et",
      "Ġneighb our",
      "Ġunl ock",
      "ic er",
      "Ġquar rel",
      "Ġgo al",
      "Ġju dge",
      "Ġtri cks",
      "Ġo l",
      "Ġfall ing",
      "Ġsa us",
      "Ġpengu in",
      "Ġzoom ed",
      "ast ic",
      "ĠB unny",
      "Ġam bul",
      "Ġin k",
      "Ġsail or",
      "el ery",
      "Ġsh ield",
      "Ġshel ter",
      "c ast",
      "Ġcl apping",
      "Ġp ad",
      "Ġclimb ing",
      "hin o",
      "Ġal ive",
      "Ġr ag",
      "Ġin sist",
      "Ġair port",
      "Ġlean ed",
      "Ġapolog ized",
      "ĠB uddy",
      "ed y",
      "Ġsmell s",
      "f fe",
      "Ġmicr ophone",
      "Ġt ube",
      "Ġmar ched",
      "ffe e",
      "Ġdis play",
      "Ġsh akes",
      "Ġav ail",
      "Ġsoft ly",
      "Ġreind eer",
      "Ġsand cast",
      "ĠWh iskers",
      "Ġg ro",
      "Ġambul ance",
      "Ġfil m",
      "Ġcol ours",
      "ha ppy",
      "ag gie",
      "Ġd ive",
      "an ic",
      "Ġo y",
      "Ġdis hes",
      "Ġspr ink",
      "Ġche cked",
      "Ġbelong s",
      "Ġrubb er",
      "en se",
      "Ġcostum e",
      "sel y",
      "H a",
      "Ġfield s",
      "Ġaeropl ane",
      "ch anic",
      "Ġshr imp",
      "Ġsho vel",
      "Ġsk ill",
      "g es",
      "Ġw ool",
      "Ġr hino",
      "Ġavail able",
      "Ġy ach",
      "Ġpus hes",
      "Ġso il",
      "Ġc elery",
      "Ġinc l",
      "Ġme chanic",
      "ĠP aul",
      "r on",
      "op hy",
      "ĠSm ith",
      "Ġeras er",
      "Ġpe ek",
      "Ġshould n",
      "Ġhop ing",
      "Ġmed al",
      "n am",
      "Ġele v",
      "Ġar t",
      "Ġplan et",
      "n ger",
      "ĠP apa",
      "Ġbasket ball",
      "Ġpol ish",
      "Ġst om",
      "Ġgra pes",
      "Ġk itty",
      "Ġtr ophy",
      "Ġperfect ly",
      "Ġrain ing",
      "Ġbu l",
      "Ġimag ine",
      "Ġinse ct",
      "Ġfeel ings",
      "a it",
      "ree ze",
      "Ġmar ry",
      "Ġwin ter",
      "Ġfis her",
      "Ġun happy",
      "Ġsh ort",
      "Ġre ver",
      "Ġcomplet e",
      "Ġplay er",
      "Ġdi ary",
      "Ġclo sely"
    ]
  }
}