{
  "version": "1.0",
  "truncation": null,
  "padding": null,
  "added_tokens": [
    {
      "id": 0,
      "content": "<|endoftext|>",
      "single_word": false,
      "lstrip": false,
      "rstrip": false,
      "normalized": false,
      "special": true
    }
  ],
  "normalizer": null,
  "pre_tokenizer": {
    "type": "ByteLevel",
    "add_prefix_space": false,
    "trim_offsets": true,
    "use_regex": true
  },
  "post_processor": {
    "type": "ByteLevel",
    "add_prefix_space": true,
    "trim_offsets": false,
    "use_regex": true
  },
  "decoder": {
    "type": "ByteLevel",
    "add_prefix_space": true,
    "trim_offsets": true,
    "use_regex": true
  },
  "model": {
    "type": "BPE",
    "dropout": null,
    "unk_token": null,
    "continuing_subword_prefix": null,
    "end_of_word_suffix": null,
    "fuse_unk": false,
    "byte_fallback": false,
    "vocab": {
      "<|endoftext|>": 0,
      "!": 1,
      "\"": 2,
      "#": 3,
      "$": 4,
      "%": 5,
      "&": 6,
      "'": 7,
      "(": 8,
      ")": 9,
      "*": 10,
      "+": 11,
      ",": 12,
      "-": 13,
      ".": 14,
      "/": 15,
      "0": 16,
      "1": 17,
      "2": 18,
      "3": 19,
      "4": 20,
      "5": 21,
      "6": 22,
      "7": 23,
      "8": 24,
      "9": 25,
      ":": 26,
      ";": 27,
      "<": 28,
      "=": 29,
      ">": 30,
      "?": 31,
      "@": 32,
      "A": 33,
      "B": 34,
      "C": 35,
      "D": 36,
      "E": 37,
      "F": 38,
      "G": 39,
      "H": 40,
      "I": 41,
      "J": 42,
      "K": 43,
      "L": 44,
      "M": 45,
      "N": 46,
      "O": 47,
      "P": 48,
      "Q": 49,
      "R": 50,
      "S": 51,
      "T": 52,
      "U": 53,
      "V": 54,
      "W": 55,
      "X": 56,
      "Y": 57,
      "Z": 58,
      "[": 59,
      "\\": 60,
      "]": 61,
      "`": 62,
      "a": 63,
      "b": 64,
      "c": 65,
      "d": 66,
      "e": 67,
      "f": 68,
      "g": 69,
      "h": 70,
      "i": 71,
      "j": 72,
      "k": 73,
      "l": 74,
      "m": 75,
      "n": 76,
      "o": 77,
      "p": 78,
      "q": 79,
      "r": 80,
      "s": 81,
      "t": 82,
      "u": 83,
      "v": 84,
      "w": 85,
      "x": 86,
      "y": 87,
      "z": 88,
      "{": 89,
      "|": 90,
      "}": 91,
      "~": 92,
      "¢": 93,
      "£": 94,
      "¦": 95,
      "¨": 96,
      "©": 97,
      "°": 98,
      "¹": 99,
      "Â": 100,
      "â": 101,
      "ĉ": 102,
      "Ċ": 103,
      "Ġ": 104,
      "Ģ": 105,
      "ĺ": 106,
      "Ļ": 107,
      "he": 108,
      "Ġt": 109,
      "Ġa": 110,
      "Ġs": 111,
      "Ġw": 112,
      "nd": 113,
      "Ġthe": 114,
      "ed": 115,
      "Ġand": 116,
      "Ġto": 117,
      "Ġb": 118,
      "in": 119,
      "Ġh": 120,
      "Ġwa": 121,
      "re": 122,
      "ou": 123,
      "Ġf": 124,
      "it": 125,
      "Ġl": 126,
      "Ġc": 127,
      "Ġd": 128,
      "er": 129,
      "Ġhe": 130,
      "Ġm": 131,
      "Ġp": 132,
      "Ġwas": 133,
      "om": 134,
      "ĠT": 135,
      "Ġo": 136,
      "ay": 137,
      "ar": 138,
      "is": 139,
      "ing": 140,
      "il": 141,
      "Ġg": 142,
      "id": 143,
      "at": 144,
      "en": 145,
      "Ġn": 146,
      "Ġsa": 147,
      "Ġha": 148,
      "ĠS": 149,
      "ĠThe": 150,
      "an": 151,
      "im": 152,
      "or": 153,
      "on": 154,
      "Ġit": 155,
      "Ġth": 156,
      "ll": 157,
      "le": 158,
      "ĠH": 159,
      "Ġher": 160,
      "et": 161,
      "ot": 162,
      "ir": 163,
      "ĠShe": 164,
      "es": 165,
      "ĠHe": 166,
      "Ġin": 167,
      "ver": 168,
      "ut": 169,
      "ow": 170,
      "ck": 171,
      "ĠThey": 172,
      "Ġe": 173,
      "Ġu": 174,
      "Ġ\"": 175,
      "ld": 176,
      "Ġy": 177,
      "oo": 178,
      "Ġsaid": 179,
      "ily": 180,
      "ig": 181,
      "Ġbe": 182,
      "Ġr": 183,
      "am": 184,
      "Ġst": 185,
      "ĠI": 186,
      "ce": 187,
      "ke": 188,
      "Ġshe": 189,
      "pp": 190,
      "ith": 191,
      "ve": 192,
      "Ġwith": 193,
      "Lily": 194,
      "On": 195,
      "Ġon": 196,
      "Ġof": 197,
      "ked": 198,
      "Ġyou": 199,
      "ri": 200,
      "Ġhis": 201,
      "Ġso": 202,
      "Ġpl": 203,
      "nt": 204,
      "ad": 205,
      "very": 206,
      "Ġday": 207,
      "Ġthat": 208,
      "Ġup": 209,
      "Ġplay": 210,
      "Ġhad": 211,
      "st": 212,
      "ĠLily": 213,
      "Ġthey": 214,
      "Ġwe": 215,
      "Ġmom": 216,
      "'s": 217,
      "Ġfor": 218,
      "el": 219,
      "my": 220,
      "ĠB": 221,
      "un": 222,
      "ould": 223,
      "The": 224,
      "Ġli": 225,
      "ch": 226,
      "ent": 227,
      "Ġhapp": 228,
      "itt": 229,
      "Ġwant": 230,
      "Ġsh": 231,
      "out": 232,
      "her": 233,
      "ly": 234,
      "Ġdo": 235,
      "se": 236,
      "ome": 237,
      "Ġvery": 238,
      "Ġnot": 239,
      "ound": 240,
      "end": 241,
      "ime": 242,
      "ittle": 243,
      "all": 244,
      "Ġwh": 245,
      "Ġtime": 246,
      "Ġlittle": 247,
      "Ġk": 248,
      "Ġthere": 249,
      "al": 250,
      "Ġne": 251,
      "ht": 252,
      "ĠM": 253,
      "Ġre": 254,
      "Ġhappy": 255,
      "Ġbig": 256,
      "Ġsm": 257,
      "ĠĊ": 258,
      ".\"": 259,
      "Ġbut": 260,
      "ĠIt": 261,
      "Ġis": 262,
      "ack": 263,
      "Ġsaw": 264,
      "Ġan": 265,
      "riend": 266,
      "Ġfriend": 267,
      "Ġas": 268,
      "ry": 269,
      "ra": 270,
      "'t": 271,
      "!\"": 272,
      "One": 273,
      "ide": 274,
      "ake": 275,
      "ved": 276,
      "ug": 277,
      "Ġloo": 278,
      "ter": 279,
      "Once": 280,
      "Ġwere": 281,
      "Ġlo": 282,
      "ore": 283,
      "ec": 284,
      "Ġhim": 285,
      "Ġtoo": 286,
      "Ġgo": 287,
      "Ġbo": 288,
      "ĠTim": 289,
      "Ġse": 290,
      "irl": 291,
      "Ġupon": 292,
      "Ġwanted": 293,
      "Ġj": 294,
      "Ġgirl": 295,
      "ard": 296,
      "Ġare": 297,
      "ill": 298,
      "Ġout": 299,
      "Ġthem": 300,
      "Ġat": 301,
      "ind": 302,
      "ur": 303,
      "fu": 304,
      "way": 305,
      "Ġsp": 306,
      "Ġtheir": 307,
      "Ġcould": 308,
      "Ġdid": 309,
      "Ġsmil": 310,
      "ĠA": 311,
      "hen": 312,
      "Ġhave": 313,
      "ain": 314,
      "art": 315,
      "Ġex": 316,
      "hed": 317,
      "Ġwent": 318,
      "rom": 319,
      "?\"": 320,
      "Ġar": 321,
      "ic": 322,
      "Ġcan": 323,
      "lp": 324,
      "Ġnam": 325,
      "ĠJ": 326,
      "ful": 327,
      "Ġfriends": 328,
      "ood": 329,
      "Ġall": 330,
      "hing": 331,
      "Ġhelp": 332,
      "ight": 333,
      "ĠBen": 334,
      "Ġkn": 335,
      "um": 336,
      "ark": 337,
      "one": 338,
      "Ġback": 339,
      "Ġfun": 340,
      "Ġcl": 341,
      "Ġsay": 342,
      "are": 343,
      "You": 344,
      "ĠTom": 345,
      "Ġno": 346,
      "Ġle": 347,
      "Ġnamed": 348,
      "op": 349,
      "Ġsmiled": 350,
      "Ġal": 351,
      "Ġloved": 352,
      "Ġsc": 353,
      "oug": 354,
      "ĠOne": 355,
      "side": 356,
      "elt": 357,
      "Ġasked": 358,
      "Ġtoy": 359,
      "Ġman": 360,
      "ick": 361,
      "Ġfelt": 362,
      "Ġfe": 363,
      "ĠTimmy": 364,
      "Ġlike": 365,
      "Ġlooked": 366,
      "ame": 367,
      "Ġaround": 368,
      "Ġsome": 369,
      "Ġsee": 370,
      "Ġme": 371,
      "omet": 372,
      "Ġbir": 373,
      "ure": 374,
      "Ġro": 375,
      "Ġbr": 376,
      "ĠW": 377,
      "get": 378,
      "Ġboy": 379,
      "Ġwould": 380,
      "ice": 381,
      "Ġstart": 382,
      "ong": 383,
      "Ġbird": 384,
      "ss": 385,
      "Ġsomet": 386,
      "Ġfa": 387,
      "dd": 388,
      "ings": 389,
      "Ġag": 390,
      "Ġwor": 391,
      ",\"": 392,
      "Ġwhat": 393,
      "ade": 394,
      "king": 395,
      "Ġmake": 396,
      "ie": 397,
      "gether": 398,
      "own": 399,
      "ĠBut": 400,
      "Ġtre": 401,
      "Ġran": 402,
      "Ġaway": 403,
      "ag": 404,
      "Ġstarted": 405,
      "ared": 406,
      "ĠYou": 407,
      "if": 408,
      "oud": 409,
      "Ġtogether": 410,
      "Ġsays": 411,
      "Ġmade": 412,
      "Ġcar": 413,
      "Ġsomething": 414,
      "ited": 415,
      "Ġpark": 416,
      "ther": 417,
      "Ġco": 418,
      "Ġsad": 419,
      "Ġnew": 420,
      "Ġother": 421,
      "Ġexc": 422,
      "Ġput": 423,
      "Ġfrom": 424,
      "Ġpr": 425,
      "ell": 426,
      "Ġla": 427,
      "ĠL": 428,
      "Ġmu": 429,
      "ble": 430,
      "Ġagain": 431,
      "Ġhug": 432,
      "Ġhome": 433,
      "Ġwhen": 434,
      "ook": 435,
      "ach": 436,
      "Ġgood": 437,
      "ep": 438,
      "Ġwho": 439,
      "Ġfound": 440,
      "est": 441,
      "ried": 442,
      "hat": 443,
      "Ġthen": 444,
      "Ġfl": 445,
      "Ġdec": 446,
      "Ġch": 447,
      "Ġwal": 448,
      "pped": 449,
      "as": 450,
      "qu": 451,
      "Ġget": 452,
      "Ġplaying": 453,
      "ought": 454,
      "pl": 455,
      "ally": 456,
      "ĠE": 457,
      "Ġsw": 458,
      "Ġthings": 459,
      "ous": 460,
      "Ġexcited": 461,
      "Ġgot": 462,
      "uck": 463,
      "ny": 464,
      "Ġliked": 465,
      "ro": 466,
      "ided": 467,
      "Ġdecided": 468,
      "Ġcame": 469,
      "Ġevery": 470,
      "ave": 471,
      "ax": 472,
      "Ġbl": 473,
      "na": 474,
      "ĠD": 475,
      "Ġyour": 476,
      "ara": 477,
      "Ġv": 478,
      "Ġscared": 479,
      "ust": 480,
      "ĠMom": 481,
      "Ġdown": 482,
      "Ġone": 483,
      "ouse": 484,
      "Ġdog": 485,
      "Ġbec": 486,
      "Ġfind": 487,
      "Ġcare": 488,
      "ist": 489,
      "ue": 490,
      "Ġfeel": 491,
      "udd": 492,
      "Ġthan": 493,
      "Ġab": 494,
      "Ġdad": 495,
      "ap": 496,
      "Ġke": 497,
      "Ġmy": 498,
      "Ġdidn": 499,
      "arn": 500,
      "nna": 501,
      "ways": 502,
      "Ġgr": 503,
      "They": 504,
      "Ġlook": 505,
      "our": 506,
      "Ġmommy": 507,
      "nder": 508,
      "Ġwill": 509,
      "us": 510,
      "Ġalways": 511,
      "Ġgra": 512,
      "ess": 513,
      "ant": 514,
      "fe": 515,
      "Ġpo": 516,
      "Ġabout": 517,
      "Ġtook": 518,
      "Ġkne": 519,
      "Ġlot": 520,
      "bb": 521,
      "Ġtoys": 522,
      "Ġoutside": 523,
      "ĠF": 524,
      "ers": 525,
      "Ġtree": 526,
      "ise": 527,
      "ite": 528,
      "Ġthought": 529,
      "Ġball": 530,
      "Ġmore": 531,
      "eci": 532,
      "ened": 533,
      "ched": 534,
      "Ġta": 535,
      "Ġlearn": 536,
      "Ġold": 537,
      "ĠSam": 538,
      "ret": 539,
      "Ġho": 540,
      "Ġint": 541,
      "ged": 542,
      "Ġknow": 543,
      "Ġcat": 544,
      "Ġlaug": 545,
      "ĠMax": 546,
      "Ġknew": 547,
      "Ġtake": 548,
      "ecial": 549,
      "udden": 550,
      "Ġspecial": 551,
      "Ġsor": 552,
      "ive": 553,
      "fter": 554,
      "uddenly": 555,
      "Ġany": 556,
      "Ġpe": 557,
      "Ġhow": 558,
      "ia": 559,
      "Ġtr": 560,
      "ma": 561,
      "Ġshow": 562,
      "au": 563,
      "ink": 564,
      "Ġmuch": 565,
      "Ġtw": 566,
      "ish": 567,
      "But": 568,
      "and": 569,
      "Ġrun": 570,
      "ven": 571,
      "Ġsorry": 572,
      "Ġsl": 573,
      "Ġhand": 574,
      "Ġhouse": 575,
      "Ġop": 576,
      "Ġor": 577,
      "Ġsk": 578,
      "Ġsun": 579,
      "Ġmo": 580,
      "Ġtried": 581,
      "Ġclo": 582,
      "Ġtold": 583,
      "Ġinto": 584,
      "Ġinside": 585,
      "ate": 586,
      "Ġcouldn": 587,
      "Ġif": 588,
      "dy": 589,
      "Ġen": 590,
      "Ġwater": 591,
      "Ġover": 592,
      "ank": 593,
      "Ġproud": 594,
      "ump": 595,
      "Ġthis": 596,
      "Ġgave": 597,
      "Ġqu": 598,
      "Ġheard": 599,
      "Ġnever": 600,
      "ace": 601,
      "ause": 602,
      "ty": 603,
      "Ġeat": 604,
      "by": 605,
      "Tom": 606,
      "Ġexpl": 607,
      "Ġplayed": 608,
      "ĠSara": 609,
      "Ġroom": 610,
      "Ġeach": 611,
      "ĠEvery": 612,
      "other": 613,
      "Ġpick": 614,
      "Ġpret": 615,
      "ion": 616,
      "etter": 617,
      "ĠWe": 618,
      "ge": 619,
      "Mom": 620,
      "Ġjust": 621,
      "Ġgre": 622,
      "'m": 623,
      "Ġbecause": 624,
      "here": 625,
      "Ġhugged": 626,
      "Ġoff": 627,
      "ĠAnna": 628,
      "ak": 629,
      "Ġwat": 630,
      "Ġcom": 631,
      "oth": 632,
      "Ġneed": 633,
      "Ġbox": 634,
      "ile": 635,
      "Ġstr": 636,
      "Ġnice": 637,
      "Ġmany": 638,
      "Ġbear": 639,
      "uc": 640,
      "Ġsmall": 641,
      "Ġfo": 642,
      "iz": 643,
      "Ġjo": 644,
      "Ġbu": 645,
      "Ġlong": 646,
      "ort": 647,
      "ving": 648,
      "imal": 649,
      "Ġanimal": 650,
      "ine": 651,
      "ough": 652,
      "gry": 653,
      "Ġtry": 654,
      "Ġunt": 655,
      "sel": 656,
      "ild": 657,
      "urt": 658,
      "Ġuntil": 659,
      "ĠJack": 660,
      "Ġlearned": 661,
      "sed": 662,
      "Ġim": 663,
      "Ġkind": 664,
      "Ġbetter": 665,
      "Ġflow": 666,
      "ft": 667,
      "Ġend": 668,
      "Ġlove": 669,
      "Ġcall": 670,
      "Ġad": 671,
      "vent": 672,
      "ĠJo": 673,
      "Ġbest": 674,
      "em": 675,
      "Ġdon": 676,
      "ull": 677,
      "He": 678,
      "Yes": 679,
      "Ġsn": 680,
      "ady": 681,
      "urp": 682,
      "aut": 683,
      "Ġcle": 684,
      "ream": 685,
      "urn": 686,
      "ars": 687,
      "ĠAnd": 688,
      "ĠMia": 689,
      "ber": 690,
      "arden": 691,
      "Ġgarden": 692,
      "ves": 693,
      "Ġeven": 694,
      "Ġfast": 695,
      "ĠC": 696,
      "Ġcareful": 697,
      "Ġbeaut": 698,
      "ĠSo": 699,
      "ĠHer": 700,
      "lly": 701,
      "pt": 702,
      "Th": 703,
      "Ġfi": 704,
      "Ġthanked": 705,
      "Ġsky": 706,
      "Ġbra": 707,
      "Ġby": 708,
      "ies": 709,
      "Ġche": 710,
      "Ġlaughed": 711,
      "It": 712,
      "Ġjump": 713,
      "self": 714,
      "Ġgl": 715,
      "ase": 716,
      "Ġloud": 717,
      "Ġte": 718,
      "wn": 719,
      "iny": 720,
      "Ġway": 721,
      "lew": 722,
      "Ġbeauti": 723,
      "Ġlots": 724,
      "Ġcome": 725,
      "Ġlist": 726,
      "Ġbeautiful": 727,
      "Ġra": 728,
      "Ġwo": 729,
      "Ġhard": 730,
      "Ġfam": 731,
      "Ġanimals": 732,
      "Ġstill": 733,
      "hn": 734,
      "Ġhurt": 735,
      "Ġunder": 736,
      "ect": 737,
      "ning": 738,
      "Ġstay": 739,
      "ĠFrom": 740,
      "ĠThen": 741,
      "ct": 742,
      "Ġlet": 743,
      "ĠHis": 744,
      "Ġboth": 745,
      "Ġsafe": 746,
      "Ġcu": 747,
      "ool": 748,
      "hes": 749,
      "Ġimp": 750,
      "Ġlived": 751,
      "ree": 752,
      "Ġcol": 753,
      "Ġrem": 754,
      "be": 755,
      "Tim": 756,
      "Ġtwo": 757,
      "Ġbad": 758,
      "ople": 759,
      "ane": 760,
      "Ġbook": 761,
      "kay": 762,
      "ucy": 763,
      "Ġwalked": 764,
      "ast": 765,
      "ob": 766,
      "ock": 767,
      "Ġits": 768,
      "urpr": 769,
      "Ġbrave": 770,
      "Ġfamily": 771,
      "Ġshould": 772,
      "ished": 773,
      "Ġflew": 774,
      "Ġsurpr": 775,
      "igh": 776,
      "When": 777,
      "ress": 778,
      "Ġpeople": 779,
      "Ġfin": 780,
      "Ġcalled": 781,
      "Ġstor": 782,
      "Ġred": 783,
      "Ġangry": 784,
      "ip": 785,
      "Ġsoon": 786,
      "Ġfore": 787,
      "No": 788,
      "Ġkept": 789,
      "fore": 790,
      "led": 791,
      "Ġfly": 792,
      "Ġdan": 793,
      "Let": 794,
      "xt": 795,
      "Ġshare": 796,
      "ised": 797,
      "Ġpic": 798,
      "ĠWhen": 799,
      "Ġgoing": 800,
      "Ġpretty": 801,
      "Ġdoor": 802,
      "ĠP": 803,
      "dded": 804,
      "Ġclean": 805,
      "Ġkeep": 806,
      "Ġrock": 807,
      "ummy": 808,
      "Ġadvent": 809,
      "Ġnow": 810,
      "Ġdra": 811,
      "ied": 812,
      "ary": 813,
      "Ġcon": 814,
      "illy": 815,
      "age": 816,
      "Ġbefore": 817,
      "Ġreal": 818,
      "Ġshiny": 819,
      "Ġnoise": 820,
      "Ġopened": 821,
      "Ġide": 822,
      "Ġwind": 823,
      "Ġexplore": 824,
      "Ġcry": 825,
      "Ġsto": 826,
      "Ġdoll": 827,
      "What": 828,
      "Ġground": 829,
      "so": 830,
      "Ben": 831,
      "Ġturn": 832,
      "les": 833,
      "Ġalso": 834,
      "Ġfar": 835,
      "Ġidea": 836,
      "That": 837,
      "Ġey": 838,
      "Ġfr": 839,
      "oon": 840,
      "Ġcolor": 841,
      "Ġwar": 842,
      "Ġfeeling": 843,
      "Ġpicked": 844,
      "oy": 845,
      "imb": 846,
      "Ġnodded": 847,
      "Ġnext": 848,
      "th": 849,
      "Ġun": 850,
      "ĠLucy": 851,
      "Ġwalking": 852,
      "thing": 853,
      "Ġwhile": 854,
      "ture": 855,
      "Ġclimb": 856,
      "eet": 857,
      "Ġma": 858,
      "Ġbed": 859,
      "Ġthr": 860,
      "Ġadventure": 861,
      "ĠDad": 862,
      "uch": 863,
      "Ġsmile": 864,
      "kes": 865,
      "Ġhas": 866,
      "iced": 867,
      "Thank": 868,
      "Ġbeing": 869,
      "ger": 870,
      "ious": 871,
      "Ġfood": 872,
      "ĠSp": 873,
      "Ġdif": 874,
      "aybe": 875,
      "joy": 876,
      "Ġwr": 877,
      "Ġpicture": 878,
      "Ġrepl": 879,
      "Ġclos": 880,
      "ted": 881,
      "ĠG": 882,
      "Ġgive": 883,
      "ff": 884,
      "Ġdel": 885,
      "Ġlooking": 886,
      "Ġwait": 887,
      "Ġbro": 888,
      "ting": 889,
      "ught": 890,
      "Ġthink": 891,
      "Ġtow": 892,
      "ac": 893,
      "Ġtruck": 894,
      "Ġafter": 895,
      "Ġstopped": 896,
      "Ġeyes": 897,
      "Ġlisten": 898,
      "Ġown": 899,
      "Ġwalk": 900,
      "ember": 901,
      "ĠSuddenly": 902,
      "Ġgreat": 903,
      "Ġbre": 904,
      "Ġimport": 905,
      "Ġvo": 906,
      "Suddenly": 907,
      "Ġforest": 908,
      "Ġwonder": 909,
      "ized": 910,
      "Ġenjoy": 911,
      "Ġflowers": 912,
      "Ġever": 913,
      "Ġhands": 914,
      "bbit": 915,
      "Ġnoticed": 916,
      "Ġhead": 917,
      "Ġblue": 918,
      "Ġapp": 919,
      "Ġimportant": 920,
      "Ġshout": 921,
      "Ġnear": 922,
      "Ġquick": 923,
      "Ġremember": 924,
      "Ġdis": 925,
      "Ġreplied": 926,
      "Ġde": 927,
      "irst": 928,
      "Ġfish": 929,
      "able": 930,
      "She": 931,
      "Ġac": 932,
      "Ġsound": 933,
      "Ġshowed": 934,
      "maz": 935,
      "llow": 936,
      "Ġrain": 937,
      "Ġamaz": 938,
      "Ġwatch": 939,
      "Ġrabbit": 940,
      "Ġslide": 941,
      "Ġwork": 942,
      "Ġus": 943,
      "lease": 944,
      "Ġokay": 945,
      "gan": 946,
      "Ġtal": 947,
      "bye": 948,
      "fere": 949,
      "ĠSpot": 950,
      "Ġdiffere": 951,
      "Ġright": 952,
      "bbed": 953,
      "Ġwatched": 954,
      "day": 955,
      "Ġask": 956,
      "Ġmean": 957,
      "Ġbright": 958,
      "Ġeveryone": 959,
      "Ġye": 960,
      "So": 961,
      "Ġstrong": 962,
      "Ġsqu": 963,
      "Ġmor": 964,
      "Ġfollow": 965,
      "Ġuse": 966,
      "Ġbeen": 967,
      "Ġtra": 968,
      "Ġwhere": 969,
      "Ġstick": 970,
      "ered": 971,
      "Ġquickly": 972,
      "We": 973,
      "ath": 974,
      "Ġvoice": 975,
      "ĠN": 976,
      "ĠBob": 977,
      "Ġbecame": 978,
      "ĠSue": 979,
      "Ġyell": 980,
      "ĠMommy": 981,
      "Ġour": 982,
      "Ġsure": 983,
      "Ġdifferent": 984,
      "Ġboat": 985,
      "ng": 986,
      "Ġchild": 987,
      "Ġcuri": 988,
      "Ġstore": 989,
      "Ġplace": 990,
      "Ġhigh": 991,
      "Ġface": 992,
      "Ġgoodbye": 993,
      "unny": 994,
      "ange": 995,
      "ĠR": 996,
      "Anna": 997,
      "aught": 998,
      "Ġwarm": 999,
      "Ġcloser": 1000,
      "Ġhop": 1001,
      "Ġam": 1002,
      "Ġdress": 1003,
      "Ġcr": 1004,
      "Look": 1005,
      "Ġfav": 1006,
      "Ġmag": 1007,
      "Ġcook": 1008,
      "Ġforg": 1009,
      "Ġcurious": 1010,
      "Jo": 1011,
      "Ġbel": 1012,
      "Ġdoes": 1013,
      "ass": 1014,
      "ndma": 1015,
      "Sara": 1016,
      "ount": 1017,
      "co": 1018,
      "Ġtell": 1019,
      "leep": 1020,
      "Ġthree": 1021,
      "Ġnight": 1022,
      "more": 1023,
      "Ġanymore": 1024,
      "ila": 1025,
      "Ġbutter": 1026,
      "Her": 1027,
      "Ġopen": 1028,
      "Ġcake": 1029,
      "ired": 1030,
      "Ġfirst": 1031,
      "itc": 1032,
      "Ġhere": 1033,
      "imes": 1034,
      "Ġbus": 1035,
      "iss": 1036,
      "ached": 1037,
      "Ġblock": 1038,
      "Ġz": 1039,
      "Ġpull": 1040,
      "Ġpain": 1041,
      "orn": 1042,
      "ĠTh": 1043,
      "Ġpu": 1044,
      "Ġsweet": 1045,
      "Ġfell": 1046,
      "Can": 1047,
      "Ġmon": 1048,
      "Ġkid": 1049,
      "ĠJohn": 1050,
      "isy": 1051,
      "Ġcont": 1052,
      "Ġgrabbed": 1053,
      "Ġlea": 1054,
      "Ġba": 1055,
      "Ġonly": 1056,
      "Ġhelped": 1057,
      "Ġbirds": 1058,
      "Ġjumped": 1059,
      "Ġru": 1060,
      "Ġsand": 1061,
      "Ġglad": 1062,
      "itchen": 1063,
      "Ġkitchen": 1064,
      "Ġbit": 1065,
      "Ġper": 1066,
      "'re": 1067,
      "ĠSarah": 1068,
      "After": 1069,
      "Ġfire": 1070,
      "Ġflo": 1071,
      "Ġbunny": 1072,
      "Ġstop": 1073,
      "Ġsing": 1074,
      "Ġhappened": 1075,
      "Ġgrass": 1076,
      "Ġstory": 1077,
      "Ġrealized": 1078,
      "Ġsees": 1079,
      "ĠLet": 1080,
      "nts": 1081,
      "Ġtri": 1082,
      "Ġdr": 1083,
      "ppy": 1084,
      "Ġyummy": 1085,
      "air": 1086,
      "Ġfavor": 1087,
      "Ġshouted": 1088,
      "Ġbrother": 1089,
      "Ġbeh": 1090,
      "Ġfavorite": 1091,
      "ĠJane": 1092,
      "Ġreached": 1093,
      "Ġlady": 1094,
      "Ġprin": 1095,
      "Ġhaving": 1096,
      "ĠAs": 1097,
      "Ġate": 1098,
      "Ġmum": 1099,
      "Ġrest": 1100,
      "Ġdraw": 1101,
      "ĠDo": 1102,
      "Ġgame": 1103,
      "Ġthrough": 1104,
      "Ġcre": 1105,
      "Ġmess": 1106,
      "zy": 1107,
      "Ġsoft": 1108,
      "ĠEveryone": 1109,
      "ins": 1110,
      "Ġunderst": 1111,
      "Ġpare": 1112,
      "Mommy": 1113,
      "Ġreally": 1114,
      "Ġless": 1115,
      "Ġhat": 1116,
      "ather": 1117,
      "Ġthing": 1118,
      "where": 1119,
      "Ġready": 1120,
      "Ġbegan": 1121,
      "Ġbutterf": 1122,
      "Ġworld": 1123,
      "Ġhimself": 1124,
      "ater": 1125,
      "ken": 1126,
      "ĠCan": 1127,
      "ĠJoe": 1128,
      "Ġmagic": 1129,
      "fully": 1130,
      "Ġpretend": 1131,
      "Ġdone": 1132,
      "Ġcut": 1133,
      "Ġmaking": 1134,
      "ĠThat": 1135,
      "Ġ-": 1136,
      "Ġpap": 1137,
      "Ġfix": 1138,
      "Ġcoming": 1139,
      "Ġlooks": 1140,
      "akes": 1141,
      "Ġprom": 1142,
      "Ġworry": 1143,
      "Ġtired": 1144,
      "Ġduck": 1145,
      "Ġpond": 1146,
      "Ġfro": 1147,
      "Ġmouse": 1148,
      "Ġkids": 1149,
      "Ġwhy": 1150,
      "Ġwaved": 1151,
      "Ġpart": 1152,
      "ster": 1153,
      "Ġflower": 1154,
      "eddy": 1155,
      "Ġdelic": 1156,
      "Ġste": 1157,
      "olly": 1158,
      "\".": 1159,
      "Ġcatch": 1160,
      "Ġfill": 1161,
      "Ġname": 1162,
      "Timmy": 1163,
      "aisy": 1164,
      "ign": 1165,
      "Wow": 1166,
      "rel": 1167,
      "As": 1168,
      "Ġused": 1169,
      "Ġcars": 1170,
      "Ġfunny": 1171,
      "Ġtast": 1172,
      "ient": 1173,
      "bo": 1174,
      "Ġtop": 1175,
      "Ġseen": 1176,
      "Ġtouch": 1177,
      "Ġhair": 1178,
      "sh": 1179,
      "uff": 1180,
      "iver": 1181,
      "Ġparents": 1182,
      "Ġhopped": 1183,
      "Ġcool": 1184,
      "Ġanother": 1185,
      "oney": 1186,
      "Ġfarm": 1187,
      "John": 1188,
      "Ġdoing": 1189,
      "Ġcried": 1190,
      "hy": 1191,
      "Ġhold": 1192,
      "Ġsurprise": 1193,
      "Ġblocks": 1194,
      "Ġpus": 1195,
      "Ġgreen": 1196,
      "Ġlight": 1197,
      "Don": 1198,
      "Ġdin": 1199,
      "ation": 1200,
      "Ġread": 1201,
      "Ġwood": 1202,
      "Ġthank": 1203,
      "Ġlesson": 1204,
      "Ġdri": 1205,
      "Ġworked": 1206,
      "Ġfull": 1207,
      "ued": 1208,
      "Ġtrees": 1209,
      "Ġcra": 1210,
      "ards": 1211,
      "Ġrunning": 1212,
      "Ġfloor": 1213,
      "Ġgi": 1214,
      "Ġwindow": 1215,
      "Ġhappily": 1216,
      "Ġdark": 1217,
      "Ġdro": 1218,
      "Ġsat": 1219,
      "Ġyears": 1220,
      "Ġspot": 1221,
      "Ġbehind": 1222,
      "Ġsmell": 1223,
      "andy": 1224,
      "Ġswim": 1225,
      "ul": 1226,
      "Ġpaper": 1227,
      "Ġbutterfly": 1228,
      "Ġwished": 1229,
      "Ġyellow": 1230,
      "Ġbow": 1231,
      "Ġbag": 1232,
      "Ġsleep": 1233,
      "Ġsho": 1234,
      "Ġremembered": 1235,
      "aring": 1236,
      "Ġfrog": 1237,
      "ren": 1238,
      "Ġlost": 1239,
      "ely": 1240,
      "ĠIn": 1241,
      "Ġsurprised": 1242,
      "Ġset": 1243,
      "Ġlikes": 1244,
      "Ġcarefully": 1245,
      "Ġneeded": 1246,
      "ike": 1247,
      "Ġcold": 1248,
      "Ġswing": 1249,
      "Sam": 1250,
      "Ġice": 1251,
      "Ġslow": 1252,
      "Ġheld": 1253,
      "Ġbuy": 1254,
      "Ġhole": 1255,
      "ello": 1256,
      "Hello": 1257,
      "rew": 1258,
      "Ġperf": 1259,
      "Ġlaugh": 1260,
      "Ġleft": 1261,
      "Ġmove": 1262,
      "Ġtall": 1263,
      "Ġdream": 1264,
      "cess": 1265,
      "reed": 1266,
      "Ġanything": 1267,
      "ons": 1268,
      "Ġenjoyed": 1269,
      "Ġwrong": 1270,
      "Ġarri": 1271,
      "inally": 1272,
      "uit": 1273,
      "Ġcontin": 1274,
      "Ġair": 1275,
      "Ġfair": 1276,
      "Ġhear": 1277,
      "Ġfinished": 1278,
      "Ġfollowed": 1279,
      "Ġhun": 1280,
      "Ġdelicious": 1281,
      "ross": 1282,
      "Ġel": 1283,
      "Ġbooks": 1284,
      "Ġherself": 1285,
      "Ġhot": 1286,
      "ens": 1287,
      "Ġchildren": 1288,
      "Ġfriendly": 1289,
      "Ġtable": 1290,
      "'ll": 1291,
      "Ġdir": 1292,
      "ĠAfter": 1293,
      "ĠBenny": 1294,
      "Ġsnow": 1295,
      "lf": 1296,
      "Ġhill": 1297,
      "Ġplease": 1298,
      "Ġclose": 1299,
      "Ġunderstand": 1300,
      "Ġarrived": 1301,
      "ined": 1302,
      "Ġhid": 1303,
      "ds": 1304,
      "Ġcast": 1305,
      "Ġtight": 1306,
      "Ġforgot": 1307,
      "Ġbaby": 1308,
      "Ġarm": 1309,
      "Ġbug": 1310,
      "ĠSally": 1311,
      "Ġmight": 1312,
      "Ġgent": 1313,
      "ield": 1314,
      "Ġelse": 1315,
      "Ġwonderful": 1316,
      "sp": 1317,
      "Ġbuild": 1318,
      "ner": 1319,
      "Ġrel": 1320,
      "Ġbroken": 1321,
      "Ġcolors": 1322,
      "Ġable": 1323,
      "Ġgone": 1324,
      "av": 1325,
      "ĠDaisy": 1326,
      "Ġyes": 1327,
      "irrel": 1328,
      "Ġcontinued": 1329,
      "ĠNow": 1330,
      "ich": 1331,
      "Ġsong": 1332,
      "atter": 1333,
      "Ġwall": 1334,
      "Then": 1335,
      "Ġfilled": 1336,
      "Ġagreed": 1337,
      "Ġsomeone": 1338,
      "Ġsquirrel": 1339,
      "Jack": 1340,
      "asure": 1341,
      "Ġcreat": 1342,
      "room": 1343,
      "From": 1344,
      "ĠLila": 1345,
      "ĠEm": 1346,
      "Ġcount": 1347,
      "Ġpink": 1348,
      "ey": 1349,
      "Ġleaves": 1350,
      "ask": 1351,
      "Ġenough": 1352,
      "Ġlion": 1353,
      "ĠTommy": 1354,
      "Ġvis": 1355,
      "ĠThere": 1356,
      "Ġfinally": 1357,
      "ama": 1358,
      "Ġmoment": 1359,
      "Ġwants": 1360,
      "Ġmorning": 1361,
      "ee": 1362,
      "Ġgetting": 1363,
      "Ġcookies": 1364,
      "Ġstayed": 1365,
      "Ġsometimes": 1366,
      "Ġbreak": 1367,
      "OK": 1368,
      "Ġbeach": 1369,
      "ance": 1370,
      "ĠK": 1371,
      "Ġscary": 1372,
      "Ġdinner": 1373,
      "row": 1374,
      "Ġfew": 1375,
      "ced": 1376,
      "Ġdaddy": 1377,
      "Ġpoin": 1378,
      "Ġgrandma": 1379,
      "red": 1380,
      "app": 1381,
      "Ġturned": 1382,
      "Ġhungry": 1383,
      "Ġothers": 1384,
      "Ġfight": 1385,
      "ries": 1386,
      "ash": 1387,
      "Ġtrying": 1388,
      "Ġfall": 1389,
      "Ġju": 1390,
      "gon": 1391,
      "Ġcream": 1392,
      "Ġmother": 1393,
      "His": 1394,
      "Ġperfect": 1395,
      "key": 1396,
      "ĠMaybe": 1397,
      "Ġwet": 1398,
      "Ġamazing": 1399,
      "Ġpi": 1400,
      "Ġmet": 1401,
      "Ġclimbed": 1402,
      "At": 1403,
      "Ġcastle": 1404,
      "ĠWhat": 1405,
      "oup": 1406,
      "ĠBilly": 1407,
      "icy": 1408,
      "Ġcomp": 1409,
      "Ġpictures": 1410,
      "amp": 1411,
      "ĠThis": 1412,
      "Ġmus": 1413,
      "Ġlistened": 1414,
      "This": 1415,
      "oom": 1416,
      "Ġmakes": 1417,
      "Ġtalk": 1418,
      "Ġfur": 1419,
      "Ġballoon": 1420,
      "Ġwhite": 1421,
      "oring": 1422,
      "Ġpuppy": 1423,
      "Ġclot": 1424,
      "man": 1425,
      "Ġalone": 1426,
      "rot": 1427,
      "Ġbrought": 1428,
      "Ġwasn": 1429,
      "Ġclothes": 1430,
      "Ġpol": 1431,
      "ated": 1432,
      "lc": 1433,
      "Ġmar": 1434,
      "Ġtail": 1435,
      "Oh": 1436,
      "Ġjoy": 1437,
      "Ġsear": 1438,
      "ĠGra": 1439,
      "Ġeverything": 1440,
      "Ġspl": 1441,
      "Ġsmiles": 1442,
      "Ġdeep": 1443,
      "ence": 1444,
      "ctor": 1445,
      "ister": 1446,
      "der": 1447,
      "Ġwoods": 1448,
      "Ġpet": 1449,
      "Ġgrow": 1450,
      "Ġstrange": 1451,
      "wl": 1452,
      "Ġspark": 1453,
      "Ġsail": 1454,
      "Ġsit": 1455,
      "Ġride": 1456,
      "Ġwon": 1457,
      "ĠTo": 1458,
      "ott": 1459,
      "Ġplan": 1460,
      "Ġvisit": 1461,
      "uffy": 1462,
      "Ġpie": 1463,
      "Ġpulled": 1464,
      "Ġfox": 1465,
      "eter": 1466,
      "ĠAmy": 1467,
      "Ġtreat": 1468,
      "ucky": 1469,
      "Ġroll": 1470,
      "Ġdanger": 1471,
      "os": 1472,
      "Ġleave": 1473,
      "Ġpat": 1474,
      "Ġteddy": 1475,
      "apped": 1476,
      "orm": 1477,
      "Ġmusic": 1478,
      "Ġamazed": 1479,
      "Ġasks": 1480,
      "Ġhide": 1481,
      "Ġwaited": 1482,
      "Max": 1483,
      "ever": 1484,
      "Ġtowards": 1485,
      "ang": 1486,
      "me": 1487,
      "ĠJen": 1488,
      "ower": 1489,
      "Ġowner": 1490,
      "Ġfield": 1491,
      "Ġflying": 1492,
      "Ġpre": 1493,
      "Ġland": 1494,
      "ained": 1495,
      "zz": 1496,
      "Ġshared": 1497,
      "Ġpromised": 1498,
      "Ġpen": 1499,
      "ugg": 1500,
      "Ġmoral": 1501,
      "Ġcloud": 1502,
      "Ġsilly": 1503,
      "ames": 1504,
      "ape": 1505,
      "med": 1506,
      "Ġjob": 1507,
      "Ġqui": 1508,
      "igg": 1509,
      "Ġside": 1510,
      "Ġgu": 1511,
      "Ġpaint": 1512,
      "Ġpa": 1513,
      "Okay": 1514,
      "Ġparty": 1515,
      "Ġbelie": 1516,
      "Ġem": 1517,
      "cket": 1518,
      "ol": 1519,
      "Ġlake": 1520,
      "thy": 1521,
      "Ġliving": 1522,
      "gs": 1523,
      "Ġsister": 1524,
      "Ġrace": 1525,
      "Ġwear": 1526,
      "Ġruns": 1527,
      "Ġsec": 1528,
      "ope": 1529,
      "ually": 1530,
      "cle": 1531,
      "avy": 1532,
      "Ġmust": 1533,
      "Ġquiet": 1534,
      "Ġmoney": 1535,
      "Ġgrate": 1536,
      "Maybe": 1537,
      "ĠJim": 1538,
      "sw": 1539,
      "Ġworried": 1540,
      "Ġthinks": 1541,
      "ased": 1542,
      "ises": 1543,
      "ling": 1544,
      "up": 1545,
      "Ġdance": 1546,
      "Ġcolorful": 1547,
      "Ġansw": 1548,
      "Ġpot": 1549,
      "Ġbran": 1550,
      "unch": 1551,
      "Ġgrateful": 1552,
      "eces": 1553,
      "Ġbroke": 1554,
      "Ġpieces": 1555,
      "Ġslowly": 1556,
      "Ġbott": 1557,
      "Ġfaster": 1558,
      "Ġsuch": 1559,
      "ix": 1560,
      "Ġwelc": 1561,
      "Ġbigger": 1562,
      "ze": 1563,
      "Ġtrain": 1564,
      "Ġcup": 1565,
      "fort": 1566,
      "Ġgif": 1567,
      "ph": 1568,
      "Ġsnack": 1569,
      "Ġcho": 1570,
      "Ġreach": 1571,
      "ĠAll": 1572,
      "Ġcandy": 1573,
      "Ġblank": 1574,
      "Ġpro": 1575,
      "Ġriver": 1576,
      "Ġplant": 1577,
      "Ġjoin": 1578,
      "less": 1579,
      "Ġmonster": 1580,
      "Ġwin": 1581,
      "Ġmonkey": 1582,
      "Ġele": 1583,
      "ire": 1584,
      "Ġhelping": 1585,
      "ear": 1586,
      "Ġprincess": 1587,
      "Ġtreasure": 1588,
      "Ġblanket": 1589,
      "Ġblack": 1590,
      "Ġmagical": 1591,
      "Ġve": 1592,
      "Sure": 1593,
      "Ġeverywhere": 1594,
      "set": 1595,
      "Ġbike": 1596,
      "Ġdangerous": 1597,
      "Ġbar": 1598,
      "Ġsmart": 1599,
      "Ġfarmer": 1600,
      "Ġnap": 1601,
      "ĠDaddy": 1602,
      "Ġacross": 1603,
      "Ġmost": 1604,
      "Ġscream": 1605,
      "Ġdragon": 1606,
      "Why": 1607,
      "Ġsign": 1608,
      "ident": 1609,
      "Ġacc": 1610,
      "outh": 1611,
      "Ġje": 1612,
      "Ġdisapp": 1613,
      "Hi": 1614,
      "Ġmouth": 1615,
      "ipped": 1616,
      "Ġstre": 1617,
      "Ġheavy": 1618,
      "ming": 1619,
      "Ġpass": 1620,
      "eared": 1621,
      "Ġtower": 1622,
      "Ġwords": 1623,
      "ored": 1624,
      "Ġbite": 1625,
      "Ġcrying": 1626,
      "Ġstepped": 1627,
      "Ġdirty": 1628,
      "de": 1629,
      "Ġwouldn": 1630,
      "Ġthrew": 1631,
      "ere": 1632,
      "Ġdoctor": 1633,
      "ĠFl": 1634,
      "Ġsame": 1635,
      "Ġbowl": 1636,
      "Ġbee": 1637,
      "Ġdolls": 1638,
      "Ġspr": 1639,
      "Ġbath": 1640,
      "Ġheal": 1641,
      "Ġcarrot": 1642,
      "chool": 1643,
      "Ġbelieve": 1644,
      "Ġstuck": 1645,
      "bble": 1646,
      "ĠMolly": 1647,
      "Ġhig": 1648,
      "Ġclosed": 1649,
      "Ġtwins": 1650,
      "Ġcour": 1651,
      "ĠMr": 1652,
      "Ġheart": 1653,
      "Ġfruit": 1654,
      "Ġatt": 1655,
      "Ġmin": 1656,
      "Mia": 1657,
      "Ġschool": 1658,
      "cked": 1659,
      "Ġeating": 1660,
      "Ġtown": 1661,
      "Ġbuck": 1662,
      "pping": 1663,
      "Ġsuddenly": 1664,
      "Ġteac": 1665,
      "Ġmix": 1666,
      "asket": 1667,
      "Ġbrown": 1668,
      "iting": 1669,
      "Ġbasket": 1670,
      "ĠJill": 1671,
      "Ġcourse": 1672,
      "Ġcoll": 1673,
      "Ġchair": 1674,
      "Ġhoped": 1675,
      "Ġclapped": 1676,
      "Ġpack": 1677,
      "Ġcray": 1678,
      "Ġgentle": 1679,
      "Ġfairy": 1680,
      "ier": 1681,
      "ventually": 1682,
      "Ġstand": 1683,
      "Ġfeels": 1684,
      "Ġbutt": 1685,
      "Ġdrove": 1686,
      "br": 1687,
      "Ġwithout": 1688,
      "Ġswings": 1689,
      "ors": 1690,
      "Ġaccident": 1691,
      "orrow": 1692,
      "Ġpushed": 1693,
      "issed": 1694,
      "Ġtoday": 1695,
      "Ġneigh": 1696,
      "Ġwelcome": 1697,
      "Ġpocket": 1698,
      "Ġhigher": 1699,
      "ts": 1700,
      "Ġexplained": 1701,
      "Ġneighb": 1702,
      "Ġhit": 1703,
      "ract": 1704,
      "Ġpers": 1705,
      "Ġgames": 1706,
      "Ġpiece": 1707,
      "ourn": 1708,
      "ord": 1709,
      "Ġlonger": 1710,
      "Ġyard": 1711,
      "Ġteacher": 1712,
      "Ġfree": 1713,
      "Ġwings": 1714,
      "Ġjourn": 1715,
      "Finally": 1716,
      "Ġben": 1717,
      "Ġcheered": 1718,
      "Ġsmo": 1719,
      "ead": 1720,
      "ible": 1721,
      "Ġforget": 1722,
      "Ġdry": 1723,
      "Ġcorn": 1724,
      "Ġalong": 1725,
      "cy": 1726,
      "Ġhappen": 1727,
      "Ġinst": 1728,
      "Ġsang": 1729,
      "itting": 1730,
      "umb": 1731,
      "ment": 1732,
      "Ġlate": 1733,
      "ho": 1734,
      "Ġneck": 1735,
      "phant": 1736,
      "ĠMary": 1737,
      "Ġupset": 1738,
      "Ġyoung": 1739,
      "Ġadventures": 1740,
      "Ġthrow": 1741,
      "vel": 1742,
      "Ġnoises": 1743,
      "Ġapple": 1744,
      "Ġshoes": 1745,
      "Ġsinging": 1746,
      "Ġmiss": 1747,
      "Ġlon": 1748,
      "Ġturns": 1749,
      "Ġsea": 1750,
      "Ġstories": 1751,
      "Ġwell": 1752,
      "Ġelephant": 1753,
      "Ġtrou": 1754,
      "Ġlunch": 1755,
      "Ġdist": 1756,
      "bby": 1757,
      "oun": 1758,
      "Ġkey": 1759,
      "Ġlonely": 1760,
      "Ġtom": 1761,
      "Ġhugs": 1762,
      "ountain": 1763,
      "Ġstreet": 1764,
      "Ġbelong": 1765,
      "Ġowl": 1766,
      "Ġsecret": 1767,
      "Lila": 1768,
      "Ġplac": 1769,
      "ches": 1770,
      "Ġmat": 1771,
      "ek": 1772,
      "Ġwish": 1773,
      "Ġfence": 1774,
      "Ġexploring": 1775,
      "Ġsoup": 1776,
      "Ġwise": 1777,
      "Ġnearby": 1778,
      "Ġyear": 1779,
      "Ġshook": 1780,
      "Ġmoved": 1781,
      "Ġpurp": 1782,
      "Ġbring": 1783,
      "Ġshap": 1784,
      "Ġshop": 1785,
      "yard": 1786,
      "Ġcaught": 1787,
      "Ġmine": 1788,
      "Ġes": 1789,
      "fused": 1790,
      "Ġinv": 1791,
      "Do": 1792,
      "aughty": 1793,
      "ocked": 1794,
      "Ġbackyard": 1795,
      "Ġnaughty": 1796,
      "bow": 1797,
      "Ġjar": 1798,
      "Ġstars": 1799,
      "Ġstar": 1800,
      "Ġwhe": 1801,
      "Ġexp": 1802,
      "ĠEmma": 1803,
      "Ġsu": 1804,
      "Ġrocks": 1805,
      "ward": 1806,
      "ĠGrandma": 1807,
      "Ġseemed": 1808,
      "Ġdropped": 1809,
      "Ġrelie": 1810,
      "Ġswam": 1811,
      "weet": 1812,
      "Ġthough": 1813,
      "Ġph": 1814,
      "adow": 1815,
      "Ġdrink": 1816,
      "ush": 1817,
      "aughter": 1818,
      "llo": 1819,
      "Ġtaking": 1820,
      "Ġdes": 1821,
      "Ġca": 1822,
      "Ġmail": 1823,
      "Ġorange": 1824,
      "Ġpurple": 1825,
      "Ġ3": 1826,
      "Ġwoke": 1827,
      "Ġbucket": 1828,
      "Ġcow": 1829,
      "Ġstu": 1830,
      "ions": 1831,
      "ces": 1832,
      "Ġresp": 1833,
      "col": 1834,
      "And": 1835,
      "Ġpast": 1836,
      "sy": 1837,
      "Ġnest": 1838,
      "Ġbench": 1839,
      "ung": 1840,
      "Ġshapes": 1841,
      "Ġfit": 1842,
      "Ġtiny": 1843,
      "Ġob": 1844,
      "Ġaf": 1845,
      "ity": 1846,
      "Ġsitting": 1847,
      "ĠThank": 1848,
      "Ġsounds": 1849,
      "Ġwondered": 1850,
      "Ġbusy": 1851,
      "Ġmark": 1852,
      "Ġrainbow": 1853,
      "to": 1854,
      "Ġnose": 1855,
      "Ġdaughter": 1856,
      "ese": 1857,
      "ĠO": 1858,
      "ĠFluffy": 1859,
      "read": 1860,
      "fish": 1861,
      "Ġnothing": 1862,
      "Ġkite": 1863,
      "Ġcou": 1864,
      "Ġpig": 1865,
      "og": 1866,
      "Ġmad": 1867,
      "Ġarms": 1868,
      "Ġjuice": 1869,
      "thday": 1870,
      "ining": 1871,
      "Ġholding": 1872,
      "Ġbranch": 1873,
      "Ġcoat": 1874,
      "ĠInside": 1875,
      "Ġcir": 1876,
      "Ġtakes": 1877,
      "cing": 1878,
      "Ġforever": 1879,
      "Ġrelieved": 1880,
      "Ġcarry": 1881,
      "pper": 1882,
      "raid": 1883,
      "Ġcute": 1884,
      "Ġmil": 1885,
      "Ġcomes": 1886,
      "Ġafraid": 1887,
      "Ġdriver": 1888,
      "ose": 1889,
      "vered": 1890,
      "Ġsick": 1891,
      "ail": 1892,
      "idge": 1893,
      "ĠFinally": 1894,
      "Ġboun": 1895,
      "Ġspoon": 1896,
      "Ġgift": 1897,
      "Of": 1898,
      "ittens": 1899,
      "sting": 1900,
      "Ġpeace": 1901,
      "Ġking": 1902,
      "unt": 1903,
      "Ġpatient": 1904,
      "Ġlift": 1905,
      "ours": 1906,
      "Ġletter": 1907,
      "cer": 1908,
      "Ġact": 1909,
      "sc": 1910,
      "Ġpromise": 1911,
      "Ġhuge": 1912,
      "Ġsunny": 1913,
      "Ġround": 1914,
      "Ġtou": 1915,
      "Ġtouched": 1916,
      "let": 1917,
      "Ġintere": 1918,
      "Ġhello": 1919,
      "Ġbirthday": 1920,
      "Ġfing": 1921,
      "Ġdays": 1922,
      "Ġonto": 1923,
      "Ġaccidentally": 1924,
      "Ġexciting": 1925,
      "Ġcheese": 1926,
      "Ġlaughing": 1927,
      "Ġjourney": 1928,
      "board": 1929,
      "Ġband": 1930,
      "Ġgrab": 1931,
      "eth": 1932,
      "Ġret": 1933,
      "ĠCome": 1934,
      "Ġgigg": 1935,
      "Ġcreature": 1936,
      "Ġdisco": 1937,
      "shine": 1938,
      "Ġcozy": 1939,
      "Ġimag": 1940,
      "Ġpower": 1941,
      "gged": 1942,
      "ĠMama": 1943,
      "alm": 1944,
      "arp": 1945,
      "Later": 1946,
      "Ġkick": 1947,
      "Ġswimming": 1948,
      "Ġinc": 1949,
      "gg": 1950,
      "Ġbush": 1951,
      "ped": 1952,
      "Ġlife": 1953,
      "Ġinstead": 1954,
      "Ġshell": 1955,
      "ĠSammy": 1956,
      "Ġbread": 1957,
      "Hey": 1958,
      "Ġmist": 1959,
      "Ġcomfort": 1960,
      "Ġbottle": 1961,
      "Ġwatching": 1962,
      "Ġsuc": 1963,
      "Ġreturn": 1964,
      "Ġwra": 1965,
      "Ġear": 1966,
      "Ġwhist": 1967,
      "ness": 1968,
      "Tommy": 1969,
      "Ġsharp": 1970,
      "Ġmilk": 1971,
      "Ġhope": 1972,
      "ten": 1973,
      "Ġsunshine": 1974,
      "Ġspin": 1975,
      "Ġcave": 1976,
      "Ġeas": 1977,
      "ĠSoon": 1978,
      "Ġcollect": 1979,
      "Ġtalked": 1980,
      "ĠTweet": 1981,
      "pa": 1982,
      "Ġspo": 1983,
      "Ġbought": 1984,
      "Ġsearched": 1985,
      "mer": 1986,
      "Ġlucky": 1987,
      "itch": 1988,
      "Ġhoney": 1989,
      "Ġpudd": 1990,
      "Ġpointed": 1991,
      "Ġgather": 1992,
      "Ġent": 1993,
      "Ġroad": 1994,
      "Ġhor": 1995,
      "Ġfan": 1996,
      "Ġanyone": 1997,
      "Ġsandw": 1998,
      "Ġlater": 1999,
      "ball": 2000,
      "Ġapples": 2001,
      "Ġce": 2002,
      "irt": 2003,
      "Ġsmiling": 2004,
      "itten": 2005,
      "blem": 2006,
      "Ġproblem": 2007,
      "round": 2008,
      "Ġputs": 2009,
      "Bob": 2010,
      "Ġgives": 2011,
      "els": 2012,
      "ize": 2013,
      "Ġmeet": 2014,
      "Lucy": 2015,
      "Ġinteresting": 2016,
      "Ġhealthy": 2017,
      "Ġmach": 2018,
      "Ġtasty": 2019,
      "eb": 2020,
      "oman": 2021,
      "Ġpres": 2022,
      "Ġstorm": 2023,
      "Ġplane": 2024,
      "Ġwoman": 2025,
      "ĠJimmy": 2026,
      "Ġspid": 2027,
      "Ġprot": 2028,
      "Ġwide": 2029,
      "Good": 2030,
      "ove": 2031,
      "Ġeag": 2032,
      "Ġpile": 2033,
      "Ġvill": 2034,
      "erly": 2035,
      "aur": 2036,
      "Ġadm": 2037,
      "ub": 2038,
      "Ġclever": 2039,
      "ont": 2040,
      "Ġkiss": 2041,
      "Ġmatter": 2042,
      "amed": 2043,
      "Ġzoom": 2044,
      "Ġprotect": 2045,
      "Ġloves": 2046
    },
    "merges": [
      "h e",
      "Ġ t",
      "Ġ a",
      "Ġ s",
      "Ġ w",
      "n d",
      "Ġt he",
      "e d",
      "Ġa nd",
      "Ġt o",
      "Ġ b",
      "i n",
      "Ġ h",
      "Ġw a",
      "r e",
      "o u",
      "Ġ f",
      "i t",
      "Ġ l",
      "Ġ c",
      "Ġ d",
      "e r",
      "Ġ he",
      "Ġ m",
      "Ġ p",
      "Ġwa s",
      "o m",
      "Ġ T",
      "Ġ o",
      "a y",
      "a r",
      "i s",
      "in g",
      "i l",
      "Ġ g",
      "i d",
      "a t",
      "e n",
      "Ġ n",
      "Ġs a",
      "Ġh a",
      "Ġ S",
      "ĠT he",
      "a n",
      "i m",
      "o r",
      "o n",
      "Ġ it",
      "Ġt h",
      "l l",
      "l e",
      "Ġ H",
      "Ġhe r",
      "e t",
      "o t",
      "i r",
      "ĠS he",
      "e s",
      "ĠH e",
      "Ġ in",
      "v er",
      "u t",
      "o w",
      "c k",
      "ĠThe y",
      "Ġ e",
      "Ġ u",
      "Ġ \"",
      "l d",
      "Ġ y",
      "o o",
      "Ġsa id",
      "il y",
      "i g",
      "Ġb e",
      "Ġ r",
      "a m",
      "Ġs t",
      "Ġ I",
      "c e",
      "k e",
      "Ġs he",
      "p p",
      "it h",
      "v e",
      "Ġw ith",
      "L ily",
      "O n",
      "Ġo n",
      "Ġo f",
      "k ed",
      "Ġy ou",
      "r i",
      "Ġh is",
      "Ġs o",
      "Ġp l",
      "n t",
      "a d",
      "ver y",
      "Ġd ay",
      "Ġth at",
      "Ġu p",
      "Ġpl ay",
      "Ġha d",
      "s t",
      "Ġ Lily",
      "Ġthe y",
      "Ġw e",
      "Ġm om",
      "' s",
      "Ġf or",
      "e l",
      "m y",
      "Ġ B",
      "u n",
      "ou ld",
      "T he",
      "Ġl i",
      "c h",
      "en t",
      "Ġha pp",
      "it t",
      "Ġwa nt",
      "Ġs h",
      "ou t",
      "he r",
      "l y",
      "Ġd o",
      "s e",
      "om e",
      "Ġ very",
      "Ġn ot",
      "ou nd",
      "e nd",
      "im e",
      "itt le",
      "a ll",
      "Ġw h",
      "Ġt ime",
      "Ġl ittle",
      "Ġ k",
      "Ġthe re",
      "a l",
      "Ġn e",
      "h t",
      "Ġ M",
      "Ġ re",
      "Ġhapp y",
      "Ġb ig",
      "Ġs m",
      "Ġ Ċ",
      ". \"",
      "Ġb ut",
      "ĠI t",
      "Ġ is",
      "a ck",
      "Ġsa w",
      "Ġa n",
      "ri end",
      "Ġf riend",
      "Ġa s",
      "r y",
      "r a",
      "' t",
      "! \"",
      "On e",
      "id e",
      "a ke",
      "v ed",
      "u g",
      "Ġl oo",
      "t er",
      "On ce",
      "Ġwe re",
      "Ġl o",
      "o re",
      "e c",
      "Ġh im",
      "Ġto o",
      "Ġg o",
      "Ġb o",
      "ĠT im",
      "Ġs e",
      "ir l",
      "Ġup on",
      "Ġwant ed",
      "Ġ j",
      "Ġg irl",
      "ar d",
      "Ġa re",
      "il l",
      "Ġ out",
      "Ġthe m",
      "Ġa t",
      "i nd",
      "u r",
      "f u",
      "w ay",
      "Ġs p",
      "Ġthe ir",
      "Ġc ould",
      "Ġd id",
      "Ġsm il",
      "Ġ A",
      "he n",
      "Ġha ve",
      "a in",
      "ar t",
      "Ġe x",
      "he d",
      "Ġw ent",
      "r om",
      "? \"",
      "Ġa r",
      "i c",
      "Ġc an",
      "l p",
      "Ġn am",
      "Ġ J",
      "fu l",
      "Ġfriend s",
      "oo d",
      "Ġa ll",
      "h ing",
      "Ġhe lp",
      "ig ht",
      "ĠB en",
      "Ġk n",
      "u m",
      "ar k",
      "on e",
      "Ġb ack",
      "Ġf un",
      "Ġc l",
      "Ġs ay",
      "a re",
      "Y ou",
      "ĠT om",
      "Ġn o",
      "Ġl e",
      "Ġnam ed",
      "o p",
      "Ġsmil ed",
      "Ġa l",
      "Ġlo ved",
      "Ġs c",
      "ou g",
      "Ġ One",
      "s ide",
      "el t",
      "Ġas ked",
      "Ġto y",
      "Ġm an",
      "i ck",
      "Ġf elt",
      "Ġf e",
      "ĠTim my",
      "Ġli ke",
      "Ġloo ked",
      "am e",
      "Ġar ound",
      "Ġs ome",
      "Ġse e",
      "Ġm e",
      "om et",
      "Ġb ir",
      "u re",
      "Ġr o",
      "Ġb r",
      "Ġ W",
      "g et",
      "Ġbo y",
      "Ġw ould",
      "i ce",
      "Ġst art",
      "on g",
      "Ġbir d",
      "s s",
      "Ġs omet",
      "Ġf a",
      "d d",
      "ing s",
      "Ġa g",
      "Ġw or",
      ", \"",
      "Ġwh at",
      "ad e",
      "k ing",
      "Ġm ake",
      "i e",
      "get her",
      "ow n",
      "ĠB ut",
      "Ġt re",
      "Ġr an",
      "Ġa way",
      "a g",
      "Ġstart ed",
      "ar ed",
      "Ġ You",
      "i f",
      "ou d",
      "Ġto gether",
      "Ġsay s",
      "Ġm ade",
      "Ġc ar",
      "Ġsomet hing",
      "it ed",
      "Ġp ark",
      "t her",
      "Ġc o",
      "Ġsa d",
      "Ġne w",
      "Ġo ther",
      "Ġex c",
      "Ġp ut",
      "Ġf rom",
      "Ġp r",
      "e ll",
      "Ġl a",
      "Ġ L",
      "Ġm u",
      "b le",
      "Ġag ain",
      "Ġh ug",
      "Ġh ome",
      "Ġw hen",
      "oo k",
      "a ch",
      "Ġg ood",
      "e p",
      "Ġwh o",
      "Ġf ound",
      "es t",
      "ri ed",
      "h at",
      "Ġthe n",
      "Ġf l",
      "Ġd ec",
      "Ġc h",
      "Ġwa l",
      "pp ed",
      "a s",
      "q u",
      "Ġg et",
      "Ġplay ing",
      "oug ht",
      "p l",
      "all y",
      "Ġ E",
      "Ġs w",
      "Ġth ings",
      "ou s",
      "Ġexc ited",
      "Ġg ot",
      "u ck",
      "n y",
      "Ġli ked",
      "r o",
      "id ed",
      "Ġdec ided",
      "Ġc ame",
      "Ġe very",
      "a ve",
      "a x",
      "Ġb l",
      "n a",
      "Ġ D",
      "Ġyou r",
      "ar a",
      "Ġ v",
      "Ġsc ared",
      "u st",
      "ĠM om",
      "Ġd own",
      "Ġon e",
      "ou se",
      "Ġdo g",
      "Ġbe c",
      "Ġf ind",
      "Ġc are",
      "is t",
      "u e",
      "Ġfe el",
      "u dd",
      "Ġth an",
      "Ġa b",
      "Ġd ad",
      "a p",
      "Ġ ke",
      "Ġm y",
      "Ġdid n",
      "ar n",
      "n na",
      "way s",
      "Ġg r",
      "The y",
      "Ġloo k",
      "ou r",
      "Ġmom my",
      "nd er",
      "Ġw ill",
      "u s",
      "Ġal ways",
      "Ġg ra",
      "es s",
      "an t",
      "f e",
      "Ġp o",
      "Ġab out",
      "Ġtoo k",
      "Ġkn e",
      "Ġl ot",
      "b b",
      "Ġtoy s",
      "Ġout side",
      "Ġ F",
      "er s",
      "Ġtre e",
      "is e",
      "it e",
      "Ġth ought",
      "Ġb all",
      "Ġm ore",
      "ec i",
      "en ed",
      "c hed",
      "Ġt a",
      "Ġle arn",
      "Ġo ld",
      "ĠS am",
      "re t",
      "Ġh o",
      "Ġin t",
      "g ed",
      "Ġkn ow",
      "Ġc at",
      "Ġla ug",
      "ĠM ax",
      "Ġkne w",
      "Ġt ake",
      "eci al",
      "udd en",
      "Ġsp ecial",
      "Ġs or",
      "i ve",
      "f ter",
      "udden ly",
      "Ġan y",
      "Ġp e",
      "Ġh ow",
      "i a",
      "Ġt r",
      "m a",
      "Ġsh ow",
      "a u",
      "in k",
      "Ġmu ch",
      "Ġt w",
      "is h",
      "B ut",
      "a nd",
      "Ġr un",
      "v en",
      "Ġsor ry",
      "Ġs l",
      "Ġha nd",
      "Ġh ouse",
      "Ġo p",
      "Ġo r",
      "Ġs k",
      "Ġs un",
      "Ġm o",
      "Ġt ried",
      "Ġcl o",
      "Ġto ld",
      "Ġint o",
      "Ġin side",
      "at e",
      "Ġcould n",
      "Ġ if",
      "d y",
      "Ġ en",
      "Ġwa ter",
      "Ġo ver",
      "an k",
      "Ġpr oud",
      "um p",
      "Ġth is",
      "Ġg ave",
      "Ġ qu",
      "Ġhe ard",
      "Ġne ver",
      "a ce",
      "au se",
      "t y",
      "Ġe at",
      "b y",
      "T om",
      "Ġex pl",
      "Ġplay ed",
      "ĠS ara",
      "Ġro om",
      "Ġe ach",
      "ĠE very",
      "ot her",
      "Ġp ick",
      "Ġp ret",
      "i on",
      "et ter",
      "ĠW e",
      "g e",
      "M om",
      "Ġj ust",
      "Ġg re",
      "' m",
      "Ġbec ause",
      "he re",
      "Ġhug ged",
      "Ġof f",
      "ĠA nna",
      "a k",
      "Ġwa t",
      "Ġc om",
      "ot h",
      "Ġne ed",
      "Ġbo x",
      "il e",
      "Ġst r",
      "Ġn ice",
      "Ġman y",
      "Ġbe ar",
      "u c",
      "Ġsm all",
      "Ġf o",
      "i z",
      "Ġj o",
      "Ġb u",
      "Ġl ong",
      "or t",
      "v ing",
      "im al",
      "Ġan imal",
      "in e",
      "oug h",
      "g ry",
      "Ġt ry",
      "Ġu nt",
      "s el",
      "il d",
      "ur t",
      "Ġunt il",
      "ĠJ ack",
      "Ġlearn ed",
      "s ed",
      "Ġ im",
      "Ġk ind",
      "Ġb etter",
      "Ġfl ow",
      "f t",
      "Ġe nd",
      "Ġlo ve",
      "Ġc all",
      "Ġa d",
      "v ent",
      "ĠJ o",
      "Ġb est",
      "e m",
      "Ġd on",
      "u ll",
      "H e",
      "Y es",
      "Ġs n",
      "ad y",
      "ur p",
      "a ut",
      "Ġc le",
      "re am",
      "ur n",
      "ar s",
      "ĠA nd",
      "ĠM ia",
      "b er",
      "ard en",
      "Ġg arden",
      "v es",
      "Ġe ven",
      "Ġfa st",
      "Ġ C",
      "Ġcare ful",
      "Ġbe aut",
      "ĠS o",
      "ĠH er",
      "ll y",
      "p t",
      "T h",
      "Ġf i",
      "Ġthan ked",
      "Ġsk y",
      "Ġb ra",
      "Ġb y",
      "i es",
      "Ġc he",
      "Ġlaug hed",
      "I t",
      "Ġj ump",
      "sel f",
      "Ġg l",
      "a se",
      "Ġl oud",
      "Ġt e",
      "w n",
      "in y",
      "Ġwa y",
      "le w",
      "Ġbeaut i",
      "Ġlot s",
      "Ġc ome",
      "Ġl ist",
      "Ġbeauti ful",
      "Ġr a",
      "Ġw o",
      "Ġh ard",
      "Ġf am",
      "Ġanimal s",
      "Ġst ill",
      "h n",
      "Ġh urt",
      "Ġu nder",
      "ec t",
      "n ing",
      "Ġst ay",
      "ĠF rom",
      "ĠThe n",
      "c t",
      "Ġl et",
      "ĠH is",
      "Ġb oth",
      "Ġsa fe",
      "Ġc u",
      "oo l",
      "he s",
      "Ġim p",
      "Ġli ved",
      "re e",
      "Ġco l",
      "Ġre m",
      "b e",
      "T im",
      "Ġtw o",
      "Ġb ad",
      "op le",
      "an e",
      "Ġb ook",
      "k ay",
      "uc y",
      "Ġwal ked",
      "a st",
      "o b",
      "o ck",
      "Ġit s",
      "urp r",
      "Ġbra ve",
      "Ġfam ily",
      "Ġsh ould",
      "is hed",
      "Ġf lew",
      "Ġs urpr",
      "ig h",
      "W hen",
      "re ss",
      "Ġpe ople",
      "Ġf in",
      "Ġcall ed",
      "Ġst or",
      "Ġr ed",
      "Ġan gry",
      "i p",
      "Ġso on",
      "Ġf ore",
      "N o",
      "Ġke pt",
      "f ore",
      "l ed",
      "Ġf ly",
      "Ġd an",
      "L et",
      "x t",
      "Ġsh are",
      "is ed",
      "Ġp ic",
      "ĠW hen",
      "Ġgo ing",
      "Ġpret ty",
      "Ġdo or",
      "Ġ P",
      "dd ed",
      "Ġcle an",
      "Ġke ep",
      "Ġro ck",
      "um my",
      "Ġad vent",
      "Ġn ow",
      "Ġd ra",
      "i ed",
      "ar y",
      "Ġc on",
      "il ly",
      "ag e",
      "Ġbe fore",
      "Ġre al",
      "Ġsh iny",
      "Ġno ise",
      "Ġop ened",
      "Ġ ide",
      "Ġw ind",
      "Ġexpl ore",
      "Ġc ry",
      "Ġst o",
      "Ġdo ll",
      "W hat",
      "Ġgr ound",
      "s o",
      "B en",
      "Ġt urn",
      "le s",
      "Ġal so",
      "Ġf ar",
      "Ġide a",
      "T hat",
      "Ġe y",
      "Ġf r",
      "o on",
      "Ġcol or",
      "Ġwa r",
      "Ġfeel ing",
      "Ġpick ed",
      "o y",
      "im b",
      "Ġno dded",
      "Ġne xt",
      "t h",
      "Ġu n",
      "ĠL ucy",
      "Ġwal king",
      "t hing",
      "Ġwh ile",
      "t ure",
      "Ġcl imb",
      "e et",
      "Ġm a",
      "Ġb ed",
      "Ġth r",
      "Ġadvent ure",
      "ĠD ad",
      "u ch",
      "Ġsmil e",
      "k es",
      "Ġha s",
      "ic ed",
      "Th ank",
      "Ġbe ing",
      "g er",
      "i ous",
      "Ġf ood",
      "ĠS p",
      "Ġd if",
      "ay be",
      "j oy",
      "Ġw r",
      "Ġpic ture",
      "Ġre pl",
      "Ġclo s",
      "t ed",
      "Ġ G",
      "Ġg ive",
      "f f",
      "Ġd el",
      "Ġloo king",
      "Ġwa it",
      "Ġbr o",
      "t ing",
      "ug ht",
      "Ġth ink",
      "Ġto w",
      "a c",
      "Ġtr uck",
      "Ġa fter",
      "Ġsto pped",
      "Ġey es",
      "Ġlist en",
      "Ġo wn",
      "Ġwal k",
      "em ber",
      "ĠS uddenly",
      "Ġgre at",
      "Ġb re",
      "Ġimp ort",
      "Ġv o",
      "S uddenly",
      "Ġfore st",
      "Ġwo nder",
      "iz ed",
      "Ġen joy",
      "Ġflow ers",
      "Ġe ver",
      "Ġhand s",
      "bb it",
      "Ġnot iced",
      "Ġhe ad",
      "Ġbl ue",
      "Ġa pp",
      "Ġimport ant",
      "Ġsh out",
      "Ġne ar",
      "Ġqu ick",
      "Ġrem ember",
      "Ġd is",
      "Ġrepl ied",
      "Ġd e",
      "ir st",
      "Ġf ish",
      "a ble",
      "S he",
      "Ġa c",
      "Ġs ound",
      "Ġshow ed",
      "ma z",
      "ll ow",
      "Ġr ain",
      "Ġa maz",
      "Ġwat ch",
      "Ġra bbit",
      "Ġsl ide",
      "Ġwor k",
      "Ġu s",
      "le ase",
      "Ġo kay",
      "g an",
      "Ġt al",
      "by e",
      "fe re",
      "ĠSp ot",
      "Ġdif fere",
      "Ġr ight",
      "bb ed",
      "Ġwat ched",
      "d ay",
      "Ġas k",
      "Ġme an",
      "Ġbr ight",
      "Ġevery one",
      "Ġy e",
      "S o",
      "Ġstr ong",
      "Ġs qu",
      "Ġm or",
      "Ġfo llow",
      "Ġu se",
      "Ġbe en",
      "Ġt ra",
      "Ġw here",
      "Ġst ick",
      "er ed",
      "Ġquick ly",
      "W e",
      "at h",
      "Ġvo ice",
      "Ġ N",
      "ĠB ob",
      "Ġbec ame",
      "ĠS ue",
      "Ġy ell",
      "ĠMom my",
      "Ġ our",
      "Ġs ure",
      "Ġdiffere nt",
      "Ġbo at",
      "n g",
      "Ġch ild",
      "Ġcu ri",
      "Ġst ore",
      "Ġpl ace",
      "Ġh igh",
      "Ġfa ce",
      "Ġgood bye",
      "un ny",
      "an ge",
      "Ġ R",
      "A nna",
      "a ught",
      "Ġwar m",
      "Ġclos er",
      "Ġh op",
      "Ġa m",
      "Ġd ress",
      "Ġc r",
      "L ook",
      "Ġfa v",
      "Ġm ag",
      "Ġc ook",
      "Ġfor g",
      "Ġcuri ous",
      "J o",
      "Ġbe l",
      "Ġdo es",
      "a ss",
      "nd ma",
      "S ara",
      "ou nt",
      "c o",
      "Ġt ell",
      "le ep",
      "Ġth ree",
      "Ġn ight",
      "m ore",
      "Ġany more",
      "il a",
      "Ġbut ter",
      "H er",
      "Ġop en",
      "Ġc ake",
      "ir ed",
      "Ġf irst",
      "it c",
      "Ġhe re",
      "im es",
      "Ġb us",
      "is s",
      "a ched",
      "Ġbl ock",
      "Ġ z",
      "Ġp ull",
      "Ġp ain",
      "or n",
      "ĠT h",
      "Ġp u",
      "Ġsw eet",
      "Ġfe ll",
      "C an",
      "Ġm on",
      "Ġk id",
      "ĠJo hn",
      "is y",
      "Ġcon t",
      "Ġgra bbed",
      "Ġle a",
      "Ġb a",
      "Ġon ly",
      "Ġhelp ed",
      "Ġbird s",
      "Ġjump ed",
      "Ġr u",
      "Ġsa nd",
      "Ġgl ad",
      "itc hen",
      "Ġk itchen",
      "Ġb it",
      "Ġp er",
      "' re",
      "ĠSara h",
      "A fter",
      "Ġfi re",
      "Ġfl o",
      "Ġb unny",
      "Ġst op",
      "Ġs ing",
      "Ġhapp ened",
      "Ġgra ss",
      "Ġstor y",
      "Ġreal ized",
      "Ġse es",
      "ĠL et",
      "nt s",
      "Ġt ri",
      "Ġd r",
      "pp y",
      "Ġy ummy",
      "a ir",
      "Ġfav or",
      "Ġshout ed",
      "Ġbr other",
      "Ġbe h",
      "Ġfavor ite",
      "ĠJ ane",
      "Ġre ached",
      "Ġl ady",
      "Ġpr in",
      "Ġha ving",
      "ĠA s",
      "Ġat e",
      "Ġm um",
      "Ġre st",
      "Ġdra w",
      "ĠD o",
      "Ġg ame",
      "Ġthr ough",
      "Ġc re",
      "Ġm ess",
      "z y",
      "Ġso ft",
      "ĠEvery one",
      "in s",
      "Ġunder st",
      "Ġp are",
      "Mom my",
      "Ġre ally",
      "Ġl ess",
      "Ġh at",
      "at her",
      "Ġth ing",
      "w here",
      "Ġre ady",
      "Ġbe gan",
      "Ġbutter f",
      "Ġwor ld",
      "Ġhim self",
      "at er",
      "k en",
      "ĠC an",
      "ĠJo e",
      "Ġmag ic",
      "fu lly",
      "Ġpret end",
      "Ġd one",
      "Ġc ut",
      "Ġma king",
      "ĠT hat",
      "Ġ -",
      "Ġp ap",
      "Ġfi x",
      "Ġcom ing",
      "Ġlook s",
      "ak es",
      "Ġp rom",
      "Ġwor ry",
      "Ġt ired",
      "Ġd uck",
      "Ġpo nd",
      "Ġf ro",
      "Ġm ouse",
      "Ġkid s",
      "Ġwh y",
      "Ġwa ved",
      "Ġp art",
      "st er",
      "Ġflow er",
      "ed dy",
      "Ġdel ic",
      "Ġst e",
      "o lly",
      "\" .",
      "Ġcat ch",
      "Ġf ill",
      "Ġnam e",
      "Tim my",
      "a isy",
      "ig n",
      "W ow",
      "re l",
      "A s",
      "Ġu sed",
      "Ġcar s",
      "Ġfun ny",
      "Ġta st",
      "i ent",
      "b o",
      "Ġto p",
      "Ġse en",
      "Ġto uch",
      "Ġha ir",
      "s h",
      "u ff",
      "i ver",
      "Ġpare nts",
      "Ġho pped",
      "Ġc ool",
      "Ġan other",
      "one y",
      "Ġfar m",
      "Jo hn",
      "Ġdo ing",
      "Ġc ried",
      "h y",
      "Ġho ld",
      "Ġsurpr ise",
      "Ġblock s",
      "Ġp us",
      "Ġgre en",
      "Ġl ight",
      "D on",
      "Ġd in",
      "at ion",
      "Ġre ad",
      "Ġw ood",
      "Ġthan k",
      "Ġless on",
      "Ġd ri",
      "Ġwor ked",
      "Ġf ull",
      "u ed",
      "Ġtre es",
      "Ġc ra",
      "ard s",
      "Ġrun ning",
      "Ġflo or",
      "Ġg i",
      "Ġwind ow",
      "Ġhapp ily",
      "Ġd ark",
      "Ġd ro",
      "Ġs at",
      "Ġye ars",
      "Ġsp ot",
      "Ġbeh ind",
      "Ġsm ell",
      "and y",
      "Ġsw im",
      "u l",
      "Ġpap er",
      "Ġbutterf ly",
      "Ġw ished",
      "Ġyell ow",
      "Ġb ow",
      "Ġb ag",
      "Ġs leep",
      "Ġsh o",
      "Ġremember ed",
      "ar ing",
      "Ġfro g",
      "re n",
      "Ġlo st",
      "el y",
      "ĠI n",
      "Ġsurpr ised",
      "Ġs et",
      "Ġli kes",
      "Ġcare fully",
      "Ġneed ed",
      "i ke",
      "Ġco ld",
      "Ġsw ing",
      "S am",
      "Ġ ice",
      "Ġsl ow",
      "Ġhe ld",
      "Ġbu y",
      "Ġho le",
      "ell o",
      "H ello",
      "re w",
      "Ġper f",
      "Ġlaug h",
      "Ġle ft",
      "Ġmo ve",
      "Ġt all",
      "Ġd ream",
      "c ess",
      "re ed",
      "Ġany thing",
      "on s",
      "Ġenjoy ed",
      "Ġwr ong",
      "Ġar ri",
      "in ally",
      "u it",
      "Ġcont in",
      "Ġa ir",
      "Ġfa ir",
      "Ġhe ar",
      "Ġfin ished",
      "Ġfollow ed",
      "Ġh un",
      "Ġdelic ious",
      "ro ss",
      "Ġe l",
      "Ġbook s",
      "Ġher self",
      "Ġh ot",
      "en s",
      "Ġchild ren",
      "Ġfriend ly",
      "Ġta ble",
      "' ll",
      "Ġd ir",
      "ĠA fter",
      "ĠBen ny",
      "Ġsn ow",
      "l f",
      "Ġh ill",
      "Ġp lease",
      "Ġclo se",
      "Ġunderst and",
      "Ġarri ved",
      "in ed",
      "Ġh id",
      "d s",
      "Ġc ast",
      "Ġt ight",
      "Ġforg ot",
      "Ġba by",
      "Ġar m",
      "Ġb ug",
      "ĠS ally",
      "Ġm ight",
      "Ġg ent",
      "ie ld",
      "Ġel se",
      "Ġwonder ful",
      "s p",
      "Ġbu ild",
      "n er",
      "Ġre l",
      "Ġbro ken",
      "Ġcolor s",
      "Ġa ble",
      "Ġg one",
      "a v",
      "ĠD aisy",
      "Ġy es",
      "ir rel",
      "Ġcontin ued",
      "ĠN ow",
      "i ch",
      "Ġs ong",
      "at ter",
      "Ġwa ll",
      "The n",
      "Ġfill ed",
      "Ġag reed",
      "Ġsome one",
      "Ġsqu irrel",
      "J ack",
      "as ure",
      "Ġcre at",
      "ro om",
      "F rom",
      "ĠL ila",
      "ĠE m",
      "Ġc ount",
      "Ġp ink",
      "e y",
      "Ġlea ves",
      "as k",
      "Ġen ough",
      "Ġli on",
      "ĠTom my",
      "Ġv is",
      "ĠThe re",
      "Ġfin ally",
      "am a",
      "Ġmom ent",
      "Ġwant s",
      "Ġmor ning",
      "e e",
      "Ġget ting",
      "Ġcook ies",
      "Ġstay ed",
      "Ġsomet imes",
      "Ġbre ak",
      "O K",
      "Ġbe ach",
      "an ce",
      "Ġ K",
      "Ġsc ary",
      "Ġdin ner",
      "r ow",
      "Ġfe w",
      "c ed",
      "Ġdad dy",
      "Ġpo in",
      "Ġgra ndma",
      "r ed",
      "a pp",
      "Ġturn ed",
      "Ġhun gry",
      "Ġother s",
      "Ġf ight",
      "ri es",
      "as h",
      "Ġtry ing",
      "Ġf all",
      "Ġj u",
      "g on",
      "Ġc ream",
      "Ġm other",
      "H is",
      "Ġperf ect",
      "ke y",
      "ĠM aybe",
      "Ġw et",
      "Ġamaz ing",
      "Ġp i",
      "Ġm et",
      "Ġclimb ed",
      "A t",
      "Ġcast le",
      "ĠW hat",
      "ou p",
      "ĠB illy",
      "ic y",
      "Ġcom p",
      "Ġpicture s",
      "am p",
      "ĠTh is",
      "Ġmu s",
      "Ġlist ened",
      "Th is",
      "o om",
      "Ġm akes",
      "Ġtal k",
      "Ġf ur",
      "Ġball oon",
      "Ġwh ite",
      "or ing",
      "Ġpu ppy",
      "Ġcl ot",
      "m an",
      "Ġal one",
      "r ot",
      "Ġbr ought",
      "Ġwas n",
      "Ġclot hes",
      "Ġpo l",
      "at ed",
      "l c",
      "Ġm ar",
      "Ġta il",
      "O h",
      "Ġjo y",
      "Ġse ar",
      "ĠG ra",
      "Ġevery thing",
      "Ġsp l",
      "Ġsmil es",
      "Ġde ep",
      "en ce",
      "ct or",
      "is ter",
      "d er",
      "Ġwood s",
      "Ġp et",
      "Ġgr ow",
      "Ġstr ange",
      "w l",
      "Ġsp ark",
      "Ġsa il",
      "Ġs it",
      "Ġr ide",
      "Ġw on",
      "ĠT o",
      "ot t",
      "Ġpl an",
      "Ġvis it",
      "uff y",
      "Ġp ie",
      "Ġpull ed",
      "Ġfo x",
      "et er",
      "ĠA my",
      "Ġtre at",
      "uck y",
      "Ġro ll",
      "Ġdan ger",
      "o s",
      "Ġle ave",
      "Ġp at",
      "Ġt eddy",
      "a pped",
      "or m",
      "Ġmus ic",
      "Ġamaz ed",
      "Ġask s",
      "Ġh ide",
      "Ġwa ited",
      "M ax",
      "e ver",
      "Ġtow ards",
      "an g",
      "m e",
      "ĠJ en",
      "ow er",
      "Ġown er",
      "Ġf ield",
      "Ġfly ing",
      "Ġp re",
      "Ġla nd",
      "ain ed",
      "z z",
      "Ġsh ared",
      "Ġprom ised",
      "Ġp en",
      "ug g",
      "Ġmor al",
      "Ġcl oud",
      "Ġs illy",
      "am es",
      "ap e",
      "m ed",
      "Ġjo b",
      "Ġqu i",
      "ig g",
      "Ġs ide",
      "Ġg u",
      "Ġpain t",
      "Ġp a",
      "O kay",
      "Ġpart y",
      "Ġbel ie",
      "Ġe m",
      "ck et",
      "o l",
      "Ġl ake",
      "th y",
      "Ġli ving",
      "g s",
      "Ġs ister",
      "Ġr ace",
      "Ġwe ar",
      "Ġrun s",
      "Ġs ec",
      "op e",
      "u ally",
      "c le",
      "av y",
      "Ġmu st",
      "Ġqui et",
      "Ġm oney",
      "Ġgr ate",
      "M aybe",
      "ĠJ im",
      "s w",
      "Ġwor ried",
      "Ġthink s",
      "as ed",
      "is es",
      "l ing",
      "u p",
      "Ġdan ce",
      "Ġcolor ful",
      "Ġan sw",
      "Ġp ot",
      "Ġbr an",
      "un ch",
      "Ġgrate ful",
      "ec es",
      "Ġbro ke",
      "Ġpi eces",
      "Ġslow ly",
      "Ġb ott",
      "Ġfast er",
      "Ġs uch",
      "i x",
      "Ġwe lc",
      "Ġbig ger",
      "z e",
      "Ġtra in",
      "Ġcu p",
      "f ort",
      "Ġg if",
      "p h",
      "Ġsn ack",
      "Ġch o",
      "Ġre ach",
      "ĠA ll",
      "Ġc andy",
      "Ġbl ank",
      "Ġpr o",
      "Ġr iver",
      "Ġpl ant",
      "Ġjo in",
      "le ss",
      "Ġmon ster",
      "Ġw in",
      "Ġmon key",
      "Ġe le",
      "i re",
      "Ġhelp ing",
      "e ar",
      "Ġprin cess",
      "Ġtre asure",
      "Ġblank et",
      "Ġbl ack",
      "Ġmagic al",
      "Ġ ve",
      "S ure",
      "Ġevery where",
      "s et",
      "Ġb ike",
      "Ġdanger ous",
      "Ġb ar",
      "Ġsm art",
      "Ġfarm er",
      "Ġn ap",
      "ĠDad dy",
      "Ġac ross",
      "Ġmo st",
      "Ġsc ream",
      "Ġdra gon",
      "W hy",
      "Ġs ign",
      "id ent",
      "Ġac c",
      "out h",
      "Ġj e",
      "Ġdis app",
      "H i",
      "Ġm outh",
      "i pped",
      "Ġst re",
      "Ġhe avy",
      "m ing",
      "Ġp ass",
      "e ared",
      "Ġtow er",
      "Ġwor ds",
      "or ed",
      "Ġb ite",
      "Ġcry ing",
      "Ġste pped",
      "Ġdir ty",
      "d e",
      "Ġwould n",
      "Ġth rew",
      "e re",
      "Ġdo ctor",
      "ĠF l",
      "Ġsa me",
      "Ġbow l",
      "Ġbe e",
      "Ġdoll s",
      "Ġsp r",
      "Ġb ath",
      "Ġhe al",
      "Ġcar rot",
      "ch ool",
      "Ġbelie ve",
      "Ġst uck",
      "b ble",
      "ĠM olly",
      "Ġh ig",
      "Ġclo sed",
      "Ġtw ins",
      "Ġc our",
      "ĠM r",
      "Ġhe art",
      "Ġfr uit",
      "Ġat t",
      "Ġm in",
      "M ia",
      "Ġs chool",
      "ck ed",
      "Ġeat ing",
      "Ġto wn",
      "Ġb uck",
      "pp ing",
      "Ġs uddenly",
      "Ġte ac",
      "Ġm ix",
      "ask et",
      "Ġbr own",
      "it ing",
      "Ġb asket",
      "ĠJ ill",
      "Ġcour se",
      "Ġco ll",
      "Ġch air",
      "Ġhop ed",
      "Ġcl apped",
      "Ġp ack",
      "Ġcr ay",
      "Ġgent le",
      "Ġfair y",
      "i er",
      "vent ually",
      "Ġst and",
      "Ġfeel s",
      "Ġbut t",
      "Ġdro ve",
      "b r",
      "Ġwith out",
      "Ġsw ings",
      "or s",
      "Ġacc ident",
      "or row",
      "Ġpus hed",
      "is sed",
      "Ġto day",
      "Ġne igh",
      "Ġwelc ome",
      "Ġpo cket",
      "Ġhig her",
      "t s",
      "Ġexpl ained",
      "Ġneigh b",
      "Ġh it",
      "ra ct",
      "Ġp ers",
      "Ġg ames",
      "Ġpie ce",
      "our n",
      "or d",
      "Ġlong er",
      "Ġy ard",
      "Ġteac her",
      "Ġf ree",
      "Ġw ings",
      "Ġj ourn",
      "F inally",
      "Ġb en",
      "Ġche ered",
      "Ġsm o",
      "e ad",
      "i ble",
      "Ġfor get",
      "Ġd ry",
      "Ġc orn",
      "Ġal ong",
      "c y",
      "Ġhapp en",
      "Ġin st",
      "Ġsa ng",
      "itt ing",
      "um b",
      "m ent",
      "Ġl ate",
      "h o",
      "Ġne ck",
      "ph ant",
      "ĠM ary",
      "Ġup set",
      "Ġyou ng",
      "Ġadventure s",
      "Ġthr ow",
      "ve l",
      "Ġno ises",
      "Ġapp le",
      "Ġsho es",
      "Ġsing ing",
      "Ġm iss",
      "Ġl on",
      "Ġturn s",
      "Ġse a",
      "Ġstor ies",
      "Ġwe ll",
      "Ġele phant",
      "Ġtr ou",
      "Ġl unch",
      "Ġd ist",
      "bb y",
      "ou n",
      "Ġke y",
      "Ġlon ely",
      "Ġto m",
      "Ġhug s",
      "ount ain",
      "Ġstre et",
      "Ġbel ong",
      "Ġo wl",
      "Ġsec ret",
      "L ila",
      "Ġpl ac",
      "c hes",
      "Ġm at",
      "e k",
      "Ġw ish",
      "Ġf ence",
      "Ġexpl oring",
      "Ġs oup",
      "Ġw ise",
      "Ġnear by",
      "Ġye ar",
      "Ġsh ook",
      "Ġmo ved",
      "Ġp urp",
      "Ġbr ing",
      "Ġsh ap",
      "Ġsh op",
      "y ard",
      "Ġc aught",
      "Ġm ine",
      "Ġ es",
      "fu sed",
      "Ġin v",
      "D o",
      "aught y",
      "ock ed",
      "Ġback yard",
      "Ġn aughty",
      "b ow",
      "Ġj ar",
      "Ġst ars",
      "Ġst ar",
      "Ġw he",
      "Ġex p",
      "ĠEm ma",
      "Ġs u",
      "Ġrock s",
      "w ard",
      "ĠGra ndma",
      "Ġsee med",
      "Ġdro pped",
      "Ġrel ie",
      "Ġsw am",
      "w eet",
      "Ġth ough",
      "Ġp h",
      "ad ow",
      "Ġdr ink",
      "us h",
      "aught er",
      "ll o",
      "Ġta king",
      "Ġd es",
      "Ġc a",
      "Ġma il",
      "Ġor ange",
      "Ġpurp le",
      "Ġ 3",
      "Ġwo ke",
      "Ġbuck et",
      "Ġc ow",
      "Ġst u",
      "ion s",
      "c es",
      "Ġre sp",
      "co l",
      "A nd",
      "Ġp ast",
      "s y",
      "Ġn est",
      "Ġben ch",
      "un g",
      "Ġshap es",
      "Ġf it",
      "Ġt iny",
      "Ġo b",
      "Ġa f",
      "it y",
      "Ġs itting",
      "ĠTh ank",
      "Ġsound s",
      "Ġwonder ed",
      "Ġbus y",
      "Ġm ark",
      "Ġrain bow",
      "t o",
      "Ġno se",
      "Ġd aughter",
      "es e",
      "Ġ O",
      "ĠFl uffy",
      "re ad",
      "f ish",
      "Ġnot hing",
      "Ġk ite",
      "Ġc ou",
      "Ġp ig",
      "o g",
      "Ġm ad",
      "Ġarm s",
      "Ġju ice",
      "th day",
      "in ing",
      "Ġhold ing",
      "Ġbran ch",
      "Ġco at",
      "ĠIn side",
      "Ġc ir",
      "Ġta kes",
      "c ing",
      "Ġfore ver",
      "Ġrelie ved",
      "Ġcar ry",
      "pp er",
      "ra id",
      "Ġcut e",
      "Ġm il",
      "Ġcom es",
      "Ġaf raid",
      "Ġdri ver",
      "o se",
      "ver ed",
      "Ġs ick",
      "a il",
      "id ge",
      "ĠF inally",
      "Ġb oun",
      "Ġsp oon",
      "Ġgif t",
      "O f",
      "itt ens",
      "st ing",
      "Ġpe ace",
      "Ġk ing",
      "u nt",
      "Ġpat ient",
      "Ġli ft",
      "our s",
      "Ġl etter",
      "c er",
      "Ġa ct",
      "s c",
      "Ġprom ise",
      "Ġhug e",
      "Ġsun ny",
      "Ġr ound",
      "Ġto u",
      "Ġtou ched",
      "le t",
      "Ġint ere",
      "Ġhe llo",
      "Ġbir thday",
      "Ġf ing",
      "Ġday s",
      "Ġon to",
      "Ġaccident ally",
      "Ġexc iting",
      "Ġche ese",
      "Ġlaug hing",
      "Ġjourn ey",
      "bo ard",
      "Ġb and",
      "Ġgra b",
      "et h",
      "Ġre t",
      "ĠC ome",
      "Ġg igg",
      "Ġcreat ure",
      "Ġdis co",
      "sh ine",
      "Ġco zy",
      "Ġim ag",
      "Ġp ower",
      "g ged",
      "ĠM ama",
      "al m",
      "ar p",
      "L ater",
      "Ġk ick",
      "Ġswim ming",
      "Ġin c",
      "g g",
      "Ġbus h",
      "p ed",
      "Ġli fe",
      "Ġinst ead",
      "Ġshe ll",
      "ĠSam my",
      "Ġbre ad",
      "He y",
      "Ġm ist",
      "Ġcom fort",
      "Ġbott le",
      "Ġwatch ing",
      "Ġs uc",
      "Ġret urn",
      "Ġw ra",
      "Ġe ar",
      "Ġwh ist",
      "n ess",
      "Tom my",
      "Ġsh arp",
      "Ġmil k",
      "Ġhop e",
      "t en",
      "Ġsun shine",
      "Ġsp in",
      "Ġc ave",
      "Ġe as",
      "ĠSo on",
      "Ġcoll ect",
      "Ġtal ked",
      "ĠT weet",
      "p a",
      "Ġsp o",
      "Ġb ought",
      "Ġsear ched",
      "m er",
      "Ġl ucky",
      "it ch",
      "Ġh oney",
      "Ġp udd",
      "Ġpoin ted",
      "Ġg ather",
      "Ġ ent",
      "Ġro ad",
      "Ġh or",
      "Ġf an",
      "Ġany one",
      "Ġsand w",
      "Ġl ater",
      "b all",
      "Ġapp les",
      "Ġc e",
      "ir t",
      "Ġsmil ing",
      "itt en",
      "ble m",
      "Ġpro blem",
      "r ound",
      "Ġput s",
      "B ob",
      "Ġgi ves",
      "el s",
      "iz e",
      "Ġme et",
      "L ucy",
      "Ġintere sting",
      "Ġheal thy",
      "Ġm ach",
      "Ġtast y",
      "e b",
      "om an",
      "Ġpre s",
      "Ġstor m",
      "Ġpl ane",
      "Ġw oman",
      "ĠJim my",
      "Ġsp id",
      "Ġpr ot",
      "Ġw ide",
      "G ood",
      "o ve",
      "Ġe ag",
      "Ġp ile",
      "Ġv ill",
      "er ly",
      "a ur",
      "Ġad m",
      "u b",
      "Ġcle ver",
      "on t",
      "Ġk iss",
      "Ġm atter",
      "am ed",
      "Ġz oom",
      "Ġprot ect",
      "Ġlo ves"
    ]
  }
}