{
  "version": "1.0",
  "truncation": null,
  "padding": null,
  "added_tokens": [
    {
      "id": 0,
      "content": "[UNK]",
      "single_word": false,
      "lstrip": false,
      "rstrip": false,
      "normalized": false,
      "special": true
    },
    {
      "id": 1,
      "content": "[PAD]",
      "single_word": false,
      "lstrip": false,
      "rstrip": false,
      "normalized": false,
      "special": true
    },
    {
      "id": 2,
      "content": "[BOS]",
      "single_word": false,
      "lstrip": false,
      "rstrip": false,
      "normalized": false,
      "special": true
    },
    {
      "id": 3,
      "content": "[EOS]",
      "single_word": false,
      "lstrip": false,
      "rstrip": false,
      "normalized": false,
      "special": true
    }
  ],
  "normalizer": {
    "type": "Sequence",
    "normalizers": [
      {
        "type": "NFD"
      },
      {
        "type": "Lowercase"
      },
      {
        "type": "StripAccents"
      }
    ]
  },
  "pre_tokenizer": {
    "type": "Whitespace"
  },
  "post_processor": {
    "type": "TemplateProcessing",
    "single": [
      {
        "SpecialToken": {
          "id": "[BOS]",
          "type_id": 0
        }
      },
      {
        "Sequence": {
          "id": "A",
          "type_id": 0
        }
      },
      {
        "SpecialToken": {
          "id": "[EOS]",
          "type_id": 0
        }
      }
    ],
    "pair": [
      {
        "Sequence": {
          "id": "A",
          "type_id": 0
        }
      },
      {
        "Sequence": {
          "id": "B",
          "type_id": 1
        }
      }
    ],
    "special_tokens": {
      "[BOS]": {
        "id": "[BOS]",
        "ids": [
          2
        ],
        "tokens": [
          "[BOS]"
        ]
      },
      "[EOS]": {
        "id": "[EOS]",
        "ids": [
          3
        ],
        "tokens": [
          "[EOS]"
        ]
      }
    }
  },
  "decoder": {
    "type": "WordPiece",
    "prefix": "##",
    "cleanup": true
  },
  "model": {
    "type": "WordPiece",
    "unk_token": "[UNK]",
    "continuing_subword_prefix": "##",
    "max_input_chars_per_word": 100,
    "vocab": {
      "[UNK]": 0,
      "[PAD]": 1,
      "[BOS]": 2,
      "[EOS]": 3,
      "!": 4,
      "\"": 5,
      "#": 6,
      "$": 7,
      "%": 8,
      "&": 9,
      "'": 10,
      "(": 11,
      ")": 12,
      "*": 13,
      "+": 14,
      ",": 15,
      "-": 16,
      ".": 17,
      "/": 18,
      "0": 19,
      "1": 20,
      "2": 21,
      "3": 22,
      "4": 23,
      "5": 24,
      "6": 25,
      "7": 26,
      "8": 27,
      "9": 28,
      ":": 29,
      ";": 30,
      "<": 31,
      "=": 32,
      ">": 33,
      "?": 34,
      "@": 35,
      "[": 36,
      "\\": 37,
      "]": 38,
      "_": 39,
      "`": 40,
      "a": 41,
      "b": 42,
      "c": 43,
      "d": 44,
      "e": 45,
      "f": 46,
      "g": 47,
      "h": 48,
      "i": 49,
      "j": 50,
      "k": 51,
      "l": 52,
      "m": 53,
      "n": 54,
      "o": 55,
      "p": 56,
      "q": 57,
      "r": 58,
      "s": 59,
      "t": 60,
      "u": 61,
      "v": 62,
      "w": 63,
      "x": 64,
      "y": 65,
      "z": 66,
      "{": 67,
      "|": 68,
      "}": 69,
      "~": 70,
      "¡": 71,
      "¢": 72,
      "£": 73,
      "¤": 74,
      "¥": 75,
      "¦": 76,
      "§": 77,
      "¨": 78,
      "©": 79,
      "ª": 80,
      "«": 81,
      "¬": 82,
      "­": 83,
      "®": 84,
      "¯": 85,
      "°": 86,
      "±": 87,
      "²": 88,
      "³": 89,
      "´": 90,
      "µ": 91,
      "¶": 92,
      "·": 93,
      "¸": 94,
      "¹": 95,
      "º": 96,
      "»": 97,
      "¼": 98,
      "½": 99,
      "¾": 100,
      "¿": 101,
      "æ": 102,
      "ð": 103,
      "œ": 104,
      "ƒ": 105,
      "ˆ": 106,
      "˜": 107,
      "–": 108,
      "‘": 109,
      "’": 110,
      "‚": 111,
      "“": 112,
      "”": 113,
      "„": 114,
      "†": 115,
      "‡": 116,
      "•": 117,
      "…": 118,
      "‰": 119,
      "‹": 120,
      "›": 121,
      "€": 122,
      "™": 123,
      "##n": 124,
      "##c": 125,
      "##r": 126,
      "##e": 127,
      "##a": 128,
      "##s": 129,
      "##l": 130,
      "##u": 131,
      "##b": 132,
      "##i": 133,
      "##d": 134,
      "##y": 135,
      "##f": 136,
      "##h": 137,
      "##o": 138,
      "##g": 139,
      "##v": 140,
      "##m": 141,
      "##k": 142,
      "##6": 143,
      "##t": 144,
      "##p": 145,
      "##w": 146,
      "##x": 147,
      "##j": 148,
      "##z": 149,
      "##\"": 150,
      "##;": 151,
      "##?": 152,
      "##.": 153,
      "##5": 154,
      "##!": 155,
      "##'": 156,
      "##˜": 157,
      "##q": 158,
      "##”": 159,
      "##9": 160,
      "##1": 161,
      "##2": 162,
      "##,": 163,
      "##–": 164,
      "##)": 165,
      "##‚": 166,
      "##3": 167,
      "##0": 168,
      "##:": 169,
      "##›": 170,
      "##8": 171,
      "##µ": 172,
      "##7": 173,
      "##*": 174,
      "##…": 175,
      "##‰": 176,
      "##¦": 177,
      "##-": 178,
      "##\\": 179,
      "##4": 180,
      "##(": 181,
      "##¡": 182,
      "##`": 183,
      "##’": 184,
      "##ˆ": 185,
      "###": 186,
      "##¹": 187,
      "##~": 188,
      "##‡": 189,
      "##œ": 190,
      "##ƒ": 191,
      "##æ": 192,
      "##³": 193,
      "##_": 194,
      "##+": 195,
      "##[": 196,
      "##<": 197,
      "##/": 198,
      "##½": 199,
      "##´": 200,
      "##™": 201,
      "##>": 202,
      "##±": 203,
      "##‹": 204,
      "##º": 205,
      "##@": 206,
      "##ª": 207,
      "##£": 208,
      "##]": 209,
      "##¨": 210,
      "##©": 211,
      "##€": 212,
      "##²": 213,
      "##¢": 214,
      "##ð": 215,
      "##=": 216,
      "##‘": 217,
      "##&": 218,
      "##¶": 219,
      "##†": 220,
      "##•": 221,
      "##¬": 222,
      "##$": 223,
      "##}": 224,
      "##“": 225,
      "##„": 226,
      "##¼": 227,
      "##{": 228,
      "##®": 229,
      "##¥": 230,
      "##¯": 231,
      "##¿": 232,
      "##°": 233,
      "##¾": 234,
      "##he": 235,
      "the": 236,
      "##nd": 237,
      "##ed": 238,
      "and": 239,
      "to": 240,
      "##er": 241,
      "wa": 242,
      "##ou": 243,
      "##in": 244,
      "he": 245,
      "##re": 246,
      "was": 247,
      "sa": 248,
      "##ing": 249,
      "##om": 250,
      "she": 251,
      "##ar": 252,
      "##il": 253,
      "##it": 254,
      "##ay": 255,
      "it": 256,
      "##id": 257,
      "##at": 258,
      "they": 259,
      "ha": 260,
      "##en": 261,
      "##is": 262,
      "##an": 263,
      "on": 264,
      "th": 265,
      "##or": 266,
      "##im": 267,
      "##on": 268,
      "##ut": 269,
      "her": 270,
      "##ll": 271,
      "##le": 272,
      "##et": 273,
      "##ot": 274,
      "##ir": 275,
      "##es": 276,
      "in": 277,
      "##ow": 278,
      "you": 279,
      "##ck": 280,
      "##ld": 281,
      "##oo": 282,
      "said": 283,
      "be": 284,
      "##ily": 285,
      "st": 286,
      "##ig": 287,
      "tim": 288,
      "so": 289,
      "##ce": 290,
      "##pp": 291,
      "wit": 292,
      "his": 293,
      "with": 294,
      "mom": 295,
      "##ve": 296,
      "lily": 297,
      "of": 298,
      "##ked": 299,
      "fr": 300,
      "that": 301,
      "pl": 302,
      "##ery": 303,
      "##am": 304,
      "##ad": 305,
      "##ke": 306,
      "but": 307,
      "##nt": 308,
      "day": 309,
      "up": 310,
      "##ie": 311,
      "play": 312,
      "had": 313,
      "##el": 314,
      "for": 315,
      "wh": 316,
      "##st": 317,
      "##un": 318,
      "##ould": 319,
      "an": 320,
      "##my": 321,
      "##ent": 322,
      "li": 323,
      "##ra": 324,
      "##ch": 325,
      "do": 326,
      "happ": 327,
      "one": 328,
      "sh": 329,
      "want": 330,
      "##itt": 331,
      "##her": 332,
      "not": 333,
      "there": 334,
      "##ly": 335,
      "##ome": 336,
      "very": 337,
      "##se": 338,
      "##ound": 339,
      "as": 340,
      "ba": 341,
      "litt": 342,
      "little": 343,
      "ne": 344,
      "time": 345,
      "##ht": 346,
      "##al": 347,
      "ma": 348,
      "sm": 349,
      "happy": 350,
      "is": 351,
      "big": 352,
      "loo": 353,
      "saw": 354,
      "##iend": 355,
      "friend": 356,
      ".\"": 357,
      "##ry": 358,
      "re": 359,
      "bo": 360,
      "##ur": 361,
      "##ter": 362,
      "##ug": 363,
      "!\"": 364,
      "##ere": 365,
      "##ved": 366,
      "lo": 367,
      "once": 368,
      "were": 369,
      "##ore": 370,
      "se": 371,
      "ev": 372,
      "go": 373,
      "sp": 374,
      "him": 375,
      "too": 376,
      "ca": 377,
      "##ide": 378,
      "we": 379,
      "are": 380,
      "tom": 381,
      "at": 382,
      "##irl": 383,
      "can": 384,
      "##ard": 385,
      "wanted": 386,
      "ben": 387,
      "whe": 388,
      "##ill": 389,
      "girl": 390,
      "upon": 391,
      "##ec": 392,
      "their": 393,
      "out": 394,
      "them": 395,
      "##ys": 396,
      "##fu": 397,
      "##way": 398,
      "did": 399,
      "smil": 400,
      "##ind": 401,
      "could": 402,
      "have": 403,
      "no": 404,
      "##ri": 405,
      "##ted": 406,
      "##ver": 407,
      "##ain": 408,
      "ex": 409,
      "##hed": 410,
      "all": 411,
      "ar": 412,
      "went": 413,
      "hel": 414,
      "su": 415,
      "##ic": 416,
      "when": 417,
      "ta": 418,
      "help": 419,
      "##ful": 420,
      "##ood": 421,
      "?\"": 422,
      "friends": 423,
      "##hing": 424,
      "nam": 425,
      "##ight": 426,
      "kn": 427,
      "what": 428,
      "le": 429,
      "##um": 430,
      "back": 431,
      "##ark": 432,
      "##one": 433,
      "cl": 434,
      "from": 435,
      "fun": 436,
      "al": 437,
      "then": 438,
      "##all": 439,
      "timmy": 440,
      "ro": 441,
      "star": 442,
      "every": 443,
      "sc": 444,
      "smiled": 445,
      "named": 446,
      "##oug": 447,
      "loved": 448,
      "##side": 449,
      "man": 450,
      "some": 451,
      "##elt": 452,
      "asked": 453,
      "see": 454,
      "##ick": 455,
      "me": 456,
      "like": 457,
      "fe": 458,
      "##op": 459,
      "felt": 460,
      "br": 461,
      "looked": 462,
      "around": 463,
      "##ep": 464,
      "##ame": 465,
      "look": 466,
      "##omet": 467,
      "bir": 468,
      "would": 469,
      "somet": 470,
      "##get": 471,
      "fa": 472,
      "##ong": 473,
      "boy": 474,
      "##ss": 475,
      "bird": 476,
      "pr": 477,
      "##dd": 478,
      "jo": 479,
      "##est": 480,
      "##ings": 481,
      "ag": 482,
      "wor": 483,
      "make": 484,
      "mommy": 485,
      "##ade": 486,
      "car": 487,
      "than": 488,
      ",\"": 489,
      "##own": 490,
      "tre": 491,
      "ran": 492,
      "##gether": 493,
      "together": 494,
      "la": 495,
      "away": 496,
      "dad": 497,
      "says": 498,
      "started": 499,
      "##ice": 500,
      "##oud": 501,
      "something": 502,
      "##ared": 503,
      "made": 504,
      "##na": 505,
      "co": 506,
      "fl": 507,
      "##ther": 508,
      "##ited": 509,
      "park": 510,
      "sad": 511,
      "good": 512,
      "other": 513,
      "ch": 514,
      "exc": 515,
      "new": 516,
      "put": 517,
      "##out": 518,
      "who": 519,
      "hug": 520,
      "mu": 521,
      "##ble": 522,
      "again": 523,
      "let": 524,
      "home": 525,
      "sam": 526,
      "found": 527,
      "dec": 528,
      "##pped": 529,
      "##ried": 530,
      "wal": 531,
      "##ure": 532,
      "##ack": 533,
      "get": 534,
      "##ach": 535,
      "playing": 536,
      "##ought": 537,
      "gra": 538,
      "##pl": 539,
      "sw": 540,
      "##ous": 541,
      "things": 542,
      "bl": 543,
      "excited": 544,
      "your": 545,
      "liked": 546,
      "got": 547,
      "##ny": 548,
      "##uck": 549,
      "##king": 550,
      "##ge": 551,
      "##ided": 552,
      "decided": 553,
      "came": 554,
      "my": 555,
      "dog": 556,
      "scared": 557,
      "##ust": 558,
      "down": 559,
      "this": 560,
      "bec": 561,
      "##ouse": 562,
      "ab": 563,
      "find": 564,
      "pa": 565,
      "care": 566,
      "will": 567,
      "po": 568,
      "gr": 569,
      "sara": 570,
      "feel": 571,
      "anna": 572,
      "##ell": 573,
      "max": 574,
      "##ist": 575,
      "bu": 576,
      "##as": 577,
      "##arn": 578,
      "##ave": 579,
      "##nder": 580,
      "##ways": 581,
      "##ess": 582,
      "always": 583,
      "mo": 584,
      "##ook": 585,
      "took": 586,
      "about": 587,
      "lot": 588,
      "##ers": 589,
      "toys": 590,
      "kne": 591,
      "didn": 592,
      "##ged": 593,
      "##ise": 594,
      "##bb": 595,
      "old": 596,
      "outside": 597,
      "tree": 598,
      "##ite": 599,
      "ho": 600,
      "how": 601,
      "##ally": 602,
      "ball": 603,
      "thought": 604,
      "##ant": 605,
      "af": 606,
      "sor": 607,
      "more": 608,
      "##ma": 609,
      "##eci": 610,
      "##ened": 611,
      "##ched": 612,
      "learn": 613,
      "##ret": 614,
      "pu": 615,
      "tw": 616,
      "know": 617,
      "cat": 618,
      "##to": 619,
      "take": 620,
      "mi": 621,
      "laug": 622,
      "pe": 623,
      "speci": 624,
      "special": 625,
      "don": 626,
      "sudd": 627,
      "sudden": 628,
      "inside": 629,
      "knew": 630,
      "##ty": 631,
      "sorry": 632,
      "##ive": 633,
      "##ro": 634,
      "any": 635,
      "jack": 636,
      "##ff": 637,
      "suddenly": 638,
      "just": 639,
      "toy": 640,
      "##ue": 641,
      "after": 642,
      "tr": 643,
      "show": 644,
      "if": 645,
      "##ink": 646,
      "##lly": 647,
      "or": 648,
      "run": 649,
      "ra": 650,
      "sl": 651,
      "much": 652,
      "##ish": 653,
      "hand": 654,
      "house": 655,
      "sun": 656,
      "op": 657,
      "sk": 658,
      "clo": 659,
      "into": 660,
      "fin": 661,
      "tried": 662,
      "en": 663,
      "water": 664,
      "##ea": 665,
      "##ate": 666,
      "yes": 667,
      "told": 668,
      "each": 669,
      "over": 670,
      "proud": 671,
      "##ump": 672,
      "gave": 673,
      "heard": 674,
      "never": 675,
      "##dy": 676,
      "##by": 677,
      "ok": 678,
      "##use": 679,
      "eat": 680,
      "room": 681,
      "expl": 682,
      "##other": 683,
      "pick": 684,
      "pret": 685,
      "qu": 686,
      "##lled": 687,
      "gre": 688,
      "couldn": 689,
      "thank": 690,
      "played": 691,
      "##ion": 692,
      "mia": 693,
      "sha": 694,
      "come": 695,
      "##ause": 696,
      "wat": 697,
      "hugged": 698,
      "because": 699,
      "##ious": 700,
      "off": 701,
      "bear": 702,
      "now": 703,
      "com": 704,
      "nice": 705,
      "##oth": 706,
      "fo": 707,
      "box": 708,
      "##our": 709,
      "str": 710,
      "need": 711,
      "bet": 712,
      "many": 713,
      "##ile": 714,
      "##fe": 715,
      "##ft": 716,
      "small": 717,
      "##eep": 718,
      "long": 719,
      "##ving": 720,
      "##kes": 721,
      "##sed": 722,
      "##gry": 723,
      "##imal": 724,
      "animal": 725,
      "try": 726,
      "end": 727,
      "##ough": 728,
      "unt": 729,
      "##cy": 730,
      "##ild": 731,
      "until": 732,
      "even": 733,
      "##urt": 734,
      "##ort": 735,
      "##elf": 736,
      "soon": 737,
      "##iz": 738,
      "kind": 739,
      "love": 740,
      "learned": 741,
      "bea": 742,
      "everyone": 743,
      "by": 744,
      "ad": 745,
      "better": 746,
      "flow": 747,
      "spot": 748,
      "##ine": 749,
      "best": 750,
      "##urp": 751,
      "say": 752,
      "##mp": 753,
      "##ady": 754,
      "##ream": 755,
      "cle": 756,
      "##urn": 757,
      "##ace": 758,
      "##ves": 759,
      "fi": 760,
      "gard": 761,
      "garden": 762,
      "fast": 763,
      "che": 764,
      "careful": 765,
      "##ber": 766,
      "beaut": 767,
      "bra": 768,
      "##ies": 769,
      "thanked": 770,
      "sky": 771,
      "laughed": 772,
      "jump": 773,
      "gl": 774,
      "loud": 775,
      "ow": 776,
      "list": 777,
      "##ear": 778,
      "##ct": 779,
      "##iny": 780,
      "wo": 781,
      "beauti": 782,
      "##sh": 783,
      "##lew": 784,
      "lots": 785,
      "beautiful": 786,
      "hard": 787,
      "##self": 788,
      "still": 789,
      "animals": 790,
      "fam": 791,
      "joh": 792,
      "under": 793,
      "lu": 794,
      "hurt": 795,
      "stay": 796,
      "john": 797,
      "mum": 798,
      "##ning": 799,
      "both": 800,
      "dan": 801,
      "##ree": 802,
      "way": 803,
      "rem": 804,
      "two": 805,
      "##cks": 806,
      "##hes": 807,
      "bad": 808,
      "##be": 809,
      "safe": 810,
      "col": 811,
      "##ool": 812,
      "di": 813,
      "red": 814,
      "its": 815,
      "book": 816,
      "imp": 817,
      "tow": 818,
      "##ople": 819,
      "##ane": 820,
      "lived": 821,
      "people": 822,
      "##th": 823,
      "##em": 824,
      "lucy": 825,
      "okay": 826,
      "walked": 827,
      "should": 828,
      "brave": 829,
      "##urpr": 830,
      "surpr": 831,
      "##ase": 832,
      "##ished": 833,
      "angry": 834,
      "family": 835,
      "adv": 836,
      "##ress": 837,
      "##igh": 838,
      "flew": 839,
      "called": 840,
      "stor": 841,
      "##ip": 842,
      "##ept": 843,
      "##eet": 844,
      "##led": 845,
      "fore": 846,
      "kept": 847,
      "fly": 848,
      "##ect": 849,
      "share": 850,
      "##fore": 851,
      "before": 852,
      "sure": 853,
      "##ger": 854,
      "while": 855,
      "##xt": 856,
      "##ised": 857,
      "##dded": 858,
      "pic": 859,
      "keep": 860,
      "door": 861,
      "going": 862,
      "pretty": 863,
      "clean": 864,
      "dra": 865,
      "next": 866,
      "advent": 867,
      "##ary": 868,
      "##ied": 869,
      "may": 870,
      "give": 871,
      "noise": 872,
      "far": 873,
      "con": 874,
      "opened": 875,
      "shiny": 876,
      "doll": 877,
      "un": 878,
      "wind": 879,
      "cry": 880,
      "id": 881,
      "real": 882,
      "grand": 883,
      "why": 884,
      "##illy": 885,
      "##end": 886,
      "sto": 887,
      "##so": 888,
      "turn": 889,
      "explore": 890,
      "ground": 891,
      "also": 892,
      "##les": 893,
      "€™": 894,
      "##ner": 895,
      "ey": 896,
      "idea": 897,
      "sn": 898,
      "##art": 899,
      "color": 900,
      "##ap": 901,
      "nodded": 902,
      "war": 903,
      "feeling": 904,
      "where": 905,
      "blue": 906,
      "bob": 907,
      "picked": 908,
      "##imb": 909,
      "walking": 910,
      "clos": 911,
      "##thing": 912,
      "climb": 913,
      "thr": 914,
      "##ting": 915,
      "has": 916,
      "bed": 917,
      "smile": 918,
      "ple": 919,
      "wait": 920,
      "adventure": 921,
      "##oy": 922,
      "being": 923,
      "finally": 924,
      "looking": 925,
      "da": 926,
      "##iced": 927,
      "maybe": 928,
      "##ture": 929,
      "diff": 930,
      "wr": 931,
      "##and": 932,
      "food": 933,
      "listen": 934,
      "##joy": 935,
      "picture": 936,
      "think": 937,
      "del": 938,
      "remem": 939,
      "truck": 940,
      "tra": 941,
      "eyes": 942,
      "##ught": 943,
      "bro": 944,
      "gi": 945,
      "repl": 946,
      "stopped": 947,
      "great": 948,
      "bre": 949,
      "ru": 950,
      "here": 951,
      "vo": 952,
      "##qu": 953,
      "walk": 954,
      "year": 955,
      "enjoy": 956,
      "wonder": 957,
      "##able": 958,
      "remember": 959,
      "hands": 960,
      "sue": 961,
      "quick": 962,
      "##per": 963,
      "ever": 964,
      "cur": 965,
      "head": 966,
      "flowers": 967,
      "import": 968,
      "forest": 969,
      "##og": 970,
      "ac": 971,
      "noticed": 972,
      "near": 973,
      "##bbit": 974,
      "app": 975,
      "dis": 976,
      "##ized": 977,
      "watch": 978,
      "##irst": 979,
      "rabbit": 980,
      "fish": 981,
      "##llow": 982,
      "important": 983,
      "##age": 984,
      "ama": 985,
      "us": 986,
      "rain": 987,
      "sound": 988,
      "slide": 989,
      "bun": 990,
      "amaz": 991,
      "replied": 992,
      "blo": 993,
      "work": 994,
      "stop": 995,
      "follow": 996,
      "rock": 997,
      "mor": 998,
      "showed": 999,
      "tal": 1000,
      "mean": 1001,
      "tou": 1002,
      "##gan": 1003,
      "##ces": 1004,
      "right": 1005,
      "sarah": 1006,
      "ask": 1007,
      "##bbed": 1008,
      "differ": 1009,
      "mag": 1010,
      "goodby": 1011,
      "our": 1012,
      "bright": 1013,
      "##day": 1014,
      "watched": 1015,
      "goodbye": 1016,
      "hop": 1017,
      "use": 1018,
      "strong": 1019,
      "am": 1020,
      "stick": 1021,
      "quickly": 1022,
      "been": 1023,
      "voice": 1024,
      "daddy": 1025,
      "please": 1026,
      "yell": 1027,
      "##ath": 1028,
      "jane": 1029,
      "different": 1030,
      "child": 1031,
      "##co": 1032,
      "boat": 1033,
      "##che": 1034,
      "##llo": 1035,
      "first": 1036,
      "became": 1037,
      "face": 1038,
      "place": 1039,
      "##ange": 1040,
      "high": 1041,
      "does": 1042,
      "##ng": 1043,
      "store": 1044,
      "closer": 1045,
      "curious": 1046,
      "##ak": 1047,
      "warm": 1048,
      "sand": 1049,
      "##ummy": 1050,
      "dress": 1051,
      "bel": 1052,
      "cook": 1053,
      "joe": 1054,
      "hello": 1055,
      "tell": 1056,
      "##ila": 1057,
      "forg": 1058,
      "em": 1059,
      "three": 1060,
      "fav": 1061,
      "grandma": 1062,
      "##oon": 1063,
      "##ount": 1064,
      "open": 1065,
      "lila": 1066,
      "##leep": 1067,
      "night": 1068,
      "cake": 1069,
      "##more": 1070,
      "pie": 1071,
      "anymore": 1072,
      "bunny": 1073,
      "butter": 1074,
      "mon": 1075,
      "##iss": 1076,
      "##ached": 1077,
      "lea": 1078,
      "flo": 1079,
      "sweet": 1080,
      "##ired": 1081,
      "kid": 1082,
      "##ull": 1083,
      "only": 1084,
      "kit": 1085,
      "pain": 1086,
      "grabbed": 1087,
      "duck": 1088,
      "##here": 1089,
      "##isy": 1090,
      "fell": 1091,
      "fire": 1092,
      "birds": 1093,
      "cont": 1094,
      "##ered": 1095,
      "jumped": 1096,
      "glad": 1097,
      "pet": 1098,
      "bit": 1099,
      "##chen": 1100,
      "per": 1101,
      "kitchen": 1102,
      "cra": 1103,
      "helped": 1104,
      "sees": 1105,
      "##outed": 1106,
      "dr": 1107,
      "hear": 1108,
      "sing": 1109,
      "##ul": 1110,
      "prin": 1111,
      "happened": 1112,
      "squ": 1113,
      "grass": 1114,
      "yummy": 1115,
      "tri": 1116,
      "ready": 1117,
      "tommy": 1118,
      "sna": 1119,
      "story": 1120,
      "shouted": 1121,
      "beh": 1122,
      "##nts": 1123,
      "really": 1124,
      "brother": 1125,
      "cr": 1126,
      "reached": 1127,
      "realized": 1128,
      "lady": 1129,
      "##ank": 1130,
      "##ey": 1131,
      "draw": 1132,
      "sho": 1133,
      "having": 1134,
      "##ins": 1135,
      "through": 1136,
      "favor": 1137,
      "mess": 1138,
      "cre": 1139,
      "hat": 1140,
      "favorite": 1141,
      "game": 1142,
      "less": 1143,
      "ate": 1144,
      "underst": 1145,
      "soft": 1146,
      "##where": 1147,
      "pare": 1148,
      "##zy": 1149,
      "thing": 1150,
      "##ather": 1151,
      "##imes": 1152,
      "cu": 1153,
      "magic": 1154,
      "pretend": 1155,
      "began": 1156,
      "world": 1157,
      "looks": 1158,
      "##ken": 1159,
      "butterf": 1160,
      "himself": 1161,
      "kids": 1162,
      "##fully": 1163,
      "making": 1164,
      "done": 1165,
      "cut": 1166,
      "##ppy": 1167,
      "rest": 1168,
      "##bo": 1169,
      "mouse": 1170,
      "coming": 1171,
      "sometimes": 1172,
      "pond": 1173,
      "prom": 1174,
      "waved": 1175,
      "ted": 1176,
      "tired": 1177,
      "##ely": 1178,
      "fix": 1179,
      "worry": 1180,
      "cars": 1181,
      "wow": 1182,
      "delic": 1183,
      "fill": 1184,
      "name": 1185,
      "flower": 1186,
      "##ater": 1187,
      "touch": 1188,
      "hold": 1189,
      "sally": 1190,
      "catch": 1191,
      "##ster": 1192,
      "##air": 1193,
      "##cked": 1194,
      "funny": 1195,
      "another": 1196,
      "hair": 1197,
      "used": 1198,
      "farm": 1199,
      "tast": 1200,
      "seen": 1201,
      "top": 1202,
      "##ient": 1203,
      "parents": 1204,
      "surprise": 1205,
      "##rel": 1206,
      "daisy": 1207,
      "te": 1208,
      "green": 1209,
      "cool": 1210,
      "cla": 1211,
      "doing": 1212,
      "hopped": 1213,
      "cried": 1214,
      "##oney": 1215,
      "blocks": 1216,
      "##iver": 1217,
      "light": 1218,
      "din": 1219,
      "\".": 1220,
      "years": 1221,
      "ste": 1222,
      "lesson": 1223,
      "read": 1224,
      "##ation": 1225,
      "snow": 1226,
      "floor": 1227,
      "wood": 1228,
      "dri": 1229,
      "##pe": 1230,
      "frog": 1231,
      "##ren": 1232,
      "behind": 1233,
      "trees": 1234,
      "##ards": 1235,
      "full": 1236,
      "running": 1237,
      "bow": 1238,
      "window": 1239,
      "worked": 1240,
      "sat": 1241,
      "smell": 1242,
      "slow": 1243,
      "dark": 1244,
      "par": 1245,
      "dro": 1246,
      "wear": 1247,
      "##ons": 1248,
      "yellow": 1249,
      "##ph": 1250,
      "likes": 1251,
      "paper": 1252,
      "wished": 1253,
      "swim": 1254,
      "##ued": 1255,
      "sleep": 1256,
      "##ag": 1257,
      "##us": 1258,
      "mar": 1259,
      "happily": 1260,
      "##ced": 1261,
      "bag": 1262,
      "pat": 1263,
      "baby": 1264,
      "surprised": 1265,
      "teddy": 1266,
      "butterfly": 1267,
      "el": 1268,
      "jim": 1269,
      "carefully": 1270,
      "set": 1271,
      "swing": 1272,
      "benny": 1273,
      "ice": 1274,
      "lost": 1275,
      "cold": 1276,
      "remembered": 1277,
      "held": 1278,
      "##orn": 1279,
      "hole": 1280,
      "own": 1281,
      "##rew": 1282,
      "laugh": 1283,
      "needed": 1284,
      "perf": 1285,
      "buy": 1286,
      "move": 1287,
      "##uff": 1288,
      "left": 1289,
      "billy": 1290,
      "fair": 1291,
      "anything": 1292,
      "dream": 1293,
      "##cess": 1294,
      "##reed": 1295,
      "tall": 1296,
      "wrong": 1297,
      "enjoyed": 1298,
      "books": 1299,
      "arri": 1300,
      "air": 1301,
      "followed": 1302,
      "children": 1303,
      "bus": 1304,
      "delicious": 1305,
      "hun": 1306,
      "mat": 1307,
      "someone": 1308,
      "table": 1309,
      "molly": 1310,
      "finished": 1311,
      "hot": 1312,
      "friendly": 1313,
      "tea": 1314,
      "contin": 1315,
      "dir": 1316,
      "ll": 1317,
      "##ndy": 1318,
      "##ens": 1319,
      "herself": 1320,
      "cream": 1321,
      "close": 1322,
      "hill": 1323,
      "##ross": 1324,
      "amy": 1325,
      "##ds": 1326,
      "understand": 1327,
      "##lf": 1328,
      "##ined": 1329,
      "might": 1330,
      "hid": 1331,
      "bug": 1332,
      "everywhere": 1333,
      "cast": 1334,
      "arrived": 1335,
      "res": 1336,
      "gent": 1337,
      "arm": 1338,
      "else": 1339,
      "wonderful": 1340,
      "tight": 1341,
      "forgot": 1342,
      "rel": 1343,
      "##ield": 1344,
      "pink": 1345,
      "squir": 1346,
      "colors": 1347,
      "build": 1348,
      "jen": 1349,
      "sig": 1350,
      "broken": 1351,
      "able": 1352,
      "gone": 1353,
      "filled": 1354,
      "song": 1355,
      "wall": 1356,
      "squirrel": 1357,
      "everything": 1358,
      "agreed": 1359,
      "gu": 1360,
      "creat": 1361,
      "continued": 1362,
      "count": 1363,
      "##asure": 1364,
      "lion": 1365,
      "##ama": 1366,
      "wants": 1367,
      "##room": 1368,
      "leaves": 1369,
      "##ich": 1370,
      "##sk": 1371,
      "later": 1372,
      "enough": 1373,
      "ju": 1374,
      "moment": 1375,
      "vis": 1376,
      "morning": 1377,
      "mama": 1378,
      "joy": 1379,
      "##ast": 1380,
      "getting": 1381,
      "cookies": 1382,
      "fight": 1383,
      "##shed": 1384,
      "stayed": 1385,
      "break": 1386,
      "##ence": 1387,
      "poin": 1388,
      "mother": 1389,
      "##av": 1390,
      "beach": 1391,
      "scary": 1392,
      "few": 1393,
      "##ance": 1394,
      "dinner": 1395,
      "spark": 1396,
      "fall": 1397,
      "hungry": 1398,
      "turned": 1399,
      "today": 1400,
      "wet": 1401,
      "##pa": 1402,
      "##gon": 1403,
      "amazing": 1404,
      "##row": 1405,
      "trying": 1406,
      "perfect": 1407,
      "plan": 1408,
      "makes": 1409,
      "##ries": 1410,
      "castle": 1411,
      "others": 1412,
      "fur": 1413,
      "climbed": 1414,
      "pen": 1415,
      "talk": 1416,
      "##oup": 1417,
      "pictures": 1418,
      "mus": 1419,
      "spl": 1420,
      "white": 1421,
      "met": 1422,
      "fox": 1423,
      "oh": 1424,
      "listened": 1425,
      "brown": 1426,
      "smiles": 1427,
      "balloon": 1428,
      "jill": 1429,
      "clot": 1430,
      "##man": 1431,
      "##oring": 1432,
      "pol": 1433,
      "ear": 1434,
      "leave": 1435,
      "clothes": 1436,
      "alone": 1437,
      "shar": 1438,
      "puppy": 1439,
      "tail": 1440,
      "##ctor": 1441,
      "hi": 1442,
      "##ated": 1443,
      "##ash": 1444,
      "##amp": 1445,
      "start": 1446,
      "##rot": 1447,
      "deep": 1448,
      "brought": 1449,
      "bi": 1450,
      "sear": 1451,
      "strange": 1452,
      "sit": 1453,
      "grow": 1454,
      "##ister": 1455,
      "##elc": 1456,
      "woods": 1457,
      "##der": 1458,
      "sail": 1459,
      "pulled": 1460,
      "danger": 1461,
      "moral": 1462,
      "##ling": 1463,
      "won": 1464,
      "welc": 1465,
      "##pping": 1466,
      "##ott": 1467,
      "ride": 1468,
      "asks": 1469,
      "treat": 1470,
      "##zz": 1471,
      "##ake": 1472,
      "visit": 1473,
      "mark": 1474,
      "##ches": 1475,
      "fluff": 1476,
      "wasn": 1477,
      "music": 1478,
      "##med": 1479,
      "amazed": 1480,
      "hide": 1481,
      "fluffy": 1482,
      "waited": 1483,
      "well": 1484,
      "towards": 1485,
      "##ang": 1486,
      "land": 1487,
      "pre": 1488,
      "##ven": 1489,
      "field": 1490,
      "silly": 1491,
      "flying": 1492,
      "##ower": 1493,
      "##iet": 1494,
      "belie": 1495,
      "##ead": 1496,
      "cloud": 1497,
      "shared": 1498,
      "runs": 1499,
      "owner": 1500,
      "##ained": 1501,
      "slowly": 1502,
      "##key": 1503,
      "quiet": 1504,
      "living": 1505,
      "job": 1506,
      "##ames": 1507,
      "##ever": 1508,
      "promised": 1509,
      "side": 1510,
      "##gs": 1511,
      "##la": 1512,
      "##cle": 1513,
      "lake": 1514,
      "##orm": 1515,
      "thinks": 1516,
      "##pes": 1517,
      "##cket": 1518,
      "sister": 1519,
      "##ugg": 1520,
      "paint": 1521,
      "mary": 1522,
      "##thy": 1523,
      "##igg": 1524,
      "na": 1525,
      "party": 1526,
      "must": 1527,
      "cho": 1528,
      "##ually": 1529,
      "race": 1530,
      "money": 1531,
      "bar": 1532,
      "##ises": 1533,
      "##avy": 1534,
      "worried": 1535,
      "##sw": 1536,
      "##sp": 1537,
      "answ": 1538,
      "pot": 1539,
      "faster": 1540,
      "princess": 1541,
      "dance": 1542,
      "colorful": 1543,
      "grate": 1544,
      "pieces": 1545,
      "##ased": 1546,
      "bran": 1547,
      "mr": 1548,
      "bott": 1549,
      "luck": 1550,
      "cup": 1551,
      "broke": 1552,
      "pro": 1553,
      "win": 1554,
      "grateful": 1555,
      "such": 1556,
      "bigger": 1557,
      "train": 1558,
      "##ze": 1559,
      "candy": 1560,
      "pull": 1561,
      "ele": 1562,
      "monster": 1563,
      "reach": 1564,
      "blank": 1565,
      "black": 1566,
      "farmer": 1567,
      "stu": 1568,
      "join": 1569,
      "welcome": 1570,
      "river": 1571,
      "##app": 1572,
      "##less": 1573,
      "call": 1574,
      "inst": 1575,
      "treasure": 1576,
      "lun": 1577,
      "blanket": 1578,
      "scream": 1579,
      "comp": 1580,
      "magical": 1581,
      "dragon": 1582,
      "smart": 1583,
      "bee": 1584,
      "kitt": 1585,
      "dangerous": 1586,
      "bike": 1587,
      "##uit": 1588,
      "event": 1589,
      "sign": 1590,
      "most": 1591,
      "helping": 1592,
      "across": 1593,
      "nap": 1594,
      "min": 1595,
      "spr": 1596,
      "miss": 1597,
      "jimmy": 1598,
      "##outh": 1599,
      "disapp": 1600,
      "mouth": 1601,
      "##set": 1602,
      "##let": 1603,
      "##icy": 1604,
      "words": 1605,
      "pass": 1606,
      "stre": 1607,
      "dolls": 1608,
      "acc": 1609,
      "tower": 1610,
      "believe": 1611,
      "##eared": 1612,
      "doctor": 1613,
      "threw": 1614,
      "stepped": 1615,
      "heavy": 1616,
      "##ming": 1617,
      "bite": 1618,
      "bowl": 1619,
      "dirty": 1620,
      "twins": 1621,
      "same": 1622,
      "##oom": 1623,
      "crying": 1624,
      "##de": 1625,
      "##ored": 1626,
      "##ident": 1627,
      "heal": 1628,
      "bath": 1629,
      "hig": 1630,
      "##red": 1631,
      "carrot": 1632,
      "##fort": 1633,
      "##chool": 1634,
      "##ment": 1635,
      "closed": 1636,
      "##bble": 1637,
      "mummy": 1638,
      "##lla": 1639,
      "heart": 1640,
      "buck": 1641,
      "fruit": 1642,
      "cour": 1643,
      "stuck": 1644,
      "att": 1645,
      "plant": 1646,
      "school": 1647,
      "without": 1648,
      "##os": 1649,
      "mix": 1650,
      "emma": 1651,
      "eating": 1652,
      "hoped": 1653,
      "##ipped": 1654,
      "fairy": 1655,
      "bask": 1656,
      "basket": 1657,
      "##iting": 1658,
      "feels": 1659,
      "##cher": 1660,
      "chair": 1661,
      "town": 1662,
      "cray": 1663,
      "butt": 1664,
      "wouldn": 1665,
      "course": 1666,
      "clapped": 1667,
      "stand": 1668,
      "coll": 1669,
      "ve": 1670,
      "gentle": 1671,
      "pack": 1672,
      "eventually": 1673,
      "##ier": 1674,
      "along": 1675,
      "drove": 1676,
      "pushed": 1677,
      "##ors": 1678,
      "##br": 1679,
      "##issed": 1680,
      "higher": 1681,
      "smo": 1682,
      "neigh": 1683,
      "free": 1684,
      "swings": 1685,
      "sec": 1686,
      "kno": 1687,
      "pocket": 1688,
      "je": 1689,
      "##orrow": 1690,
      "teacher": 1691,
      "hit": 1692,
      "accident": 1693,
      "pers": 1694,
      "neighb": 1695,
      "har": 1696,
      "##ord": 1697,
      "games": 1698,
      "piece": 1699,
      "##ourn": 1700,
      "cheered": 1701,
      "wings": 1702,
      "forget": 1703,
      "journ": 1704,
      "explained": 1705,
      "mine": 1706,
      "yard": 1707,
      "longer": 1708,
      "##que": 1709,
      "##ible": 1710,
      "dry": 1711,
      "##umb": 1712,
      "throw": 1713,
      "##ire": 1714,
      "noises": 1715,
      "##itting": 1716,
      "sang": 1717,
      "late": 1718,
      "young": 1719,
      "happen": 1720,
      "hugs": 1721,
      "##ract": 1722,
      "turns": 1723,
      "stories": 1724,
      "singing": 1725,
      "tiny": 1726,
      "instead": 1727,
      "mad": 1728,
      "lon": 1729,
      "##sc": 1730,
      "shoes": 1731,
      "##vel": 1732,
      "eleph": 1733,
      "king": 1734,
      "elephant": 1735,
      "adventures": 1736,
      "owl": 1737,
      "apple": 1738,
      "trou": 1739,
      "neck": 1740,
      "lunch": 1741,
      "monkey": 1742,
      "sea": 1743,
      "ph": 1744,
      "gift": 1745,
      "upset": 1746,
      "jar": 1747,
      "lonely": 1748,
      "pla": 1749,
      "street": 1750,
      "belong": 1751,
      "dist": 1752,
      "secret": 1753,
      "wish": 1754,
      "##oun": 1755,
      "des": 1756,
      "##ost": 1757,
      "purp": 1758,
      "fence": 1759,
      "##ountain": 1760,
      "inv": 1761,
      "soup": 1762,
      "wise": 1763,
      "nearby": 1764,
      "exploring": 1765,
      "shook": 1766,
      "nothing": 1767,
      "moved": 1768,
      "de": 1769,
      "sammy": 1770,
      "naught": 1771,
      "bring": 1772,
      "naughty": 1773,
      "shop": 1774,
      "stars": 1775,
      "##fused": 1776,
      "taking": 1777,
      "##bow": 1778,
      "sunny": 1779,
      "bat": 1780,
      "##ol": 1781,
      "##yard": 1782,
      "caught": 1783,
      "drink": 1784,
      "##ward": 1785,
      "purple": 1786,
      "rocks": 1787,
      "backyard": 1788,
      "mil": 1789,
      "seemed": 1790,
      "relie": 1791,
      "whenever": 1792,
      "resp": 1793,
      "dropped": 1794,
      "##ughter": 1795,
      "ima": 1796,
      "orange": 1797,
      "mail": 1798,
      "though": 1799,
      "bucket": 1800,
      "##adow": 1801,
      "mitt": 1802,
      "swam": 1803,
      "##cing": 1804,
      "##sy": 1805,
      "cow": 1806,
      "past": 1807,
      "##ped": 1808,
      "shapes": 1809,
      "##ts": 1810,
      "rainbow": 1811,
      "##ions": 1812,
      "sitting": 1813,
      "sounds": 1814,
      "woke": 1815,
      "bench": 1816,
      "##ity": 1817,
      "fit": 1818,
      "boun": 1819,
      "busy": 1820,
      "wondered": 1821,
      "ob": 1822,
      "nose": 1823,
      "daughter": 1824,
      "nest": 1825,
      "pig": 1826,
      "juice": 1827,
      "##ese": 1828,
      "takes": 1829,
      "kite": 1830,
      "cou": 1831,
      "holding": 1832,
      "##col": 1833,
      "lucky": 1834,
      "key": 1835,
      "days": 1836,
      "##read": 1837,
      "part": 1838,
      "comes": 1839,
      "##bby": 1840,
      "birth": 1841,
      "arms": 1842,
      "birthday": 1843,
      "tweet": 1844,
      "cir": 1845,
      "coat": 1846,
      "round": 1847,
      "rec": 1848,
      "##ining": 1849,
      "branch": 1850,
      "relieved": 1851,
      "##raid": 1852,
      "zoom": 1853,
      "afraid": 1854,
      "driver": 1855,
      "forever": 1856,
      "##idge": 1857,
      "inter": 1858,
      "##are": 1859,
      "peace": 1860,
      "spoon": 1861,
      "##vered": 1862,
      "promise": 1863,
      "##ek": 1864,
      "cute": 1865,
      "carry": 1866,
      "jenny": 1867,
      "sick": 1868,
      "cheese": 1869,
      "hope": 1870,
      "##ours": 1871,
      "huge": 1872,
      "patient": 1873,
      "grab": 1874,
      "##ung": 1875,
      "touched": 1876,
      "##unt": 1877,
      "fing": 1878,
      "honey": 1879,
      "letter": 1880,
      "life": 1881,
      "exciting": 1882,
      "imag": 1883,
      "laughing": 1884,
      "bush": 1885,
      "onto": 1886,
      "band": 1887,
      "gigg": 1888,
      "##board": 1889,
      "creature": 1890,
      "disco": 1891,
      "bread": 1892,
      "##gged": 1893,
      "ret": 1894,
      "ig": 1895,
      "kick": 1896,
      "power": 1897,
      "shell": 1898,
      "sunsh": 1899,
      "craw": 1900,
      "mist": 1901,
      "swimming": 1902,
      "sunshine": 1903,
      "##alm": 1904,
      "inc": 1905,
      "whist": 1906,
      "cozy": 1907,
      "journey": 1908,
      "emily": 1909,
      "suc": 1910,
      "spin": 1911,
      "wra": 1912,
      "milk": 1913,
      "##ness": 1914,
      "bottle": 1915,
      "sharp": 1916,
      "watching": 1917,
      "##mm": 1918,
      "return": 1919,
      "pudd": 1920,
      "##ten": 1921,
      "eas": 1922,
      "hey": 1923,
      "##esting": 1924,
      "accidentally": 1925,
      "cave": 1926,
      "shout": 1927,
      "##pt": 1928,
      "##ian": 1929,
      "spo": 1930,
      "cor": 1931,
      "grandpa": 1932,
      "eg": 1933,
      "puts": 1934,
      "ann": 1935,
      "talked": 1936,
      "gather": 1937,
      "pointed": 1938,
      "##ia": 1939,
      "gives": 1940,
      "mittens": 1941,
      "ent": 1942,
      "fan": 1943,
      "smiling": 1944,
      "hor": 1945,
      "road": 1946,
      "ce": 1947,
      "anyone": 1948,
      "whis": 1949,
      "bought": 1950,
      "searched": 1951,
      "apples": 1952,
      "sandw": 1953,
      "##els": 1954,
      "act": 1955,
      "##ball": 1956,
      "meet": 1957,
      "proble": 1958,
      "problem": 1959,
      "mach": 1960,
      "##irt": 1961,
      "##ize": 1962,
      "roll": 1963,
      "spid": 1964,
      "wom": 1965,
      "these": 1966,
      "pop": 1967,
      "interesting": 1968,
      "loves": 1969,
      "kiss": 1970,
      "woman": 1971,
      "plane": 1972,
      "ducks": 1973,
      "healthy": 1974,
      "pres": 1975,
      "tasty": 1976,
      "clever": 1977,
      "##eter": 1978,
      "pile": 1979,
      "wide": 1980,
      "vill": 1981,
      "trouble": 1982,
      "##amed": 1983,
      "##sie": 1984,
      "adm": 1985,
      "##ned": 1986,
      "hon": 1987,
      "prot": 1988,
      "##aur": 1989,
      "ap": 1990,
      "crayons": 1991,
      "clouds": 1992,
      "matter": 1993,
      "##owed": 1994,
      "storm": 1995,
      "feather": 1996,
      "person": 1997,
      "pill": 1998,
      "##ont": 1999,
      "rose": 2000,
      "snowman": 2001,
      "path": 2002,
      "which": 2003,
      "##round": 2004,
      "##fted": 2005,
      "rope": 2006,
      "##ub": 2007,
      "##cer": 2008,
      "##fortable": 2009,
      "shining": 2010,
      "zoo": 2011,
      "smelled": 2012,
      "front": 2013,
      "val": 2014,
      "button": 2015,
      "pract": 2016,
      "bubble": 2017,
      "jake": 2018,
      "spotted": 2019,
      "saf": 2020,
      "minut": 2021,
      "screamed": 2022,
      "present": 2023,
      "mud": 2024,
      "snack": 2025,
      "organ": 2026,
      "##ching": 2027,
      "ash": 2028,
      "rob": 2029,
      "##eb": 2030,
      "danced": 2031,
      "sur": 2032,
      "puzz": 2033,
      "teach": 2034,
      "##dge": 2035,
      "cheer": 2036,
      "quest": 2037,
      "appeared": 2038,
      "bark": 2039,
      "thin": 2040,
      "snake": 2041,
      "seat": 2042,
      "œw": 2043,
      "wild": 2044,
      "shr": 2045,
      "##isa": 2046,
      "gently": 2047,
      "lovely": 2048,
      "##ular": 2049,
      "answer": 2050,
      "asleep": 2051,
      "giant": 2052,
      "horse": 2053,
      "char": 2054,
      "tear": 2055,
      "##epend": 2056,
      "wearing": 2057,
      "mind": 2058,
      "neighbor": 2059,
      "##oose": 2060,
      "places": 2061,
      "##pper": 2062,
      "goes": 2063,
      "whole": 2064,
      "##ove": 2065,
      "lisa": 2066,
      "respect": 2067,
      "confused": 2068,
      "lar": 2069,
      "corner": 2070,
      "impress": 2071,
      "med": 2072,
      "dirt": 2073,
      "splas": 2074,
      "sharing": 2075,
      "exp": 2076,
      "chick": 2077,
      "tries": 2078,
      "trip": 2079,
      "calm": 2080,
      "live": 2081,
      "##ale": 2082,
      "slid": 2083,
      "supp": 2084,
      "##ato": 2085,
      "rolled": 2086,
      "card": 2087,
      "tasted": 2088,
      "ser": 2089,
      "forgive": 2090,
      "##nic": 2091,
      "##ert": 2092,
      "##cean": 2093,
      "ocean": 2094,
      "last": 2095,
      "picnic": 2096,
      "machine": 2097,
      "tun": 2098,
      "rude": 2099,
      "drive": 2100,
      "teet": 2101,
      "true": 2102,
      "spent": 2103,
      "teeth": 2104,
      "##ssed": 2105,
      "ring": 2106,
      "spider": 2107,
      "pan": 2108,
      "furry": 2109,
      "##ee": 2110,
      "cookie": 2111,
      "phone": 2112,
      "lay": 2113,
      "##ager": 2114,
      "scar": 2115,
      "pour": 2116,
      "sal": 2117,
      "oven": 2118,
      "delight": 2119,
      "worm": 2120,
      "##fl": 2121,
      "kitty": 2122,
      "##ser": 2123,
      "##eak": 2124,
      "pretended": 2125,
      "fighting": 2126,
      "feet": 2127,
      "tomorrow": 2128,
      "protect": 2129,
      "peter": 2130,
      "faces": 2131,
      "lad": 2132,
      "##bar": 2133,
      "##unk": 2134,
      "ban": 2135,
      "helpful": 2136,
      "##umber": 2137,
      "nut": 2138,
      "wip": 2139,
      "wave": 2140,
      "##lder": 2141,
      "mountain": 2142,
      "chocol": 2143,
      "grace": 2144,
      "bell": 2145,
      "talking": 2146,
      "step": 2147,
      "shy": 2148,
      "sque": 2149,
      "ign": 2150,
      "##ones": 2151,
      "tid": 2152,
      "spread": 2153,
      "self": 2154,
      "push": 2155,
      "ant": 2156,
      "stret": 2157,
      "eager": 2158,
      "village": 2159,
      "foot": 2160,
      "remind": 2161,
      "write": 2162,
      "coin": 2163,
      "couch": 2164,
      "seek": 2165,
      "building": 2166,
      "ladder": 2167,
      "smooth": 2168,
      "bugs": 2169,
      "coo": 2170,
      "treats": 2171,
      "tool": 2172,
      "robot": 2173,
      "wore": 2174,
      "chased": 2175,
      "paw": 2176,
      "œi": 2177,
      "blew": 2178,
      "##lex": 2179,
      "embar": 2180,
      "collect": 2181,
      "embarra": 2182,
      "stir": 2183,
      "cross": 2184,
      "hiding": 2185,
      "pool": 2186,
      "waiting": 2187,
      "fred": 2188,
      "knee": 2189,
      "puddle": 2190,
      "roar": 2191,
      "finish": 2192,
      "chocolate": 2193,
      "shelf": 2194,
      "##not": 2195,
      "songs": 2196,
      "##als": 2197,
      "##ator": 2198,
      "selfish": 2199,
      "stra": 2200,
      "##scap": 2201,
      "##ife": 2202,
      "cannot": 2203,
      "banan": 2204,
      "sol": 2205,
      "string": 2206,
      "hum": 2207,
      "##llie": 2208,
      "##ult": 2209,
      "trust": 2210,
      "taste": 2211,
      "gen": 2212,
      "leaf": 2213,
      "sack": 2214,
      "spray": 2215,
      "œy": 2216,
      "crab": 2217,
      "net": 2218,
      "large": 2219,
      "cele": 2220,
      "tidy": 2221,
      "wash": 2222,
      "##box": 2223,
      "fixed": 2224,
      "stone": 2225,
      "celebr": 2226,
      "barked": 2227,
      "colour": 2228,
      "splash": 2229,
      "cloth": 2230,
      "peaceful": 2231,
      "uni": 2232,
      "##umpy": 2233,
      "##izz": 2234,
      "moon": 2235,
      "jung": 2236,
      "jungle": 2237,
      "honest": 2238,
      "johnny": 2239,
      "deter": 2240,
      "missed": 2241,
      "shirt": 2242,
      "##iger": 2243,
      "alice": 2244,
      "jumping": 2245,
      "gray": 2246,
      "##oin": 2247,
      "determ": 2248,
      "int": 2249,
      "##mmer": 2250,
      "embarrassed": 2251,
      "forward": 2252,
      "landed": 2253,
      "decor": 2254,
      "neckl": 2255,
      "necklace": 2256,
      "rex": 2257,
      "##ail": 2258,
      "tv": 2259,
      "##ass": 2260,
      "ber": 2261,
      "disappoin": 2262,
      "hears": 2263,
      "success": 2264,
      "sticks": 2265,
      "carrots": 2266,
      "bal": 2267,
      "creative": 2268,
      "emp": 2269,
      "alm": 2270,
      "meadow": 2271,
      "knocked": 2272,
      "##ying": 2273,
      "almost": 2274,
      "veget": 2275,
      "gener": 2276,
      "vegetable": 2277,
      "##airs": 2278,
      "sour": 2279,
      "stood": 2280,
      "gas": 2281,
      "hur": 2282,
      "meant": 2283,
      "fear": 2284,
      "legs": 2285,
      "##elly": 2286,
      "whistle": 2287,
      "tightly": 2288,
      "breath": 2289,
      "ashamed": 2290,
      "plate": 2291,
      "lem": 2292,
      "pillow": 2293,
      "empty": 2294,
      "grew": 2295,
      "tells": 2296,
      "##dle": 2297,
      "av": 2298,
      "gold": 2299,
      "##gy": 2300,
      "mir": 2301,
      "sheep": 2302,
      "##ground": 2303,
      "##ush": 2304,
      "##ope": 2305,
      "understood": 2306,
      "clear": 2307,
      "carried": 2308,
      "hours": 2309,
      "##den": 2310,
      "yelled": 2311,
      "disappointed": 2312,
      "save": 2313,
      "police": 2314,
      "##ime": 2315,
      "jew": 2316,
      "pay": 2317,
      "nods": 2318,
      "snacks": 2319,
      "##ustr": 2320,
      "##vous": 2321,
      "myster": 2322,
      "##ital": 2323,
      "frustr": 2324,
      "leo": 2325,
      "kitten": 2326,
      "chew": 2327,
      "block": 2328,
      "sparkly": 2329,
      "hosp": 2330,
      "poor": 2331,
      "pizz": 2332,
      "ship": 2333,
      "prince": 2334,
      "##ets": 2335,
      "hospital": 2336,
      "standing": 2337,
      "wolf": 2338,
      "rad": 2339,
      "line": 2340,
      "pin": 2341,
      "bored": 2342,
      "hidden": 2343,
      "generous": 2344,
      "knowing": 2345,
      "##cles": 2346,
      "taught": 2347,
      "glass": 2348,
      "blow": 2349,
      "liz": 2350,
      "##urse": 2351,
      "easy": 2352,
      "scarf": 2353,
      "jelly": 2354,
      "pri": 2355,
      "minutes": 2356,
      "##body": 2357,
      "plants": 2358,
      "returned": 2359,
      "polite": 2360,
      "group": 2361,
      "mysterious": 2362,
      "waves": 2363,
      "bedroom": 2364,
      "pizza": 2365,
      "pir": 2366,
      "wis": 2367,
      "##ected": 2368,
      "shore": 2369,
      "sighed": 2370,
      "spicy": 2371,
      "frustrated": 2372,
      "seed": 2373,
      "##ork": 2374,
      "##iff": 2375,
      "determined": 2376,
      "class": 2377,
      "sco": 2378,
      "thankful": 2379,
      "puzzle": 2380,
      "powerful": 2381,
      "susie": 2382,
      "reg": 2383,
      "sleepy": 2384,
      "ner": 2385,
      "fig": 2386,
      "##kin": 2387,
      "mid": 2388,
      "sandwich": 2389,
      "gun": 2390,
      "drew": 2391,
      "mot": 2392,
      "tick": 2393,
      "grumpy": 2394,
      "passed": 2395,
      "##ested": 2396,
      "finger": 2397,
      "spoil": 2398,
      "fancy": 2399,
      "law": 2400,
      "nervous": 2401,
      "##work": 2402,
      "mill": 2403,
      "messy": 2404,
      "lock": 2405,
      "tears": 2406,
      "feed": 2407,
      "##erp": 2408,
      "bridge": 2409,
      "gate": 2410,
      "##illar": 2411,
      "caterp": 2412,
      "##ird": 2413,
      "caterpillar": 2414,
      "van": 2415,
      "sold": 2416,
      "hang": 2417,
      "kissed": 2418,
      "closet": 2419,
      "##osaur": 2420,
      "œth": 2421,
      "excite": 2422,
      "dinosaur": 2423,
      "gathered": 2424,
      "##uce": 2425,
      "que": 2426,
      "##ote": 2427,
      "escap": 2428,
      "flag": 2429,
      "bubbles": 2430,
      "sciss": 2431,
      "whisper": 2432,
      "yourself": 2433,
      "scissors": 2434,
      "##lo": 2435,
      "working": 2436,
      "bill": 2437,
      "answered": 2438,
      "ug": 2439,
      "##sel": 2440,
      "often": 2441,
      "drop": 2442,
      "cries": 2443,
      "scr": 2444,
      "hopping": 2445,
      "chest": 2446,
      "twirl": 2447,
      "##era": 2448,
      "##selves": 2449,
      "deer": 2450,
      "##oop": 2451,
      "##pack": 2452,
      "ugly": 2453,
      "cand": 2454,
      "##flower": 2455,
      "##mb": 2456,
      "burn": 2457,
      "fil": 2458,
      "##ensive": 2459,
      "expensive": 2460,
      "excitement": 2461,
      "lit": 2462,
      "middle": 2463,
      "saved": 2464,
      "##ina": 2465,
      "taken": 2466,
      "leg": 2467,
      "sug": 2468,
      "mel": 2469,
      "wagged": 2470,
      "crown": 2471,
      "pleased": 2472,
      "ones": 2473,
      "spend": 2474,
      "boring": 2475,
      "##oof": 2476,
      "##hy": 2477,
      "picks": 2478,
      "##ax": 2479,
      "bobby": 2480,
      "boss": 2481,
      "asking": 2482,
      "jog": 2483,
      "tent": 2484,
      "vase": 2485,
      "sugar": 2486,
      "##illed": 2487,
      "brush": 2488,
      "tie": 2489,
      "queen": 2490,
      "##astic": 2491,
      "dancing": 2492,
      "vegetables": 2493,
      "##ual": 2494,
      "fine": 2495,
      "##ates": 2496,
      "lift": 2497,
      "number": 2498,
      "giggled": 2499,
      "stuff": 2500,
      "rocket": 2501,
      "esp": 2502,
      "##ecially": 2503,
      "especially": 2504,
      "cage": 2505,
      "clown": 2506,
      "mistake": 2507,
      "flut": 2508,
      "##ud": 2509,
      "gets": 2510,
      "##itter": 2511,
      "##light": 2512,
      "comfortable": 2513,
      "test": 2514,
      "packed": 2515,
      "jam": 2516,
      "press": 2517,
      "wander": 2518,
      "bye": 2519,
      "knight": 2520,
      "lying": 2521,
      "medic": 2522,
      "sweetie": 2523,
      "##iv": 2524,
      "##ose": 2525,
      "sight": 2526,
      "fake": 2527,
      "fruits": 2528,
      "eggs": 2529,
      "dest": 2530,
      "drum": 2531,
      "##iness": 2532,
      "lemon": 2533,
      "pus": 2534,
      "mandy": 2535,
      "glue": 2536,
      "medicine": 2537,
      "elder": 2538,
      "pray": 2539,
      "moving": 2540,
      "##ror": 2541,
      "drawing": 2542,
      "walks": 2543,
      "distance": 2544,
      "clap": 2545,
      "bone": 2546,
      "yog": 2547,
      "bake": 2548,
      "splashed": 2549,
      "week": 2550,
      "##aff": 2551,
      "rich": 2552,
      "change": 2553,
      "aunt": 2554,
      "dogs": 2555,
      "lead": 2556,
      "fold": 2557,
      "smelly": 2558,
      "disappeared": 2559,
      "##yal": 2560,
      "chir": 2561,
      "gar": 2562,
      "feathers": 2563,
      "match": 2564,
      "become": 2565,
      "moms": 2566,
      "add": 2567,
      "father": 2568,
      "mic": 2569,
      "fis": 2570,
      "lazy": 2571,
      "elderly": 2572,
      "mov": 2573,
      "##itch": 2574,
      "lose": 2575,
      "pete": 2576,
      "licked": 2577,
      "calling": 2578,
      "rid": 2579,
      "penny": 2580,
      "shoot": 2581,
      "cri": 2582,
      "playground": 2583,
      "bathroom": 2584,
      "incred": 2585,
      "weak": 2586,
      "exam": 2587,
      "horn": 2588,
      "body": 2589,
      "?\".": 2590,
      "yours": 2591,
      "aw": 2592,
      "questions": 2593,
      "boys": 2594,
      "wrote": 2595,
      "mirror": 2596,
      "loyal": 2597,
      "noisy": 2598,
      "nod": 2599,
      "adventur": 2600,
      "##omed": 2601,
      "sugg": 2602,
      "tiger": 2603,
      "##ory": 2604,
      "wheel": 2605,
      "ellie": 2606,
      "check": 2607,
      "skipped": 2608,
      "ter": 2609,
      "dish": 2610,
      "lamp": 2611,
      "famous": 2612,
      "ind": 2613,
      "glow": 2614,
      "##hip": 2615,
      "sell": 2616,
      "dig": 2617,
      "##ond": 2618,
      "tape": 2619,
      "##land": 2620,
      "ext": 2621,
      "rare": 2622,
      "##ging": 2623,
      "thanks": 2624,
      "relax": 2625,
      "soap": 2626,
      "ang": 2627,
      "stones": 2628,
      "ord": 2629,
      "ruined": 2630,
      "covered": 2631,
      "##ination": 2632,
      "incredible": 2633,
      "map": 2634,
      "figure": 2635,
      "content": 2636,
      "swan": 2637,
      "drank": 2638,
      "shows": 2639,
      "juicy": 2640,
      "balls": 2641,
      "measure": 2642,
      "team": 2643,
      "sailed": 2644,
      "##ots": 2645,
      "##zed": 2646,
      "##ately": 2647,
      "straw": 2648,
      "decide": 2649,
      "ella": 2650,
      "turt": 2651,
      "realised": 2652,
      "##umbled": 2653,
      "barn": 2654,
      "discovered": 2655,
      "##ti": 2656,
      "borrow": 2657,
      "coins": 2658,
      "those": 2659,
      "needs": 2660,
      "##aw": 2661,
      "bella": 2662,
      "chicken": 2663,
      "mod": 2664,
      "joke": 2665,
      "mana": 2666,
      "towel": 2667,
      "cleaned": 2668,
      "##eed": 2669,
      "extra": 2670,
      "branches": 2671,
      "board": 2672,
      "##ating": 2673,
      "motor": 2674,
      "balance": 2675,
      "adventurous": 2676,
      "mighty": 2677,
      "diffic": 2678,
      "##asing": 2679,
      "sadly": 2680,
      "offered": 2681,
      "##port": 2682,
      "ge": 2683,
      "dol": 2684,
      "dolph": 2685,
      "lifted": 2686,
      "colourful": 2687,
      "snugg": 2688,
      "##keep": 2689,
      "frown": 2690,
      "eye": 2691,
      "thick": 2692,
      "tag": 2693,
      "guess": 2694,
      "toug": 2695,
      "bobo": 2696,
      "difficult": 2697,
      "##ron": 2698,
      "organized": 2699,
      "cover": 2700,
      "unique": 2701,
      "bottom": 2702,
      "jeal": 2703,
      "jealous": 2704,
      "fright": 2705,
      "happening": 2706,
      "weird": 2707,
      "learning": 2708,
      "knife": 2709,
      "hose": 2710,
      "island": 2711,
      "mrs": 2712,
      "kindness": 2713,
      "##izzy": 2714,
      "sil": 2715,
      "four": 2716,
      "##cil": 2717,
      "garage": 2718,
      "managed": 2719,
      "word": 2720,
      "smoke": 2721,
      "bald": 2722,
      "hurts": 2723,
      "pencil": 2724,
      "##lies": 2725,
      "##imed": 2726,
      "##ges": 2727,
      "wand": 2728,
      "circle": 2729,
      "zip": 2730,
      "squee": 2731,
      "dave": 2732,
      "cost": 2733,
      "desig": 2734,
      "crawled": 2735,
      "saying": 2736,
      "arg": 2737,
      "balloons": 2738,
      "coco": 2739,
      "uncle": 2740,
      "hunt": 2741,
      "shake": 2742,
      "compet": 2743,
      "chase": 2744,
      "tough": 2745,
      "berries": 2746,
      "dizzy": 2747,
      "pointing": 2748,
      "##ready": 2749,
      "bur": 2750,
      "search": 2751,
      "jewel": 2752,
      "##ject": 2753,
      "##olog": 2754,
      "favour": 2755,
      "##ured": 2756,
      "whale": 2757,
      "##imp": 2758,
      "##illi": 2759,
      "louder": 2760,
      "turtle": 2761,
      "tweety": 2762,
      "apolog": 2763,
      "pump": 2764,
      "added": 2765,
      "##mo": 2766,
      "##itar": 2767,
      "guitar": 2768,
      "unus": 2769,
      "norm": 2770,
      "fool": 2771,
      "harder": 2772,
      "##keeper": 2773,
      "already": 2774,
      "edge": 2775,
      "birdie": 2776,
      "spun": 2777,
      "libr": 2778,
      "strawber": 2779,
      "valu": 2780,
      "unusual": 2781,
      "buzz": 2782,
      "##head": 2783,
      "##ddy": 2784,
      "favourite": 2785,
      "pear": 2786,
      "hero": 2787,
      "enjoying": 2788,
      "ref": 2789,
      "##rage": 2790,
      "record": 2791,
      "hats": 2792,
      "cheerful": 2793,
      "trucks": 2794,
      "belonged": 2795,
      "wrapped": 2796,
      "giving": 2797,
      "excitedly": 2798,
      "wake": 2799,
      "trunk": 2800,
      "flash": 2801,
      "impressed": 2802,
      "##oc": 2803,
      "banana": 2804,
      "sword": 2805,
      "grown": 2806,
      "market": 2807,
      "normal": 2808,
      "choose": 2809,
      "pil": 2810,
      "laughs": 2811,
      "##ps": 2812,
      "soph": 2813,
      "##anged": 2814,
      "brilli": 2815,
      "harm": 2816,
      "bossy": 2817,
      "ears": 2818,
      "terri": 2819,
      "loudly": 2820,
      "##uct": 2821,
      "brilliant": 2822,
      "scare": 2823,
      "goat": 2824,
      "pip": 2825,
      "stri": 2826,
      "proudly": 2827,
      "boxes": 2828,
      "pee": 2829,
      "buttons": 2830,
      "##nda": 2831,
      "painting": 2832,
      "circles": 2833,
      "##ilt": 2834,
      "escape": 2835,
      "brothers": 2836,
      "##ature": 2837,
      "##ara": 2838,
      "dreamed": 2839,
      "frightened": 2840,
      "against": 2841,
      "skin": 2842,
      "cab": 2843,
      "anc": 2844,
      "invited": 2845,
      "##alk": 2846,
      "helps": 2847,
      "cudd": 2848,
      "acce": 2849,
      "happiness": 2850,
      "ancient": 2851,
      "depend": 2852,
      "study": 2853,
      "sof": 2854,
      "suit": 2855,
      "means": 2856,
      "stubb": 2857,
      "safely": 2858,
      "snee": 2859,
      "##ym": 2860,
      "clay": 2861,
      "lola": 2862,
      "valuable": 2863,
      "stubborn": 2864,
      "slipped": 2865,
      "log": 2866,
      "cabin": 2867,
      "##fast": 2868,
      "shark": 2869,
      "crayon": 2870,
      "stream": 2871,
      "cart": 2872,
      "breakfast": 2873,
      "successful": 2874,
      "walls": 2875,
      "##akes": 2876,
      "##ouses": 2877,
      "dreams": 2878,
      "son": 2879,
      "##edient": 2880,
      "foolish": 2881,
      "lean": 2882,
      "fier": 2883,
      "cher": 2884,
      "fat": 2885,
      "##orge": 2886,
      "knows": 2887,
      "fridge": 2888,
      "nemo": 2889,
      "falls": 2890,
      "space": 2891,
      "shape": 2892,
      "fierce": 2893,
      "nicely": 2894,
      "##ha": 2895,
      "cro": 2896,
      "tomato": 2897,
      "shadow": 2898,
      "nosy": 2899,
      "dead": 2900,
      "rough": 2901,
      "movie": 2902,
      "city": 2903,
      "corn": 2904,
      "houses": 2905,
      "icy": 2906,
      "delicate": 2907,
      "office": 2908,
      "obedient": 2909,
      "competit": 2910,
      "mem": 2911,
      "##ado": 2912,
      "##laimed": 2913,
      "œlet": 2914,
      "rat": 2915,
      "suggested": 2916,
      "##ention": 2917,
      "wagon": 2918,
      "perform": 2919,
      "notice": 2920,
      "bounce": 2921,
      "exclaimed": 2922,
      "frag": 2923,
      "shells": 2924,
      "kinds": 2925,
      "mixed": 2926,
      "useful": 2927,
      "wiped": 2928,
      "lights": 2929,
      "poured": 2930,
      "soar": 2931,
      "##uth": 2932,
      "crack": 2933,
      "locked": 2934,
      "patch": 2935,
      "tools": 2936,
      "clock": 2937,
      "sounded": 2938,
      "egg": 2939,
      "stove": 2940,
      "explored": 2941,
      "##can": 2942,
      "##wards": 2943,
      "fre": 2944,
      "enc": 2945,
      "ducky": 2946,
      "##atter": 2947,
      "using": 2948,
      "george": 2949,
      "weal": 2950,
      "##isted": 2951,
      "times": 2952,
      "lab": 2953,
      "unlo": 2954,
      "above": 2955,
      "fountain": 2956,
      "dough": 2957,
      "print": 2958,
      "bags": 2959,
      "spoiled": 2960,
      "eng": 2961,
      "low": 2962,
      "showing": 2963,
      "œwh": 2964,
      "fragile": 2965,
      "themselves": 2966,
      "witch": 2967,
      "stumbled": 2968,
      "!\".": 2969,
      "bushes": 2970,
      "resc": 2971,
      "##dom": 2972,
      "independ": 2973,
      "fingers": 2974,
      "rep": 2975,
      "parrot": 2976,
      "thoughtful": 2977,
      "spinning": 2978,
      "dependable": 2979,
      "scrat": 2980,
      "smaller": 2981,
      "unk": 2982,
      "orig": 2983,
      "jolly": 2984,
      "playful": 2985,
      "bees": 2986,
      "cam": 2987,
      "helm": 2988,
      "raced": 2989,
      "delighted": 2990,
      "tele": 2991,
      "seem": 2992,
      "##inal": 2993,
      "earth": 2994,
      "brightly": 2995,
      "cop": 2996,
      "##ines": 2997,
      "gem": 2998,
      "steal": 2999,
      "rode": 3000,
      "enorm": 3001,
      "practice": 3002,
      "handed": 3003,
      "enormous": 3004,
      "roof": 3005,
      "built": 3006,
      "acorn": 3007,
      "cleaning": 3008,
      "beep": 3009,
      "admired": 3010,
      "twig": 3011,
      "kicked": 3012,
      "counted": 3013,
      "sniff": 3014,
      "ways": 3015,
      "toby": 3016,
      "changed": 3017,
      "mike": 3018,
      "original": 3019,
      "bitter": 3020,
      "##corn": 3021,
      "shone": 3022,
      "popcorn": 3023,
      "reminded": 3024,
      "independent": 3025,
      "hammer": 3026,
      "angel": 3027,
      "ol": 3028,
      "beak": 3029,
      "##ience": 3030,
      "œyes": 3031,
      "loll": 3032,
      "bean": 3033,
      "hoop": 3034,
      "unkn": 3035,
      "dove": 3036,
      "yet": 3037,
      "whispered": 3038,
      "##ither": 3039,
      "serious": 3040,
      "solve": 3041,
      "umb": 3042,
      "cone": 3043,
      "umbre": 3044,
      "tunn": 3045,
      "chose": 3046,
      "guard": 3047,
      "##anut": 3048,
      "peanut": 3049,
      "allowed": 3050,
      "dust": 3051,
      "hairy": 3052,
      "##ony": 3053,
      "mis": 3054,
      "stronger": 3055,
      "tummy": 3056,
      "potato": 3057,
      "yuck": 3058,
      "##ipop": 3059,
      "lollipop": 3060,
      "moder": 3061,
      "terrible": 3062,
      "sauce": 3063,
      "half": 3064,
      "brace": 3065,
      "boats": 3066,
      "unknown": 3067,
      "salad": 3068,
      "##erry": 3069,
      "painted": 3070,
      "bracelet": 3071,
      "pumpkin": 3072,
      "##ict": 3073,
      "joey": 3074,
      "##iable": 3075,
      "##pid": 3076,
      "finding": 3077,
      "toast": 3078,
      "wrap": 3079,
      "picking": 3080,
      "reliable": 3081,
      "leaving": 3082,
      "##under": 3083,
      "gasped": 3084,
      "clum": 3085,
      "joined": 3086,
      "strugg": 3087,
      "thinking": 3088,
      "bump": 3089,
      "compa": 3090,
      "tank": 3091,
      "post": 3092,
      "hay": 3093,
      "tor": 3094,
      "##iew": 3095,
      "sink": 3096,
      "stupid": 3097,
      "##inary": 3098,
      "thunder": 3099,
      "barber": 3100,
      "##het": 3101,
      "metal": 3102,
      "costum": 3103,
      "spring": 3104,
      "goose": 3105,
      "diam": 3106,
      "diamond": 3107,
      "dolphin": 3108,
      "ing": 3109,
      "##uring": 3110,
      "##robe": 3111,
      "view": 3112,
      "rubb": 3113,
      "##tern": 3114,
      "modern": 3115,
      "kim": 3116,
      "pirate": 3117,
      "forth": 3118,
      "##aghet": 3119,
      "##aghetti": 3120,
      "stamp": 3121,
      "spaghetti": 3122,
      "advice": 3123,
      "regular": 3124,
      "cheap": 3125,
      "flex": 3126,
      "kay": 3127,
      "paul": 3128,
      "wealthy": 3129,
      "rub": 3130,
      "sleeping": 3131,
      "zeb": 3132,
      "holds": 3133,
      "marble": 3134,
      "clumsy": 3135,
      "tu": 3136,
      "friendship": 3137,
      "##gu": 3138,
      "##par": 3139,
      "create": 3140,
      "##com": 3141,
      "œwhat": 3142,
      "zebra": 3143,
      "yarn": 3144,
      "nature": 3145,
      "polly": 3146,
      "twist": 3147,
      "##ugged": 3148,
      "magn": 3149,
      "ingred": 3150,
      "ingredient": 3151,
      "searching": 3152,
      "##ipp": 3153,
      "telling": 3154,
      "stairs": 3155,
      "nobody": 3156,
      "compass": 3157,
      "rushed": 3158,
      "march": 3159,
      "##ilty": 3160,
      "guilty": 3161,
      "andy": 3162,
      "stat": 3163,
      "crazy": 3164,
      "square": 3165,
      "mask": 3166,
      "chirp": 3167,
      "sophie": 3168,
      "arrow": 3169,
      "##ations": 3170,
      "bull": 3171,
      "fu": 3172,
      "opens": 3173,
      "engine": 3174,
      "beet": 3175,
      "ita": 3176,
      "design": 3177,
      "##shion": 3178,
      "graceful": 3179,
      "œit": 3180,
      "##io": 3181,
      "super": 3182,
      "flexible": 3183,
      "driving": 3184,
      "croco": 3185,
      "shiver": 3186,
      "speed": 3187,
      "##irsty": 3188,
      "alex": 3189,
      "camera": 3190,
      "umbrella": 3191,
      "hen": 3192,
      "pebble": 3193,
      "dull": 3194,
      "carrying": 3195,
      "popular": 3196,
      "reading": 3197,
      "truth": 3198,
      "crocod": 3199,
      "washed": 3200,
      "stage": 3201,
      "doesn": 3202,
      "deliver": 3203,
      "shel": 3204,
      "##ief": 3205,
      "missing": 3206,
      "##umbers": 3207,
      "sparkled": 3208,
      "ending": 3209,
      "seeds": 3210,
      "impressive": 3211,
      "meal": 3212,
      "##illa": 3213,
      "careless": 3214,
      "library": 3215,
      "destro": 3216,
      "fresh": 3217,
      "tied": 3218,
      "comb": 3219,
      "pige": 3220,
      "imagined": 3221,
      "reward": 3222,
      "hurry": 3223,
      "handle": 3224,
      "jacket": 3225,
      "cryst": 3226,
      "dreaming": 3227,
      "prize": 3228,
      "compassion": 3229,
      "pepper": 3230,
      "shocked": 3231,
      "butterflies": 3232,
      "load": 3233,
      "##ision": 3234,
      "rubbed": 3235,
      "##apped": 3236,
      "ingredients": 3237,
      "swe": 3238,
      "bigg": 3239,
      "encou": 3240,
      "##fish": 3241,
      "##anger": 3242,
      "œleta": 3243,
      "enth": 3244,
      "mole": 3245,
      "pattern": 3246,
      "##ibb": 3247,
      "poppy": 3248,
      "early": 3249,
      "stranger": 3250,
      "flashlight": 3251,
      "envel": 3252,
      "thirsty": 3253,
      "fork": 3254,
      "agree": 3255,
      "wheels": 3256,
      "persist": 3257,
      "charl": 3258,
      "desk": 3259,
      "##usi": 3260,
      "wire": 3261,
      "enthusi": 3262,
      "numbers": 3263,
      "gum": 3264,
      "order": 3265,
      "nurse": 3266,
      "mailbox": 3267,
      "rece": 3268,
      "temp": 3269,
      "pup": 3270,
      "discover": 3271,
      "pow": 3272,
      "pengu": 3273,
      "##reen": 3274,
      "##time": 3275,
      "##ric": 3276,
      "peeked": 3277,
      "ahead": 3278,
      "bloom": 3279,
      "torn": 3280,
      "rug": 3281,
      "spilled": 3282,
      "surf": 3283,
      "humble": 3284,
      "##up": 3285,
      "cere": 3286,
      "wing": 3287,
      "comput": 3288,
      "env": 3289,
      "stops": 3290,
      "object": 3291,
      "towers": 3292,
      "##bled": 3293,
      "sunflower": 3294,
      "sorts": 3295,
      "anx": 3296,
      "bent": 3297,
      "intell": 3298,
      "intellig": 3299,
      "counting": 3300,
      "cooking": 3301,
      "lau": 3302,
      "ja": 3303,
      "warned": 3304,
      "windows": 3305,
      "uncom": 3306,
      "spoke": 3307,
      "pale": 3308,
      "note": 3309,
      "uncomfortable": 3310,
      "placed": 3311,
      "travel": 3312,
      "##iches": 3313,
      "value": 3314,
      "beetle": 3315,
      "dea": 3316,
      "scale": 3317,
      "pant": 3318,
      "shut": 3319,
      "statue": 3320,
      "badly": 3321,
      "anxious": 3322,
      "deaf": 3323,
      "older": 3324,
      "compl": 3325,
      "slides": 3326,
      "mush": 3327,
      "scoot": 3328,
      "##rop": 3329,
      "growing": 3330,
      "biggest": 3331,
      "stack": 3332,
      "flute": 3333,
      "couldna": 3334,
      "complet": 3335,
      "celebrate": 3336,
      "raven": 3337,
      "tunnel": 3338,
      "nail": 3339,
      "crocodile": 3340,
      "scatter": 3341,
      "univer": 3342,
      "aid": 3343,
      "gh": 3344,
      "ghost": 3345,
      "cupboard": 3346,
      "harmless": 3347,
      "beauty": 3348,
      "crane": 3349,
      "sofa": 3350,
      "matt": 3351,
      "ot": 3352,
      "gloom": 3353,
      "perm": 3354,
      "exper": 3355,
      "fort": 3356,
      "muff": 3357,
      "flour": 3358,
      "quack": 3359,
      "persistent": 3360,
      "gifted": 3361,
      "trick": 3362,
      "tur": 3363,
      "charming": 3364,
      "yaw": 3365,
      "jumps": 3366,
      "pony": 3367,
      "hung": 3368,
      "skip": 3369,
      "si": 3370,
      "cereal": 3371,
      "courage": 3372,
      "refused": 3373,
      "pretending": 3374,
      "##een": 3375,
      "neat": 3376,
      "track": 3377,
      "han": 3378,
      "yay": 3379,
      "crystal": 3380,
      "names": 3381,
      "curt": 3382,
      "oct": 3383,
      "base": 3384,
      "triang": 3385,
      "sandy": 3386,
      "##opus": 3387,
      "octopus": 3388,
      "sandwiches": 3389,
      "##ices": 3390,
      "vi": 3391,
      "destroy": 3392,
      "spi": 3393,
      "ordinary": 3394,
      "camp": 3395,
      "snuggled": 3396,
      "curtain": 3397,
      "sett": 3398,
      "chasing": 3399,
      "question": 3400,
      "pian": 3401,
      "collar": 3402,
      "send": 3403,
      "crawl": 3404,
      "##used": 3405,
      "##pers": 3406,
      "envelope": 3407,
      "blueber": 3408,
      "drawer": 3409,
      "rules": 3410,
      "computer": 3411,
      "lively": 3412,
      "##ses": 3413,
      "mushroom": 3414,
      "bri": 3415,
      "carto": 3416,
      "gloomy": 3417,
      "repe": 3418,
      "intelligent": 3419,
      "ignor": 3420,
      "piano": 3421,
      "lizard": 3422,
      "shaking": 3423,
      "needle": 3424,
      "package": 3425,
      "vroom": 3426,
      "hunter": 3427,
      "œthat": 3428,
      "helmet": 3429,
      "##aches": 3430,
      "parade": 3431,
      "alert": 3432,
      "creatures": 3433,
      "fireman": 3434,
      "phot": 3435,
      "##ocer": 3436,
      "five": 3437,
      "twirled": 3438,
      "attract": 3439,
      "thief": 3440,
      "##stri": 3441,
      "seal": 3442,
      "miser": 3443,
      "station": 3444,
      "soldier": 3445,
      "miserable": 3446,
      "ostri": 3447,
      "henry": 3448,
      "ignorant": 3449,
      "buddy": 3450,
      "disg": 3451,
      "disgust": 3452,
      "brownie": 3453,
      "jet": 3454,
      "task": 3455,
      "anywhere": 3456,
      "bicy": 3457,
      "##ceed": 3458,
      "dug": 3459,
      "gir": 3460,
      "tooth": 3461,
      "club": 3462,
      "carp": 3463,
      "annie": 3464,
      "ener": 3465,
      "trap": 3466,
      "cap": 3467,
      "charlie": 3468,
      "wishes": 3469,
      "turkey": 3470,
      "##cond": 3471,
      "pasta": 3472,
      "vide": 3473,
      "second": 3474,
      "##iest": 3475,
      "led": 3476,
      "shine": 3477,
      "cricket": 3478,
      "chu": 3479,
      "radio": 3480,
      "everyday": 3481,
      "screen": 3482,
      "stickers": 3483,
      "bandage": 3484,
      "cocoa": 3485,
      "##cut": 3486,
      "helpless": 3487,
      "cube": 3488,
      "trash": 3489,
      "sin": 3490,
      "bounced": 3491,
      "giraff": 3492,
      "papa": 3493,
      "pigeon": 3494,
      "jeep": 3495,
      "chubby": 3496,
      "leash": 3497,
      "##ith": 3498,
      "otter": 3499,
      "practiced": 3500,
      "letters": 3501,
      "stretch": 3502,
      "chance": 3503,
      "attractive": 3504,
      "compassionate": 3505,
      "impat": 3506,
      "thread": 3507,
      "##gie": 3508,
      "stirred": 3509,
      "##keys": 3510,
      "jerry": 3511,
      "stretched": 3512,
      "pun": 3513,
      "##urb": 3514,
      "ten": 3515,
      "##heart": 3516,
      "gor": 3517,
      "somewhere": 3518,
      "further": 3519,
      "tweetie": 3520,
      "trump": 3521,
      "broc": 3522,
      "broccol": 3523,
      "disturb": 3524,
      "decorate": 3525,
      "hipp": 3526,
      "broccoli": 3527,
      "jug": 3528,
      "##orable": 3529,
      "competitive": 3530,
      "tire": 3531,
      "waff": 3532,
      "brighter": 3533,
      "impatient": 3534,
      "case": 3535,
      "succeed": 3536,
      "steps": 3537,
      "knock": 3538,
      "respectful": 3539,
      "leop": 3540,
      "##arian": 3541,
      "sweetheart": 3542,
      "troubled": 3543,
      "candle": 3544,
      "era": 3545,
      "mug": 3546,
      "lilly": 3547,
      "pressed": 3548,
      "spir": 3549,
      "attic": 3550,
      "itself": 3551,
      "allig": 3552,
      "##noon": 3553,
      "afternoon": 3554,
      "restless": 3555,
      "quar": 3556,
      "starts": 3557,
      "dess": 3558,
      "nuts": 3559,
      "disgusting": 3560,
      "##kers": 3561,
      "carpet": 3562,
      "##az": 3563,
      "adorable": 3564,
      "comfort": 3565,
      "ribb": 3566,
      "danny": 3567,
      "shoe": 3568,
      "vine": 3569,
      "##aurant": 3570,
      "anyway": 3571,
      "restaurant": 3572,
      "fearful": 3573,
      "pants": 3574,
      "shouts": 3575,
      "ostrich": 3576,
      "screw": 3577,
      "tray": 3578,
      "envious": 3579,
      "distant": 3580,
      "filthy": 3581,
      "cards": 3582,
      "summer": 3583,
      "##icop": 3584,
      "helicop": 3585,
      "helicopter": 3586,
      "monkeys": 3587,
      "enthusiastic": 3588,
      "giggle": 3589,
      "math": 3590,
      "##night": 3591,
      "trumpet": 3592,
      "hook": 3593,
      "dear": 3594,
      "zi": 3595,
      "lee": 3596,
      "por": 3597,
      "cooked": 3598,
      "ants": 3599,
      "dona": 3600,
      "poem": 3601,
      "meas": 3602,
      "harsh": 3603,
      "kang": 3604,
      "lightning": 3605,
      "paws": 3606,
      "sandbox": 3607,
      "spell": 3608,
      "##ips": 3609,
      "spirit": 3610,
      "##aroo": 3611,
      "kangaroo": 3612,
      "##case": 3613,
      "listening": 3614,
      "scooter": 3615,
      "nowhere": 3616,
      "squash": 3617,
      "belt": 3618,
      "leopard": 3619,
      "unpack": 3620,
      "pipe": 3621,
      "explain": 3622,
      "batht": 3623,
      "backpack": 3624,
      "country": 3625,
      "admire": 3626,
      "sent": 3627,
      "cows": 3628,
      "aer": 3629,
      "viol": 3630,
      "comet": 3631,
      "melt": 3632,
      "##cycle": 3633,
      "firework": 3634,
      "##opl": 3635,
      "bathtub": 3636,
      "aeropl": 3637,
      "repair": 3638,
      "speak": 3639,
      "lid": 3640,
      "maria": 3641,
      "quite": 3642,
      "barking": 3643,
      "##stairs": 3644,
      "gorilla": 3645,
      "separ": 3646,
      "mim": 3647,
      "jellyfish": 3648,
      "vol": 3649,
      "jess": 3650,
      "whiskers": 3651,
      "millie": 3652,
      "bicycle": 3653,
      "happier": 3654,
      "fle": 3655,
      "breat": 3656,
      "panda": 3657,
      "modest": 3658,
      "pilot": 3659,
      "human": 3660,
      "hed": 3661,
      "support": 3662,
      "mule": 3663,
      "stared": 3664,
      "salt": 3665,
      "message": 3666,
      "didna": 3667,
      "meat": 3668,
      "grabs": 3669,
      "yogurt": 3670,
      "hippo": 3671,
      "sort": 3672,
      "mimi": 3673,
      "kate": 3674,
      "impro": 3675,
      "oat": 3676,
      "given": 3677,
      "ur": 3678,
      "##xi": 3679,
      "batt": 3680,
      "##hood": 3681,
      "leta": 3682,
      "dessert": 3683,
      "split": 3684,
      "cats": 3685,
      "obser": 3686,
      "alligator": 3687,
      "paid": 3688,
      "wheat": 3689,
      "finds": 3690,
      "hedge": 3691,
      "harry": 3692,
      "melon": 3693,
      "violin": 3694,
      "pal": 3695,
      "##me": 3696,
      "rescue": 3697,
      "ped": 3698,
      "##ci": 3699,
      "swinging": 3700,
      "cact": 3701,
      "pulls": 3702,
      "tripped": 3703,
      "however": 3704,
      "organize": 3705,
      "size": 3706,
      "prov": 3707,
      "rice": 3708,
      "holes": 3709,
      "behave": 3710,
      "##ogn": 3711,
      "riding": 3712,
      "roared": 3713,
      "shade": 3714,
      "hall": 3715,
      "forgave": 3716,
      "pushing": 3717,
      "triangle": 3718,
      "recogn": 3719,
      "mild": 3720,
      "bin": 3721,
      "purse": 3722,
      "bikes": 3723,
      "inse": 3724,
      "sheet": 3725,
      "##hone": 3726,
      "lions": 3727,
      "tuna": 3728,
      "##ac": 3729,
      "raft": 3730,
      "sle": 3731,
      "starting": 3732,
      "haircut": 3733,
      "scold": 3734,
      "bananas": 3735,
      "sock": 3736,
      "twink": 3737,
      "brus": 3738,
      "silver": 3739,
      "œyou": 3740,
      "knot": 3741,
      "energy": 3742,
      "rod": 3743,
      "bears": 3744,
      "either": 3745,
      "cactus": 3746,
      "volcan": 3747,
      "##bul": 3748,
      "trains": 3749,
      "frowned": 3750,
      "lear": 3751,
      "seeing": 3752,
      "##chy": 3753,
      "learnt": 3754,
      "boots": 3755,
      "##aled": 3756,
      "porch": 3757,
      "jokes": 3758,
      "lend": 3759,
      "volcano": 3760,
      "chalk": 3761,
      "taxi": 3762,
      "strawberry": 3763,
      "##seum": 3764,
      "museum": 3765,
      "pole": 3766,
      "prun": 3767,
      "##ebook": 3768,
      "notebook": 3769,
      "appre": 3770,
      "ended": 3771,
      "sticker": 3772,
      "##ucked": 3773,
      "evening": 3774,
      "cel": 3775,
      "papers": 3776,
      "wallet": 3777,
      "rolling": 3778,
      "palace": 3779,
      "appreci": 3780,
      "judge": 3781,
      "imagine": 3782,
      "chain": 3783,
      "sweater": 3784,
      "ink": 3785,
      "steak": 3786,
      "pad": 3787,
      "tony": 3788,
      "comf": 3789,
      "shopkeeper": 3790,
      "reind": 3791,
      "reinde": 3792,
      "pit": 3793,
      "climbing": 3794,
      "avoc": 3795,
      "barrel": 3796,
      "sprink": 3797,
      "microp": 3798,
      "ins": 3799,
      "since": 3800,
      "shakes": 3801,
      "##chan": 3802,
      "james": 3803,
      "laund": 3804,
      "##icer": 3805,
      "rever": 3806,
      "smells": 3807,
      "##ffee": 3808,
      "##ooped": 3809,
      "resist": 3810,
      "##urch": 3811,
      "alive": 3812,
      "goal": 3813,
      "magnet": 3814,
      "trop": 3815,
      "laundry": 3816,
      "neighbour": 3817,
      "clapping": 3818,
      "coffee": 3819,
      "rh": 3820,
      "putting": 3821,
      "tube": 3822,
      "penguin": 3823,
      "softly": 3824,
      "sailor": 3825,
      "##form": 3826,
      "microphone": 3827,
      "pushes": 3828,
      "visited": 3829,
      "##iling": 3830,
      "tricks": 3831,
      "shield": 3832,
      "hive": 3833,
      "##play": 3834,
      "drawings": 3835,
      "sir": 3836,
      "airport": 3837,
      "falling": 3838,
      "shelter": 3839,
      "peek": 3840,
      "reindeer": 3841,
      "colours": 3842,
      "leaned": 3843,
      "zoomed": 3844,
      "saus": 3845,
      "shovel": 3846,
      "quarrel": 3847,
      "checked": 3848,
      "##very": 3849,
      "oy": 3850,
      "marry": 3851,
      "rhin": 3852,
      "belongs": 3853,
      "display": 3854,
      "shrimp": 3855,
      "herb": 3856,
      "disc": 3857,
      "polish": 3858,
      "winter": 3859,
      "celery": 3860,
      "ambul": 3861,
      "kat": 3862,
      "maggie": 3863,
      "avail": 3864,
      "marched": 3865,
      "dive": 3866,
      "pair": 3867,
      "grapes": 3868,
      "aeroplane": 3869,
      "loop": 3870,
      "##cast": 3871,
      "wool": 3872,
      "dishes": 3873,
      "yach": 3874,
      "planet": 3875,
      "barks": 3876,
      "##happy": 3877,
      "##uli": 3878,
      "fields": 3879,
      "elev": 3880,
      "sandcast": 3881,
      "soil": 3882,
      "trophy": 3883,
      "ambulance": 3884,
      "apologized": 3885,
      "skill": 3886,
      "hoping": 3887,
      "costume": 3888,
      "onion": 3889,
      "fisher": 3890,
      "rubber": 3891,
      "god": 3892,
      "available": 3893,
      "film": 3894,
      "unlock": 3895,
      "ske": 3896,
      "feelings": 3897,
      "##ense": 3898,
      "drops": 3899,
      "short": 3900,
      "quit": 3901,
      "men": 3902,
      "tap": 3903,
      "unhappy": 3904,
      "cord": 3905,
      "stom": 3906,
      "incl": 3907,
      "medal": 3908,
      "art": 3909,
      "yacht": 3910,
      "page": 3911,
      "eraser": 3912,
      "elevator": 3913,
      "bul": 3914,
      "basketball": 3915,
      "€“": 3916,
      "raining": 3917,
      "mechan": 3918,
      "minute": 3919,
      "mechanic": 3920,
      "baking": 3921,
      "spike": 3922,
      "flies": 3923,
      "complete": 3924,
      "perfectly": 3925,
      "##ages": 3926,
      "diary": 3927,
      "##nam": 3928,
      "hadn": 3929,
      "eagerly": 3930,
      "ray": 3931,
      "insect": 3932,
      "cardboard": 3933,
      "player": 3934,
      "fog": 3935,
      "magaz": 3936,
      "closely": 3937,
      "clara": 3938,
      "blin": 3939,
      "vend": 3940,
      "journal": 3941,
      "yoga": 3942,
      "glove": 3943,
      "smith": 3944,
      "frogs": 3945,
      "##eath": 3946,
      "disag": 3947,
      "furn": 3948,
      "##iture": 3949,
      "furniture": 3950,
      "tut": 3951,
      "church": 3952,
      "bulb": 3953,
      "tub": 3954,
      "stuffed": 3955,
      "imagination": 3956,
      "skull": 3957,
      "treasures": 3958,
      "freez": 3959,
      "cooler": 3960,
      "breaks": 3961,
      "headed": 3962,
      "bree": 3963,
      "jul": 3964,
      "lie": 3965,
      "oil": 3966,
      "factor": 3967,
      "wife": 3968,
      "coal": 3969,
      "peach": 3970,
      "golf": 3971,
      "counter": 3972,
      "mos": 3973,
      "##gen": 3974,
      "flame": 3975,
      "football": 3976,
      "knob": 3977,
      "##quit": 3978,
      "##ween": 3979,
      "mosquit": 3980,
      "between": 3981,
      "offer": 3982,
      "sunset": 3983,
      "factory": 3984,
      "switch": 3985,
      "cheek": 3986,
      "cauli": 3987,
      "boo": 3988,
      "rag": 3989,
      "painter": 3990,
      "hors": 3991,
      "##place": 3992,
      "pirates": 3993,
      "swung": 3994,
      "##ides": 3995,
      "cups": 3996,
      "motorcycle": 3997,
      "shouldn": 3998,
      "disappear": 3999,
      "mosquito": 4000,
      "##zzy": 4001,
      "##ories": 4002,
      "hotel": 4003,
      "shouting": 4004,
      "##right": 4005,
      "hut": 4006,
      "mop": 4007,
      "œn": 4008,
      "mixer": 4009,
      "ia": 4010,
      "ornam": 4011,
      "ornament": 4012,
      "blowing": 4013,
      "sung": 4014,
      "vendor": 4015,
      "soc": 4016,
      "rot": 4017,
      "skelet": 4018,
      "laser": 4019,
      "folder": 4020,
      "rele": 4021,
      "fisherman": 4022,
      "video": 4023,
      "giraffe": 4024,
      "soccer": 4025,
      "##izes": 4026,
      "heads": 4027,
      "##bol": 4028,
      "throws": 4029,
      "frame": 4030,
      "##rect": 4031,
      "created": 4032,
      "wipe": 4033,
      "greed": 4034,
      "cauliflower": 4035,
      "cable": 4036,
      "sym": 4037,
      "symbol": 4038,
      "cushion": 4039,
      "horses": 4040,
      "##angu": 4041,
      "langu": 4042,
      "attention": 4043,
      "rhinocer": 4044,
      "anch": 4045,
      "battery": 4046,
      "fishing": 4047,
      "rhinoceros": 4048,
      "popped": 4049,
      "##uc": 4050,
      "capt": 4051,
      "ax": 4052,
      "poke": 4053,
      "stud": 4054,
      "##sses": 4055,
      "accep": 4056,
      "weather": 4057,
      "œo": 4058,
      "maze": 4059,
      "jazz": 4060,
      "forgotten": 4061,
      "##render": 4062,
      "trail": 4063,
      "flea": 4064,
      "powder": 4065,
      "lives": 4066,
      "celebrated": 4067,
      "gear": 4068,
      "sneak": 4069,
      "rosie": 4070,
      "surround": 4071,
      "##rod": 4072,
      "luckily": 4073,
      "surrender": 4074,
      "waving": 4075,
      "im": 4076,
      "photo": 4077,
      "introd": 4078,
      "swamp": 4079,
      "slept": 4080,
      "kingdom": 4081,
      "iron": 4082,
      "pine": 4083,
      "##unately": 4084,
      "point": 4085,
      "sub": 4086,
      "##loo": 4087,
      "tutor": 4088,
      "encoura": 4089,
      "points": 4090,
      "tina": 4091,
      "glowing": 4092,
      "skeleton": 4093,
      "fireplace": 4094,
      "breeze": 4095,
      "claw": 4096,
      "alright": 4097,
      "vet": 4098,
      "squirrels": 4099,
      "memories": 4100,
      "batter": 4101,
      "anchor": 4102,
      "##ckey": 4103,
      "##lasses": 4104,
      "sunglasses": 4105,
      "hockey": 4106,
      "streng": 4107,
      "reve": 4108,
      "vest": 4109,
      "mistakes": 4110,
      "dancer": 4111,
      "ga": 4112,
      "bang": 4113,
      "baseball": 4114,
      "parent": 4115,
      "chickens": 4116,
      "complain": 4117,
      "slipp": 4118,
      "zipper": 4119,
      "petals": 4120,
      "newsp": 4121,
      "newspap": 4122,
      "igloo": 4123,
      "axe": 4124,
      "greedy": 4125,
      "strength": 4126,
      "micro": 4127,
      "ceiling": 4128,
      "##ef": 4129,
      "##hero": 4130,
      "superhero": 4131,
      "grin": 4132,
      "hanging": 4133,
      "##chie": 4134,
      "writing": 4135,
      "microsc": 4136,
      "golden": 4137,
      "staff": 4138,
      "napkin": 4139,
      "bury": 4140,
      "chess": 4141,
      "sniffed": 4142,
      "##ney": 4143,
      "argue": 4144,
      "trave": 4145,
      "doggy": 4146,
      "musician": 4147,
      "##ache": 4148,
      "eaten": 4149,
      "discu": 4150,
      "temple": 4151,
      "theater": 4152,
      "skirt": 4153,
      "##medi": 4154,
      "puddles": 4155,
      "immedi": 4156,
      "lime": 4157,
      "microscope": 4158,
      "bouncing": 4159,
      "novel": 4160,
      "immediately": 4161,
      "œd": 4162,
      "seas": 4163,
      "uniform": 4164,
      "radish": 4165,
      "miner": 4166,
      "snowy": 4167,
      "meeting": 4168,
      "pist": 4169,
      "quietly": 4170,
      "myst": 4171,
      "shoulder": 4172,
      "welcomed": 4173,
      "lawy": 4174,
      "throwing": 4175,
      "##vent": 4176,
      "##ssible": 4177,
      "pistol": 4178,
      "invest": 4179,
      "plastic": 4180,
      "cob": 4181,
      "slippery": 4182,
      "##erc": 4183,
      "flapped": 4184,
      "lotion": 4185,
      "accepted": 4186,
      "investig": 4187,
      "fought": 4188,
      "##chair": 4189,
      "avocado": 4190,
      "##aking": 4191,
      "doors": 4192,
      "cub": 4193,
      "kayak": 4194,
      "during": 4195,
      "calls": 4196,
      "##reek": 4197,
      "creek": 4198,
      "##ipping": 4199,
      "sticky": 4200,
      "mattress": 4201,
      "exerc": 4202,
      "mystery": 4203,
      "isn": 4204,
      "spear": 4205,
      "moves": 4206,
      "suff": 4207,
      "makeup": 4208,
      "freezer": 4209,
      "reef": 4210,
      "yield": 4211,
      "##te": 4212,
      "cared": 4213,
      "##house": 4214,
      "##arm": 4215,
      "##ison": 4216,
      "fauc": 4217,
      "##ler": 4218,
      "vall": 4219,
      "news": 4220,
      "beef": 4221,
      "wigg": 4222,
      "oak": 4223,
      "armchair": 4224,
      "cherries": 4225,
      "sailing": 4226,
      "œm": 4227,
      "oyster": 4228,
      "tug": 4229,
      "zo": 4230,
      "##was": 4231,
      "appla": 4232,
      "##web": 4233,
      "splashing": 4234,
      "œita": 4235,
      "investigate": 4236,
      "crib": 4237,
      "faucet": 4238,
      "wags": 4239,
      "toil": 4240,
      "chim": 4241,
      "dishwas": 4242,
      "ticket": 4243,
      "dishwasher": 4244,
      "cobweb": 4245,
      "weigh": 4246,
      "regret": 4247,
      "worth": 4248,
      "applaud": 4249,
      "ble": 4250,
      "collected": 4251,
      "passport": 4252,
      "prevent": 4253,
      "magazine": 4254,
      "presents": 4255,
      "tip": 4256,
      "freddy": 4257,
      "happens": 4258,
      "sprayed": 4259,
      "mint": 4260,
      "alarm": 4261,
      "separate": 4262,
      "castles": 4263,
      "veil": 4264,
      "##esday": 4265,
      "entered": 4266,
      "shrugged": 4267,
      "toilet": 4268,
      "captain": 4269,
      "lawyer": 4270,
      "scolded": 4271,
      "rake": 4272,
      "muffin": 4273,
      "raz": 4274,
      "attach": 4275,
      "yum": 4276,
      "meow": 4277,
      "ruby": 4278,
      "chimney": 4279,
      "shrink": 4280,
      "blankets": 4281,
      "sparkle": 4282,
      "tucked": 4283,
      "candles": 4284,
      "ignored": 4285,
      "flutter": 4286,
      "choice": 4287,
      "hopes": 4288,
      "kisses": 4289,
      "coats": 4290,
      "milly": 4291,
      "##ob": 4292,
      "appro": 4293,
      "follows": 4294,
      "classroom": 4295,
      "missile": 4296,
      "apart": 4297,
      "##sit": 4298,
      "easily": 4299,
      "keeping": 4300,
      "letting": 4301,
      "chairs": 4302,
      "planes": 4303,
      "rise": 4304,
      "accept": 4305,
      "burned": 4306,
      "language": 4307,
      "##mand": 4308,
      "straight": 4309,
      "bother": 4310,
      "dressed": 4311,
      "veter": 4312,
      "cane": 4313,
      "aut": 4314,
      "cell": 4315,
      "ward": 4316,
      "caring": 4317,
      "##inarian": 4318,
      "veterinarian": 4319,
      "##act": 4320,
      "jewelry": 4321,
      "trusted": 4322,
      "olive": 4323,
      "sizes": 4324,
      "##men": 4325,
      "teleph": 4326,
      "shower": 4327,
      "claws": 4328,
      "requ": 4329,
      "wardrobe": 4330,
      "opera": 4331,
      "wed": 4332,
      "trade": 4333,
      "blinked": 4334,
      "incre": 4335,
      "##iday": 4336,
      "pur": 4337,
      "puzzles": 4338,
      "##mer": 4339,
      "stable": 4340,
      "cabinet": 4341,
      "lawn": 4342,
      "crossed": 4343,
      "bookshe": 4344,
      "newspaper": 4345,
      "tornado": 4346,
      "##ives": 4347,
      "##ement": 4348,
      "stro": 4349,
      "perfu": 4350,
      "telephone": 4351,
      "##vision": 4352,
      "sigh": 4353,
      "##ray": 4354,
      "##mend": 4355,
      "##inking": 4356,
      "rooms": 4357,
      "razor": 4358,
      "blueberries": 4359,
      "##ival": 4360,
      "squeeze": 4361,
      "bookcase": 4362,
      "##eas": 4363,
      "subway": 4364,
      "##anges": 4365,
      "delay": 4366,
      "##ampoo": 4367,
      "shampoo": 4368,
      "steam": 4369,
      "recom": 4370,
      "valley": 4371,
      "recommend": 4372,
      "amazement": 4373,
      "cale": 4374,
      "lumber": 4375,
      "grill": 4376,
      "squeezed": 4377,
      "mustache": 4378,
      "##orted": 4379,
      "bookshelf": 4380,
      "gym": 4381,
      "pra": 4382,
      "crawling": 4383,
      "following": 4384,
      "blood": 4385,
      "unfort": 4386,
      "crow": 4387,
      "television": 4388,
      "fuel": 4389,
      "reverse": 4390,
      "matches": 4391,
      "perfume": 4392,
      "hol": 4393,
      "cliff": 4394,
      "file": 4395,
      "blouse": 4396,
      "pinch": 4397,
      "improve": 4398,
      "serve": 4399,
      "holiday": 4400,
      "poked": 4401,
      "€.": 4402,
      "##ety": 4403,
      "##iction": 4404,
      "##omes": 4405,
      "crash": 4406,
      "licks": 4407,
      "fest": 4408,
      "diction": 4409,
      "experience": 4410,
      "demand": 4411,
      "ringing": 4412,
      "helper": 4413,
      "berry": 4414,
      "snap": 4415,
      "worms": 4416,
      "waste": 4417,
      "dictionary": 4418,
      "ou": 4419,
      "unfortunately": 4420,
      "row": 4421,
      "ribbon": 4422,
      "prop": 4423,
      "rabbits": 4424,
      "katie": 4425,
      "sneeze": 4426,
      "yucky": 4427,
      "growled": 4428,
      "birdc": 4429,
      "begged": 4430,
      "ignore": 4431,
      "ideas": 4432,
      "warmth": 4433,
      "invite": 4434,
      "birdcage": 4435,
      "##ndar": 4436,
      "below": 4437,
      "##hic": 4438,
      "vehic": 4439,
      "weep": 4440,
      "calendar": 4441,
      "married": 4442,
      "ollie": 4443,
      "##lier": 4444,
      "recei": 4445,
      "kneel": 4446,
      "instr": 4447,
      "fallen": 4448,
      "enter": 4449,
      "rail": 4450,
      "moments": 4451,
      "bravely": 4452,
      "pastry": 4453,
      "laught": 4454,
      "refre": 4455,
      "oas": 4456,
      "surprises": 4457,
      "safety": 4458,
      "##cus": 4459,
      "struct": 4460,
      "œno": 4461,
      "structure": 4462,
      "oasis": 4463,
      "sparkles": 4464,
      "junk": 4465,
      "root": 4466,
      "understanding": 4467,
      "laughter": 4468,
      "wandered": 4469,
      "##ising": 4470,
      "hurting": 4471,
      "drain": 4472,
      "hearts": 4473,
      "pages": 4474,
      "##omeday": 4475,
      "float": 4476,
      "someday": 4477,
      "airpl": 4478,
      "buckle": 4479,
      "harb": 4480,
      "autom": 4481,
      "ups": 4482,
      "item": 4483,
      "admir": 4484,
      "bathe": 4485,
      "automob": 4486,
      "strawberries": 4487,
      "buried": 4488,
      "apron": 4489,
      "reaches": 4490,
      "inf": 4491,
      "whip": 4492,
      "mys": 4493,
      "quiz": 4494,
      "festival": 4495,
      "##chel": 4496,
      "myself": 4497,
      "relaxed": 4498,
      "score": 4499,
      "sandcastle": 4500,
      "plates": 4501,
      "skills": 4502,
      "##aked": 4503,
      "raise": 4504,
      "invit": 4505,
      "steve": 4506,
      "asht": 4507,
      "spade": 4508,
      "rachel": 4509,
      "ashtray": 4510,
      "direct": 4511,
      "ouch": 4512,
      "dar": 4513,
      "lic": 4514,
      "dare": 4515,
      "beamed": 4516,
      "betsy": 4517,
      "snapped": 4518,
      "##riger": 4519,
      "refriger": 4520,
      "earlier": 4521,
      "supply": 4522,
      "socks": 4523,
      "weap": 4524,
      "vac": 4525,
      "mass": 4526,
      "wag": 4527,
      "received": 4528,
      "##cakes": 4529,
      "refrigerator": 4530,
      "harbor": 4531,
      "tong": 4532,
      "model": 4533,
      "teaching": 4534,
      "spots": 4535,
      "jail": 4536,
      "!'": 4537,
      "thumb": 4538,
      "saving": 4539,
      "toes": 4540,
      "sparkling": 4541,
      "vanished": 4542,
      "##pare": 4543,
      "balan": 4544,
      "insisted": 4545,
      "waffle": 4546,
      "bumped": 4547,
      "prepare": 4548,
      "none": 4549,
      "abig": 4550,
      "spending": 4551,
      "dried": 4552,
      "jewels": 4553,
      "frank": 4554,
      "lemonade": 4555,
      "blackboard": 4556,
      "boot": 4557,
      "dav": 4558,
      "fro": 4559,
      "known": 4560,
      "##ission": 4561,
      "breathe": 4562,
      "##ium": 4563,
      "scattered": 4564,
      "remain": 4565,
      "permission": 4566,
      "settled": 4567,
      "scooped": 4568,
      "abigail": 4569,
      "replace": 4570,
      "encouraged": 4571,
      "wisdom": 4572,
      "yawned": 4573,
      "##amber": 4574,
      "bathrobe": 4575,
      "wine": 4576,
      "tease": 4577,
      "destroyed": 4578,
      "achie": 4579,
      "hanger": 4580,
      "remove": 4581,
      "port": 4582,
      "beans": 4583,
      "mall": 4584,
      "pulling": 4585,
      "hardly": 4586,
      "pride": 4587,
      "hate": 4588,
      "##antly": 4589,
      "license": 4590,
      "##sters": 4591,
      "sits": 4592,
      "decorations": 4593,
      "poison": 4594,
      "œhe": 4595,
      "simp": 4596,
      "cuddled": 4597,
      "afterwards": 4598,
      "wiz": 4599,
      "washing": 4600,
      "nation": 4601,
      "rhy": 4602,
      "mmm": 4603,
      "repeat": 4604,
      "david": 4605,
      "respons": 4606,
      "mention": 4607,
      "##fied": 4608,
      "suffer": 4609,
      "praised": 4610,
      "equ": 4611,
      "crun": 4612,
      "chirping": 4613,
      "hits": 4614,
      "##xture": 4615,
      "snowball": 4616,
      "appreciate": 4617,
      "buzzing": 4618,
      "patiently": 4619,
      "fastest": 4620,
      "dresses": 4621,
      "automobile": 4622,
      "flav": 4623,
      "cartoon": 4624,
      "warning": 4625,
      "bleed": 4626,
      "##nies": 4627,
      "##sity": 4628,
      "digg": 4629,
      "label": 4630,
      "palm": 4631,
      "##asp": 4632,
      "destination": 4633,
      "taller": 4634,
      "restore": 4635,
      "homes": 4636,
      "glo": 4637,
      "climbs": 4638,
      "frost": 4639,
      "hesit": 4640,
      "sausage": 4641,
      "##aces": 4642,
      "shot": 4643,
      "digging": 4644,
      "believed": 4645,
      "infant": 4646,
      "approached": 4647,
      "wizard": 4648,
      "brain": 4649,
      "proper": 4650,
      "œthank": 4651,
      "university": 4652,
      "tore": 4653,
      "deeper": 4654,
      "mitten": 4655,
      "ke": 4656,
      "compan": 4657,
      "hers": 4658,
      "heat": 4659,
      "chamber": 4660,
      "firef": 4661,
      "rust": 4662,
      "chore": 4663,
      "punish": 4664,
      "sport": 4665,
      "cherry": 4666,
      "struggling": 4667,
      "universe": 4668,
      "upstairs": 4669,
      "hills": 4670,
      "discuss": 4671,
      "billboard": 4672,
      "pillows": 4673,
      "tongue": 4674,
      "ther": 4675,
      "panic": 4676,
      "therm": 4677,
      "thrilled": 4678,
      "provide": 4679,
      "sneezed": 4680,
      "##bey": 4681,
      "jan": 4682,
      "vacation": 4683,
      "anytime": 4684,
      "awe": 4685,
      "##ents": 4686,
      "##osed": 4687,
      "tour": 4688,
      "twisted": 4689,
      "shooting": 4690,
      "'.": 4691,
      "glowed": 4692,
      "hurric": 4693,
      "worse": 4694,
      "hurricane": 4695,
      "sprinkles": 4696,
      "##ude": 4697,
      "sty": 4698,
      "parts": 4699,
      "shed": 4700,
      "solved": 4701,
      "thermomet": 4702,
      "##osity": 4703,
      "weeks": 4704,
      "examine": 4705,
      "setting": 4706,
      "oranges": 4707,
      "##allen": 4708,
      "airplane": 4709,
      "wherever": 4710,
      "remained": 4711,
      "ranch": 4712,
      "plays": 4713,
      "challen": 4714,
      "chores": 4715,
      "neighborhood": 4716,
      "##ring": 4717,
      "##shing": 4718,
      "floated": 4719,
      "thermometer": 4720,
      "leak": 4721,
      "##thm": 4722,
      "rhythm": 4723,
      "floating": 4724,
      "paints": 4725,
      "copper": 4726,
      "grey": 4727,
      "bites": 4728,
      "fixing": 4729,
      "girls": 4730,
      "##adium": 4731,
      "stadium": 4732,
      "measured": 4733,
      "everybody": 4734,
      "memory": 4735,
      "conf": 4736,
      "massage": 4737,
      "surrounded": 4738,
      "grinned": 4739,
      "exercise": 4740,
      "fasc": 4741,
      "supposed": 4742,
      "sew": 4743,
      "teasp": 4744,
      "teaspoon": 4745,
      "gifts": 4746,
      "paused": 4747,
      "brings": 4748,
      "fut": 4749,
      "actually": 4750,
      "sunr": 4751,
      "future": 4752,
      "signs": 4753,
      "!\",": 4754,
      "zoe": 4755,
      "œia": 4756,
      "elephants": 4757,
      "collection": 4758,
      "marbles": 4759,
      "stomach": 4760,
      "##son": 4761,
      "##icing": 4762,
      "gust": 4763,
      "tide": 4764,
      "flood": 4765,
      "##sing": 4766,
      "includ": 4767,
      "sunrise": 4768,
      "discovery": 4769,
      "mailman": 4770,
      "rush": 4771,
      "vehicle": 4772,
      "bes": 4773,
      "beg": 4774,
      "toe": 4775,
      "beth": 4776,
      "urge": 4777,
      "chr": 4778,
      "œthata": 4779,
      "##ari": 4780,
      "mister": 4781,
      "##elv": 4782,
      "unite": 4783,
      "scratch": 4784,
      "meowed": 4785,
      "strang": 4786,
      "velv": 4787,
      "tomatoes": 4788,
      "##ab": 4789,
      "lugg": 4790,
      "weapon": 4791,
      "jogging": 4792,
      "fascin": 4793,
      "decision": 4794,
      "chewed": 4795,
      "observe": 4796,
      "cartoons": 4797,
      "##ishing": 4798,
      "luggage": 4799,
      "zig": 4800,
      "velvet": 4801,
      "##nie": 4802,
      "scur": 4803,
      "##nday": 4804,
      "grape": 4805,
      "sore": 4806,
      "sunlight": 4807,
      "possible": 4808,
      "skipping": 4809,
      "##iers": 4810,
      "collecting": 4811,
      "choo": 4812,
      "remy": 4813,
      "mineral": 4814,
      "cakes": 4815,
      "folded": 4816,
      "curled": 4817,
      "##ities": 4818,
      "sliding": 4819,
      "lets": 4820,
      "melted": 4821,
      "chirped": 4822,
      "spill": 4823,
      "sip": 4824,
      "beat": 4825,
      "keeper": 4826,
      "oper": 4827,
      "##uing": 4828,
      "itch": 4829,
      "luna": 4830,
      "problems": 4831,
      "appear": 4832,
      "robb": 4833,
      "satis": 4834,
      "difference": 4835,
      "squeak": 4836,
      "mountains": 4837,
      "navy": 4838,
      "tracks": 4839,
      "zer": 4840,
      "fet": 4841,
      "##bers": 4842,
      "manage": 4843,
      "growl": 4844,
      "##umble": 4845,
      "eag": 4846,
      "equip": 4847,
      "equipment": 4848,
      "lick": 4849,
      "admiring": 4850,
      "bricks": 4851,
      "potatoes": 4852,
      "bak": 4853,
      "laid": 4854,
      "whistling": 4855,
      "watered": 4856,
      "contain": 4857,
      "nina": 4858,
      "thom": 4859,
      "soldiers": 4860,
      "twigs": 4861,
      "gran": 4862,
      "hist": 4863,
      "patterns": 4864,
      "gain": 4865,
      "##xy": 4866,
      "kindly": 4867,
      "petted": 4868,
      "seats": 4869,
      "zero": 4870,
      "emer": 4871,
      "prune": 4872,
      "spaces": 4873,
      "pigs": 4874,
      "history": 4875,
      "receive": 4876,
      "gloves": 4877,
      "##do": 4878,
      "sunday": 4879,
      "overjoy": 4880,
      "strangers": 4881,
      "overjoyed": 4882,
      "slice": 4883,
      "officer": 4884,
      "continue": 4885,
      "beside": 4886,
      "##ipe": 4887,
      "zipped": 4888,
      "ordered": 4889,
      "eagle": 4890,
      "##oved": 4891,
      "safari": 4892,
      "##eren": 4893,
      "watches": 4894,
      "goodnight": 4895,
      "gotten": 4896,
      "accidents": 4897,
      "network": 4898,
      "spit": 4899,
      "marching": 4900,
      "##walk": 4901,
      "thomas": 4902,
      "earthqu": 4903,
      "lands": 4904,
      "explor": 4905,
      "prayed": 4906,
      "flap": 4907,
      "vict": 4908,
      "brid": 4909,
      "..": 4910,
      "peered": 4911,
      "acorns": 4912,
      "eff": 4913,
      "ours": 4914,
      "chlo": 4915,
      "##bbled": 4916,
      "invitation": 4917,
      "josh": 4918,
      "##mother": 4919,
      "weight": 4920,
      "julie": 4921,
      "len": 4922,
      "wooden": 4923,
      "wre": 4924,
      "sidewalk": 4925,
      "attached": 4926,
      "##ocery": 4927,
      "##zag": 4928,
      "grocery": 4929,
      "zigzag": 4930,
      "suzy": 4931,
      "drinks": 4932,
      "racing": 4933,
      "fed": 4934,
      "fireworks": 4935,
      "raised": 4936,
      "disagreed": 4937,
      "##cious": 4938,
      "weren": 4939,
      "ali": 4940,
      "bones": 4941,
      "company": 4942,
      "peanuts": 4943,
      "burning": 4944,
      "request": 4945,
      "floppy": 4946,
      "onwards": 4947,
      "chloe": 4948,
      "\",": 4949,
      "price": 4950,
      "operation": 4951,
      "happiest": 4952,
      "spoons": 4953,
      "exact": 4954,
      "dinosaurs": 4955,
      "crunchy": 4956,
      "crashed": 4957,
      "brick": 4958,
      "weig": 4959,
      "turning": 4960,
      "whistled": 4961,
      "hurried": 4962,
      "...": 4963,
      "##pared": 4964,
      "refreshed": 4965,
      "tremb": 4966,
      "talent": 4967,
      "pies": 4968,
      "accom": 4969,
      "works": 4970,
      "prepared": 4971,
      "stitch": 4972,
      "clearing": 4973,
      "bowed": 4974,
      "whatever": 4975,
      "scratched": 4976,
      "remembers": 4977,
      "lips": 4978,
      "escaped": 4979,
      "menu": 4980,
      "bridges": 4981,
      "##aded": 4982,
      "warn": 4983,
      "lip": 4984,
      "buildings": 4985,
      "##amb": 4986,
      "planted": 4987,
      "brand": 4988,
      "##hest": 4989,
      "revealed": 4990,
      "pupp": 4991,
      "easier": 4992,
      "comfy": 4993,
      "selling": 4994,
      "precious": 4995,
      "screams": 4996,
      "hated": 4997,
      "jamie": 4998,
      "œl": 4999,
      "oxy": 5000,
      "drinking": 5001,
      "muddy": 5002,
      "##die": 5003,
      "recognized": 5004,
      "settle": 5005,
      "##ences": 5006,
      "accompl": 5007,
      "freeze": 5008,
      "crept": 5009,
      "landscap": 5010,
      "measuring": 5011,
      "circus": 5012,
      "lect": 5013,
      "wid": 5014,
      "earthquake": 5015,
      "simple": 5016,
      "sings": 5017,
      "curi": 5018,
      "beds": 5019,
      "oxygen": 5020,
      "##ases": 5021,
      "slip": 5022,
      "curiosity": 5023,
      "effort": 5024,
      "spaceship": 5025,
      "perched": 5026,
      "padd": 5027,
      "reminder": 5028,
      "shadows": 5029,
      "pitch": 5030,
      "wonders": 5031,
      "woof": 5032,
      "œcan": 5033,
      "served": 5034,
      "cutting": 5035,
      "pedal": 5036,
      "lecture": 5037,
      "voices": 5038,
      "steel": 5039,
      "cuddle": 5040,
      "waits": 5041,
      "drag": 5042,
      "fashion": 5043,
      "six": 5044,
      "oats": 5045,
      "allow": 5046,
      "comforted": 5047,
      "agreement": 5048,
      "responsible": 5049,
      "obey": 5050,
      "apologize": 5051,
      "youa": 5052,
      "rained": 5053,
      "yawn": 5054,
      "##ffic": 5055,
      "traffic": 5056,
      "soared": 5057,
      "secrets": 5058,
      "exactly": 5059,
      "trapped": 5060,
      "grandmother": 5061,
      "printer": 5062,
      "pets": 5063,
      "landscape": 5064,
      "tastes": 5065,
      "shopping": 5066,
      "succeeded": 5067,
      "rang": 5068,
      "pearl": 5069,
      "œmom": 5070,
      "stripes": 5071,
      "olives": 5072,
      "stealing": 5073,
      "disturbed": 5074,
      "rested": 5075,
      "hanna": 5076,
      "waist": 5077,
      "ladyb": 5078,
      "##come": 5079,
      "items": 5080,
      "anne": 5081,
      "swims": 5082,
      "practicing": 5083,
      "bringing": 5084,
      "writ": 5085,
      "scoop": 5086,
      "visiting": 5087,
      "sisters": 5088,
      "style": 5089,
      "fuzzy": 5090,
      "activ": 5091,
      "costumes": 5092,
      "answers": 5093,
      "##itten": 5094,
      "soak": 5095,
      "startled": 5096,
      "breaking": 5097,
      "snea": 5098,
      "##izing": 5099,
      "sadness": 5100,
      "##mble": 5101,
      "bab": 5102,
      "waffles": 5103,
      "brushed": 5104,
      "mouths": 5105,
      "encourage": 5106,
      "monsters": 5107,
      "nails": 5108,
      "chef": 5109,
      "fascinated": 5110,
      "œdon": 5111,
      "lemons": 5112,
      "outdo": 5113,
      "catching": 5114,
      "victory": 5115,
      "leather": 5116,
      "undern": 5117,
      "unic": 5118,
      "underground": 5119,
      "underneath": 5120,
      "caut": 5121,
      "claire": 5122,
      "beneath": 5123,
      "unicorn": 5124,
      "exit": 5125,
      "##agers": 5126,
      "owned": 5127,
      "blueberry": 5128,
      "ah": 5129,
      "nutty": 5130,
      "pupil": 5131,
      "knelt": 5132,
      "image": 5133,
      "##mare": 5134,
      "nightmare": 5135,
      "##ishes": 5136,
      "villagers": 5137,
      "downstairs": 5138,
      "recognize": 5139,
      "##enty": 5140,
      "unlocked": 5141,
      "##terday": 5142,
      "died": 5143,
      "yesterday": 5144,
      "creation": 5145,
      "tremble": 5146,
      "wanting": 5147,
      "eats": 5148,
      "doctors": 5149,
      "cape": 5150,
      "adam": 5151,
      "soaring": 5152,
      "jogged": 5153,
      "glitter": 5154,
      "betty": 5155,
      "wondering": 5156,
      "winning": 5157,
      "fetch": 5158,
      "bouncy": 5159,
      "##lings": 5160,
      "mission": 5161,
      "herbs": 5162,
      "##vin": 5163,
      "struggled": 5164,
      "mira": 5165,
      "famil": 5166,
      "##oming": 5167,
      "stirring": 5168,
      "punished": 5169,
      "bleeding": 5170,
      "gained": 5171,
      "tilly": 5172,
      "strip": 5173,
      "jessie": 5174,
      "nicer": 5175,
      "examined": 5176,
      "area": 5177,
      "firemen": 5178,
      "machines": 5179,
      "todd": 5180,
      "planned": 5181,
      "guessed": 5182,
      "wreck": 5183,
      "heav": 5184,
      "situ": 5185,
      "introdu": 5186,
      "##ues": 5187,
      "comple": 5188,
      "satisfied": 5189,
      "piles": 5190,
      "argued": 5191,
      "##lu": 5192,
      "chirpy": 5193,
      "challenge": 5194,
      "carl": 5195,
      "firefight": 5196,
      "ripped": 5197,
      "increase": 5198,
      "hannah": 5199,
      "zooming": 5200,
      "bunnies": 5201,
      "peaches": 5202,
      "tugged": 5203,
      "studied": 5204,
      "wagging": 5205,
      "bare": 5206,
      "spiders": 5207,
      "teasing": 5208,
      "mice": 5209,
      "lulu": 5210,
      "keys": 5211,
      "##zing": 5212,
      "deser": 5213,
      "seag": 5214,
      "sus": 5215,
      "gathering": 5216,
      "properly": 5217,
      "shivering": 5218,
      "œwe": 5219,
      "##ley": 5220,
      "seagull": 5221,
      "winner": 5222,
      "twinkle": 5223,
      "tune": 5224,
      "mixing": 5225,
      "permit": 5226,
      "blink": 5227,
      "outdoors": 5228,
      "œhello": 5229,
      "yelling": 5230,
      "twirling": 5231,
      "##iggy": 5232,
      "lux": 5233,
      "west": 5234,
      "peel": 5235,
      "tickets": 5236,
      "susan": 5237,
      "loaded": 5238,
      "pancakes": 5239,
      "release": 5240,
      "slapped": 5241,
      "supplies": 5242,
      "decorated": 5243,
      "beha": 5244,
      "abby": 5245,
      "neighbourhood": 5246,
      "sights": 5247,
      "rides": 5248,
      "studying": 5249,
      "##ury": 5250,
      "begin": 5251,
      "##jo": 5252,
      "dolly": 5253,
      "burrow": 5254,
      "instruct": 5255,
      "siren": 5256,
      "loving": 5257,
      "prunes": 5258,
      "released": 5259,
      "draws": 5260,
      "weighed": 5261,
      "contro": 5262,
      "tonight": 5263,
      "muffins": 5264,
      "sneaked": 5265,
      "confident": 5266,
      "realize": 5267,
      "baked": 5268,
      "instructions": 5269,
      "introduce": 5270,
      "##gers": 5271,
      "bend": 5272,
      ".'": 5273,
      "##ales": 5274,
      "##ica": 5275,
      "struck": 5276,
      "ladybug": 5277,
      "œlook": 5278,
      "competition": 5279,
      "thata": 5280,
      "inch": 5281,
      "giggling": 5282,
      "emergen": 5283,
      "cal": 5284,
      "pinched": 5285,
      "solut": 5286,
      "##ib": 5287,
      "budge": 5288,
      "printed": 5289,
      "pastel": 5290,
      "lou": 5291,
      "opin": 5292,
      "pockets": 5293,
      "##ding": 5294,
      "bunch": 5295,
      "lines": 5296,
      "shoulders": 5297,
      "frosting": 5298,
      "broom": 5299,
      "east": 5300,
      "stamps": 5301,
      "decides": 5302,
      "ty": 5303,
      "##ex": 5304,
      "ourselves": 5305,
      "web": 5306,
      "stretching": 5307,
      "œthis": 5308,
      "cones": 5309,
      "stair": 5310,
      "chuck": 5311,
      "pears": 5312,
      "sides": 5313,
      "patience": 5314,
      "poking": 5315,
      "reluct": 5316,
      "strings": 5317,
      "deal": 5318,
      "scurried": 5319,
      "€”": 5320,
      "kicking": 5321,
      "ruler": 5322,
      "marks": 5323,
      "honk": 5324,
      "##allow": 5325,
      "##nta": 5326,
      "youth": 5327,
      "##nesday": 5328,
      "repeated": 5329,
      "wednesday": 5330,
      "ago": 5331,
      "keeps": 5332,
      "claps": 5333,
      "prints": 5334,
      "forgi": 5335,
      "##bbing": 5336,
      "crowd": 5337,
      "sting": 5338,
      "sorting": 5339,
      "santa": 5340,
      "cautious": 5341,
      "ruin": 5342,
      "touching": 5343,
      "##flow": 5344,
      "##kins": 5345,
      "brushes": 5346,
      "neighbors": 5347,
      "demanded": 5348,
      "œh": 5349,
      "##ops": 5350,
      "mentioned": 5351,
      "linda": 5352,
      "control": 5353,
      "protected": 5354,
      "luke": 5355,
      "guns": 5356,
      "jeff": 5357,
      "disagree": 5358,
      "sweeties": 5359,
      "writes": 5360,
      "ribbons": 5361,
      "buckets": 5362,
      "tuesday": 5363,
      "hoppy": 5364,
      "momo": 5365,
      "##tiest": 5366,
      "reluctantly": 5367,
      "##jam": 5368,
      "prettiest": 5369,
      "soaked": 5370,
      "camping": 5371,
      "vent": 5372,
      "parked": 5373,
      "œwhy": 5374,
      "chat": 5375,
      "project": 5376,
      "barely": 5377,
      "boom": 5378,
      "œdona": 5379,
      "##zie": 5380,
      "horns": 5381,
      "silence": 5382,
      "eight": 5383,
      "pebbles": 5384,
      "slim": 5385,
      "luxury": 5386,
      "discovering": 5387,
      "dragons": 5388,
      "œt": 5389,
      "##rr": 5390,
      "##riage": 5391,
      "dolphins": 5392,
      "##icked": 5393,
      "kayla": 5394,
      "guys": 5395,
      "babies": 5396,
      "twinkling": 5397,
      "result": 5398,
      "dent": 5399,
      "texture": 5400,
      "expect": 5401,
      "cind": 5402,
      "surface": 5403,
      "stole": 5404,
      "vowed": 5405,
      "gazed": 5406,
      "strike": 5407,
      "movies": 5408,
      "purred": 5409,
      "beard": 5410,
      "##exp": 5411,
      "steep": 5412,
      "leap": 5413,
      "rocking": 5414,
      "chewing": 5415,
      "shock": 5416,
      "emergency": 5417,
      "unexp": 5418,
      "unexpected": 5419,
      "tickle": 5420,
      "powers": 5421,
      "##zen": 5422,
      "applauded": 5423,
      "lizzy": 5424,
      "greet": 5425,
      "contest": 5426,
      "loose": 5427,
      "entire": 5428,
      "tru": 5429,
      "urged": 5430,
      "acted": 5431,
      "fab": 5432,
      "dragged": 5433,
      "muscles": 5434,
      "uh": 5435,
      "catches": 5436,
      "moo": 5437,
      "nan": 5438,
      "##ults": 5439,
      "flat": 5440,
      "fabric": 5441,
      "curtains": 5442,
      "completed": 5443,
      "jenna": 5444,
      "##reat": 5445,
      "cindy": 5446,
      "chips": 5447,
      "season": 5448,
      "curly": 5449,
      "introduced": 5450,
      "suzie": 5451,
      "bank": 5452,
      "frozen": 5453,
      "nick": 5454,
      "direction": 5455,
      "snail": 5456,
      "importance": 5457,
      "heel": 5458,
      "##ky": 5459,
      "rubbing": 5460,
      "librarian": 5461,
      "highest": 5462,
      "##usted": 5463,
      "figured": 5464,
      "lena": 5465,
      "screaming": 5466,
      "shivered": 5467,
      "bubb": 5468,
      "solution": 5469,
      "hugging": 5470,
      "pouring": 5471,
      "rocked": 5472,
      "repla": 5473,
      "roaring": 5474,
      "achieve": 5475,
      "staring": 5476,
      "chases": 5477,
      "##ern": 5478,
      "shelves": 5479,
      "wound": 5480,
      "crumb": 5481,
      "theirs": 5482,
      "include": 5483,
      "den": 5484,
      "##ella": 5485,
      "sled": 5486,
      "œoh": 5487,
      "##esome": 5488,
      "slimy": 5489,
      "drives": 5490,
      "sorted": 5491,
      "planets": 5492,
      "mick": 5493,
      "jun": 5494,
      "cana": 5495,
      "rainbows": 5496,
      "balancing": 5497,
      "policeman": 5498,
      "##ledge": 5499,
      "awesome": 5500,
      "mater": 5501,
      "ka": 5502,
      "exha": 5503,
      "safer": 5504,
      "materi": 5505,
      "pepp": 5506,
      "momma": 5507,
      "foods": 5508,
      "situation": 5509,
      "knowledge": 5510,
      "pinky": 5511,
      "jon": 5512,
      "excuse": 5513,
      "homework": 5514,
      "gro": 5515,
      "usual": 5516,
      "sighs": 5517,
      "passing": 5518,
      "flags": 5519,
      "##itely": 5520,
      "wink": 5521,
      "ris": 5522,
      "##irts": 5523,
      "##fit": 5524,
      "shined": 5525,
      "##apping": 5526,
      "dared": 5527,
      "plenty": 5528,
      "matched": 5529,
      "towels": 5530,
      "desp": 5531,
      "lied": 5532,
      "œok": 5533,
      "zookeeper": 5534,
      "radishes": 5535,
      "bravery": 5536,
      "outfit": 5537,
      "##though": 5538,
      "reaching": 5539,
      "although": 5540,
      "sausages": 5541,
      "resting": 5542,
      "truly": 5543,
      "pretends": 5544,
      "jaco": 5545,
      "cheering": 5546,
      "wedding": 5547,
      "##eah": 5548,
      "goals": 5549,
      "jacob": 5550,
      "marriage": 5551,
      "dusty": 5552,
      "cott": 5553,
      "##jamas": 5554,
      "threat": 5555,
      "##flowers": 5556,
      "tara": 5557,
      "baa": 5558,
      "accomplish": 5559,
      "patted": 5560,
      "exhausted": 5561,
      "caused": 5562,
      "packing": 5563,
      "paintings": 5564,
      "##sure": 5565,
      "##zzie": 5566,
      "spraying": 5567,
      "slap": 5568,
      "arguing": 5569,
      "blooming": 5570,
      "motion": 5571,
      "piggy": 5572,
      "sweets": 5573,
      "##bert": 5574,
      "growling": 5575,
      "waiter": 5576,
      "matching": 5577,
      "colored": 5578,
      "struggle": 5579,
      "worker": 5580,
      "sticking": 5581,
      "gle": 5582,
      "lizzie": 5583,
      "markers": 5584,
      "##ason": 5585,
      "reveal": 5586,
      "shh": 5587,
      "kneeled": 5588,
      "mane": 5589,
      "paddled": 5590,
      "written": 5591,
      "cubes": 5592,
      "cent": 5593,
      "sway": 5594,
      "##sa": 5595,
      "jessica": 5596,
      "inviting": 5597,
      "rescued": 5598,
      "organizing": 5599,
      "bead": 5600,
      "master": 5601,
      "traveled": 5602,
      "creating": 5603,
      "princesses": 5604,
      "bottles": 5605,
      "singer": 5606,
      "expected": 5607,
      "cuts": 5608,
      "##ashed": 5609,
      "fir": 5610,
      "julia": 5611,
      "guest": 5612,
      "flavor": 5613,
      "pipp": 5614,
      "dais": 5615,
      "learns": 5616,
      "yeah": 5617,
      "abb": 5618,
      "trembling": 5619,
      "regretted": 5620,
      "bloomed": 5621,
      "replaced": 5622,
      "arrive": 5623,
      "pencils": 5624,
      "recorded": 5625,
      "despite": 5626,
      "daisies": 5627,
      "ranger": 5628,
      "included": 5629,
      "##away": 5630,
      "##inky": 5631,
      "prayer": 5632,
      "fairies": 5633,
      "workers": 5634,
      "observed": 5635,
      "##ik": 5636,
      "pots": 5637,
      "lamb": 5638,
      "##rees": 5639,
      "activities": 5640,
      "##aster": 5641,
      "wires": 5642,
      "darkness": 5643,
      "opening": 5644,
      "firm": 5645,
      "timer": 5646,
      "poems": 5647,
      "pajamas": 5648,
      "seesaw": 5649,
      "roads": 5650,
      "penguins": 5651,
      "worries": 5652,
      "removed": 5653,
      "##ction": 5654,
      "uses": 5655,
      "peeking": 5656,
      "ventured": 5657,
      "relief": 5658,
      "stare": 5659,
      "countryside": 5660,
      "completely": 5661,
      "snakes": 5662,
      "unf": 5663,
      "polishing": 5664,
      "vanish": 5665,
      "reply": 5666,
      "wasted": 5667,
      "##angled": 5668,
      "belly": 5669,
      "##immer": 5670,
      "storekeeper": 5671,
      "owners": 5672,
      "flames": 5673,
      "dollar": 5674,
      "miles": 5675,
      "cautiously": 5676,
      "leader": 5677,
      "crabs": 5678,
      "fault": 5679,
      "johnson": 5680,
      "partic": 5681,
      "faced": 5682,
      "folding": 5683,
      "squeaky": 5684,
      "quacked": 5685,
      "suggest": 5686,
      "kites": 5687,
      "stern": 5688,
      "ast": 5689,
      "becoming": 5690,
      "helmets": 5691,
      "christ": 5692,
      "gig": 5693,
      "scales": 5694,
      "##bel": 5695,
      "wasna": 5696,
      "agrees": 5697,
      "usually": 5698,
      "grocer": 5699,
      "melting": 5700,
      "larry": 5701,
      "healed": 5702,
      "squealed": 5703,
      "scra": 5704,
      "thro": 5705,
      "logs": 5706,
      "jones": 5707,
      "snat": 5708,
      "conn": 5709,
      "shaped": 5710,
      "lollipops": 5711,
      "opinion": 5712,
      "coloured": 5713,
      "tractor": 5714,
      "ripe": 5715,
      "throat": 5716,
      "cash": 5717,
      "crumbs": 5718,
      "##vers": 5719,
      "mun": 5720,
      "dipped": 5721,
      "roses": 5722,
      "staying": 5723,
      "seems": 5724,
      "knights": 5725,
      "ed": 5726,
      "comm": 5727,
      "teaches": 5728,
      "insist": 5729,
      "groceries": 5730,
      "granny": 5731,
      "##ivery": 5732,
      "dentist": 5733,
      "polished": 5734,
      "œb": 5735,
      "lap": 5736,
      "naps": 5737,
      "valued": 5738,
      "provided": 5739,
      "##asm": 5740,
      "united": 5741,
      "freed": 5742,
      "jay": 5743,
      "##hell": 5744,
      "interested": 5745,
      "baker": 5746,
      "bumpy": 5747,
      "rings": 5748,
      "scru": 5749,
      "blows": 5750,
      "rubs": 5751,
      "cracked": 5752,
      "somebody": 5753,
      "##zes": 5754,
      "faraway": 5755,
      "sophia": 5756,
      "desert": 5757,
      "rusty": 5758,
      "protecting": 5759,
      "misses": 5760,
      "marked": 5761,
      "twin": 5762,
      "winked": 5763,
      "##ah": 5764,
      "wandering": 5765,
      "june": 5766,
      "delivery": 5767,
      "bess": 5768,
      "?'": 5769,
      "pastries": 5770,
      "youn": 5771,
      "signed": 5772,
      "younger": 5773,
      "balanced": 5774,
      "##mas": 5775,
      "closes": 5776,
      "wrist": 5777,
      "chuckled": 5778,
      "##iar": 5779,
      "copy": 5780,
      "tig": 5781,
      "forehead": 5782,
      "listens": 5783,
      "single": 5784,
      "sim": 5785,
      "roots": 5786,
      "beads": 5787,
      "particular": 5788,
      "crackers": 5789,
      "actions": 5790,
      "œwhata": 5791,
      "##len": 5792,
      "directions": 5793,
      "œmommy": 5794,
      "filling": 5795,
      "cough": 5796,
      "splashes": 5797,
      "pastels": 5798,
      "itchy": 5799,
      "cous": 5800,
      "œg": 5801,
      "avo": 5802,
      "##rance": 5803,
      "snuggles": 5804,
      "abbie": 5805,
      "restored": 5806,
      "snowballs": 5807,
      "gigi": 5808,
      "hu": 5809,
      "fluttered": 5810,
      "rolls": 5811,
      "sweat": 5812,
      "gaze": 5813,
      "##hile": 5814,
      "stem": 5815,
      "swooped": 5816,
      "laura": 5817,
      "tipto": 5818,
      "##dies": 5819,
      "suitcase": 5820,
      "wiggled": 5821,
      "cause": 5822,
      "christmas": 5823,
      "swirl": 5824,
      "sparky": 5825,
      "aud": 5826,
      "pam": 5827,
      "purr": 5828,
      "refle": 5829,
      "slam": 5830,
      "photos": 5831,
      "nect": 5832,
      "nectar": 5833,
      "€˜": 5834,
      "awake": 5835,
      "mickey": 5836,
      "spea": 5837,
      "##oline": 5838,
      "neither": 5839,
      "celebration": 5840,
      "burst": 5841,
      "pedals": 5842,
      "trips": 5843,
      "speaking": 5844,
      "backed": 5845,
      "tallest": 5846,
      "froze": 5847,
      "cashier": 5848,
      "acting": 5849,
      "lined": 5850,
      "noon": 5851,
      "##ora": 5852,
      "remote": 5853,
      "darker": 5854,
      "determination": 5855,
      "##ility": 5856,
      "complaining": 5857,
      "secure": 5858,
      "##ormed": 5859,
      "pandy": 5860,
      "sneaky": 5861,
      "knees": 5862,
      "month": 5863,
      "milo": 5864,
      "recording": 5865,
      "videos": 5866,
      "rockets": 5867,
      "hoot": 5868,
      "bars": 5869,
      "insp": 5870,
      "silent": 5871,
      "health": 5872,
      "indeed": 5873,
      "accomplishment": 5874,
      "liqu": 5875,
      "entrance": 5876,
      "pleasure": 5877,
      "liquid": 5878,
      "pause": 5879,
      "wee": 5880,
      "##cha": 5881,
      "?\",": 5882,
      "seven": 5883,
      "intr": 5884,
      "shirts": 5885,
      "glee": 5886,
      "##yond": 5887,
      "beyond": 5888,
      "delivered": 5889,
      "buzzy": 5890,
      "smar": 5891,
      "joking": 5892,
      "wears": 5893,
      "mes": 5894,
      "insects": 5895,
      "chip": 5896,
      "emmy": 5897,
      "##iding": 5898,
      "mesmer": 5899,
      "opp": 5900,
      "lung": 5901,
      "mikey": 5902,
      "tricked": 5903,
      "cheeks": 5904,
      "stella": 5905,
      "##sequ": 5906,
      "consequ": 5907,
      "aff": 5908,
      "sib": 5909,
      "click": 5910,
      "hissed": 5911,
      "##tha": 5912,
      "stays": 5913,
      "bowls": 5914,
      "glasses": 5915,
      "farther": 5916,
      "rule": 5917,
      "hearing": 5918,
      "masks": 5919,
      "œcome": 5920,
      "tricky": 5921,
      "attack": 5922,
      "scaring": 5923,
      "rac": 5924,
      "sobbed": 5925,
      "tickled": 5926,
      "--": 5927,
      "##if": 5928,
      "stolen": 5929,
      "giraffes": 5930,
      "sandcastles": 5931,
      "smiley": 5932,
      "sense": 5933,
      "adding": 5934,
      "covers": 5935,
      "instrum": 5936,
      "talented": 5937,
      "calmed": 5938,
      "##boat": 5939,
      "handful": 5940,
      "batteries": 5941,
      "##pered": 5942,
      "robbie": 5943,
      "maya": 5944,
      "candies": 5945,
      "darling": 5946,
      "tangled": 5947,
      "scarves": 5948,
      "smarter": 5949,
      "dam": 5950,
      "magnets": 5951,
      "robert": 5952,
      "##avi": 5953,
      "choices": 5954,
      "achieved": 5955,
      "leading": 5956,
      "chris": 5957,
      "consequences": 5958,
      "ham": 5959,
      "guy": 5960,
      "##cky": 5961,
      "yourselves": 5962,
      "impo": 5963,
      "behavi": 5964,
      "bumps": 5965,
      "firefighters": 5966,
      "impossible": 5967,
      "reads": 5968,
      "robby": 5969,
      "hesitated": 5970,
      "tigers": 5971,
      "tess": 5972,
      "clowns": 5973,
      "badge": 5974,
      "ry": 5975,
      "paddle": 5976,
      "mixture": 5977,
      "explorers": 5978,
      "##ddled": 5979,
      "salty": 5980,
      "mushrooms": 5981,
      "defe": 5982,
      "kicks": 5983,
      "weeping": 5984,
      "bakery": 5985,
      "experi": 5986,
      "recommended": 5987,
      "gracefully": 5988,
      "##ners": 5989,
      "martha": 5990,
      "seeker": 5991,
      "seashell": 5992,
      "##ords": 5993,
      "œyoua": 5994,
      "thorn": 5995,
      "improved": 5996,
      "karen": 5997,
      "##brush": 5998,
      "swept": 5999,
      "behaved": 6000,
      "flapping": 6001,
      "##atul": 6002,
      "deserve": 6003,
      "##anes": 6004,
      "##coat": 6005,
      "stroked": 6006,
      "sy": 6007,
      "##iki": 6008,
      "beginning": 6009,
      "wipes": 6010,
      "intrig": 6011,
      "complained": 6012,
      "hider": 6013,
      "cust": 6014,
      "third": 6015,
      "œdo": 6016,
      "convin": 6017,
      "steer": 6018,
      "dots": 6019,
      "knocks": 6020,
      "objects": 6021,
      "seconds": 6022,
      "cans": 6023,
      "parties": 6024,
      "ryan": 6025,
      "teased": 6026,
      "cupcakes": 6027,
      "birdy": 6028,
      "##iled": 6029,
      "whee": 6030,
      "##lling": 6031,
      "travelled": 6032,
      "?!": 6033,
      "##bell": 6034,
      "basement": 6035,
      "heading": 6036,
      "mabel": 6037,
      "beam": 6038,
      "horiz": 6039,
      "puppies": 6040,
      "##llen": 6041,
      "fever": 6042,
      "custom": 6043,
      "snuck": 6044,
      "siblings": 6045,
      "aren": 6046,
      "raincoat": 6047,
      "artist": 6048,
      "risk": 6049,
      "horizon": 6050,
      "abi": 6051,
      "celebrating": 6052,
      "performance": 6053,
      "gems": 6054,
      "##sen": 6055,
      "jackets": 6056,
      "##ker": 6057,
      "drums": 6058,
      "sale": 6059,
      "marker": 6060,
      "hallway": 6061,
      "jacky": 6062,
      "snatched": 6063,
      "lighter": 6064,
      "##anging": 6065,
      "paying": 6066,
      "fluttering": 6067,
      "lett": 6068,
      "yells": 6069,
      "raind": 6070,
      "œwow": 6071,
      "bedtime": 6072,
      "among": 6073,
      "raindrop": 6074,
      "jojo": 6075,
      "rover": 6076,
      "finn": 6077,
      "wrapping": 6078,
      "ruining": 6079,
      "wouldna": 6080,
      "janie": 6081,
      "concer": 6082,
      "rumble": 6083,
      "buying": 6084,
      "families": 6085,
      "mer": 6086,
      "œhi": 6087,
      "auntie": 6088,
      "##mies": 6089,
      "fid": 6090,
      "##da": 6091,
      "joan": 6092,
      "annoy": 6093,
      "intrigued": 6094,
      "dollhouse": 6095,
      "rivers": 6096,
      "scrubbed": 6097,
      "needles": 6098,
      "lettuce": 6099,
      "##cho": 6100,
      "creamy": 6101,
      "peacefully": 6102,
      "puff": 6103,
      "##umbling": 6104,
      "##band": 6105,
      "scratches": 6106,
      "##ivity": 6107,
      "drifted": 6108,
      "widened": 6109,
      "tasks": 6110,
      "ral": 6111,
      "wins": 6112,
      "grandpare": 6113,
      "treehouse": 6114,
      "##ades": 6115,
      "wona": 6116,
      "##step": 6117,
      "hides": 6118,
      "players": 6119,
      "arrows": 6120,
      "losing": 6121,
      "ralph": 6122,
      "##ments": 6123,
      "fact": 6124,
      "cuddly": 6125,
      "##immering": 6126,
      "repa": 6127,
      "echo": 6128,
      "gina": 6129,
      "willing": 6130,
      "shrinking": 6131,
      "##iles": 6132,
      "lower": 6133,
      "rewarded": 6134,
      "binky": 6135,
      "creativity": 6136,
      "minerals": 6137,
      "arr": 6138,
      "##hog": 6139,
      "##fall": 6140,
      "source": 6141,
      "repaired": 6142,
      "kiki": 6143,
      "passen": 6144,
      "temper": 6145,
      "onions": 6146,
      "including": 6147,
      "limes": 6148,
      "fears": 6149,
      "sadie": 6150,
      "jackie": 6151,
      "imagining": 6152,
      "maddie": 6153,
      "diving": 6154,
      "tiptoed": 6155,
      "tapped": 6156,
      "grassy": 6157,
      "earn": 6158,
      "rising": 6159,
      "decorating": 6160,
      "swans": 6161,
      "creations": 6162,
      "peppers": 6163,
      "merry": 6164,
      "##ongr": 6165,
      "chop": 6166,
      "chefs": 6167,
      "##ded": 6168,
      "sprinkled": 6169,
      "separated": 6170,
      "granted": 6171,
      "ew": 6172,
      "printing": 6173,
      "flop": 6174,
      "micha": 6175,
      "michael": 6176,
      "grabbing": 6177,
      "##dri": 6178,
      "œmy": 6179,
      "hedgehog": 6180,
      "swimsuit": 6181,
      "rocky": 6182,
      "##ongratul": 6183,
      "##iece": 6184,
      "judy": 6185,
      "pans": 6186,
      "tiss": 6187,
      "screwdri": 6188,
      "simon": 6189,
      "amel": 6190,
      "coup": 6191,
      "stomped": 6192,
      "gross": 6193,
      "spong": 6194,
      "backwards": 6195,
      "pouted": 6196,
      "windy": 6197,
      "squares": 6198,
      "##itude": 6199,
      "wobb": 6200,
      "forgiven": 6201,
      "squish": 6202,
      "##cas": 6203,
      "hesitant": 6204,
      "damage": 6205,
      "haw": 6206,
      "tramp": 6207,
      "stung": 6208,
      "planning": 6209,
      "marie": 6210,
      "unpacked": 6211,
      "snowmen": 6212,
      "woo": 6213,
      "bluey": 6214,
      "slower": 6215,
      "raindrops": 6216,
      "stit": 6217,
      "##vest": 6218,
      "beloved": 6219,
      "avoid": 6220,
      "materials": 6221,
      "promises": 6222,
      "heavier": 6223,
      "congratul": 6224,
      "marsh": 6225,
      "##rac": 6226,
      "pointy": 6227,
      "curiously": 6228,
      "growls": 6229,
      "wrink": 6230,
      "whoever": 6231,
      "rip": 6232,
      "wiping": 6233,
      "oops": 6234,
      "sailboat": 6235,
      "screwdriver": 6236,
      "surroundings": 6237,
      "cousin": 6238,
      "center": 6239,
      "##cope": 6240,
      "lia": 6241,
      "praying": 6242,
      "recipe": 6243,
      "audience": 6244,
      "refu": 6245,
      "neighbours": 6246,
      "rustling": 6247,
      "hus": 6248,
      "prepar": 6249,
      "blocking": 6250,
      "meg": 6251,
      "œp": 6252,
      "nine": 6253,
      "##kend": 6254,
      "slices": 6255,
      "gobbled": 6256,
      "temperature": 6257,
      "stool": 6258,
      "weekend": 6259,
      "ornaments": 6260,
      "trampoline": 6261,
      "helpers": 6262,
      "##eds": 6263,
      "##ening": 6264,
      "dot": 6265,
      "wobbled": 6266,
      "sunflowers": 6267,
      "couple": 6268,
      "designed": 6269,
      "yel": 6270,
      "sparks": 6271,
      "discussed": 6272,
      "##child": 6273,
      "vanilla": 6274,
      "noses": 6275,
      "zara": 6276,
      "whata": 6277,
      "dreamt": 6278,
      "er": 6279,
      "##itted": 6280,
      "wea": 6281,
      "corners": 6282,
      "exce": 6283,
      "racco": 6284,
      "##aut": 6285,
      "pecked": 6286,
      "slammed": 6287,
      "10": 6288,
      "hitting": 6289,
      "afford": 6290,
      "hops": 6291,
      "sports": 6292,
      "age": 6293,
      "feast": 6294,
      "forks": 6295,
      "grandchild": 6296,
      "##ho": 6297,
      "shoo": 6298,
      "streets": 6299,
      "dads": 6300,
      "remembering": 6301,
      "##ably": 6302,
      "ache": 6303,
      "tissue": 6304,
      "zoey": 6305,
      "tails": 6306,
      "aside": 6307,
      "sponge": 6308,
      "requested": 6309,
      "stain": 6310,
      "meals": 6311,
      "reflection": 6312,
      "bows": 6313,
      "det": 6314,
      "peep": 6315,
      "warnings": 6316,
      "prett": 6317,
      "dances": 6318,
      "plans": 6319,
      "reb": 6320,
      "leaning": 6321,
      "duckling": 6322,
      "screws": 6323,
      "familiar": 6324,
      "coloring": 6325,
      "spreading": 6326,
      "dollars": 6327,
      "magician": 6328,
      "muscle": 6329,
      "skunk": 6330,
      "adult": 6331,
      "fido": 6332,
      "changing": 6333,
      "breathed": 6334,
      "greeted": 6335,
      "astron": 6336,
      "##ans": 6337,
      "amelia": 6338,
      "scam": 6339,
      "zipping": 6340,
      "grandparents": 6341,
      "forgets": 6342,
      "tunnels": 6343,
      "flight": 6344,
      "chosen": 6345,
      "sailors": 6346,
      "thrown": 6347,
      "shops": 6348,
      "twice": 6349,
      "gardener": 6350,
      "snuggle": 6351,
      "prettier": 6352,
      "hour": 6353,
      "swords": 6354,
      "##ibble": 6355,
      "astronaut": 6356,
      "potion": 6357,
      "spikes": 6358,
      "rott": 6359,
      "touches": 6360,
      "husband": 6361,
      "œthe": 6362,
      "enthusiasm": 6363,
      "superheroes": 6364,
      "daring": 6365,
      "##ition": 6366,
      "dod": 6367,
      "cuddles": 6368,
      "rotten": 6369,
      "wishing": 6370,
      "##ertain": 6371,
      "œbut": 6372,
      "reason": 6373,
      "spoonful": 6374,
      "pens": 6375,
      "##shions": 6376,
      "##mallow": 6377,
      "reass": 6378,
      "least": 6379,
      "marshmallow": 6380,
      "davey": 6381,
      "zebras": 6382,
      "correct": 6383,
      "borrowed": 6384,
      "forgetting": 6385,
      "sending": 6386,
      "counts": 6387,
      "feeding": 6388,
      "heroes": 6389,
      "hopeful": 6390,
      "frosty": 6391,
      "bodies": 6392,
      "guests": 6393,
      "flavors": 6394,
      "mesmerized": 6395,
      "raccoon": 6396,
      "##ounced": 6397,
      "mints": 6398,
      "wil": 6399,
      "wendy": 6400,
      "charac": 6401,
      "character": 6402,
      "wobble": 6403,
      "seaw": 6404,
      "buzzed": 6405,
      "bless": 6406,
      "poss": 6407,
      "neatly": 6408,
      "baths": 6409,
      "grows": 6410,
      "napkins": 6411,
      "wraps": 6412,
      "rick": 6413,
      "steady": 6414,
      "cond": 6415,
      "handsome": 6416,
      "nibb": 6417,
      "nibble": 6418,
      "delivering": 6419,
      "months": 6420,
      "blast": 6421,
      "dived": 6422,
      "##antha": 6423,
      "##stick": 6424,
      "samantha": 6425,
      "##ca": 6426,
      "politely": 6427,
      "holly": 6428,
      "suffering": 6429,
      "onward": 6430,
      "##using": 6431,
      "embarrass": 6432,
      "alien": 6433,
      "sneezing": 6434,
      "warmer": 6435,
      "throughout": 6436,
      "maddy": 6437,
      "unsure": 6438,
      "plain": 6439,
      "die": 6440,
      "thud": 6441,
      "honked": 6442,
      "wiggle": 6443,
      "gri": 6444,
      "lungs": 6445,
      "ruth": 6446,
      "biting": 6447,
      "bully": 6448,
      "crashing": 6449,
      "plucked": 6450,
      "oatme": 6451,
      "toddler": 6452,
      "bessie": 6453,
      "poster": 6454,
      "express": 6455,
      "seaweed": 6456,
      "matters": 6457,
      "glitt": 6458,
      "joining": 6459,
      "lifts": 6460,
      "oatmeal": 6461,
      "dip": 6462,
      "refreshing": 6463,
      "geese": 6464,
      "preparing": 6465,
      "##iley": 6466,
      "students": 6467,
      "crew": 6468,
      "increased": 6469,
      "watering": 6470,
      "pops": 6471,
      "stands": 6472,
      "##cers": 6473,
      "scen": 6474,
      "grant": 6475,
      "##allowed": 6476,
      "swallowed": 6477,
      "glued": 6478,
      "hawk": 6479,
      "serv": 6480,
      "foc": 6481,
      "puppet": 6482,
      "ropes": 6483,
      "whispers": 6484,
      "respond": 6485,
      "triangles": 6486,
      "freedom": 6487,
      "postman": 6488,
      "amount": 6489,
      "wobbly": 6490,
      "toaster": 6491,
      "starfish": 6492,
      "lessons": 6493,
      "performed": 6494,
      "smelling": 6495,
      "adults": 6496,
      "oc": 6497,
      "œwell": 6498,
      "leads": 6499,
      "trembled": 6500,
      "presses": 6501,
      "rushing": 6502,
      "cushions": 6503,
      "dancers": 6504,
      "bubba": 6505,
      "wrigg": 6506,
      "##gg": 6507,
      "shall": 6508,
      "humans": 6509,
      "##while": 6510,
      "confl": 6511,
      "talks": 6512,
      "panicked": 6513,
      "resisted": 6514,
      "sniffs": 6515,
      "scraped": 6516,
      "focused": 6517,
      "##laces": 6518,
      "œwhere": 6519,
      "joyful": 6520,
      "necklaces": 6521,
      "nu": 6522,
      "##old": 6523,
      "?!\"": 6524,
      "megan": 6525,
      "trot": 6526,
      "slips": 6527,
      "softer": 6528,
      "firmly": 6529,
      "waddled": 6530,
      "tuck": 6531,
      "firefly": 6532,
      "napping": 6533,
      "nervously": 6534,
      "quarreling": 6535,
      "encouraging": 6536,
      "instantly": 6537,
      "##ados": 6538,
      "dropping": 6539,
      "tested": 6540,
      "frowning": 6541,
      "pigeons": 6542,
      "mina": 6543,
      "##iona": 6544,
      "lifting": 6545,
      "drawers": 6546,
      "tables": 6547,
      "nood": 6548,
      "worn": 6549,
      "##attered": 6550,
      "waterfall": 6551,
      "##onna": 6552,
      "thump": 6553,
      "sofia": 6554,
      "firefighter": 6555,
      "faded": 6556,
      "scampered": 6557,
      "drivers": 6558,
      "rout": 6559,
      "polar": 6560,
      "freddie": 6561,
      "fiona": 6562,
      "pennies": 6563,
      "mate": 6564,
      "spat": 6565,
      "explo": 6566,
      "within": 6567,
      "scient": 6568,
      "flopsy": 6569,
      "flas": 6570,
      "drawn": 6571,
      "san": 6572,
      "appreciation": 6573,
      "avocados": 6574,
      "certain": 6575,
      "robber": 6576,
      "pours": 6577,
      "scientist": 6578,
      "katy": 6579,
      "thoughts": 6580,
      "respected": 6581,
      "##bbie": 6582,
      "surprising": 6583,
      "twinkled": 6584,
      "meanwhile": 6585,
      "elf": 6586,
      "leapt": 6587,
      "stacked": 6588,
      "eva": 6589,
      "##ne": 6590,
      "dresser": 6591,
      "ken": 6592,
      "froggy": 6593,
      "fits": 6594,
      "speedy": 6595,
      "overcome": 6596,
      "wiggly": 6597,
      "playtime": 6598,
      "tam": 6599,
      "notes": 6600,
      "bravest": 6601,
      "strongest": 6602,
      "forgiving": 6603,
      "hoo": 6604,
      "nur": 6605,
      "cobwebs": 6606,
      "gonna": 6607,
      "peck": 6608,
      "sharks": 6609,
      "whose": 6610,
      "œif": 6611,
      "prove": 6612,
      "##ushed": 6613,
      "pumpkins": 6614,
      "œokay": 6615,
      "performing": 6616,
      "wept": 6617,
      "##fus": 6618,
      "cosy": 6619,
      "squeezing": 6620,
      "spins": 6621,
      "##cake": 6622,
      "scored": 6623,
      "colder": 6624,
      "garb": 6625,
      "echoed": 6626,
      "convers": 6627,
      "garbage": 6628,
      "wakes": 6629,
      "playroom": 6630,
      "squishy": 6631,
      "##fire": 6632,
      "angels": 6633,
      "def": 6634,
      "designs": 6635,
      "jonny": 6636,
      "sank": 6637,
      "robots": 6638,
      "behaving": 6639,
      "prob": 6640,
      "blinking": 6641,
      "giggles": 6642,
      "probably": 6643,
      "bru": 6644,
      "flown": 6645,
      "bells": 6646,
      "tricycle": 6647,
      "healing": 6648,
      "apr": 6649,
      "sweetest": 6650,
      "guide": 6651,
      "##iel": 6652,
      "marshmallows": 6653,
      "gest": 6654,
      "bon": 6655,
      "oysters": 6656,
      "explorer": 6657,
      "##iment": 6658,
      "ell": 6659,
      "tossed": 6660,
      "mae": 6661,
      "causing": 6662,
      "tar": 6663,
      "ties": 6664,
      "awo": 6665,
      "##itched": 6666,
      "twisty": 6667,
      "cotton": 6668,
      "##ndred": 6669,
      "hundred": 6670,
      "fleas": 6671,
      "shown": 6672,
      "##ggy": 6673,
      "spices": 6674,
      "...\"": 6675,
      "louise": 6676,
      "pins": 6677,
      "til": 6678,
      "puzzled": 6679,
      "passengers": 6680,
      "##bro": 6681,
      "tighter": 6682,
      "haird": 6683,
      "##eth": 6684,
      "passports": 6685,
      "sadd": 6686,
      "##ently": 6687,
      "patches": 6688,
      "yielded": 6689,
      "pound": 6690,
      "kittens": 6691,
      "##bird": 6692,
      "reversed": 6693,
      "oo": 6694,
      "ally": 6695,
      "mac": 6696,
      "melo": 6697,
      "bamb": 6698,
      "faith": 6699,
      "##broken": 6700,
      "surfing": 6701,
      "sewing": 6702,
      "œs": 6703,
      "aimed": 6704,
      "offic": 6705,
      "nearly": 6706,
      "##ading": 6707,
      "##ilda": 6708,
      "unw": 6709,
      "pays": 6710,
      "brushing": 6711,
      "sever": 6712,
      "fant": 6713,
      "maisy": 6714,
      "cheers": 6715,
      "instruments": 6716,
      "##go": 6717,
      "clues": 6718,
      "wider": 6719,
      "bits": 6720,
      "conflict": 6721,
      "hallow": 6722,
      "inj": 6723,
      "reun": 6724,
      "##maid": 6725,
      "halloween": 6726,
      "##lease": 6727,
      "action": 6728,
      "nuzz": 6729,
      "tying": 6730,
      "scurry": 6731,
      "doorway": 6732,
      "appreciated": 6733,
      "paintbrush": 6734,
      "twisting": 6735,
      "##mates": 6736,
      "drift": 6737,
      "loading": 6738,
      "evil": 6739,
      "laying": 6740,
      "mermaid": 6741,
      "coug": 6742,
      "##rup": 6743,
      "cottage": 6744,
      "breathing": 6745,
      "œplease": 6746,
      "soaking": 6747,
      "robin": 6748,
      "pippin": 6749,
      "ease": 6750,
      "##lves": 6751,
      "heartbroken": 6752,
      "##ya": 6753,
      "slither": 6754,
      "several": 6755,
      "##onies": 6756,
      "slipping": 6757,
      "ignoring": 6758,
      "pippa": 6759,
      "##hew": 6760,
      "belts": 6761,
      "paths": 6762,
      "anger": 6763,
      "sweep": 6764,
      "rainy": 6765,
      "ais": 6766,
      "blocked": 6767,
      "repeating": 6768,
      "figures": 6769,
      "caw": 6770,
      "results": 6771,
      "noodles": 6772,
      "cloudy": 6773,
      "crossing": 6774,
      "mailed": 6775,
      "becky": 6776,
      "grandson": 6777,
      "fantastic": 6778,
      "gaz": 6779,
      "defin": 6780,
      "lending": 6781,
      "suffered": 6782,
      "##idey": 6783,
      "stroll": 6784,
      "rin": 6785,
      "##amaged": 6786,
      "buses": 6787,
      "finishing": 6788,
      "shrug": 6789,
      "connected": 6790,
      "spidey": 6791,
      "€,": 6792,
      "shovels": 6793,
      "damaged": 6794,
      "ponies": 6795,
      "roars": 6796,
      "œof": 6797,
      "licking": 6798,
      "accomplished": 6799,
      "rather": 6800,
      "humming": 6801,
      "except": 6802,
      "popp": 6803,
      "behavior": 6804,
      "##isc": 6805,
      "bracelets": 6806,
      "responsib": 6807,
      "streamers": 6808,
      "surrendered": 6809,
      "##fla": 6810,
      "toward": 6811,
      "risks": 6812,
      "shady": 6813,
      "encount": 6814,
      "eliz": 6815,
      "cleaner": 6816,
      "hairdress": 6817,
      "##flakes": 6818,
      "supported": 6819,
      "grandda": 6820,
      "frankie": 6821,
      "##piece": 6822,
      "squaw": 6823,
      "tasting": 6824,
      "snowflakes": 6825,
      "ding": 6826,
      "kelly": 6827,
      "quieter": 6828,
      "awoke": 6829,
      "stitches": 6830,
      "goodbyes": 6831,
      "thorns": 6832,
      "##oni": 6833,
      "genie": 6834,
      "wally": 6835,
      "tablet": 6836,
      "coral": 6837,
      "œnow": 6838,
      "granddaughter": 6839,
      "definitely": 6840,
      "##isions": 6841,
      "edges": 6842,
      "janey": 6843,
      "##found": 6844,
      "##unity": 6845,
      "kings": 6846,
      "prick": 6847,
      "focus": 6848,
      "frowns": 6849,
      "##erk": 6850,
      "handing": 6851,
      "final": 6852,
      "kevin": 6853,
      "sped": 6854,
      "drown": 6855,
      "elbow": 6856,
      "wisely": 6857,
      "reminding": 6858,
      "terrified": 6859,
      "symbols": 6860,
      "rains": 6861,
      "battle": 6862,
      "smallest": 6863,
      "surv": 6864,
      "gesture": 6865,
      "hairdresser": 6866,
      "gus": 6867,
      "##dding": 6868,
      "ri": 6869,
      "##ms": 6870,
      "vines": 6871,
      "correctly": 6872,
      "decisions": 6873,
      "driveway": 6874,
      "##crow": 6875,
      "sou": 6876,
      "nast": 6877,
      "scarecrow": 6878,
      "peeled": 6879,
      "warri": 6880,
      "rays": 6881,
      "simply": 6882,
      "newfound": 6883,
      "squeaked": 6884,
      "œgood": 6885,
      "occas": 6886,
      "chopped": 6887,
      "weeds": 6888,
      "student": 6889,
      "sav": 6890,
      "inspired": 6891,
      "bandages": 6892,
      "fishes": 6893,
      "stopping": 6894,
      "exercises": 6895,
      "jax": 6896,
      "nasty": 6897,
      "##onse": 6898,
      "response": 6899,
      "experien": 6900,
      "maker": 6901,
      "##cie": 6902,
      "##steps": 6903,
      "believing": 6904,
      "banged": 6905,
      "tipped": 6906,
      "afar": 6907,
      "darlings": 6908,
      "disturbing": 6909,
      "œhey": 6910,
      "travels": 6911,
      "fills": 6912,
      "poppies": 6913,
      "lent": 6914,
      "##father": 6915,
      "footsteps": 6916,
      "stan": 6917,
      "daniel": 6918,
      "flipped": 6919,
      "travelling": 6920,
      "pedaled": 6921,
      "ships": 6922,
      "punishment": 6923,
      "dory": 6924,
      "roger": 6925,
      "birdhouse": 6926,
      "windowsill": 6927,
      "spits": 6928,
      "lies": 6929,
      "presented": 6930,
      "phil": 6931,
      "desper": 6932,
      "nat": 6933,
      "planting": 6934,
      "address": 6935,
      "patty": 6936,
      "nodding": 6937,
      "pand": 6938,
      "forests": 6939,
      "elle": 6940,
      "craft": 6941,
      "chocolates": 6942,
      "antic": 6943,
      "apologised": 6944,
      "encouragement": 6945,
      "grandfather": 6946,
      "surfboard": 6947,
      "arranged": 6948,
      "congratulated": 6949,
      "sails": 6950,
      "reassured": 6951,
      "testing": 6952,
      "trotted": 6953,
      "covering": 6954,
      "##ulp": 6955,
      "reunited": 6956,
      "und": 6957,
      "images": 6958,
      "pandas": 6959,
      "whoo": 6960,
      "suits": 6961,
      "target": 6962,
      "oink": 6963,
      "reapp": 6964,
      "clerk": 6965,
      "business": 6966,
      "solving": 6967,
      "campfire": 6968,
      "##fly": 6969,
      "marve": 6970,
      "speeding": 6971,
      "officers": 6972,
      "nancy": 6973,
      "##issa": 6974,
      "mood": 6975,
      "elly": 6976,
      "##line": 6977,
      "magnif": 6978,
      "backpacks": 6979,
      "ger": 6980,
      "dep": 6981,
      "knots": 6982,
      "amanda": 6983,
      "foxes": 6984,
      "chilly": 6985,
      "activity": 6986,
      "masterpiece": 6987,
      "expert": 6988,
      "yelped": 6989,
      "##worm": 6990,
      "labels": 6991,
      "wrinkled": 6992,
      "gears": 6993,
      "concert": 6994,
      "delayed": 6995,
      "grip": 6996,
      "##ooky": 6997,
      "comforting": 6998,
      "changes": 6999,
      "sniffing": 7000,
      "##action": 7001,
      "##boy": 7002,
      "spills": 7003,
      "calmly": 7004,
      "jean": 7005,
      "appl": 7006,
      "worrying": 7007,
      "braver": 7008,
      "pleaded": 7009,
      "quackers": 7010,
      "burying": 7011,
      "discussing": 7012,
      "stumble": 7013,
      "spies": 7014,
      "mam": 7015,
      "aim": 7016,
      "magazines": 7017,
      "##otte": 7018,
      "crowns": 7019,
      "suggestion": 7020,
      "##sha": 7021,
      "ribbit": 7022,
      "charlotte": 7023,
      "puck": 7024,
      "jars": 7025,
      "seller": 7026,
      "artwork": 7027,
      "mischie": 7028,
      "refuse": 7029,
      "##eys": 7030,
      "belongings": 7031,
      "displayed": 7032,
      "bothering": 7033,
      "dev": 7034,
      "mischievous": 7035,
      "understands": 7036,
      "helen": 7037,
      "admiration": 7038,
      "height": 7039,
      "efforts": 7040,
      "baskets": 7041,
      "ana": 7042,
      "fires": 7043,
      "##whe": 7044,
      "dragonfly": 7045,
      "toolbox": 7046,
      "aware": 7047,
      "bitten": 7048,
      "loops": 7049,
      "##ddie": 7050,
      "coach": 7051,
      "dump": 7052,
      "towns": 7053,
      "##rier": 7054,
      "experienced": 7055,
      "ly": 7056,
      "vehicles": 7057,
      "annoyed": 7058,
      "eddie": 7059,
      "##arrow": 7060,
      "lina": 7061,
      "##screen": 7062,
      "wealth": 7063,
      "##iam": 7064,
      "##inted": 7065,
      "packages": 7066,
      "elsa": 7067,
      "sunscreen": 7068,
      "cowboy": 7069,
      "##arest": 7070,
      "rotting": 7071,
      "scent": 7072,
      "fortunately": 7073,
      "##int": 7074,
      "peas": 7075,
      "eric": 7076,
      "satur": 7077,
      "tumbled": 7078,
      "memb": 7079,
      "members": 7080,
      "posit": 7081,
      "seashells": 7082,
      "saturday": 7083,
      "melody": 7084,
      "warmly": 7085,
      "troubles": 7086,
      "nibbled": 7087,
      "œsure": 7088,
      "decl": 7089,
      "sasha": 7090,
      "spooky": 7091,
      "rudy": 7092,
      "diamonds": 7093,
      "gazing": 7094,
      "treated": 7095,
      "ruff": 7096,
      "##see": 7097,
      "material": 7098,
      "insisting": 7099,
      "œj": 7100,
      "prayers": 7101,
      "creams": 7102,
      "sill": 7103,
      "ava": 7104,
      "tammy": 7105,
      "conqu": 7106,
      "curl": 7107,
      "diso": 7108,
      "untied": 7109,
      "##iron": 7110,
      "parted": 7111,
      "##wise": 7112,
      "races": 7113,
      "environ": 7114,
      "conversation": 7115,
      "collap": 7116,
      "bathing": 7117,
      "turtles": 7118,
      "##cl": 7119,
      "hoops": 7120,
      "teachers": 7121,
      "encountered": 7122,
      "joins": 7123,
      "sewed": 7124,
      "environment": 7125,
      "trans": 7126,
      "whispering": 7127,
      "scurrying": 7128,
      "orders": 7129,
      "permitted": 7130,
      "joked": 7131,
      "argum": 7132,
      "spells": 7133,
      "purpose": 7134,
      "tilted": 7135,
      "exch": 7136,
      "otherwise": 7137,
      "stored": 7138,
      "nana": 7139,
      "##ix": 7140,
      "loses": 7141,
      "terry": 7142,
      "goats": 7143,
      "forgiveness": 7144,
      "quarre": 7145,
      "sheets": 7146,
      "scram": 7147,
      "jason": 7148,
      "fins": 7149,
      "queens": 7150,
      "glittering": 7151,
      "gap": 7152,
      "œsee": 7153,
      "##ugging": 7154,
      "detail": 7155,
      "##acles": 7156,
      "tubes": 7157,
      "honesty": 7158,
      "pupils": 7159,
      "anticip": 7160,
      "bisc": 7161,
      "rud": 7162,
      "type": 7163,
      "beaming": 7164,
      "biscuit": 7165,
      "##ana": 7166,
      "nearest": 7167,
      "servant": 7168,
      "ends": 7169,
      "dressing": 7170,
      "films": 7171,
      "tapping": 7172,
      "fishy": 7173,
      "##ongo": 7174,
      "visitors": 7175,
      "customers": 7176,
      "##ippy": 7177,
      "opport": 7178,
      "izzy": 7179,
      "ting": 7180,
      "donkey": 7181,
      "wasting": 7182,
      "untie": 7183,
      "stroke": 7184,
      "hunters": 7185,
      "william": 7186,
      "cleared": 7187,
      "nurses": 7188,
      "mosquitoes": 7189,
      "oppos": 7190,
      "soot": 7191,
      "spy": 7192,
      "##nded": 7193,
      "examining": 7194,
      "swo": 7195,
      "convinced": 7196,
      "bobbie": 7197,
      "connect": 7198,
      "ricky": 7199,
      "knives": 7200,
      "cooper": 7201,
      "sweaty": 7202,
      "wounds": 7203,
      "swollen": 7204,
      "tin": 7205,
      "##inger": 7206,
      "slowed": 7207,
      "elsie": 7208,
      "declared": 7209,
      "jud": 7210,
      "opposite": 7211,
      "finny": 7212,
      "brian": 7213,
      "##sers": 7214,
      "##racted": 7215,
      "characters": 7216,
      "##ilities": 7217,
      "failed": 7218,
      "guessing": 7219,
      "##elope": 7220,
      "beaver": 7221,
      "tidied": 7222,
      "charge": 7223,
      "warrior": 7224,
      "blond": 7225,
      "seagulls": 7226,
      "thanking": 7227,
      "lipstick": 7228,
      "sternly": 7229,
      "goodies": 7230,
      "scratching": 7231,
      "youngest": 7232,
      "##orter": 7233,
      "sens": 7234,
      "##order": 7235,
      "earned": 7236,
      "scrambled": 7237,
      "una": 7238,
      "signing": 7239,
      "rescuing": 7240,
      "bongo": 7241,
      "##emp": 7242,
      "grat": 7243,
      "beeped": 7244,
      "cons": 7245,
      "shin": 7246,
      "gasp": 7247,
      "tires": 7248,
      "fain": 7249,
      "whim": 7250,
      "oliv": 7251,
      "meowing": 7252,
      "novels": 7253,
      "attemp": 7254,
      "inchworm": 7255,
      "tessa": 7256,
      "dripping": 7257,
      "questioned": 7258,
      "bou": 7259,
      "amber": 7260,
      "form": 7261,
      "stall": 7262,
      "picnics": 7263,
      "knocking": 7264,
      "bouqu": 7265,
      "force": 7266,
      "seals": 7267,
      "active": 7268,
      "peppa": 7269,
      "snug": 7270,
      "œwho": 7271,
      "anticipation": 7272,
      "##rily": 7273,
      "responded": 7274,
      "aisle": 7275,
      "responsibility": 7276,
      "gratitude": 7277,
      "floors": 7278,
      "vibr": 7279,
      "smashed": 7280,
      "attacked": 7281,
      "zoomy": 7282,
      "explains": 7283,
      "emerged": 7284,
      "##pit": 7285,
      "##uctor": 7286,
      "discoveries": 7287,
      "obeyed": 7288,
      "rely": 7289,
      "aeroplanes": 7290,
      "badger": 7291,
      "decoration": 7292,
      "zooms": 7293,
      "manners": 7294,
      "glist": 7295,
      "rebec": 7296,
      "classmates": 7297,
      "pea": 7298,
      "##choo": 7299,
      "rats": 7300,
      "visits": 7301,
      "girla": 7302,
      "fif": 7303,
      "ginger": 7304,
      "twists": 7305,
      "robo": 7306,
      "survive": 7307,
      "gary": 7308,
      "manager": 7309,
      "crabby": 7310,
      "loc": 7311,
      "rebecca": 7312,
      "##munk": 7313,
      "##ral": 7314,
      "increasing": 7315,
      "chipmunk": 7316,
      "jugg": 7317,
      "breaths": 7318,
      "unwra": 7319,
      "roo": 7320,
      "rumbling": 7321,
      "ramp": 7322,
      "matilda": 7323,
      "beeh": 7324,
      "buckled": 7325,
      "shrunk": 7326,
      "##rie": 7327,
      "brightest": 7328,
      "penelope": 7329,
      "flip": 7330,
      "##bit": 7331,
      "olivia": 7332,
      "fel": 7333,
      "munched": 7334,
      "shimmering": 7335,
      "aliens": 7336,
      "purrs": 7337,
      "##idence": 7338,
      "doorbell": 7339,
      "flaps": 7340,
      "swaying": 7341,
      "arrr": 7342,
      "œmay": 7343,
      "cracks": 7344,
      "movements": 7345,
      "lowered": 7346,
      "##athan": 7347,
      "honking": 7348,
      "##udged": 7349,
      "tum": 7350,
      "ghosts": 7351,
      "argument": 7352,
      "winding": 7353,
      "disobey": 7354,
      "bond": 7355,
      "##ssss": 7356,
      "designing": 7357,
      "achoo": 7358,
      "##aret": 7359,
      "announced": 7360,
      "prevented": 7361,
      "prickly": 7362,
      "cara": 7363,
      "isab": 7364,
      "offering": 7365,
      "rowed": 7366,
      "switched": 7367,
      "shelly": 7368,
      "swap": 7369,
      "taped": 7370,
      "jilly": 7371,
      "toss": 7372,
      "ashley": 7373,
      "mart": 7374,
      "flick": 7375,
      "poses": 7376,
      "germs": 7377,
      "flips": 7378,
      "nuzzled": 7379,
      "##storm": 7380,
      "destroying": 7381,
      "jobs": 7382,
      "satisf": 7383,
      "swayed": 7384,
      "steth": 7385,
      "##oscope": 7386,
      "deed": 7387,
      "lapt": 7388,
      "##opes": 7389,
      "minds": 7390,
      "cares": 7391,
      "generosity": 7392,
      "observing": 7393,
      "dodged": 7394,
      "closing": 7395,
      "glimmering": 7396,
      "court": 7397,
      "crawls": 7398,
      "eliza": 7399,
      "##bee": 7400,
      "whistles": 7401,
      "shines": 7402,
      "scooters": 7403,
      "smelt": 7404,
      "cluck": 7405,
      "crops": 7406,
      "ill": 7407,
      "##va": 7408,
      "snaps": 7409,
      "beautifully": 7410,
      "dangers": 7411,
      "unpacking": 7412,
      "beating": 7413,
      "gracie": 7414,
      "tidying": 7415,
      "recorder": 7416,
      "million": 7417,
      "exploded": 7418,
      "cupcake": 7419,
      "scolds": 7420,
      "checkout": 7421,
      "languages": 7422,
      "stamped": 7423,
      "##oura": 7424,
      "##lt": 7425,
      "groan": 7426,
      "customer": 7427,
      "bert": 7428,
      "haven": 7429,
      "##vy": 7430,
      "##boards": 7431,
      "elect": 7432,
      "##cent": 7433,
      "hike": 7434,
      "robbers": 7435,
      "paddling": 7436,
      "thankfully": 7437,
      "tummies": 7438,
      "stethoscope": 7439,
      "ket": 7440,
      "plug": 7441,
      "##ka": 7442,
      "drowned": 7443,
      "clicked": 7444,
      "expecting": 7445,
      "',": 7446,
      "goo": 7447,
      "disappoint": 7448,
      "laptop": 7449,
      "nora": 7450,
      "##lied": 7451,
      "astronauts": 7452,
      "supplied": 7453,
      "œmaybe": 7454,
      "##ggies": 7455,
      "routine": 7456,
      "veggies": 7457,
      "gabby": 7458,
      "peggy": 7459,
      "bonnie": 7460,
      "##imm": 7461,
      "statues": 7462,
      "beehive": 7463,
      "paula": 7464,
      "steering": 7465,
      "dears": 7466,
      "adds": 7467,
      "bouquet": 7468,
      "jenn": 7469,
      "dino": 7470,
      "hood": 7471,
      "twenty": 7472,
      "cocoon": 7473,
      "particularly": 7474,
      "##belle": 7475,
      "chatted": 7476,
      "stomp": 7477,
      "conductor": 7478,
      "shorts": 7479,
      "pout": 7480,
      "reminds": 7481,
      "##olph": 7482,
      "belle": 7483,
      "##bun": 7484,
      "strum": 7485,
      "hardest": 7486,
      "bunbun": 7487,
      "rudolph": 7488,
      "tyler": 7489,
      "matey": 7490,
      "applause": 7491,
      "zack": 7492,
      "stretches": 7493,
      "healthier": 7494,
      "moma": 7495,
      "floats": 7496,
      "nic": 7497,
      "scri": 7498,
      "wiser": 7499,
      "riley": 7500,
      "rav": 7501,
      "sculp": 7502,
      "swallow": 7503,
      "carla": 7504,
      "awful": 7505,
      "wildflowers": 7506,
      "sprinkle": 7507,
      "wooly": 7508,
      "##uel": 7509,
      "plugged": 7510,
      "overhead": 7511,
      "andrew": 7512,
      "serving": 7513,
      "ky": 7514,
      "beast": 7515,
      "bluebird": 7516,
      "foxy": 7517,
      "weapons": 7518,
      "april": 7519,
      "electric": 7520,
      "gall": 7521,
      "minded": 7522,
      "tests": 7523,
      "consid": 7524,
      "bust": 7525,
      "hiss": 7526,
      "traded": 7527,
      "nests": 7528,
      "midnight": 7529,
      "opinions": 7530,
      "squished": 7531,
      "returning": 7532,
      "umbrell": 7533,
      "##ats": 7534,
      "sprays": 7535,
      "combed": 7536,
      "fascinating": 7537,
      "umbrellas": 7538,
      "carries": 7539,
      "syrup": 7540,
      "faint": 7541,
      "grad": 7542,
      "flora": 7543,
      "experiences": 7544,
      "##ita": 7545,
      "locks": 7546,
      "trusting": 7547,
      "providing": 7548,
      "container": 7549,
      "deserved": 7550,
      "killed": 7551,
      "bothered": 7552,
      "œbe": 7553,
      "defeated": 7554,
      "##pr": 7555,
      "##con": 7556,
      "rosa": 7557,
      "farmers": 7558,
      "##anced": 7559,
      "flashing": 7560,
      "shorter": 7561,
      "examp": 7562,
      "sets": 7563,
      "ooh": 7564,
      "tearing": 7565,
      "##omb": 7566,
      "sculpture": 7567,
      "liam": 7568,
      "flashed": 7569,
      "ass": 7570,
      "checks": 7571,
      "##rench": 7572,
      "inches": 7573,
      "raising": 7574,
      "teles": 7575,
      "bounces": 7576,
      "scrub": 7577,
      "annabelle": 7578,
      "nights": 7579,
      "hotter": 7580,
      "##flies": 7581,
      "applauding": 7582,
      "confidence": 7583,
      "melissa": 7584,
      "grumbled": 7585,
      "glided": 7586,
      "burnt": 7587,
      "lim": 7588,
      "mila": 7589,
      "##ative": 7590,
      "whales": 7591,
      "concent": 7592,
      "concentr": 7593,
      "##ators": 7594,
      "crystals": 7595,
      "underw": 7596,
      "cubs": 7597,
      "telescope": 7598,
      "liza": 7599,
      "sadder": 7600,
      "gardens": 7601,
      "rufus": 7602,
      "convince": 7603,
      "icing": 7604,
      "cheated": 7605,
      "petting": 7606,
      "##ession": 7607,
      "extraord": 7608,
      "necks": 7609,
      "burns": 7610,
      "awhile": 7611,
      "checking": 7612,
      "vio": 7613,
      "##lers": 7614,
      "mamma": 7615,
      "otters": 7616,
      "teams": 7617,
      "soapy": 7618,
      "odd": 7619,
      "visitor": 7620,
      "€¦": 7621,
      "##covered": 7622,
      "meows": 7623,
      "munching": 7624,
      "blown": 7625,
      "barry": 7626,
      "dryer": 7627,
      "member": 7628,
      "##parable": 7629,
      "traveling": 7630,
      "extraordinary": 7631,
      "blur": 7632,
      "collapsed": 7633,
      "grassho": 7634,
      "relaxing": 7635,
      "natu": 7636,
      "##ances": 7637,
      "inseparable": 7638,
      "sirens": 7639,
      "forgives": 7640,
      "prizes": 7641,
      "example": 7642,
      "born": 7643,
      "maj": 7644,
      "types": 7645,
      "##pot": 7646,
      "##ware": 7647,
      "hunting": 7648,
      "torto": 7649,
      "imaginary": 7650,
      "pinching": 7651,
      "lenny": 7652,
      "instrument": 7653,
      "emb": 7654,
      "mona": 7655,
      "behaviour": 7656,
      "playd": 7657,
      "bicycles": 7658,
      "singers": 7659,
      "sprout": 7660,
      "unable": 7661,
      "tortoise": 7662,
      "lil": 7663,
      "waded": 7664,
      "flowing": 7665,
      "pills": 7666,
      "chin": 7667,
      "violet": 7668,
      "waters": 7669,
      "willy": 7670,
      "sprang": 7671,
      "hea": 7672,
      "upside": 7673,
      "##abra": 7674,
      "mommies": 7675,
      "salon": 7676,
      "exploration": 7677,
      "peeped": 7678,
      "##igger": 7679,
      "##adabra": 7680,
      "dock": 7681,
      "opportunity": 7682,
      "longest": 7683,
      "jose": 7684,
      "attitude": 7685,
      "##lest": 7686,
      "discoura": 7687,
      "expression": 7688,
      "conquered": 7689,
      "bomb": 7690,
      "##angle": 7691,
      "distracted": 7692,
      "hamm": 7693,
      "bride": 7694,
      "gradually": 7695,
      "jody": 7696,
      "realizes": 7697,
      "cheaper": 7698,
      "sweaters": 7699,
      "discouraged": 7700,
      "sometime": 7701,
      "trigger": 7702,
      "enem": 7703,
      "coolest": 7704,
      "enemies": 7705,
      "clip": 7706,
      "engines": 7707,
      "crocodiles": 7708,
      "wriggled": 7709,
      "clearly": 7710,
      "burger": 7711,
      "envelopes": 7712,
      "zee": 7713,
      "##getic": 7714,
      "beetles": 7715,
      "flock": 7716,
      "oliver": 7717,
      "##ids": 7718,
      "yawning": 7719,
      "rows": 7720,
      "grasshopper": 7721,
      "swimmer": 7722,
      "countries": 7723,
      "tips": 7724,
      "surely": 7725,
      "heaven": 7726,
      "overwhe": 7727,
      "compete": 7728,
      "overwhel": 7729,
      "jennie": 7730,
      "reappeared": 7731,
      "passes": 7732,
      "chatting": 7733,
      "marking": 7734,
      "miller": 7735,
      "quacking": 7736,
      "glittered": 7737,
      "cafe": 7738,
      "whoosh": 7739,
      "majest": 7740,
      "gallop": 7741,
      "##ouch": 7742,
      "ability": 7743,
      "storms": 7744,
      "martin": 7745,
      "##hera": 7746,
      "haircuts": 7747,
      "weighing": 7748,
      "##ouched": 7749,
      "spilling": 7750,
      "annoying": 7751,
      "##erg": 7752,
      "mattered": 7753,
      "strips": 7754,
      "details": 7755,
      "enjoyable": 7756,
      "##sol": 7757,
      "janet": 7758,
      "cheerfully": 7759,
      "noticing": 7760,
      "approach": 7761,
      "crowded": 7762,
      "common": 7763,
      "tro": 7764,
      "fond": 7765,
      "cheat": 7766,
      "hangers": 7767,
      "whined": 7768,
      "uniforms": 7769,
      "treas": 7770,
      "thicker": 7771,
      "##ippers": 7772,
      "soundly": 7773,
      "joanna": 7774,
      "##rey": 7775,
      "bubbly": 7776,
      "smoking": 7777,
      "companion": 7778,
      "natural": 7779,
      "##balls": 7780,
      "repairman": 7781,
      "skies": 7782,
      "##racadabra": 7783,
      "formed": 7784,
      "prod": 7785,
      "stur": 7786,
      "circ": 7787,
      "airplanes": 7788,
      "jasm": 7789,
      "becomes": 7790,
      "abo": 7791,
      "vibrant": 7792,
      "outfits": 7793,
      "jem": 7794,
      "washes": 7795,
      "bud": 7796,
      "newspapers": 7797,
      "treasured": 7798,
      "miracle": 7799,
      "aboard": 7800,
      "joyfully": 7801,
      "##icate": 7802,
      "abracadabra": 7803,
      "moonlight": 7804,
      "wan": 7805,
      "moat": 7806,
      "freezing": 7807,
      "##boys": 7808,
      "occasion": 7809,
      "pepperoni": 7810,
      "alf": 7811,
      "##cere": 7812,
      "shallow": 7813,
      "##bur": 7814,
      "bund": 7815,
      "##rest": 7816,
      "pleas": 7817,
      "leah": 7818,
      "backs": 7819,
      "scrun": 7820,
      "swirls": 7821,
      "cowboys": 7822,
      "œyay": 7823,
      "clue": 7824,
      "cheating": 7825,
      "commun": 7826,
      "##rem": 7827,
      "chill": 7828,
      "sincere": 7829,
      "jasmine": 7830,
      "##ena": 7831,
      "habit": 7832,
      "clut": 7833,
      "##shadow": 7834,
      "hummed": 7835,
      "sneezes": 7836,
      "wanna": 7837,
      "scattering": 7838,
      "mugs": 7839,
      "blonde": 7840,
      "messes": 7841,
      "erase": 7842,
      "slee": 7843,
      "bulbs": 7844,
      "ratt": 7845,
      "grump": 7846,
      "foreshadow": 7847,
      "cathy": 7848,
      "johny": 7849,
      "models": 7850,
      "compliment": 7851,
      "cells": 7852,
      "satisfaction": 7853,
      "lump": 7854,
      "calmer": 7855,
      "avery": 7856,
      "yumm": 7857,
      "squinted": 7858,
      "##scot": 7859,
      "hmm": 7860,
      "successfully": 7861,
      "##ering": 7862,
      "blushed": 7863,
      "sipped": 7864,
      "##venir": 7865,
      "caterpillars": 7866,
      "souvenir": 7867,
      "slapping": 7868,
      "situations": 7869,
      "leaking": 7870,
      "positive": 7871,
      "bas": 7872,
      "coughed": 7873,
      "meatballs": 7874,
      "explaining": 7875,
      "hopper": 7876,
      "glittery": 7877,
      "smartest": 7878,
      "answering": 7879,
      "bruises": 7880,
      "du": 7881,
      "ank": 7882,
      "tickling": 7883,
      "weighs": 7884,
      "scenery": 7885,
      "burgers": 7886,
      "pilots": 7887,
      "##hole": 7888,
      "local": 7889,
      "fris": 7890,
      "pressing": 7891,
      "rewards": 7892,
      "goodness": 7893,
      "##immered": 7894,
      "traps": 7895,
      "scares": 7896,
      "unfair": 7897,
      "##ruct": 7898,
      "##ints": 7899,
      "cris": 7900,
      "welcoming": 7901,
      "bound": 7902,
      "##chup": 7903,
      "talents": 7904,
      "hundreds": 7905,
      "##bank": 7906,
      "shattered": 7907,
      "rubbish": 7908,
      "rewarding": 7909,
      "bamboo": 7910,
      "roast": 7911,
      "hootie": 7912,
      "possib": 7913,
      "ketchup": 7914,
      "hisses": 7915,
      "cleans": 7916,
      "fireflies": 7917,
      "stuffing": 7918,
      "pantry": 7919,
      "rowing": 7920,
      "''": 7921,
      "crust": 7922,
      "scow": 7923,
      "chickie": 7924,
      "binoc": 7925,
      "practised": 7926,
      "binocular": 7927,
      "##belt": 7928,
      "teapot": 7929,
      "digs": 7930,
      "certainly": 7931,
      "forts": 7932,
      "intently": 7933,
      "sturdy": 7934,
      "horri": 7935,
      "transf": 7936,
      "nate": 7937,
      "baller": 7938,
      "angrily": 7939,
      "pipes": 7940,
      "œwea": 7941,
      "groaned": 7942,
      "bruce": 7943,
      "##its": 7944,
      "apology": 7945,
      "marveled": 7946,
      "mumma": 7947,
      "rebu": 7948,
      "topp": 7949,
      "seatbelt": 7950,
      "tempted": 7951,
      "##scotch": 7952,
      "sandpit": 7953,
      "steven": 7954,
      "##mel": 7955,
      "funn": 7956,
      "runner": 7957,
      "##val": 7958,
      "##amil": 7959,
      "nightmares": 7960,
      "unfamil": 7961,
      "patri": 7962,
      "tunes": 7963,
      "embra": 7964,
      "unfamiliar": 7965,
      "brad": 7966,
      "finishes": 7967,
      "meadows": 7968,
      "microw": 7969,
      "bends": 7970,
      "rhino": 7971,
      "bubbling": 7972,
      "##li": 7973,
      "doorstep": 7974,
      "croaked": 7975,
      "shyly": 7976,
      "jets": 7977,
      "invites": 7978,
      "aston": 7979,
      "tentacles": 7980,
      "energetic": 7981,
      "lookout": 7982,
      "spoiling": 7983,
      "felix": 7984,
      "microwave": 7985,
      "sweeter": 7986,
      "fifi": 7987,
      "##jack": 7988,
      "peaco": 7989,
      "tugging": 7990,
      "exchange": 7991,
      "overwhelmed": 7992,
      "hopscotch": 7993,
      "stepping": 7994,
      "chews": 7995,
      "watermel": 7996,
      "protection": 7997,
      "##aming": 7998,
      "acts": 7999,
      "!'.": 8000,
      "ric": 8001,
      "ripp": 8002,
      "messages": 8003,
      "cages": 8004,
      "chopping": 8005,
      "shrank": 8006,
      "teamwork": 8007,
      "##lish": 8008,
      "moons": 8009,
      "strolled": 8010,
      "boards": 8011,
      "popsic": 8012,
      "playhouse": 8013,
      "randy": 8014,
      "melons": 8015,
      "hesitation": 8016,
      "loyalty": 8017,
      "underwater": 8018,
      "dou": 8019,
      "obst": 8020,
      "defeat": 8021,
      "interest": 8022,
      "gasps": 8023,
      "stew": 8024,
      "cherish": 8025,
      "attend": 8026,
      "fade": 8027,
      "mayor": 8028,
      "guards": 8029,
      "guardian": 8030,
      "ping": 8031,
      "josie": 8032,
      "gemma": 8033,
      "demanding": 8034,
      "binoculars": 8035,
      "jing": 8036,
      "osc": 8037,
      "ballerina": 8038,
      "##ounce": 8039,
      "oscar": 8040,
      "##stand": 8041,
      "alley": 8042,
      "section": 8043,
      "jacka": 8044,
      "ahoy": 8045,
      "crisp": 8046,
      "pouch": 8047,
      "crouched": 8048,
      "raking": 8049,
      "shares": 8050,
      "foam": 8051,
      "buggy": 8052,
      "slithered": 8053,
      "disappointment": 8054,
      "tot": 8055,
      "carol": 8056,
      "petal": 8057,
      "realizing": 8058,
      "differently": 8059,
      "##chief": 8060,
      "tickles": 8061,
      "crickets": 8062,
      "snar": 8063,
      "minnie": 8064,
      "pounced": 8065,
      "œhow": 8066,
      "rips": 8067,
      "meaning": 8068,
      "transformed": 8069,
      "patrick": 8070,
      "fist": 8071,
      "##gar": 8072,
      "recess": 8073,
      "landing": 8074,
      "prog": 8075,
      "peacock": 8076,
      "riverbank": 8077,
      "stores": 8078,
      "sandra": 8079,
      "sweetly": 8080,
      "squeezes": 8081,
      "unwrapped": 8082,
      "ravi": 8083,
      "thie": 8084,
      "icky": 8085,
      "ms": 8086,
      "fries": 8087,
      "##iciest": 8088,
      "##people": 8089,
      "##ial": 8090,
      "allie": 8091,
      "amused": 8092,
      "motorcy": 8093,
      "playdate": 8094,
      "rack": 8095,
      "rosy": 8096,
      "tempt": 8097,
      "ankle": 8098,
      "arrest": 8099,
      "pokes": 8100,
      "##sey": 8101,
      "cherished": 8102,
      "choosing": 8103,
      "judges": 8104,
      "whimpered": 8105,
      "actor": 8106,
      "##oma": 8107,
      "creak": 8108,
      "snorted": 8109,
      "napped": 8110,
      "thrill": 8111,
      ",'": 8112,
      "##rom": 8113,
      "electricity": 8114,
      "claus": 8115,
      "thieves": 8116,
      "fran": 8117,
      "curre": 8118,
      "marley": 8119,
      "##gets": 8120,
      "lulla": 8121,
      "mysteries": 8122,
      "##,\"": 8123,
      "sacks": 8124,
      "blades": 8125,
      "snapping": 8126,
      "centre": 8127,
      "##ulf": 8128,
      "thunderstorm": 8129,
      "whir": 8130,
      "watermelon": 8131,
      "shoel": 8132,
      "wilbur": 8133,
      "##prints": 8134,
      "gates": 8135,
      "jere": 8136,
      "rita": 8137,
      "groups": 8138,
      "styles": 8139,
      "injured": 8140,
      "trusty": 8141,
      "lumberjack": 8142,
      "condition": 8143,
      "stanley": 8144,
      "kneeling": 8145,
      "##emy": 8146,
      "heels": 8147,
      "leans": 8148,
      "temptation": 8149,
      "enemy": 8150,
      "charm": 8151,
      "halfway": 8152,
      "intelligence": 8153,
      "seasons": 8154,
      "gw": 8155,
      "tant": 8156,
      "##ole": 8157,
      "##iring": 8158,
      "trading": 8159,
      "pinchy": 8160,
      "camel": 8161,
      "boil": 8162,
      "frustration": 8163,
      "structures": 8164,
      "##rum": 8165,
      "##anie": 8166,
      "keyhole": 8167,
      "level": 8168,
      "spare": 8169,
      "computers": 8170,
      "##lyn": 8171,
      "##hen": 8172,
      "reversing": 8173,
      "spears": 8174,
      "isna": 8175,
      "wiggles": 8176,
      "scene": 8177,
      "lan": 8178,
      "##inct": 8179,
      "##any": 8180,
      "lizards": 8181,
      "supporting": 8182,
      "kenny": 8183,
      "##othy": 8184,
      "unless": 8185,
      "till": 8186,
      "##lor": 8187,
      "kangaroos": 8188,
      "bambi": 8189,
      "banging": 8190,
      "astonished": 8191,
      "##solut": 8192,
      "##wn": 8193,
      "swimsuits": 8194,
      "stun": 8195,
      "##rob": 8196,
      "sleeps": 8197,
      "foggy": 8198,
      "consider": 8199,
      "sid": 8200,
      "benches": 8201,
      "jodie": 8202,
      "warmed": 8203,
      "magically": 8204,
      "weaker": 8205,
      "tantrum": 8206,
      "##elle": 8207,
      "textures": 8208,
      "communicate": 8209,
      "rebuild": 8210,
      "levers": 8211,
      "wiggling": 8212,
      "##mie": 8213,
      "hissing": 8214,
      "plo": 8215,
      "absolut": 8216,
      "alongside": 8217,
      "squawk": 8218,
      "##enna": 8219,
      "nicest": 8220,
      "ziggy": 8221,
      "experiment": 8222,
      "townspeople": 8223,
      "timid": 8224,
      "lush": 8225,
      "tops": 8226,
      "motorcycles": 8227,
      "luckiest": 8228,
      "thumbs": 8229,
      "shinier": 8230,
      "wolves": 8231,
      "bloss": 8232,
      "jonathan": 8233,
      "munch": 8234,
      "prank": 8235,
      "cracker": 8236,
      "cops": 8237,
      "##ris": 8238,
      "pedaling": 8239,
      "##ites": 8240,
      "laun": 8241,
      "skirts": 8242,
      "trusts": 8243,
      "quarreled": 8244,
      "jes": 8245,
      "softened": 8246,
      "magnifying": 8247,
      "colin": 8248,
      "disappearing": 8249,
      "##elcome": 8250,
      "mooed": 8251,
      "jeremy": 8252,
      "kyle": 8253,
      "whine": 8254,
      "toothbrush": 8255,
      "\"!": 8256,
      "writer": 8257,
      "alan": 8258,
      "poisonous": 8259,
      "boiling": 8260,
      "worst": 8261,
      "groom": 8262,
      "continuing": 8263,
      "knobs": 8264,
      "bowing": 8265,
      "guarding": 8266,
      "concerned": 8267,
      "##formation": 8268,
      "owls": 8269,
      "fetched": 8270,
      "compared": 8271,
      "hank": 8272,
      "troll": 8273,
      "spe": 8274,
      "ton": 8275,
      "revealing": 8276,
      "##edic": 8277,
      "bushy": 8278,
      "improving": 8279,
      "property": 8280,
      "creep": 8281,
      "œf": 8282,
      "##ics": 8283,
      "peak": 8284,
      "buster": 8285,
      "oldest": 8286,
      "instinct": 8287,
      "croak": 8288,
      "lullaby": 8289,
      "tock": 8290,
      "popping": 8291,
      "lucas": 8292,
      "doesna": 8293,
      "surprisingly": 8294,
      "mais": 8295,
      "bold": 8296,
      "cuddling": 8297,
      "œthanks": 8298,
      "sensation": 8299,
      "tink": 8300,
      "œwelcome": 8301,
      "##rrrr": 8302,
      "nibbles": 8303,
      "libby": 8304,
      "absolutely": 8305,
      "canv": 8306,
      "cupboards": 8307,
      "##barrow": 8308,
      "wheelbarrow": 8309,
      "embarrassing": 8310,
      "brains": 8311,
      "harmony": 8312,
      "owns": 8313,
      "puppets": 8314,
      "desperate": 8315,
      "maisie": 8316,
      "oar": 8317,
      "wrench": 8318,
      "snowfl": 8319,
      "journeys": 8320,
      "snowflake": 8321,
      "##utt": 8322,
      "snort": 8323,
      "drying": 8324,
      "pedall": 8325,
      "allowing": 8326,
      "soothing": 8327,
      "whirl": 8328,
      "cooled": 8329,
      "##yl": 8330,
      "aloud": 8331,
      "facing": 8332,
      "blade": 8333,
      "repairing": 8334,
      "##urity": 8335,
      "lava": 8336,
      "shoots": 8337,
      "gret": 8338,
      "thumper": 8339,
      "gwen": 8340,
      "narrow": 8341,
      "exh": 8342,
      "realise": 8343,
      "##ibly": 8344,
      "sneaks": 8345,
      "allerg": 8346,
      "const": 8347,
      "courageous": 8348,
      "invitations": 8349,
      "ria": 8350,
      "security": 8351,
      "coughing": 8352,
      "##ala": 8353,
      "mindful": 8354,
      "tend": 8355,
      "alligators": 8356,
      "##ifer": 8357,
      "facts": 8358,
      "spiky": 8359,
      "canvas": 8360,
      "chatter": 8361,
      "whoa": 8362,
      "sooner": 8363,
      "cutter": 8364,
      "deeply": 8365,
      "##guard": 8366,
      "heavily": 8367,
      "sobbing": 8368,
      "larger": 8369,
      "blooms": 8370,
      "##ruction": 8371,
      "toto": 8372,
      "mast": 8373,
      "quilt": 8374,
      "disaster": 8375,
      "zips": 8376,
      "dashed": 8377,
      "susp": 8378,
      "nearer": 8379,
      "sleds": 8380,
      "caps": 8381,
      "knit": 8382,
      "mustered": 8383,
      "angrier": 8384,
      "skate": 8385,
      "jennifer": 8386,
      "current": 8387,
      "chewy": 8388,
      "eld": 8389,
      "medals": 8390,
      "costs": 8391,
      "honks": 8392,
      "##ki": 8393,
      "completing": 8394,
      "brun": 8395,
      "mold": 8396,
      "stinky": 8397,
      "cousins": 8398,
      "hollow": 8399,
      "pickles": 8400,
      "shrugs": 8401,
      "scoops": 8402,
      "circled": 8403,
      "œthere": 8404,
      "ostriches": 8405,
      "repeats": 8406,
      "hips": 8407,
      "waking": 8408,
      "loudest": 8409,
      "throne": 8410,
      "contented": 8411,
      "matthew": 8412,
      "bruno": 8413,
      "whipped": 8414,
      "warmest": 8415,
      "woodcut": 8416,
      "hangs": 8417,
      "kayaking": 8418,
      "flashes": 8419,
      "winds": 8420,
      "builder": 8421,
      "tale": 8422,
      "copied": 8423,
      "springing": 8424,
      "attempts": 8425,
      "minding": 8426,
      "incredibly": 8427,
      "cooperate": 8428,
      "plopped": 8429,
      "woodcutter": 8430,
      "necess": 8431,
      "opt": 8432,
      "##vering": 8433,
      "fights": 8434,
      "lunchtime": 8435,
      "preschool": 8436,
      "lantern": 8437,
      "œwould": 8438,
      "pose": 8439,
      "ratty": 8440,
      "##mark": 8441,
      "##artment": 8442,
      "##aging": 8443,
      "gratefully": 8444,
      "footprints": 8445,
      "achievement": 8446,
      "pleasant": 8447,
      "dozed": 8448,
      "scratchy": 8449,
      "##cri": 8450,
      "##ili": 8451,
      "rails": 8452,
      "flooded": 8453,
      "calming": 8454,
      "allowance": 8455,
      "ahh": 8456,
      "tippy": 8457,
      "glared": 8458,
      "huddled": 8459,
      "hooves": 8460,
      "theat": 8461,
      "soda": 8462,
      "cig": 8463,
      "juiciest": 8464,
      "misty": 8465,
      "comprom": 8466,
      "ticking": 8467,
      "persistence": 8468,
      "##ashes": 8469,
      "springtime": 8470,
      "ron": 8471,
      "quacks": 8472,
      "aroma": 8473,
      "movement": 8474,
      "desperately": 8475,
      "swapped": 8476,
      "cigaret": 8477,
      "racer": 8478,
      "hatched": 8479,
      "bellies": 8480,
      "seriously": 8481,
      "glistening": 8482,
      "purch": 8483,
      "##ping": 8484,
      "missy": 8485,
      "comets": 8486,
      "strokes": 8487,
      "##bi": 8488,
      "booth": 8489,
      "johna": 8490,
      "gul": 8491,
      "shave": 8492,
      "lifeguard": 8493,
      "freya": 8494,
      "lif": 8495,
      "clare": 8496,
      "speaks": 8497,
      "challenges": 8498,
      "robe": 8499,
      "kissing": 8500,
      "caution": 8501,
      "bats": 8502,
      "indo": 8503,
      "hooks": 8504,
      "babys": 8505,
      "theatre": 8506,
      "whether": 8507,
      "greg": 8508,
      "ami": 8509,
      "loads": 8510,
      "possibilities": 8511,
      "date": 8512,
      "admit": 8513,
      "vinegar": 8514,
      "gogg": 8515,
      "willow": 8516,
      "##ths": 8517,
      "oceans": 8518,
      "bumping": 8519,
      "##iments": 8520,
      "stalk": 8521,
      "glanced": 8522,
      "daily": 8523,
      "squeal": 8524,
      "sniffled": 8525,
      "capture": 8526,
      "magnific": 8527,
      "doggie": 8528,
      "##oned": 8529,
      "chili": 8530,
      "lasted": 8531,
      "musicians": 8532,
      "##uries": 8533,
      "lace": 8534,
      "champ": 8535,
      "distract": 8536,
      "smoothly": 8537,
      "hippos": 8538,
      "œare": 8539,
      "##pan": 8540,
      "lever": 8541,
      "bathed": 8542,
      "introducing": 8543,
      "##upt": 8544,
      "pollen": 8545,
      "rinse": 8546,
      "mend": 8547,
      "blamed": 8548,
      "deciding": 8549,
      "goggles": 8550,
      "gummy": 8551,
      "plus": 8552,
      "scutt": 8553,
      "stirs": 8554,
      "nicky": 8555,
      "œjo": 8556,
      "imaginations": 8557,
      "webs": 8558,
      "##otion": 8559,
      "energ": 8560,
      "exhib": 8561,
      "fer": 8562,
      "royal": 8563,
      "stacking": 8564,
      "pounds": 8565,
      "desks": 8566,
      "mesmerised": 8567,
      "wax": 8568,
      "parks": 8569,
      "uncovered": 8570,
      "##olved": 8571,
      "nets": 8572,
      "chains": 8573,
      "amongst": 8574,
      "stains": 8575,
      "folds": 8576,
      "passenger": 8577,
      "wrapper": 8578,
      "awa": 8579,
      "speaker": 8580,
      "babysitter": 8581,
      "olly": 8582,
      "progress": 8583,
      "joseph": 8584,
      "gogo": 8585,
      "roamed": 8586,
      "carly": 8587,
      "maps": 8588,
      "obediently": 8589,
      "necessary": 8590,
      "fulf": 8591,
      "mous": 8592,
      "messed": 8593,
      "cutest": 8594,
      "process": 8595,
      "piled": 8596,
      "##oray": 8597,
      "retrie": 8598,
      "recommendation": 8599,
      "œa": 8600,
      "##ically": 8601,
      "hatch": 8602,
      "cooed": 8603,
      "fuss": 8604,
      "cuc": 8605,
      "sparrow": 8606,
      "files": 8607,
      "fooled": 8608,
      "disobeyed": 8609,
      "magnificent": 8610,
      "coop": 8611,
      "##erts": 8612,
      "sean": 8613,
      "cocon": 8614,
      "pecks": 8615,
      "##ection": 8616,
      "undone": 8617,
      "coconut": 8618,
      "hoses": 8619,
      "hovering": 8620,
      "antenna": 8621,
      "borrowing": 8622,
      "hamster": 8623,
      "allergic": 8624,
      "dedic": 8625,
      "##mate": 8626,
      "noah": 8627,
      "kinder": 8628,
      "yummiest": 8629,
      "doves": 8630,
      "confus": 8631,
      "shooed": 8632,
      "confusion": 8633,
      "hare": 8634,
      "clubs": 8635,
      "desserts": 8636,
      "purring": 8637,
      "aprons": 8638,
      "keen": 8639,
      "ned": 8640,
      "flavour": 8641,
      "hadna": 8642,
      "##ective": 8643,
      "differences": 8644,
      "compromise": 8645,
      "gulped": 8646,
      "bolt": 8647,
      "laces": 8648,
      "slurp": 8649,
      "handy": 8650,
      "widely": 8651,
      "instincts": 8652,
      "##?\"": 8653,
      "span": 8654,
      "swat": 8655,
      "trim": 8656,
      "unz": 8657,
      "sleigh": 8658,
      "gooey": 8659,
      "frisbee": 8660,
      "toot": 8661,
      "##inda": 8662,
      "army": 8663,
      "##umed": 8664,
      "greatest": 8665,
      "charged": 8666,
      "bundle": 8667,
      "untangle": 8668,
      "##cup": 8669,
      "clover": 8670,
      "silently": 8671,
      "rinsed": 8672,
      "rory": 8673,
      "ages": 8674,
      "##keepers": 8675,
      "##utter": 8676,
      "host": 8677,
      "roller": 8678,
      "nibbling": 8679,
      "fived": 8680,
      "gladly": 8681,
      "valleys": 8682,
      "snip": 8683,
      "lunchbox": 8684,
      "laws": 8685,
      "crafts": 8686,
      "bait": 8687,
      "drill": 8688,
      "cloths": 8689,
      "performers": 8690,
      "headache": 8691,
      "drip": 8692,
      "tempting": 8693,
      "depths": 8694,
      "summ": 8695,
      "##off": 8696,
      "halves": 8697,
      "##ppers": 8698,
      "snoring": 8699,
      "fay": 8700,
      "##aa": 8701,
      "##anna": 8702,
      "squirted": 8703,
      "confidently": 8704,
      "##dia": 8705,
      "lydia": 8706,
      "neig": 8707,
      "learner": 8708,
      "billie": 8709,
      "unfold": 8710,
      "tay": 8711,
      "victor": 8712,
      "##sm": 8713,
      "science": 8714,
      "doug": 8715,
      "##inny": 8716,
      "riddle": 8717,
      "challenged": 8718,
      "indoors": 8719,
      "pizzas": 8720,
      "rooster": 8721,
      "rotted": 8722,
      "unicorns": 8723,
      "##los": 8724,
      "##book": 8725,
      "scre": 8726,
      "crunch": 8727,
      "##bed": 8728,
      "congratulations": 8729,
      "##imbo": 8730,
      "##how": 8731,
      "grandad": 8732,
      "##athy": 8733,
      "softest": 8734,
      "pearls": 8735,
      "macar": 8736,
      "shoelaces": 8737,
      "barb": 8738,
      "##bl": 8739,
      "jumpy": 8740,
      "appearance": 8741,
      "stings": 8742,
      "œwill": 8743,
      "galloped": 8744,
      "toppings": 8745,
      "macaroni": 8746,
      "eve": 8747,
      "wadd": 8748,
      "boiled": 8749,
      "furious": 8750,
      "tiring": 8751,
      "biggie": 8752,
      "steered": 8753,
      "marg": 8754,
      "sends": 8755,
      "##rings": 8756,
      "boya": 8757,
      "soul": 8758,
      "somehow": 8759,
      "swoop": 8760,
      "tastiest": 8761,
      "sinking": 8762,
      "mousy": 8763,
      "hooray": 8764,
      "enjo": 8765,
      "enclos": 8766,
      "automobiles": 8767,
      "enclosure": 8768,
      "overhe": 8769,
      "enjoys": 8770,
      "jimbo": 8771,
      "##idi": 8772,
      "##ality": 8773,
      "freely": 8774,
      "regularly": 8775,
      "helicopters": 8776,
      "peacefulness": 8777,
      "lilies": 8778,
      "theya": 8779,
      "globe": 8780,
      "route": 8781,
      "pecking": 8782,
      "niece": 8783,
      "plat": 8784,
      "ladybird": 8785,
      "scrubbing": 8786,
      "hovered": 8787,
      "crushed": 8788,
      "earrings": 8789,
      "pref": 8790,
      "feathered": 8791,
      "dumb": 8792,
      "ashes": 8793,
      "tia": 8794,
      "whizz": 8795,
      "mashed": 8796,
      "brakes": 8797,
      "dee": 8798,
      "carton": 8799,
      "stacks": 8800,
      "gorge": 8801,
      "œme": 8802,
      "plumber": 8803,
      "fart": 8804,
      "hates": 8805,
      "banda": 8806,
      "guesses": 8807,
      "beeping": 8808,
      "scrunched": 8809,
      "lucya": 8810,
      "risky": 8811,
      "occasions": 8812,
      "lur": 8813,
      "œst": 8814,
      "taps": 8815,
      "winners": 8816,
      "nations": 8817,
      "##ift": 8818,
      "restoring": 8819,
      "lightly": 8820,
      "rider": 8821,
      "leaped": 8822,
      "twel": 8823,
      "organised": 8824,
      "snuggling": 8825,
      "##cloth": 8826,
      "shea": 8827,
      "steph": 8828,
      "dusted": 8829,
      "œgo": 8830,
      "department": 8831,
      "fail": 8832,
      "##uffy": 8833,
      "hunger": 8834,
      "shortcut": 8835,
      "fashionable": 8836,
      "rags": 8837,
      "stripe": 8838,
      "ordering": 8839,
      "pounding": 8840,
      "ivy": 8841,
      "gorgeous": 8842,
      "##free": 8843,
      "dada": 8844,
      "lonel": 8845,
      "mischief": 8846,
      "twelve": 8847,
      "enthusiastically": 8848,
      "peeks": 8849,
      "deserves": 8850,
      "sta": 8851,
      "caroline": 8852,
      "dripped": 8853,
      "willie": 8854,
      "builders": 8855,
      "carefree": 8856,
      "stroller": 8857,
      "whines": 8858,
      "softness": 8859,
      "scores": 8860,
      "horrible": 8861,
      "sly": 8862,
      "##ups": 8863,
      "invent": 8864,
      "tents": 8865,
      "alexa": 8866,
      "venture": 8867,
      "platform": 8868,
      "isla": 8869,
      "rods": 8870,
      "slight": 8871,
      "bumble": 8872,
      "cd": 8873,
      "œmummy": 8874,
      "beware": 8875,
      "descri": 8876,
      "handlebar": 8877,
      "leng": 8878,
      "##bly": 8879,
      "nug": 8880,
      "##umn": 8881,
      "woken": 8882,
      "listener": 8883,
      "phones": 8884,
      "fans": 8885,
      "tad": 8886,
      "fanc": 8887,
      "brightened": 8888,
      "guided": 8889,
      "lat": 8890,
      "##lp": 8891,
      "shots": 8892,
      "##icious": 8893,
      "audrey": 8894,
      "##tail": 8895,
      "shaky": 8896,
      "johnnie": 8897,
      "##ige": 8898,
      "mustn": 8899,
      "dives": 8900,
      "access": 8901,
      "handles": 8902,
      "nightstand": 8903,
      "mats": 8904,
      "majestic": 8905,
      "information": 8906,
      "carn": 8907,
      "grumble": 8908,
      "unlocking": 8909,
      "œdad": 8910,
      "exercising": 8911,
      "joanne": 8912,
      "actors": 8913,
      "zookeepers": 8914,
      "disagreement": 8915,
      "scowled": 8916,
      "poop": 8917,
      "##gr": 8918,
      "anybody": 8919,
      "displaying": 8920,
      "heidi": 8921,
      "therea": 8922,
      "spice": 8923,
      "adj": 8924,
      "cine": 8925,
      "##illas": 8926,
      "invis": 8927,
      "community": 8928,
      "cinema": 8929,
      "##shes": 8930,
      "susy": 8931,
      "pancake": 8932,
      "praise": 8933,
      "##orth": 8934,
      "matty": 8935,
      "honeycom": 8936,
      "invisible": 8937,
      "honeycomb": 8938,
      "##cases": 8939,
      "##ical": 8940,
      "devast": 8941,
      "cheet": 8942,
      "sweetness": 8943,
      "lighting": 8944,
      "reflect": 8945,
      "overheard": 8946,
      "slot": 8947,
      "rightful": 8948,
      "palms": 8949,
      "excell": 8950,
      "cheetah": 8951,
      "kara": 8952,
      "isabella": 8953,
      "##aly": 8954,
      "tongues": 8955,
      "taylor": 8956,
      "jemma": 8957,
      "gail": 8958,
      "jaw": 8959,
      "north": 8960,
      "caves": 8961,
      "##ously": 8962,
      "enchan": 8963,
      "overflow": 8964,
      "enchanted": 8965,
      "gert": 8966,
      "proved": 8967,
      "chicky": 8968,
      "entering": 8969,
      "crispy": 8970,
      "fences": 8971,
      "nudged": 8972,
      "state": 8973,
      "glor": 8974,
      "toad": 8975,
      "boarded": 8976,
      "striking": 8977,
      "##ssssssss": 8978,
      "exhibit": 8979,
      "##hn": 8980,
      "beaks": 8981,
      "service": 8982,
      "heights": 8983,
      "lasers": 8984,
      "bernie": 8985,
      "glows": 8986,
      "competing": 8987,
      "panting": 8988,
      "gorillas": 8989,
      "'.\"": 8990,
      "devastated": 8991,
      "mound": 8992,
      "##field": 8993,
      "marcy": 8994,
      "champion": 8995,
      "dedication": 8996,
      "contained": 8997,
      "excellent": 8998,
      "untangled": 8999,
      "€™.": 9000,
      "eyed": 9001,
      "priest": 9002,
      "pads": 9003,
      "kel": 9004,
      "sizz": 9005,
      "##rap": 9006,
      "lakes": 9007,
      "afterward": 9008,
      "dining": 9009,
      "frightening": 9010,
      "complimented": 9011,
      "suck": 9012,
      "funniest": 9013,
      "blossom": 9014,
      "mushy": 9015,
      "possess": 9016,
      "speck": 9017,
      "atmo": 9018,
      "sunb": 9019,
      "##shop": 9020,
      "##sphere": 9021,
      "solid": 9022,
      "threads": 9023,
      "atmosphere": 9024,
      "##ilar": 9025,
      "peels": 9026,
      "mara": 9027,
      "kai": 9028,
      "damp": 9029,
      "managing": 9030,
      "servants": 9031,
      "kathy": 9032,
      "##ssy": 9033,
      "offers": 9034,
      "pudding": 9035,
      "values": 9036,
      "chooses": 9037,
      "farthest": 9038,
      "shimmered": 9039,
      "caf": 9040,
      "alfie": 9041,
      "greta": 9042,
      "ducklings": 9043,
      "skinny": 9044,
      "trailer": 9045,
      "totally": 9046,
      "nuggets": 9047,
      "20": 9048,
      "deck": 9049,
      "parking": 9050,
      "jumper": 9051,
      "tanks": 9052,
      "vests": 9053,
      "attaching": 9054,
      "carnival": 9055,
      "##ait": 9056,
      "plank": 9057,
      "batch": 9058,
      "fiercely": 9059,
      "pairs": 9060,
      "mur": 9061,
      "timothy": 9062,
      "bailey": 9063,
      "carous": 9064,
      "stormy": 9065,
      "farms": 9066,
      "polka": 9067,
      "##ders": 9068,
      "backward": 9069,
      "##bye": 9070,
      "seeking": 9071,
      "howl": 9072,
      "weights": 9073,
      "sleeve": 9074,
      "carousel": 9075,
      "everytime": 9076,
      "dips": 9077,
      "blessed": 9078,
      "rumbled": 9079,
      "pace": 9080,
      "presence": 9081,
      "squawked": 9082,
      "popsicle": 9083,
      "antlers": 9084,
      "vacu": 9085,
      "energized": 9086,
      "##cker": 9087,
      "runny": 9088,
      "twirls": 9089,
      "exams": 9090,
      "suspicious": 9091,
      "shuff": 9092,
      "##seed": 9093,
      "spirits": 9094,
      "wig": 9095,
      "##ridge": 9096,
      "birdseed": 9097,
      "homeless": 9098,
      "smoother": 9099,
      "nestled": 9100,
      "autumn": 9101,
      "sundays": 9102,
      "nanny": 9103,
      "length": 9104,
      "atop": 9105,
      "amen": 9106,
      "œwait": 9107,
      "##wood": 9108,
      "reality": 9109,
      "obl": 9110,
      "##icking": 9111,
      "goldie": 9112,
      "geor": 9113,
      "subject": 9114,
      "winks": 9115,
      "ellen": 9116,
      "##lee": 9117,
      "knitting": 9118,
      "birda": 9119,
      "twitched": 9120,
      "tripping": 9121,
      "camps": 9122,
      "##appy": 9123,
      "hamb": 9124,
      "blob": 9125,
      "parrots": 9126,
      "considerate": 9127,
      "grandk": 9128,
      "threatened": 9129,
      "commotion": 9130,
      "oars": 9131,
      "designer": 9132,
      "cerem": 9133,
      "skips": 9134,
      "crusty": 9135,
      "huff": 9136,
      "alison": 9137,
      "scaly": 9138,
      "practising": 9139,
      "wrecked": 9140,
      "handlebars": 9141,
      "inn": 9142,
      "##ophone": 9143,
      "delightful": 9144,
      "ripples": 9145,
      "addition": 9146,
      "##owing": 9147,
      "arth": 9148,
      "cooks": 9149,
      "aids": 9150,
      "kelsey": 9151,
      "hind": 9152,
      "gliding": 9153,
      "##aps": 9154,
      "recip": 9155,
      "interrup": 9156,
      "sickness": 9157,
      "sells": 9158,
      "calf": 9159,
      "solutions": 9160,
      "œjohn": 9161,
      "hambur": 9162,
      "ceremony": 9163,
      "nia": 9164,
      "reck": 9165,
      "scrape": 9166,
      "elders": 9167,
      "workshop": 9168,
      "suggests": 9169,
      "loneliness": 9170,
      "rum": 9171,
      "urging": 9172,
      "foreshadowing": 9173,
      "stained": 9174,
      "spied": 9175,
      "clothing": 9176,
      "contents": 9177,
      "arthur": 9178,
      "bop": 9179,
      "carrie": 9180,
      "chattered": 9181,
      "studies": 9182,
      "swirled": 9183,
      "purchase": 9184,
      "hoof": 9185,
      "droop": 9186,
      "trunks": 9187,
      "supermark": 9188,
      "supplying": 9189,
      "##oe": 9190,
      "##ann": 9191,
      "online": 9192,
      "buckles": 9193,
      "disagreeing": 9194,
      "œhere": 9195,
      "thous": 9196,
      "sneaking": 9197,
      "supermarket": 9198,
      "thousand": 9199,
      "##icated": 9200,
      "margaret": 9201,
      "reckless": 9202,
      "porridge": 9203,
      "##like": 9204,
      "neighed": 9205,
      "##rit": 9206,
      "albert": 9207,
      "cruel": 9208,
      "patients": 9209,
[...]
