{
  "version": "1.0",
  "truncation": null,
  "padding": null,
  "added_tokens": [
    {
      "id": 0,
      "content": "[UNK]",
      "single_word": false,
      "lstrip": false,
      "rstrip": false,
      "normalized": false,
      "special": true
    },
    {
      "id": 1,
      "content": "[PAD]",
      "single_word": false,
      "lstrip": false,
      "rstrip": false,
      "normalized": false,
      "special": true
    },
    {
      "id": 2,
      "content": "[BOS]",
      "single_word": false,
      "lstrip": false,
      "rstrip": false,
      "normalized": false,
      "special": true
    },
    {
      "id": 3,
      "content": "[EOS]",
      "single_word": false,
      "lstrip": false,
      "rstrip": false,
      "normalized": false,
      "special": true
    }
  ],
  "normalizer": {
    "type": "Sequence",
    "normalizers": [
      {
        "type": "NFD"
      },
      {
        "type": "Lowercase"
      },
      {
        "type": "StripAccents"
      }
    ]
  },
  "pre_tokenizer": {
    "type": "Whitespace"
  },
  "post_processor": {
    "type": "TemplateProcessing",
    "single": [
      {
        "SpecialToken": {
          "id": "[BOS]",
          "type_id": 0
        }
      },
      {
        "Sequence": {
          "id": "A",
          "type_id": 0
        }
      },
      {
        "SpecialToken": {
          "id": "[EOS]",
          "type_id": 0
        }
      }
    ],
    "pair": [
      {
        "Sequence": {
          "id": "A",
          "type_id": 0
        }
      },
      {
        "Sequence": {
          "id": "B",
          "type_id": 1
        }
      }
    ],
    "special_tokens": {
      "[BOS]": {
        "id": "[BOS]",
        "ids": [
          2
        ],
        "tokens": [
          "[BOS]"
        ]
      },
      "[EOS]": {
        "id": "[EOS]",
        "ids": [
          3
        ],
        "tokens": [
          "[EOS]"
        ]
      }
    }
  },
  "decoder": {
    "type": "WordPiece",
    "prefix": "##",
    "cleanup": true
  },
  "model": {
    "type": "WordPiece",
    "unk_token": "[UNK]",
    "continuing_subword_prefix": "##",
    "max_input_chars_per_word": 100,
    "vocab": {
      "[UNK]": 0,
      "[PAD]": 1,
      "[BOS]": 2,
      "[EOS]": 3,
      "!": 4,
      "\"": 5,
      "#": 6,
      "$": 7,
      "%": 8,
      "&": 9,
      "'": 10,
      "(": 11,
      ")": 12,
      "*": 13,
      "+": 14,
      ",": 15,
      "-": 16,
      ".": 17,
      "/": 18,
      "0": 19,
      "1": 20,
      "2": 21,
      "3": 22,
      "4": 23,
      "5": 24,
      "6": 25,
      "7": 26,
      "8": 27,
      "9": 28,
      ":": 29,
      ";": 30,
      "<": 31,
      "=": 32,
      ">": 33,
      "?": 34,
      "@": 35,
      "[": 36,
      "\\": 37,
      "]": 38,
      "`": 39,
      "a": 40,
      "b": 41,
      "c": 42,
      "d": 43,
      "e": 44,
      "f": 45,
      "g": 46,
      "h": 47,
      "i": 48,
      "j": 49,
      "k": 50,
      "l": 51,
      "m": 52,
      "n": 53,
      "o": 54,
      "p": 55,
      "q": 56,
      "r": 57,
      "s": 58,
      "t": 59,
      "u": 60,
      "v": 61,
      "w": 62,
      "x": 63,
      "y": 64,
      "z": 65,
      "{": 66,
      "|": 67,
      "}": 68,
      "~": 69,
      "£": 70,
      "¨": 71,
      "©": 72,
      "‘": 73,
      "’": 74,
      "•": 75,
      "…": 76,
      "‰": 77,
      "‹": 78,
      "##n": 79,
      "##m": 80,
      "##i": 81,
      "##x": 82,
      "##p": 83,
      "##e": 84,
      "##c": 85,
      "##t": 86,
      "##a": 87,
      "##o": 88,
      "##s": 89,
      "##k": 90,
      "##r": 91,
      "##g": 92,
      "##l": 93,
      "##h": 94,
      "##f": 95,
      "##d": 96,
      "##z": 97,
      "##w": 98,
      "##u": 99,
      "##v": 100,
      "##b": 101,
      "##y": 102,
      "##q": 103,
      "##j": 104,
      "##2": 105,
      "##0": 106,
      "##.": 107,
      "##\"": 108,
      "##?": 109,
      "##'": 110,
      "##!": 111,
      "##,": 112,
      "##8": 113,
      "##3": 114,
      "##1": 115,
      "##5": 116,
      "##7": 117,
      "##6": 118,
      "##4": 119,
      "##\\": 120,
      "##;": 121,
      "##‰": 122,
      "##)": 123,
      "##/": 124,
      "##9": 125,
      "##=": 126,
      "##`": 127,
      "##(": 128,
      "##*": 129,
      "##:": 130,
      "##‹": 131,
      "##•": 132,
      "##}": 133,
      "##<": 134,
      "##-": 135,
      "##[": 136,
      "##’": 137,
      "##]": 138,
      "##¨": 139,
      "##…": 140,
      "##‘": 141,
      "##+": 142,
      "###": 143,
      "##{": 144,
      "##~": 145,
      "##©": 146,
      "##&": 147,
      "##@": 148,
      "##>": 149,
      "##$": 150,
      "##he": 151,
      "the": 152,
      "##nd": 153,
      "##ed": 154,
      "and": 155,
      "to": 156,
      "##er": 157,
      "wa": 158,
      "##ou": 159,
      "##in": 160,
      "he": 161,
      "##re": 162,
      "was": 163,
      "sa": 164,
      "##ing": 165,
      "##om": 166,
      "she": 167,
      "##ar": 168,
      "##il": 169,
      "##it": 170,
      "##ay": 171,
      "it": 172,
      "##id": 173,
      "##at": 174,
      "they": 175,
      "ha": 176,
      "##en": 177,
      "##is": 178,
      "##an": 179,
      "on": 180,
      "th": 181,
      "##or": 182,
      "##im": 183,
      "##on": 184,
      "##ut": 185,
      "her": 186,
      "##ll": 187,
      "##le": 188,
      "##et": 189,
      "##ot": 190,
      "##ir": 191,
      "##es": 192,
      "in": 193,
      "##ow": 194,
      "you": 195,
      "##ck": 196,
      "##ld": 197,
      "##oo": 198,
      "said": 199,
      "be": 200,
      "##ily": 201,
      "tim": 202,
      "st": 203,
      "##ig": 204,
      "so": 205,
      "##ce": 206,
      "##pp": 207,
      "his": 208,
      "wit": 209,
      "with": 210,
      "mom": 211,
      "##ve": 212,
      "lily": 213,
      "of": 214,
      "fr": 215,
      "that": 216,
      "##ked": 217,
      "pl": 218,
      "##am": 219,
      "##ery": 220,
      "##ad": 221,
      "##ke": 222,
      "but": 223,
      "day": 224,
      "##nt": 225,
      "up": 226,
      "##ie": 227,
      "play": 228,
      "had": 229,
      "##el": 230,
      "wh": 231,
      "for": 232,
      "##my": 233,
      "##st": 234,
      "##un": 235,
      "##ould": 236,
      "##ent": 237,
      "an": 238,
      "li": 239,
      "##ra": 240,
      "##ch": 241,
      "happ": 242,
      "one": 243,
      "do": 244,
      "##itt": 245,
      "sh": 246,
      "want": 247,
      "##her": 248,
      "there": 249,
      "##ly": 250,
      "very": 251,
      "##ome": 252,
      "not": 253,
      "##se": 254,
      "##ound": 255,
      "as": 256,
      "litt": 257,
      "little": 258,
      "ba": 259,
      "time": 260,
      "ne": 261,
      "##ht": 262,
      "##al": 263,
      "ma": 264,
      "happy": 265,
      "big": 266,
      "sm": 267,
      ".\"": 268,
      "is": 269,
      "saw": 270,
      "##iend": 271,
      "friend": 272,
      "loo": 273,
      "##ry": 274,
      "re": 275,
      "!\"": 276,
      "bo": 277,
      "##ur": 278,
      "##ter": 279,
      "##ved": 280,
      "##ug": 281,
      "once": 282,
      "lo": 283,
      "##ere": 284,
      "were": 285,
      "##ore": 286,
      "se": 287,
      "ev": 288,
      "go": 289,
      "sp": 290,
      "him": 291,
      "too": 292,
      "##ide": 293,
      "ca": 294,
      "we": 295,
      "at": 296,
      "##irl": 297,
      "tom": 298,
      "are": 299,
      "can": 300,
      "upon": 301,
      "whe": 302,
      "wanted": 303,
      "girl": 304,
      "##ard": 305,
      "##ec": 306,
      "##ill": 307,
      "out": 308,
      "ben": 309,
      "their": 310,
      "them": 311,
      "##fu": 312,
      "##way": 313,
      "did": 314,
      "##ys": 315,
      "##ind": 316,
      "could": 317,
      "smil": 318,
      "##ri": 319,
      "no": 320,
      "have": 321,
      "##ted": 322,
      "##ver": 323,
      "##ain": 324,
      "ex": 325,
      "all": 326,
      "##hed": 327,
      "went": 328,
      "hel": 329,
      "?\"": 330,
      "ar": 331,
      "su": 332,
      "when": 333,
      "##ic": 334,
      "help": 335,
      "nam": 336,
      "ta": 337,
      "friends": 338,
      "##ful": 339,
      "##ood": 340,
      "##hing": 341,
      "##ight": 342,
      "kn": 343,
      "what": 344,
      "le": 345,
      "##um": 346,
      "##ark": 347,
      "back": 348,
      "##one": 349,
      "cl": 350,
      "from": 351,
      "timmy": 352,
      "fun": 353,
      "al": 354,
      "then": 355,
      "named": 356,
      "##all": 357,
      "ro": 358,
      "every": 359,
      "star": 360,
      "sc": 361,
      "smiled": 362,
      "loved": 363,
      "##oug": 364,
      "##side": 365,
      "asked": 366,
      "##elt": 367,
      "man": 368,
      "some": 369,
      "##ick": 370,
      "see": 371,
      "me": 372,
      "like": 373,
      "fe": 374,
      "felt": 375,
      "##op": 376,
      "br": 377,
      "looked": 378,
      "around": 379,
      "##ame": 380,
      "##ep": 381,
      "bir": 382,
      "look": 383,
      "##omet": 384,
      "would": 385,
      "##get": 386,
      "somet": 387,
      "boy": 388,
      "fa": 389,
      "bird": 390,
      "##ong": 391,
      "##ss": 392,
      "pr": 393,
      "##dd": 394,
      "mommy": 395,
      "##est": 396,
      "##ings": 397,
      "ag": 398,
      "jo": 399,
      "wor": 400,
      ",\"": 401,
      "##ade": 402,
      "car": 403,
      "than": 404,
      "make": 405,
      "##gether": 406,
      "together": 407,
      "tre": 408,
      "##own": 409,
      "ran": 410,
      "away": 411,
      "la": 412,
      "dad": 413,
      "started": 414,
      "##ice": 415,
      "##oud": 416,
      "##ared": 417,
      "says": 418,
      "made": 419,
      "something": 420,
      "co": 421,
      "fl": 422,
      "##ited": 423,
      "park": 424,
      "sad": 425,
      "##ther": 426,
      "good": 427,
      "##ack": 428,
      "exc": 429,
      "new": 430,
      "ch": 431,
      "other": 432,
      "put": 433,
      "who": 434,
      "##out": 435,
      "let": 436,
      "mu": 437,
      "##ble": 438,
      "again": 439,
      "hug": 440,
      "home": 441,
      "found": 442,
      "sam": 443,
      "dec": 444,
      "##ried": 445,
      "wal": 446,
      "##pped": 447,
      "##ure": 448,
      "get": 449,
      "playing": 450,
      "##ought": 451,
      "##ach": 452,
      "##pl": 453,
      "gra": 454,
      "sw": 455,
      "things": 456,
      "##ous": 457,
      "##na": 458,
      "excited": 459,
      "bl": 460,
      "got": 461,
      "##ny": 462,
      "##king": 463,
      "liked": 464,
      "##uck": 465,
      "your": 466,
      "##ge": 467,
      "##ided": 468,
      "decided": 469,
      "came": 470,
      "my": 471,
      "bec": 472,
      "dog": 473,
      "scared": 474,
      "##ust": 475,
      "down": 476,
      "this": 477,
      "##ouse": 478,
      "ab": 479,
      "find": 480,
      "care": 481,
      "pa": 482,
      "gr": 483,
      "feel": 484,
      "po": 485,
      "will": 486,
      "max": 487,
      "sara": 488,
      "didn": 489,
      "##ell": 490,
      "bu": 491,
      "##ist": 492,
      "##arn": 493,
      "##ave": 494,
      "##ways": 495,
      "anna": 496,
      "always": 497,
      "##as": 498,
      "##nder": 499,
      "##ess": 500,
      "about": 501,
      "mo": 502,
      "took": 503,
      "lot": 504,
      "kne": 505,
      "toys": 506,
      "outside": 507,
      "##ers": 508,
      "##ook": 509,
      "tree": 510,
      "##ally": 511,
      "##ise": 512,
      "af": 513,
      "##ant": 514,
      "##ged": 515,
      "##bb": 516,
      "how": 517,
      "##ite": 518,
      "old": 519,
      "thought": 520,
      "ball": 521,
      "ho": 522,
      "more": 523,
      "##ma": 524,
      "##eci": 525,
      "##ened": 526,
      "##ched": 527,
      "sor": 528,
      "learn": 529,
      "##ret": 530,
      "tw": 531,
      "pu": 532,
      "cat": 533,
      "know": 534,
      "##to": 535,
      "take": 536,
      "don": 537,
      "pe": 538,
      "laug": 539,
      "knew": 540,
      "speci": 541,
      "sudd": 542,
      "special": 543,
      "sudden": 544,
      "mi": 545,
      "##ty": 546,
      "inside": 547,
      "##ive": 548,
      "any": 549,
      "toy": 550,
      "jack": 551,
      "sorry": 552,
      "suddenly": 553,
      "##ro": 554,
      "after": 555,
      "##ff": 556,
      "just": 557,
      "##ue": 558,
      "if": 559,
      "tr": 560,
      "show": 561,
      "##lly": 562,
      "##ink": 563,
      "much": 564,
      "ra": 565,
      "or": 566,
      "run": 567,
      "sl": 568,
      "##ish": 569,
      "hand": 570,
      "house": 571,
      "yes": 572,
      "sun": 573,
      "op": 574,
      "sk": 575,
      "clo": 576,
      "tried": 577,
      "fin": 578,
      "told": 579,
      "into": 580,
      "en": 581,
      "##ate": 582,
      "water": 583,
      "couldn": 584,
      "over": 585,
      "##ea": 586,
      "proud": 587,
      "##dy": 588,
      "##ump": 589,
      "gave": 590,
      "##use": 591,
      "each": 592,
      "never": 593,
      "heard": 594,
      "eat": 595,
      "##by": 596,
      "ok": 597,
      "expl": 598,
      "played": 599,
      "room": 600,
      "thank": 601,
      "pick": 602,
      "##ause": 603,
      "pret": 604,
      "because": 605,
      "##other": 606,
      "qu": 607,
      "gre": 608,
      "##lled": 609,
      "##ion": 610,
      "come": 611,
      "sha": 612,
      "wat": 613,
      "mia": 614,
      "bear": 615,
      "##ious": 616,
      "off": 617,
      "hugged": 618,
      "now": 619,
      "com": 620,
      "##oth": 621,
      "fo": 622,
      "nice": 623,
      "bet": 624,
      "need": 625,
      "box": 626,
      "##our": 627,
      "str": 628,
      "##ile": 629,
      "##fe": 630,
      "many": 631,
      "##ft": 632,
      "small": 633,
      "long": 634,
      "##eep": 635,
      "##ving": 636,
      "##sed": 637,
      "end": 638,
      "anim": 639,
      "animal": 640,
      "##ough": 641,
      "try": 642,
      "##gry": 643,
      "unt": 644,
      "##cy": 645,
      "##kes": 646,
      "even": 647,
      "##ort": 648,
      "until": 649,
      "##ild": 650,
      "##urt": 651,
      "##iz": 652,
      "##elf": 653,
      "learned": 654,
      "soon": 655,
      "kind": 656,
      "bea": 657,
      "everyone": 658,
      "by": 659,
      "better": 660,
      "ad": 661,
      "flow": 662,
      "love": 663,
      "spot": 664,
      "##mp": 665,
      "best": 666,
      "##ine": 667,
      "cle": 668,
      "##ady": 669,
      "##urp": 670,
      "##ream": 671,
      "##urn": 672,
      "##ace": 673,
      "say": 674,
      "fi": 675,
      "##ber": 676,
      "gard": 677,
      "garden": 678,
      "##ves": 679,
      "fast": 680,
      "careful": 681,
      "che": 682,
      "beaut": 683,
      "##ies": 684,
      "bra": 685,
      "sky": 686,
      "thanked": 687,
      "laughed": 688,
      "jump": 689,
      "gl": 690,
      "loud": 691,
      "ow": 692,
      "sn": 693,
      "##ct": 694,
      "list": 695,
      "##iny": 696,
      "##ear": 697,
      "lots": 698,
      "##lew": 699,
      "beauti": 700,
      "wo": 701,
      "beautiful": 702,
      "##self": 703,
      "##sh": 704,
      "hard": 705,
      "fam": 706,
      "still": 707,
      "animals": 708,
      "lu": 709,
      "joh": 710,
      "under": 711,
      "john": 712,
      "stay": 713,
      "hurt": 714,
      "mum": 715,
      "##ning": 716,
      "both": 717,
      "dan": 718,
      "rem": 719,
      "way": 720,
      "##ree": 721,
      "safe": 722,
      "two": 723,
      "bad": 724,
      "##ool": 725,
      "col": 726,
      "##hes": 727,
      "imp": 728,
      "di": 729,
      "lived": 730,
      "red": 731,
      "its": 732,
      "tow": 733,
      "##ople": 734,
      "##be": 735,
      "book": 736,
      "##em": 737,
      "people": 738,
      "##ane": 739,
      "okay": 740,
      "lucy": 741,
      "walked": 742,
      "surp": 743,
      "surpr": 744,
      "brave": 745,
      "should": 746,
      "family": 747,
      "##ase": 748,
      "adv": 749,
      "##ished": 750,
      "flew": 751,
      "##igh": 752,
      "##ress": 753,
      "##ock": 754,
      "stor": 755,
      "##ept": 756,
      "called": 757,
      "##eet": 758,
      "##ip": 759,
      "angry": 760,
      "fore": 761,
      "sure": 762,
      "fly": 763,
      "while": 764,
      "kept": 765,
      "##fore": 766,
      "##led": 767,
      "before": 768,
      "##ect": 769,
      "share": 770,
      "##xt": 771,
      "##ger": 772,
      "##ised": 773,
      "##art": 774,
      "pic": 775,
      "pretty": 776,
      "keep": 777,
      "going": 778,
      "rock": 779,
      "door": 780,
      "##dded": 781,
      "clean": 782,
      "##ied": 783,
      "next": 784,
      "dra": 785,
      "advent": 786,
      "con": 787,
      "why": 788,
      "##ary": 789,
      "un": 790,
      "##illy": 791,
      "far": 792,
      "real": 793,
      "give": 794,
      "shiny": 795,
      "noise": 796,
      "id": 797,
      "wind": 798,
      "opened": 799,
      "cry": 800,
      "may": 801,
      "grand": 802,
      "##end": 803,
      "doll": 804,
      "sto": 805,
      "ground": 806,
      "##ner": 807,
      "explore": 808,
      "turn": 809,
      "##so": 810,
      "##les": 811,
      "also": 812,
      "ey": 813,
      "idea": 814,
      "color": 815,
      "war": 816,
      "feeling": 817,
      "where": 818,
      "##ap": 819,
      "bob": 820,
      "picked": 821,
      "blue": 822,
      "nodded": 823,
      "##imb": 824,
      "walking": 825,
      "climb": 826,
      "##thing": 827,
      "clos": 828,
      "##ting": 829,
      "thr": 830,
      "bed": 831,
      "ple": 832,
      "wait": 833,
      "adventure": 834,
      "being": 835,
      "smile": 836,
      "##oy": 837,
      "finally": 838,
      "##th": 839,
      "has": 840,
      "##iced": 841,
      "looking": 842,
      "da": 843,
      "##ture": 844,
      "food": 845,
      "diff": 846,
      "wr": 847,
      "maybe": 848,
      "remem": 849,
      "##and": 850,
      "repl": 851,
      "picture": 852,
      "##joy": 853,
      "listen": 854,
      "del": 855,
      "bro": 856,
      "tra": 857,
      "great": 858,
      "think": 859,
      "truck": 860,
      "##ught": 861,
      "stopped": 862,
      "eyes": 863,
      "walk": 864,
      "gi": 865,
      "##qu": 866,
      "remember": 867,
      "ru": 868,
      "bre": 869,
      "sue": 870,
      "here": 871,
      "enjoy": 872,
      "##able": 873,
      "vo": 874,
      "import": 875,
      "year": 876,
      "wonder": 877,
      "ever": 878,
      "forest": 879,
      "quick": 880,
      "ac": 881,
      "flowers": 882,
      "##ized": 883,
      "##og": 884,
      "hands": 885,
      "##per": 886,
      "##bbit": 887,
      "app": 888,
      "noticed": 889,
      "cur": 890,
      "near": 891,
      "head": 892,
      "important": 893,
      "rabbit": 894,
      "watch": 895,
      "dis": 896,
      "fish": 897,
      "replied": 898,
      "bun": 899,
      "##irst": 900,
      "##age": 901,
      "rain": 902,
      "ama": 903,
      "##llow": 904,
      "sound": 905,
      "showed": 906,
      "amaz": 907,
      "us": 908,
      "mor": 909,
      "work": 910,
      "slide": 911,
      "tal": 912,
      "follow": 913,
      "stop": 914,
      "##gan": 915,
      "sarah": 916,
      "right": 917,
      "##ces": 918,
      "mag": 919,
      "tou": 920,
      "mean": 921,
      "differ": 922,
      "goodby": 923,
      "##bbed": 924,
      "watched": 925,
      "ask": 926,
      "bright": 927,
      "daddy": 928,
      "##day": 929,
      "goodbye": 930,
      "strong": 931,
      "our": 932,
      "use": 933,
      "please": 934,
      "quickly": 935,
      "hop": 936,
      "am": 937,
      "been": 938,
      "stick": 939,
      "voice": 940,
      "##ath": 941,
      "became": 942,
      "yell": 943,
      "different": 944,
      "boat": 945,
      "jane": 946,
      "##co": 947,
      "child": 948,
      "##che": 949,
      "store": 950,
      "##llo": 951,
      "high": 952,
      "hello": 953,
      "place": 954,
      "first": 955,
      "face": 956,
      "##ange": 957,
      "##ng": 958,
      "warm": 959,
      "##ummy": 960,
      "##ak": 961,
      "closer": 962,
      "dress": 963,
      "sand": 964,
      "curious": 965,
      "cook": 966,
      "fav": 967,
      "bel": 968,
      "does": 969,
      "joe": 970,
      "forg": 971,
      "em": 972,
      "tell": 973,
      "grandma": 974,
      "##ount": 975,
      "three": 976,
      "##oon": 977,
      "##leep": 978,
      "bunny": 979,
      "night": 980,
      "butter": 981,
      "open": 982,
      "##more": 983,
      "anymore": 984,
      "pie": 985,
      "##ila": 986,
      "mon": 987,
      "cake": 988,
      "##ired": 989,
      "lea": 990,
      "##iss": 991,
      "sweet": 992,
      "##ull": 993,
      "##ached": 994,
      "block": 995,
      "lila": 996,
      "pain": 997,
      "kid": 998,
      "kit": 999,
      "flo": 1000,
      "duck": 1001,
      "only": 1002,
      "fell": 1003,
      "cont": 1004,
      "##isy": 1005,
      "grabbed": 1006,
      "birds": 1007,
      "##ered": 1008,
      "helped": 1009,
      "##here": 1010,
      "jumped": 1011,
      "cra": 1012,
      "per": 1013,
      "fire": 1014,
      "pet": 1015,
      "glad": 1016,
      "bit": 1017,
      "##chen": 1018,
      "kitchen": 1019,
      "dr": 1020,
      "sing": 1021,
      "yummy": 1022,
      "prin": 1023,
      "squ": 1024,
      "##ul": 1025,
      "##outed": 1026,
      "happened": 1027,
      "hear": 1028,
      "story": 1029,
      "grass": 1030,
      "realized": 1031,
      "ready": 1032,
      "tri": 1033,
      "tommy": 1034,
      "sees": 1035,
      "##nts": 1036,
      "beh": 1037,
      "really": 1038,
      "brother": 1039,
      "favor": 1040,
      "shouted": 1041,
      "##ey": 1042,
      "draw": 1043,
      "cr": 1044,
      "lady": 1045,
      "favorite": 1046,
      "having": 1047,
      "reached": 1048,
      "through": 1049,
      "ate": 1050,
      "game": 1051,
      "cre": 1052,
      "mess": 1053,
      "##zy": 1054,
      "soft": 1055,
      "underst": 1056,
      "##ins": 1057,
      "pare": 1058,
      "hat": 1059,
      "##imes": 1060,
      "less": 1061,
      "##ather": 1062,
      "butterf": 1063,
      "thing": 1064,
      "##ket": 1065,
      "magic": 1066,
      "##where": 1067,
      "began": 1068,
      "world": 1069,
      "##ken": 1070,
      "cu": 1071,
      "himself": 1072,
      "pretend": 1073,
      "rest": 1074,
      "sometimes": 1075,
      "##ppy": 1076,
      "##fully": 1077,
      "mouse": 1078,
      "making": 1079,
      "cut": 1080,
      "ted": 1081,
      "done": 1082,
      "kids": 1083,
      "fix": 1084,
      "prom": 1085,
      "looks": 1086,
      "wow": 1087,
      "coming": 1088,
      "##bo": 1089,
      "worry": 1090,
      "tired": 1091,
      "pond": 1092,
      "waved": 1093,
      "##ely": 1094,
      "##ater": 1095,
      "delic": 1096,
      "flower": 1097,
      "sally": 1098,
      "catch": 1099,
      "\".": 1100,
      "fill": 1101,
      "cars": 1102,
      "name": 1103,
      "##air": 1104,
      "##ster": 1105,
      "tast": 1106,
      "farm": 1107,
      "used": 1108,
      "funny": 1109,
      "##rel": 1110,
      "top": 1111,
      "touch": 1112,
      "##ient": 1113,
      "another": 1114,
      "seen": 1115,
      "hair": 1116,
      "hold": 1117,
      "cool": 1118,
      "parents": 1119,
      "surprise": 1120,
      "din": 1121,
      "daisy": 1122,
      "te": 1123,
      "hopped": 1124,
      "##iver": 1125,
      "green": 1126,
      "cla": 1127,
      "##oney": 1128,
      "doing": 1129,
      "cried": 1130,
      "light": 1131,
      "blocks": 1132,
      "read": 1133,
      "ste": 1134,
      "years": 1135,
      "##ation": 1136,
      "frog": 1137,
      "wood": 1138,
      "benny": 1139,
      "dri": 1140,
      "lesson": 1141,
      "sat": 1142,
      "trees": 1143,
      "snow": 1144,
      "worked": 1145,
      "par": 1146,
      "##ued": 1147,
      "##ards": 1148,
      "running": 1149,
      "full": 1150,
      "behind": 1151,
      "floor": 1152,
      "wear": 1153,
      "##pe": 1154,
      "dark": 1155,
      "bow": 1156,
      "##ren": 1157,
      "happily": 1158,
      "window": 1159,
      "##ph": 1160,
      "smell": 1161,
      "slow": 1162,
      "dro": 1163,
      "sleep": 1164,
      "swim": 1165,
      "teddy": 1166,
      "##ced": 1167,
      "##ons": 1168,
      "##ag": 1169,
      "##us": 1170,
      "yellow": 1171,
      "butterfly": 1172,
      "paper": 1173,
      "sho": 1174,
      "wished": 1175,
      "bag": 1176,
      "pat": 1177,
      "remembered": 1178,
      "baby": 1179,
      "lost": 1180,
      "set": 1181,
      "surprised": 1182,
      "carefully": 1183,
      "ice": 1184,
      "jim": 1185,
      "el": 1186,
      "likes": 1187,
      "needed": 1188,
      "cold": 1189,
      "swing": 1190,
      "mar": 1191,
      "##orn": 1192,
      "billy": 1193,
      "held": 1194,
      "hole": 1195,
      "buy": 1196,
      "own": 1197,
      "perf": 1198,
      "##rew": 1199,
      "##uff": 1200,
      "laugh": 1201,
      "move": 1202,
      "left": 1203,
      "dream": 1204,
      "anything": 1205,
      "tall": 1206,
      "##cess": 1207,
      "enjoyed": 1208,
      "fair": 1209,
      "##reed": 1210,
      "wrong": 1211,
      "arri": 1212,
      "contin": 1213,
      "air": 1214,
      "delicious": 1215,
      "books": 1216,
      "hun": 1217,
      "finished": 1218,
      "followed": 1219,
      "##ens": 1220,
      "hot": 1221,
      "someone": 1222,
      "children": 1223,
      "mat": 1224,
      "bus": 1225,
      "herself": 1226,
      "friendly": 1227,
      "ll": 1228,
      "##ndy": 1229,
      "dir": 1230,
      "table": 1231,
      "amy": 1232,
      "molly": 1233,
      "cream": 1234,
      "tea": 1235,
      "close": 1236,
      "hill": 1237,
      "bug": 1238,
      "##ross": 1239,
      "understand": 1240,
      "##lf": 1241,
      "everywhere": 1242,
      "hid": 1243,
      "might": 1244,
      "arrived": 1245,
      "##ined": 1246,
      "cast": 1247,
      "tight": 1248,
      "forgot": 1249,
      "res": 1250,
      "##ds": 1251,
      "gent": 1252,
      "arm": 1253,
      "squir": 1254,
      "rel": 1255,
      "##ield": 1256,
      "wonderful": 1257,
      "else": 1258,
      "build": 1259,
      "pink": 1260,
      "broken": 1261,
      "colors": 1262,
      "able": 1263,
      "gone": 1264,
      "squirrel": 1265,
      "continued": 1266,
      "sig": 1267,
      "jen": 1268,
      "song": 1269,
      "filled": 1270,
      "everything": 1271,
      "wall": 1272,
      "agreed": 1273,
      "gu": 1274,
      "later": 1275,
      "creat": 1276,
      "##asure": 1277,
      "count": 1278,
      "lion": 1279,
      "##ich": 1280,
      "##room": 1281,
      "##ama": 1282,
      "leaves": 1283,
      "enough": 1284,
      "vis": 1285,
      "ju": 1286,
      "moment": 1287,
      "wants": 1288,
      "morning": 1289,
      "##ast": 1290,
      "mama": 1291,
      "getting": 1292,
      "cookies": 1293,
      "joy": 1294,
      "stayed": 1295,
      "break": 1296,
      "##shed": 1297,
      "dinner": 1298,
      "fight": 1299,
      "beach": 1300,
      "scary": 1301,
      "##av": 1302,
      "mother": 1303,
      "##ance": 1304,
      "few": 1305,
      "##ence": 1306,
      "oh": 1307,
      "poin": 1308,
      "hungry": 1309,
      "turned": 1310,
      "today": 1311,
      "others": 1312,
      "spark": 1313,
      "##row": 1314,
      "trying": 1315,
      "wet": 1316,
      "fall": 1317,
      "##pa": 1318,
      "plan": 1319,
      "amazing": 1320,
      "perfect": 1321,
      "##gon": 1322,
      "hi": 1323,
      "met": 1324,
      "castle": 1325,
      "climbed": 1326,
      "##oup": 1327,
      "mus": 1328,
      "##ries": 1329,
      "fur": 1330,
      "pictures": 1331,
      "pen": 1332,
      "talk": 1333,
      "listened": 1334,
      "fox": 1335,
      "##oom": 1336,
      "spl": 1337,
      "makes": 1338,
      "white": 1339,
      "brown": 1340,
      "balloon": 1341,
      "puppy": 1342,
      "##oring": 1343,
      "shar": 1344,
      "leave": 1345,
      "pol": 1346,
      "clot": 1347,
      "jill": 1348,
      "alone": 1349,
      "wasn": 1350,
      "brought": 1351,
      "##ctor": 1352,
      "##man": 1353,
      "##rot": 1354,
      "clothes": 1355,
      "##ated": 1356,
      "##amp": 1357,
      "tail": 1358,
      "sear": 1359,
      "deep": 1360,
      "smiles": 1361,
      "##ash": 1362,
      "grow": 1363,
      "##ister": 1364,
      "bi": 1365,
      "woods": 1366,
      "start": 1367,
      "##der": 1368,
      "moral": 1369,
      "sit": 1370,
      "sail": 1371,
      "strange": 1372,
      "##elc": 1373,
      "##ling": 1374,
      "welc": 1375,
      "won": 1376,
      "ride": 1377,
      "danger": 1378,
      "##pping": 1379,
      "##zz": 1380,
      "visit": 1381,
      "##ott": 1382,
      "treat": 1383,
      "pulled": 1384,
      "fluff": 1385,
      "well": 1386,
      "##ake": 1387,
      "mark": 1388,
      "music": 1389,
      "fluffy": 1390,
      "hide": 1391,
      "##ches": 1392,
      "amazed": 1393,
      "##med": 1394,
      "asks": 1395,
      "waited": 1396,
      "towards": 1397,
      "##ang": 1398,
      "flying": 1399,
      "owner": 1400,
      "land": 1401,
      "##ven": 1402,
      "field": 1403,
      "pre": 1404,
      "##key": 1405,
      "##ower": 1406,
      "##ained": 1407,
      "shared": 1408,
      "##ead": 1409,
      "silly": 1410,
      "promised": 1411,
      "cloud": 1412,
      "##iet": 1413,
      "belie": 1414,
      "slowly": 1415,
      "##ames": 1416,
      "##ever": 1417,
      "job": 1418,
      "quiet": 1419,
      "paint": 1420,
      "side": 1421,
      "##cle": 1422,
      "##ugg": 1423,
      "##orm": 1424,
      "##la": 1425,
      "party": 1426,
      "sister": 1427,
      "##cket": 1428,
      "lake": 1429,
      "race": 1430,
      "##gs": 1431,
      "##thy": 1432,
      "living": 1433,
      "##igg": 1434,
      "runs": 1435,
      "bar": 1436,
      "cho": 1437,
      "##pes": 1438,
      "must": 1439,
      "money": 1440,
      "##ually": 1441,
      "##sp": 1442,
      "mary": 1443,
      "na": 1444,
      "##avy": 1445,
      "grate": 1446,
      "worried": 1447,
      "pot": 1448,
      "dance": 1449,
      "mr": 1450,
      "thinks": 1451,
      "##sw": 1452,
      "##ises": 1453,
      "answ": 1454,
      "princess": 1455,
      "colorful": 1456,
      "bran": 1457,
      "grateful": 1458,
      "faster": 1459,
      "pieces": 1460,
      "##ased": 1461,
      "broke": 1462,
      "luck": 1463,
      "bott": 1464,
      "candy": 1465,
      "pro": 1466,
      "such": 1467,
      "win": 1468,
      "cup": 1469,
      "train": 1470,
      "bigger": 1471,
      "ele": 1472,
      "##ze": 1473,
      "snack": 1474,
      "reach": 1475,
      "stu": 1476,
      "farmer": 1477,
      "welcome": 1478,
      "monster": 1479,
      "blan": 1480,
      "river": 1481,
      "join": 1482,
      "kitt": 1483,
      "black": 1484,
      "helping": 1485,
      "inst": 1486,
      "##less": 1487,
      "pull": 1488,
      "comp": 1489,
      "treasure": 1490,
      "lun": 1491,
      "##app": 1492,
      "magical": 1493,
      "blanket": 1494,
      "bee": 1495,
      "dangerous": 1496,
      "event": 1497,
      "##uit": 1498,
      "bike": 1499,
      "call": 1500,
      "acc": 1501,
      "sna": 1502,
      "most": 1503,
      "##set": 1504,
      "nap": 1505,
      "smart": 1506,
      "dragon": 1507,
      "across": 1508,
      "min": 1509,
      "scream": 1510,
      "miss": 1511,
      "sign": 1512,
      "spr": 1513,
      "jimmy": 1514,
      "##cked": 1515,
      "##icy": 1516,
      "disapp": 1517,
      "##ident": 1518,
      "##outh": 1519,
      "pass": 1520,
      "mouth": 1521,
      "stre": 1522,
      "ear": 1523,
      "doctor": 1524,
      "heavy": 1525,
      "##ming": 1526,
      "##eared": 1527,
      "words": 1528,
      "tower": 1529,
      "bite": 1530,
      "wouldn": 1531,
      "crying": 1532,
      "dirty": 1533,
      "stepped": 1534,
      "believe": 1535,
      "threw": 1536,
      "dolls": 1537,
      "##de": 1538,
      "bowl": 1539,
      "same": 1540,
      "carrot": 1541,
      "heal": 1542,
      "bath": 1543,
      "##ored": 1544,
      "##fort": 1545,
      "##red": 1546,
      "##lla": 1547,
      "mummy": 1548,
      "##chool": 1549,
      "hig": 1550,
      "##bble": 1551,
      "stuck": 1552,
      "closed": 1553,
      "##ment": 1554,
      "twins": 1555,
      "without": 1556,
      "plant": 1557,
      "cour": 1558,
      "school": 1559,
      "eating": 1560,
      "bas": 1561,
      "att": 1562,
      "fruit": 1563,
      "heart": 1564,
      "emma": 1565,
      "buck": 1566,
      "mix": 1567,
      "##os": 1568,
      "town": 1569,
      "##ipped": 1570,
      "fairy": 1571,
      "basket": 1572,
      "##iting": 1573,
      "coll": 1574,
      "course": 1575,
      "chair": 1576,
      "##cher": 1577,
      "hoped": 1578,
      "ve": 1579,
      "clapped": 1580,
      "pack": 1581,
      "stand": 1582,
      "cray": 1583,
      "accident": 1584,
      "butt": 1585,
      "gentle": 1586,
      "##ier": 1587,
      "eventually": 1588,
      "feels": 1589,
      "along": 1590,
      "drove": 1591,
      "swings": 1592,
      "free": 1593,
      "##br": 1594,
      "neigh": 1595,
      "##ors": 1596,
      "##orrow": 1597,
      "higher": 1598,
      "pushed": 1599,
      "##issed": 1600,
      "je": 1601,
      "sec": 1602,
      "pocket": 1603,
      "smo": 1604,
      "har": 1605,
      "neighb": 1606,
      "explained": 1607,
      "pers": 1608,
      "hit": 1609,
      "teacher": 1610,
      "games": 1611,
      "piece": 1612,
      "##ourn": 1613,
      "longer": 1614,
      "wings": 1615,
      "yard": 1616,
      "journ": 1617,
      "##ord": 1618,
      "cheered": 1619,
      "##que": 1620,
      "##ible": 1621,
      "forget": 1622,
      "dry": 1623,
      "##ank": 1624,
      "happen": 1625,
      "owl": 1626,
      "##ire": 1627,
      "late": 1628,
      "sang": 1629,
      "##itting": 1630,
      "##umb": 1631,
      "##ract": 1632,
      "mine": 1633,
      "young": 1634,
      "monkey": 1635,
      "tiny": 1636,
      "throw": 1637,
      "neck": 1638,
      "instead": 1639,
      "eleph": 1640,
      "apple": 1641,
      "elephant": 1642,
      "upset": 1643,
      "singing": 1644,
      "adventures": 1645,
      "king": 1646,
      "##sc": 1647,
      "shoes": 1648,
      "##vel": 1649,
      "noises": 1650,
      "lon": 1651,
      "turns": 1652,
      "sea": 1653,
      "trou": 1654,
      "lunch": 1655,
      "stories": 1656,
      "mad": 1657,
      "dist": 1658,
      "ph": 1659,
      "gift": 1660,
      "lonely": 1661,
      "##oun": 1662,
      "sammy": 1663,
      "jar": 1664,
      "street": 1665,
      "hugs": 1666,
      "##ountain": 1667,
      "pla": 1668,
      "belong": 1669,
      "secret": 1670,
      "inv": 1671,
      "wise": 1672,
      "des": 1673,
      "soup": 1674,
      "purp": 1675,
      "##ost": 1676,
      "wish": 1677,
      "nearby": 1678,
      "exploring": 1679,
      "de": 1680,
      "mitt": 1681,
      "fence": 1682,
      "bring": 1683,
      "nothing": 1684,
      "shop": 1685,
      "taking": 1686,
      "moved": 1687,
      "shook": 1688,
      "bat": 1689,
      "sunny": 1690,
      "##yard": 1691,
      "caught": 1692,
      "##fused": 1693,
      "stars": 1694,
      "naught": 1695,
      "naughty": 1696,
      "backyard": 1697,
      "##ol": 1698,
      "##bow": 1699,
      "##ts": 1700,
      "##ocked": 1701,
      "though": 1702,
      "drink": 1703,
      "whenever": 1704,
      "rocks": 1705,
      "mil": 1706,
      "mail": 1707,
      "orange": 1708,
      "##ward": 1709,
      "purple": 1710,
      "relie": 1711,
      "##sy": 1712,
      "seemed": 1713,
      "dropped": 1714,
      "swam": 1715,
      "cow": 1716,
      "ima": 1717,
      "##adow": 1718,
      "##cing": 1719,
      "##ughter": 1720,
      "resp": 1721,
      "tweet": 1722,
      "past": 1723,
      "woke": 1724,
      "bucket": 1725,
      "##ped": 1726,
      "rainbow": 1727,
      "sitting": 1728,
      "nest": 1729,
      "##ions": 1730,
      "bench": 1731,
      "boun": 1732,
      "fit": 1733,
      "shapes": 1734,
      "ob": 1735,
      "sounds": 1736,
      "##ity": 1737,
      "pig": 1738,
      "busy": 1739,
      "wondered": 1740,
      "days": 1741,
      "daughter": 1742,
      "##col": 1743,
      "nose": 1744,
      "##bby": 1745,
      "lucky": 1746,
      "##ese": 1747,
      "juice": 1748,
      "kite": 1749,
      "key": 1750,
      "cou": 1751,
      "##read": 1752,
      "part": 1753,
      "arms": 1754,
      "holding": 1755,
      "birth": 1756,
      "cir": 1757,
      "##cks": 1758,
      "birthday": 1759,
      "##ining": 1760,
      "rec": 1761,
      "round": 1762,
      "branch": 1763,
      "coat": 1764,
      "forever": 1765,
      "takes": 1766,
      "zoom": 1767,
      "relieved": 1768,
      "carry": 1769,
      "inter": 1770,
      "driver": 1771,
      "peace": 1772,
      "cute": 1773,
      "##raid": 1774,
      "afraid": 1775,
      "comes": 1776,
      "##vered": 1777,
      "sick": 1778,
      "spoon": 1779,
      "##idge": 1780,
      "##ek": 1781,
      "promise": 1782,
      "patient": 1783,
      "##unt": 1784,
      "##ung": 1785,
      "jenny": 1786,
      "cheese": 1787,
      "letter": 1788,
      "##ours": 1789,
      "huge": 1790,
      "##are": 1791,
      "honey": 1792,
      "touched": 1793,
      "fing": 1794,
      "hope": 1795,
      "onto": 1796,
      "imag": 1797,
      "life": 1798,
      "accidentally": 1799,
      "grab": 1800,
      "exciting": 1801,
      "laughing": 1802,
      "bush": 1803,
      "band": 1804,
      "gigg": 1805,
      "##board": 1806,
      "ret": 1807,
      "##gged": 1808,
      "ig": 1809,
      "creature": 1810,
      "disco": 1811,
      "power": 1812,
      "craw": 1813,
      "cozy": 1814,
      "sunsh": 1815,
      "inc": 1816,
      "sunshine": 1817,
      "swimming": 1818,
      "mittens": 1819,
      "kick": 1820,
      "hey": 1821,
      "shell": 1822,
      "mist": 1823,
      "whist": 1824,
      "emily": 1825,
      "##alm": 1826,
      "journey": 1827,
      "suc": 1828,
      "spin": 1829,
      "bread": 1830,
      "watching": 1831,
      "milk": 1832,
      "wra": 1833,
      "##ness": 1834,
      "##let": 1835,
      "bottle": 1836,
      "return": 1837,
      "##ten": 1838,
      "sharp": 1839,
      "##esting": 1840,
      "##ian": 1841,
      "pudd": 1842,
      "eas": 1843,
      "cave": 1844,
      "##mm": 1845,
      "##pt": 1846,
      "talked": 1847,
      "spo": 1848,
      "eg": 1849,
      "bought": 1850,
      "cor": 1851,
      "fan": 1852,
      "grandpa": 1853,
      "searched": 1854,
      "ent": 1855,
      "whis": 1856,
      "gather": 1857,
      "hor": 1858,
      "pointed": 1859,
      "road": 1860,
      "ann": 1861,
      "shout": 1862,
      "ce": 1863,
      "apples": 1864,
      "anyone": 1865,
      "smiling": 1866,
      "sandw": 1867,
      "##ball": 1868,
      "##blem": 1869,
      "problem": 1870,
      "act": 1871,
      "puts": 1872,
      "gives": 1873,
      "meet": 1874,
      "##els": 1875,
      "##irt": 1876,
      "##ize": 1877,
      "spid": 1878,
      "healthy": 1879,
      "roll": 1880,
      "interesting": 1881,
      "mach": 1882,
      "tasty": 1883,
      "pop": 1884,
      "storm": 1885,
      "these": 1886,
      "pres": 1887,
      "wom": 1888,
      "plane": 1889,
      "clever": 1890,
      "##sie": 1891,
      "woman": 1892,
      "prot": 1893,
      "##ned": 1894,
      "wide": 1895,
      "##eter": 1896,
      "ap": 1897,
      "vill": 1898,
      "pile": 1899,
      "kiss": 1900,
      "hon": 1901,
      "adm": 1902,
      "##aur": 1903,
      "feather": 1904,
      "ducks": 1905,
      "trouble": 1906,
      "rose": 1907,
      "which": 1908,
      "matter": 1909,
      "person": 1910,
      "clouds": 1911,
      "##amed": 1912,
      "crayons": 1913,
      "##fortable": 1914,
      "loves": 1915,
      "path": 1916,
      "##owed": 1917,
      "shining": 1918,
      "##cer": 1919,
      "pract": 1920,
      "##ont": 1921,
      "##round": 1922,
      "pill": 1923,
      "##fted": 1924,
      "##ub": 1925,
      "bubble": 1926,
      "smelled": 1927,
      "mud": 1928,
      "val": 1929,
      "zoo": 1930,
      "front": 1931,
      "rope": 1932,
      "saf": 1933,
      "jake": 1934,
      "snowman": 1935,
      "danced": 1936,
      "organ": 1937,
      "present": 1938,
      "button": 1939,
      "minut": 1940,
      "spotted": 1941,
      "##eb": 1942,
      "##ching": 1943,
      "sur": 1944,
      "puzz": 1945,
      "thin": 1946,
      "ash": 1947,
      "quest": 1948,
      "appeared": 1949,
      "seat": 1950,
      "cheer": 1951,
      "rob": 1952,
      "teach": 1953,
      "screamed": 1954,
      "snake": 1955,
      "##dge": 1956,
      "shr": 1957,
      "wild": 1958,
      "asleep": 1959,
      "##ular": 1960,
      "horse": 1961,
      "bark": 1962,
      "gently": 1963,
      "lovely": 1964,
      "neighbor": 1965,
      "giant": 1966,
      "##epend": 1967,
      "char": 1968,
      "mind": 1969,
      "##isa": 1970,
      "answer": 1971,
      "wearing": 1972,
      "whole": 1973,
      "##oose": 1974,
      "sharing": 1975,
      "places": 1976,
      "##ove": 1977,
      "##pper": 1978,
      "tear": 1979,
      "confused": 1980,
      "trip": 1981,
      "lar": 1982,
      "med": 1983,
      "impress": 1984,
      "exp": 1985,
      "corner": 1986,
      "dirt": 1987,
      "lisa": 1988,
      "chick": 1989,
      "splas": 1990,
      "oce": 1991,
      "ocean": 1992,
      "live": 1993,
      "tasted": 1994,
      "##ale": 1995,
      "##nic": 1996,
      "slid": 1997,
      "respect": 1998,
      "calm": 1999,
      "rolled": 2000,
      "##ert": 2001,
      "goes": 2002,
      "picnic": 2003,
      "##ato": 2004,
      "supp": 2005,
      "kitty": 2006,
      "ser": 2007,
      "last": 2008,
      "spider": 2009,
      "drive": 2010,
      "tun": 2011,
      "spent": 2012,
      "##ssed": 2013,
      "card": 2014,
      "true": 2015,
      "forgive": 2016,
      "phone": 2017,
      "rude": 2018,
      "cookie": 2019,
      "tries": 2020,
      "lay": 2021,
      "machine": 2022,
      "furry": 2023,
      "##ser": 2024,
      "##fl": 2025,
      "##ee": 2026,
      "##ager": 2027,
      "pan": 2028,
      "pour": 2029,
      "teet": 2030,
      "oven": 2031,
      "teeth": 2032,
      "delight": 2033,
      "worm": 2034,
      "tomorrow": 2035,
      "ring": 2036,
      "protect": 2037,
      "ban": 2038,
      "##eak": 2039,
      "pretended": 2040,
      "helpful": 2041,
      "nut": 2042,
      "feet": 2043,
      "scar": 2044,
      "##bar": 2045,
      "sal": 2046,
      "##umber": 2047,
      "peter": 2048,
      "mountain": 2049,
      "lad": 2050,
      "##lder": 2051,
      "##unk": 2052,
      "wave": 2053,
      "chocol": 2054,
      "fighting": 2055,
      "wip": 2056,
      "##ia": 2057,
      "shy": 2058,
      "faces": 2059,
      "talking": 2060,
      "step": 2061,
      "bell": 2062,
      "grace": 2063,
      "ant": 2064,
      "ign": 2065,
      "tid": 2066,
      "sque": 2067,
      "foot": 2068,
      "seek": 2069,
      "##ones": 2070,
      "spread": 2071,
      "building": 2072,
      "stret": 2073,
      "remind": 2074,
      "eager": 2075,
      "self": 2076,
      "village": 2077,
      "push": 2078,
      "coo": 2079,
      "wore": 2080,
      "coin": 2081,
      "write": 2082,
      "collect": 2083,
      "paw": 2084,
      "blew": 2085,
      "smooth": 2086,
      "couch": 2087,
      "ladder": 2088,
      "treats": 2089,
      "embar": 2090,
      "tool": 2091,
      "chased": 2092,
      "hiding": 2093,
      "embarra": 2094,
      "bugs": 2095,
      "##llie": 2096,
      "fred": 2097,
      "robot": 2098,
      "knee": 2099,
      "chocolate": 2100,
      "waiting": 2101,
      "##lex": 2102,
      "stir": 2103,
      "pool": 2104,
      "cross": 2105,
      "finish": 2106,
      "sol": 2107,
      "banan": 2108,
      "songs": 2109,
      "puddle": 2110,
      "stra": 2111,
      "##ator": 2112,
      "##scap": 2113,
      "crab": 2114,
      "fixed": 2115,
      "taste": 2116,
      "shelf": 2117,
      "##als": 2118,
      "##ife": 2119,
      "leaf": 2120,
      "selfish": 2121,
      "roar": 2122,
      "sack": 2123,
      "##ult": 2124,
      "gen": 2125,
      "hum": 2126,
      "string": 2127,
      "trust": 2128,
      "barked": 2129,
      "tidy": 2130,
      "cele": 2131,
      "##box": 2132,
      "large": 2133,
      "cann": 2134,
      "net": 2135,
      "spray": 2136,
      "wash": 2137,
      "stone": 2138,
      "celebr": 2139,
      "cannot": 2140,
      "uni": 2141,
      "colour": 2142,
      "jung": 2143,
      "peaceful": 2144,
      "##umpy": 2145,
      "jungle": 2146,
      "cloth": 2147,
      "splash": 2148,
      "missed": 2149,
      "shirt": 2150,
      "honest": 2151,
      "moon": 2152,
      "##izz": 2153,
      "##iger": 2154,
      "johnny": 2155,
      "embarrassed": 2156,
      "decor": 2157,
      "jumping": 2158,
      "gray": 2159,
      "deter": 2160,
      "int": 2161,
      "landed": 2162,
      "alice": 2163,
      "neckl": 2164,
      "necklace": 2165,
      "##mmer": 2166,
      "determ": 2167,
      "carrots": 2168,
      "forward": 2169,
      "##ail": 2170,
      "##oin": 2171,
      "bal": 2172,
      "##sk": 2173,
      "tv": 2174,
      "##ass": 2175,
      "knocked": 2176,
      "success": 2177,
      "emp": 2178,
      "meadow": 2179,
      "meant": 2180,
      "ber": 2181,
      "disappoin": 2182,
      "veget": 2183,
      "tightly": 2184,
      "vegetable": 2185,
      "sticks": 2186,
      "creative": 2187,
      "##ying": 2188,
      "hur": 2189,
      "sour": 2190,
      "stood": 2191,
      "alm": 2192,
      "gener": 2193,
      "almost": 2194,
      "##airs": 2195,
      "breath": 2196,
      "av": 2197,
      "fear": 2198,
      "whistle": 2199,
      "##elly": 2200,
      "gas": 2201,
      "plate": 2202,
      "grew": 2203,
      "empty": 2204,
      "legs": 2205,
      "hears": 2206,
      "lem": 2207,
      "##gy": 2208,
      "ashamed": 2209,
      "carried": 2210,
      "##ground": 2211,
      "##dle": 2212,
      "mir": 2213,
      "rex": 2214,
      "pillow": 2215,
      "##den": 2216,
      "gold": 2217,
      "clear": 2218,
      "understood": 2219,
      "sheep": 2220,
      "##ope": 2221,
      "hours": 2222,
      "##ush": 2223,
      "##ital": 2224,
      "save": 2225,
      "jew": 2226,
      "myster": 2227,
      "hosp": 2228,
      "pay": 2229,
      "disappointed": 2230,
      "prince": 2231,
      "##ustr": 2232,
      "chew": 2233,
      "hospital": 2234,
      "snacks": 2235,
      "yelled": 2236,
      "##vous": 2237,
      "##ime": 2238,
      "police": 2239,
      "frustr": 2240,
      "knowing": 2241,
      "tells": 2242,
      "kitten": 2243,
      "poor": 2244,
      "sparkly": 2245,
      "rad": 2246,
      "ship": 2247,
      "pizz": 2248,
      "hidden": 2249,
      "line": 2250,
      "wolf": 2251,
      "standing": 2252,
      "pin": 2253,
      "leo": 2254,
      "generous": 2255,
      "##ets": 2256,
      "group": 2257,
      "pri": 2258,
      "liz": 2259,
      "taught": 2260,
      "mysterious": 2261,
      "##urse": 2262,
      "bored": 2263,
      "returned": 2264,
      "##cles": 2265,
      "jelly": 2266,
      "blow": 2267,
      "nods": 2268,
      "glass": 2269,
      "plants": 2270,
      "bedroom": 2271,
      "seed": 2272,
      "easy": 2273,
      "minutes": 2274,
      "spicy": 2275,
      "##body": 2276,
      "polite": 2277,
      "waves": 2278,
      "pizza": 2279,
      "frustrated": 2280,
      "##ork": 2281,
      "##ected": 2282,
      "puzzle": 2283,
      "shore": 2284,
      "scarf": 2285,
      "sandwich": 2286,
      "reg": 2287,
      "powerful": 2288,
      "class": 2289,
      "drew": 2290,
      "ner": 2291,
      "##ested": 2292,
      "grumpy": 2293,
      "susie": 2294,
      "passed": 2295,
      "fancy": 2296,
      "##iff": 2297,
      "sighed": 2298,
      "sleepy": 2299,
      "wis": 2300,
      "determined": 2301,
      "##erp": 2302,
      "mid": 2303,
      "thankful": 2304,
      "pir": 2305,
      "##kin": 2306,
      "messy": 2307,
      "nervous": 2308,
      "##illar": 2309,
      "caterp": 2310,
      "caterpillar": 2311,
      "fig": 2312,
      "##work": 2313,
      "spoil": 2314,
      "gun": 2315,
      "sco": 2316,
      "law": 2317,
      "##ird": 2318,
      "mill": 2319,
      "finger": 2320,
      "tick": 2321,
      "lock": 2322,
      "van": 2323,
      "sold": 2324,
      "feed": 2325,
      "mot": 2326,
      "closet": 2327,
      "hang": 2328,
      "escap": 2329,
      "##osaur": 2330,
      "bubbles": 2331,
      "excite": 2332,
      "gate": 2333,
      "##uce": 2334,
      "gathered": 2335,
      "working": 2336,
      "dinosaur": 2337,
      "que": 2338,
      "tears": 2339,
      "ug": 2340,
      "often": 2341,
      "bridge": 2342,
      "sciss": 2343,
      "##ote": 2344,
      "whisper": 2345,
      "answered": 2346,
      "hopping": 2347,
      "kissed": 2348,
      "scissors": 2349,
      "bill": 2350,
      "deer": 2351,
      "yourself": 2352,
      "twirl": 2353,
      "ugly": 2354,
      "flag": 2355,
      "chest": 2356,
      "##sel": 2357,
      "fil": 2358,
      "scr": 2359,
      "##flower": 2360,
      "##oop": 2361,
      "##era": 2362,
      "##pack": 2363,
      "##selves": 2364,
      "##ensive": 2365,
      "expensive": 2366,
      "##mb": 2367,
      "cand": 2368,
      "burn": 2369,
      "drop": 2370,
      "excitement": 2371,
      "lit": 2372,
      "saved": 2373,
      "leg": 2374,
      "cries": 2375,
      "wagged": 2376,
      "middle": 2377,
      "taken": 2378,
      "esp": 2379,
      "##ecially": 2380,
      "especially": 2381,
      "boss": 2382,
      "mel": 2383,
      "spend": 2384,
      "bobby": 2385,
      "pleased": 2386,
      "asking": 2387,
      "ones": 2388,
      "jog": 2389,
      "##ina": 2390,
      "vase": 2391,
      "crown": 2392,
      "sug": 2393,
      "boring": 2394,
      "##illed": 2395,
      "##ax": 2396,
      "vegetables": 2397,
      "dancing": 2398,
      "queen": 2399,
      "##ual": 2400,
      "tie": 2401,
      "clown": 2402,
      "##astic": 2403,
      "sugar": 2404,
      "number": 2405,
      "brush": 2406,
      "##oof": 2407,
      "giggled": 2408,
      "lift": 2409,
      "##itter": 2410,
      "rocket": 2411,
      "stuff": 2412,
      "fine": 2413,
      "##ates": 2414,
      "cage": 2415,
      "packed": 2416,
      "tent": 2417,
      "flut": 2418,
      "comfortable": 2419,
      "##ud": 2420,
      "mistake": 2421,
      "medic": 2422,
      "##light": 2423,
      "sweetie": 2424,
      "test": 2425,
      "wander": 2426,
      "bye": 2427,
      "knight": 2428,
      "fake": 2429,
      "picks": 2430,
      "lying": 2431,
      "jam": 2432,
      "dest": 2433,
      "drum": 2434,
      "##iv": 2435,
      "drawing": 2436,
      "sight": 2437,
      "##ose": 2438,
      "elder": 2439,
      "##iness": 2440,
      "bake": 2441,
      "press": 2442,
      "gets": 2443,
      "medicine": 2444,
      "##oph": 2445,
      "yog": 2446,
      "glue": 2447,
      "pray": 2448,
      "distance": 2449,
      "fruits": 2450,
      "lemon": 2451,
      "?\".": 2452,
      "eggs": 2453,
      "##ror": 2454,
      "moving": 2455,
      "##yal": 2456,
      "##ond": 2457,
      "chir": 2458,
      "week": 2459,
      "lazy": 2460,
      "bone": 2461,
      "feathers": 2462,
      "##aff": 2463,
      "fold": 2464,
      "mandy": 2465,
      "aunt": 2466,
      "splashed": 2467,
      "rich": 2468,
      "lead": 2469,
      "fis": 2470,
      "change": 2471,
      "smelly": 2472,
      "elderly": 2473,
      "dogs": 2474,
      "gar": 2475,
      "cri": 2476,
      "walks": 2477,
      "become": 2478,
      "pus": 2479,
      "disappeared": 2480,
      "pete": 2481,
      "father": 2482,
      "rid": 2483,
      "match": 2484,
      "thanks": 2485,
      "##itch": 2486,
      "add": 2487,
      "mov": 2488,
      "clap": 2489,
      "penny": 2490,
      "incred": 2491,
      "ellie": 2492,
      "lose": 2493,
      "mic": 2494,
      "shoot": 2495,
      "playground": 2496,
      "weak": 2497,
      "calling": 2498,
      "body": 2499,
      "bathroom": 2500,
      "exam": 2501,
      "licked": 2502,
      "loyal": 2503,
      "sugg": 2504,
      "horn": 2505,
      "moms": 2506,
      "mirror": 2507,
      "check": 2508,
      "noisy": 2509,
      "tiger": 2510,
      "questions": 2511,
      "adventur": 2512,
      "ter": 2513,
      "aw": 2514,
      "wrote": 2515,
      "##ory": 2516,
      "ord": 2517,
      "famous": 2518,
      "glow": 2519,
      "ind": 2520,
      "yours": 2521,
      "boys": 2522,
      "##land": 2523,
      "sell": 2524,
      "ang": 2525,
      "ext": 2526,
      "relax": 2527,
      "##hip": 2528,
      "incredible": 2529,
      "map": 2530,
      "dish": 2531,
      "skipped": 2532,
      "wheel": 2533,
      "covered": 2534,
      "rare": 2535,
      "lamp": 2536,
      "##ging": 2537,
      "drank": 2538,
      "soap": 2539,
      "content": 2540,
      "juicy": 2541,
      "##ination": 2542,
      "tape": 2543,
      "stones": 2544,
      "team": 2545,
      "figure": 2546,
      "straw": 2547,
      "borrow": 2548,
      "measure": 2549,
      "dig": 2550,
      "sailed": 2551,
      "bella": 2552,
      "turt": 2553,
      "nod": 2554,
      "##zed": 2555,
      "ella": 2556,
      "swan": 2557,
      "ruined": 2558,
      "##ots": 2559,
      "##ti": 2560,
      "balls": 2561,
      "those": 2562,
      "cleaned": 2563,
      "##ately": 2564,
      "barn": 2565,
      "chicken": 2566,
      "##umbled": 2567,
      "discovered": 2568,
      "##aw": 2569,
      "mod": 2570,
      "shows": 2571,
      "realised": 2572,
      "##eed": 2573,
      "coins": 2574,
      "extra": 2575,
      "needs": 2576,
      "joke": 2577,
      "branches": 2578,
      "balance": 2579,
      "bobo": 2580,
      "tweety": 2581,
      "diffic": 2582,
      "offered": 2583,
      "sadly": 2584,
      "##ating": 2585,
      "mighty": 2586,
      "decide": 2587,
      "adventurous": 2588,
      "dol": 2589,
      "##asing": 2590,
      "dolph": 2591,
      "towel": 2592,
      "##port": 2593,
      "motor": 2594,
      "snugg": 2595,
      "board": 2596,
      "ge": 2597,
      "tag": 2598,
      "##ron": 2599,
      "##aged": 2600,
      "thick": 2601,
      "difficult": 2602,
      "##ha": 2603,
      "organized": 2604,
      "jeal": 2605,
      "jealous": 2606,
      "weird": 2607,
      "toug": 2608,
      "unique": 2609,
      "birdie": 2610,
      "eye": 2611,
      "happening": 2612,
      "cover": 2613,
      "##keep": 2614,
      "guess": 2615,
      "##imed": 2616,
      "frown": 2617,
      "mrs": 2618,
      "lifted": 2619,
      "##izzy": 2620,
      "fright": 2621,
      "bottom": 2622,
      "colourful": 2623,
      "island": 2624,
      "##mo": 2625,
      "kindness": 2626,
      "knife": 2627,
      "learning": 2628,
      "##lies": 2629,
      "bald": 2630,
      "hunt": 2631,
      "sil": 2632,
      "coco": 2633,
      "hose": 2634,
      "##cil": 2635,
      "wand": 2636,
      "circle": 2637,
      "four": 2638,
      "crawled": 2639,
      "managed": 2640,
      "garage": 2641,
      "pencil": 2642,
      "##ges": 2643,
      "dizzy": 2644,
      "bur": 2645,
      "jewel": 2646,
      "zip": 2647,
      "cost": 2648,
      "desig": 2649,
      "arg": 2650,
      "compet": 2651,
      "##olog": 2652,
      "uncle": 2653,
      "tough": 2654,
      "##ddy": 2655,
      "saying": 2656,
      "chase": 2657,
      "squee": 2658,
      "balloons": 2659,
      "shake": 2660,
      "search": 2661,
      "word": 2662,
      "##ject": 2663,
      "turtle": 2664,
      "berries": 2665,
      "buzz": 2666,
      "apolog": 2667,
      "dave": 2668,
      "##imp": 2669,
      "smoke": 2670,
      "##ob": 2671,
      "whale": 2672,
      "##itar": 2673,
      "guitar": 2674,
      "strawber": 2675,
      "##illi": 2676,
      "hurts": 2677,
      "unus": 2678,
      "##ured": 2679,
      "!\".": 2680,
      "favour": 2681,
      "pointing": 2682,
      "norm": 2683,
      "pump": 2684,
      "pear": 2685,
      "##ready": 2686,
      "already": 2687,
      "unusual": 2688,
      "##keeper": 2689,
      "louder": 2690,
      "enjoying": 2691,
      "libr": 2692,
      "ref": 2693,
      "belonged": 2694,
      "added": 2695,
      "valu": 2696,
      "fool": 2697,
      "hero": 2698,
      "banana": 2699,
      "cheerful": 2700,
      "##oc": 2701,
      "excitedly": 2702,
      "trunk": 2703,
      "bossy": 2704,
      "spun": 2705,
      "##head": 2706,
      "favourite": 2707,
      "edge": 2708,
      "##rage": 2709,
      "harder": 2710,
      "giving": 2711,
      "record": 2712,
      "wake": 2713,
      "impressed": 2714,
      "wrapped": 2715,
      "market": 2716,
      "normal": 2717,
      "pip": 2718,
      "harm": 2719,
      "loudly": 2720,
      "sword": 2721,
      "flash": 2722,
      "trucks": 2723,
      "##nda": 2724,
      "choose": 2725,
      "pil": 2726,
      "terri": 2727,
      "nemo": 2728,
      "brilli": 2729,
      "stri": 2730,
      "grown": 2731,
      "escape": 2732,
      "##ilt": 2733,
      "soph": 2734,
      "brilliant": 2735,
      "##ym": 2736,
      "##anged": 2737,
      "##uct": 2738,
      "painting": 2739,
      "boxes": 2740,
      "ears": 2741,
      "scare": 2742,
      "anc": 2743,
      "goat": 2744,
      "cab": 2745,
      "proudly": 2746,
      "##alk": 2747,
      "frightened": 2748,
      "pee": 2749,
      "invited": 2750,
      "ancient": 2751,
      "against": 2752,
      "##fast": 2753,
      "study": 2754,
      "hats": 2755,
      "dreamed": 2756,
      "skin": 2757,
      "##ps": 2758,
      "circles": 2759,
      "##ature": 2760,
      "acce": 2761,
      "breakfast": 2762,
      "safely": 2763,
      "stubb": 2764,
      "rh": 2765,
      "depend": 2766,
      "stubborn": 2767,
      "means": 2768,
      "laughs": 2769,
      "##akes": 2770,
      "buttons": 2771,
      "happiness": 2772,
      "cabin": 2773,
      "bloom": 2774,
      "clay": 2775,
      "suit": 2776,
      "snee": 2777,
      "slipped": 2778,
      "cudd": 2779,
      "log": 2780,
      "##ara": 2781,
      "valuable": 2782,
      "unl": 2783,
      "shark": 2784,
      "helps": 2785,
      "brothers": 2786,
      "ducky": 2787,
      "fier": 2788,
      "stream": 2789,
      "cart": 2790,
      "lola": 2791,
      "son": 2792,
      "successful": 2793,
      "##orge": 2794,
      "walls": 2795,
      "fridge": 2796,
      "##edient": 2797,
      "lean": 2798,
      "dreams": 2799,
      "fat": 2800,
      "foolish": 2801,
      "fierce": 2802,
      "##laimed": 2803,
      "crayon": 2804,
      "rough": 2805,
      "sof": 2806,
      "shape": 2807,
      "cher": 2808,
      "##ouses": 2809,
      "shadow": 2810,
      "cro": 2811,
      "exclaimed": 2812,
      "office": 2813,
      "delicate": 2814,
      "icy": 2815,
      "nosy": 2816,
      "tomato": 2817,
      "suggested": 2818,
      "frag": 2819,
      "wagon": 2820,
      "corn": 2821,
      "##ado": 2822,
      "dead": 2823,
      "##omed": 2824,
      "rat": 2825,
      "space": 2826,
      "competit": 2827,
      "movie": 2828,
      "bounce": 2829,
      "city": 2830,
      "nicely": 2831,
      "obedient": 2832,
      "##ention": 2833,
      "egg": 2834,
      "mixed": 2835,
      "houses": 2836,
      "mem": 2837,
      "perform": 2838,
      "knows": 2839,
      "useful": 2840,
      "soar": 2841,
      "kinds": 2842,
      "patch": 2843,
      "wiped": 2844,
      "poured": 2845,
      "stove": 2846,
      "notice": 2847,
      "using": 2848,
      "crack": 2849,
      "clock": 2850,
      "falls": 2851,
      "locked": 2852,
      "tools": 2853,
      "shells": 2854,
      "enc": 2855,
      "sounded": 2856,
      "fre": 2857,
      "fragile": 2858,
      "george": 2859,
      "dough": 2860,
      "##uth": 2861,
      "##isted": 2862,
      "lights": 2863,
      "##atter": 2864,
      "weal": 2865,
      "##wards": 2866,
      "witch": 2867,
      "explored": 2868,
      "eng": 2869,
      "times": 2870,
      "lab": 2871,
      "rep": 2872,
      "bushes": 2873,
      "resc": 2874,
      "low": 2875,
      "fountain": 2876,
      "##dom": 2877,
      "spoiled": 2878,
      "print": 2879,
      "independ": 2880,
      "seem": 2881,
      "above": 2882,
      "dependable": 2883,
      "showing": 2884,
      "spinning": 2885,
      "bags": 2886,
      "unk": 2887,
      "jolly": 2888,
      "stumbled": 2889,
      "themselves": 2890,
      "thoughtful": 2891,
      "orig": 2892,
      "rode": 2893,
      "cleaning": 2894,
      "raced": 2895,
      "playful": 2896,
      "bees": 2897,
      "##arth": 2898,
      "fingers": 2899,
      "practice": 2900,
      "##inal": 2901,
      "built": 2902,
      "earth": 2903,
      "parrot": 2904,
      "twig": 2905,
      "steal": 2906,
      "smaller": 2907,
      "scrat": 2908,
      "delighted": 2909,
      "cam": 2910,
      "helm": 2911,
      "brightly": 2912,
      "##ines": 2913,
      "enorm": 2914,
      "bitter": 2915,
      "enormous": 2916,
      "gem": 2917,
      "acorn": 2918,
      "reminded": 2919,
      "tele": 2920,
      "tummy": 2921,
      "kicked": 2922,
      "cop": 2923,
      "handed": 2924,
      "##erry": 2925,
      "admired": 2926,
      "counted": 2927,
      "original": 2928,
      "solve": 2929,
      "angel": 2930,
      "independent": 2931,
      "toby": 2932,
      "ways": 2933,
      "roof": 2934,
      "shone": 2935,
      "changed": 2936,
      "yet": 2937,
      "loll": 2938,
      "unkn": 2939,
      "##corn": 2940,
      "ol": 2941,
      "beak": 2942,
      "sniff": 2943,
      "popcorn": 2944,
      "hoop": 2945,
      "##ience": 2946,
      "whispered": 2947,
      "cone": 2948,
      "beep": 2949,
      "dove": 2950,
      "bean": 2951,
      "mis": 2952,
      "hammer": 2953,
      "moder": 2954,
      "painted": 2955,
      "stronger": 2956,
      "terrible": 2957,
      "hairy": 2958,
      "brace": 2959,
      "serious": 2960,
      "##iable": 2961,
      "chose": 2962,
      "umb": 2963,
      "potato": 2964,
      "##ither": 2965,
      "umbre": 2966,
      "##anut": 2967,
      "peanut": 2968,
      "tunn": 2969,
      "unknown": 2970,
      "##ipop": 2971,
      "lollipop": 2972,
      "dust": 2973,
      "mike": 2974,
      "reliable": 2975,
      "joey": 2976,
      "strugg": 2977,
      "leaving": 2978,
      "##ict": 2979,
      "guard": 2980,
      "sauce": 2981,
      "##ony": 2982,
      "allowed": 2983,
      "clum": 2984,
      "yuck": 2985,
      "finding": 2986,
      "boats": 2987,
      "pumpkin": 2988,
      "toast": 2989,
      "compa": 2990,
      "##uring": 2991,
      "##inary": 2992,
      "wrap": 2993,
      "joined": 2994,
      "##under": 2995,
      "##iew": 2996,
      "hay": 2997,
      "spring": 2998,
      "picking": 2999,
      "##pid": 3000,
      "salad": 3001,
      "half": 3002,
      "dolphin": 3003,
      "thinking": 3004,
      "##robe": 3005,
      "thunder": 3006,
      "rubb": 3007,
      "##het": 3008,
      "doesn": 3009,
      "bump": 3010,
      "view": 3011,
      "tank": 3012,
      "goose": 3013,
      "modern": 3014,
      "post": 3015,
      "stupid": 3016,
      "barber": 3017,
      "ing": 3018,
      "kay": 3019,
      "costum": 3020,
      "tor": 3021,
      "forth": 3022,
      "advice": 3023,
      "regular": 3024,
      "stamp": 3025,
      "spag": 3026,
      "spaghet": 3027,
      "spaghetti": 3028,
      "clumsy": 3029,
      "cheap": 3030,
      "sink": 3031,
      "gasped": 3032,
      "flex": 3033,
      "metal": 3034,
      "wealthy": 3035,
      "sleeping": 3036,
      "polly": 3037,
      "magn": 3038,
      "create": 3039,
      "andy": 3040,
      "##com": 3041,
      "##tern": 3042,
      "yarn": 3043,
      "twist": 3044,
      "tu": 3045,
      "diam": 3046,
      "diamond": 3047,
      "rub": 3048,
      "compass": 3049,
      "##gu": 3050,
      "##par": 3051,
      "##ilty": 3052,
      "guilty": 3053,
      "friendship": 3054,
      "marble": 3055,
      "ingred": 3056,
      "ingredient": 3057,
      "pirate": 3058,
      "nobody": 3059,
      "stat": 3060,
      "telling": 3061,
      "march": 3062,
      "chirp": 3063,
      "##ipp": 3064,
      "searching": 3065,
      "rushed": 3066,
      "##ugged": 3067,
      "nature": 3068,
      "stairs": 3069,
      "engine": 3070,
      "##ations": 3071,
      "paul": 3072,
      "zeb": 3073,
      "crazy": 3074,
      "driving": 3075,
      "kim": 3076,
      "fu": 3077,
      "zebra": 3078,
      "arrow": 3079,
      "##shion": 3080,
      "sophie": 3081,
      "bull": 3082,
      "beet": 3083,
      "dull": 3084,
      "graceful": 3085,
      "mask": 3086,
      "missing": 3087,
      "flexible": 3088,
      "holds": 3089,
      "speed": 3090,
      "square": 3091,
      "knock": 3092,
      "design": 3093,
      "popular": 3094,
      "shiver": 3095,
      "super": 3096,
      "croco": 3097,
      "dreaming": 3098,
      "##io": 3099,
      "jacket": 3100,
      "reading": 3101,
      "carrying": 3102,
      "meal": 3103,
      "destro": 3104,
      "umbrella": 3105,
      "hen": 3106,
      "library": 3107,
      "crocod": 3108,
      "washed": 3109,
      "##irsty": 3110,
      "deliver": 3111,
      "camera": 3112,
      "pige": 3113,
      "shel": 3114,
      "impressive": 3115,
      "truth": 3116,
      "stage": 3117,
      "careless": 3118,
      "pebble": 3119,
      "sparkled": 3120,
      "butterflies": 3121,
      "seeds": 3122,
      "##umbers": 3123,
      "fresh": 3124,
      "##illa": 3125,
      "imagined": 3126,
      "compassion": 3127,
      "hurry": 3128,
      "prize": 3129,
      "tied": 3130,
      "ending": 3131,
      "comb": 3132,
      "##ief": 3133,
      "bigg": 3134,
      "encou": 3135,
      "mole": 3136,
      "ingredients": 3137,
      "alex": 3138,
      "##ision": 3139,
      "opens": 3140,
      "reward": 3141,
      "##anger": 3142,
      "handle": 3143,
      "##ric": 3144,
      "enth": 3145,
      "wing": 3146,
      "mailbox": 3147,
      "rubbed": 3148,
      "pepper": 3149,
      "swe": 3150,
      "stranger": 3151,
      "rece": 3152,
      "order": 3153,
      "poppy": 3154,
      "##apped": 3155,
      "early": 3156,
      "load": 3157,
      "cryst": 3158,
      "persist": 3159,
      "yay": 3160,
      "##usi": 3161,
      "gum": 3162,
      "enthusi": 3163,
      "spilled": 3164,
      "envel": 3165,
      "discover": 3166,
      "desk": 3167,
      "temp": 3168,
      "##fish": 3169,
      "wire": 3170,
      "pow": 3171,
      "flashlight": 3172,
      "wheels": 3173,
      "charl": 3174,
      "pattern": 3175,
      "pengu": 3176,
      "humble": 3177,
      "thirsty": 3178,
      "fork": 3179,
      "nurse": 3180,
      "numbers": 3181,
      "shocked": 3182,
      "bracelet": 3183,
      "rug": 3184,
      "cooking": 3185,
      "agree": 3186,
      "cere": 3187,
      "##time": 3188,
      "##ibb": 3189,
      "object": 3190,
      "surf": 3191,
      "env": 3192,
      "peeked": 3193,
      "uncom": 3194,
      "torn": 3195,
      "ahead": 3196,
      "pup": 3197,
      "##up": 3198,
      "comput": 3199,
      "##reen": 3200,
      "anx": 3201,
      "badly": 3202,
      "pant": 3203,
      "uncomfortable": 3204,
      "warned": 3205,
      "travel": 3206,
      "ja": 3207,
      "##bled": 3208,
      "sorts": 3209,
      "intell": 3210,
      "intellig": 3211,
      "lau": 3212,
      "statue": 3213,
      "compl": 3214,
      "bent": 3215,
      "raven": 3216,
      "scale": 3217,
      "counting": 3218,
      "sunflower": 3219,
      "anxious": 3220,
      "pale": 3221,
      "placed": 3222,
      "shut": 3223,
      "towers": 3224,
      "growing": 3225,
      "beetle": 3226,
      "note": 3227,
      "value": 3228,
      "dea": 3229,
      "complet": 3230,
      "spoke": 3231,
      "older": 3232,
      "##iches": 3233,
      "mush": 3234,
      "deaf": 3235,
      "windows": 3236,
      "biggest": 3237,
      "slides": 3238,
      "crane": 3239,
      "nail": 3240,
      "celebrate": 3241,
      "crocodile": 3242,
      "flute": 3243,
      "gloom": 3244,
      "stack": 3245,
      "harmless": 3246,
      "scatter": 3247,
      "scoot": 3248,
      "tunnel": 3249,
      "univer": 3250,
      "cupboard": 3251,
      "yaw": 3252,
      "gh": 3253,
      "ghost": 3254,
      "beauty": 3255,
      "stops": 3256,
      "persistent": 3257,
      "muff": 3258,
      "matt": 3259,
      "gifted": 3260,
      "fort": 3261,
      "trick": 3262,
      "perm": 3263,
      "charming": 3264,
      "pian": 3265,
      "exper": 3266,
      "flour": 3267,
      "cereal": 3268,
      "refused": 3269,
      "aid": 3270,
      "ordinary": 3271,
      "destroy": 3272,
      "spi": 3273,
      "hung": 3274,
      "skip": 3275,
      "carto": 3276,
      "tur": 3277,
      "question": 3278,
      "brownie": 3279,
      "pony": 3280,
      "han": 3281,
      "base": 3282,
      "curt": 3283,
      "quack": 3284,
      "pretending": 3285,
      "send": 3286,
      "camp": 3287,
      "##een": 3288,
      "sett": 3289,
      "piano": 3290,
      "blueber": 3291,
      "triang": 3292,
      "neat": 3293,
      "track": 3294,
      "snuggled": 3295,
      "buddy": 3296,
      "courage": 3297,
      "sandy": 3298,
      "sandwiches": 3299,
      "lively": 3300,
      "chasing": 3301,
      "lizard": 3302,
      "oct": 3303,
      "si": 3304,
      "hunter": 3305,
      "gloomy": 3306,
      "curtain": 3307,
      "crystal": 3308,
      "##ices": 3309,
      "octop": 3310,
      "ot": 3311,
      "octopus": 3312,
      "##used": 3313,
      "envelope": 3314,
      "vi": 3315,
      "sofa": 3316,
      "package": 3317,
      "computer": 3318,
      "names": 3319,
      "crawl": 3320,
      "ignor": 3321,
      "parade": 3322,
      "mushroom": 3323,
      "intelligent": 3324,
      "collar": 3325,
      "tweetie": 3326,
      "##ocer": 3327,
      "alert": 3328,
      "bri": 3329,
      "jumps": 3330,
      "drawer": 3331,
      "station": 3332,
      "rules": 3333,
      "repe": 3334,
      "miser": 3335,
      "miserable": 3336,
      "soldier": 3337,
      "creatures": 3338,
      "##pers": 3339,
      "disg": 3340,
      "ignorant": 3341,
      "helmet": 3342,
      "needle": 3343,
      "disgust": 3344,
      "twirled": 3345,
      "jet": 3346,
      "shaking": 3347,
      "anywhere": 3348,
      "##ceed": 3349,
      "seal": 3350,
      "bicy": 3351,
      "jerry": 3352,
      "attract": 3353,
      "cocoa": 3354,
      "gir": 3355,
      "task": 3356,
      "henry": 3357,
      "##aches": 3358,
      "dug": 3359,
      "carp": 3360,
      "thief": 3361,
      "trap": 3362,
      "##ses": 3363,
      "five": 3364,
      "##ith": 3365,
      "bandage": 3366,
      "fireman": 3367,
      "practiced": 3368,
      "pigeon": 3369,
      "ener": 3370,
      "##stri": 3371,
      "pasta": 3372,
      "cap": 3373,
      "##iest": 3374,
      "tooth": 3375,
      "ostri": 3376,
      "charlie": 3377,
      "vroom": 3378,
      "##oe": 3379,
      "helpless": 3380,
      "cricket": 3381,
      "annie": 3382,
      "led": 3383,
      "giraff": 3384,
      "chu": 3385,
      "phot": 3386,
      "jeep": 3387,
      "vide": 3388,
      "radio": 3389,
      "turkey": 3390,
      "shine": 3391,
      "##kers": 3392,
      "bounced": 3393,
      "otter": 3394,
      "chubby": 3395,
      "##cond": 3396,
      "stretch": 3397,
      "compassionate": 3398,
      "second": 3399,
      "everyday": 3400,
      "##cut": 3401,
      "trump": 3402,
      "impat": 3403,
      "trash": 3404,
      "sin": 3405,
      "club": 3406,
      "screen": 3407,
      "##urb": 3408,
      "papa": 3409,
      "thread": 3410,
      "leash": 3411,
      "attractive": 3412,
      "disturb": 3413,
      "decorate": 3414,
      "tire": 3415,
      "hipp": 3416,
      "letters": 3417,
      "case": 3418,
      "##orable": 3419,
      "succeed": 3420,
      "stirred": 3421,
      "wishes": 3422,
      "pun": 3423,
      "##keys": 3424,
      "competitive": 3425,
      "spir": 3426,
      "##heart": 3427,
      "quar": 3428,
      "stretched": 3429,
      "gor": 3430,
      "##gie": 3431,
      "impatient": 3432,
      "waff": 3433,
      "further": 3434,
      "chance": 3435,
      "era": 3436,
      "brighter": 3437,
      "cube": 3438,
      "pants": 3439,
      "stickers": 3440,
      "anyway": 3441,
      "troubled": 3442,
      "steps": 3443,
      "disgusting": 3444,
      "broc": 3445,
      "allig": 3446,
      "attic": 3447,
      "broccol": 3448,
      "jug": 3449,
      "somewhere": 3450,
      "dess": 3451,
      "broccoli": 3452,
      "sweetheart": 3453,
      "mug": 3454,
      "restless": 3455,
      "adorable": 3456,
      "lilly": 3457,
      "comfort": 3458,
      "aftern": 3459,
      "afternoon": 3460,
      "itself": 3461,
      "restaur": 3462,
      "restaurant": 3463,
      "##arian": 3464,
      "candle": 3465,
      "##az": 3466,
      "carpet": 3467,
      "ten": 3468,
      "danny": 3469,
      "fearful": 3470,
      "whiskers": 3471,
      "distant": 3472,
      "shoe": 3473,
      "nuts": 3474,
      "pressed": 3475,
      "##ac": 3476,
      "ants": 3477,
      "cooked": 3478,
      "envious": 3479,
      "trumpet": 3480,
      "tray": 3481,
      "respectful": 3482,
      "##night": 3483,
      "filthy": 3484,
      "leop": 3485,
      "helic": 3486,
      "##opter": 3487,
      "helicopter": 3488,
      "enthusiastic": 3489,
      "nowhere": 3490,
      "screw": 3491,
      "summer": 3492,
      "spirit": 3493,
      "kang": 3494,
      "vine": 3495,
      "listening": 3496,
      "paws": 3497,
      "hook": 3498,
      "dear": 3499,
      "ostrich": 3500,
      "monkeys": 3501,
      "##aroo": 3502,
      "batht": 3503,
      "lightning": 3504,
      "kangaroo": 3505,
      "pipe": 3506,
      "repair": 3507,
      "harsh": 3508,
      "zi": 3509,
      "bathtub": 3510,
      "poem": 3511,
      "ribb": 3512,
      "cards": 3513,
      "por": 3514,
      "starts": 3515,
      "unpack": 3516,
      "meas": 3517,
      "melt": 3518,
      "##case": 3519,
      "giggle": 3520,
      "belt": 3521,
      "explain": 3522,
      "admire": 3523,
      "spell": 3524,
      "mim": 3525,
      "bicycle": 3526,
      "panda": 3527,
      "math": 3528,
      "##ips": 3529,
      "cows": 3530,
      "vol": 3531,
      "barking": 3532,
      "scooter": 3533,
      "separ": 3534,
      "firework": 3535,
      "shouts": 3536,
      "sent": 3537,
      "aer": 3538,
      "comet": 3539,
      "country": 3540,
      "##opl": 3541,
      "sandbox": 3542,
      "aeropl": 3543,
      "##stairs": 3544,
      "backpack": 3545,
      "fle": 3546,
      "happier": 3547,
      "message": 3548,
      "viol": 3549,
      "quite": 3550,
      "##cycle": 3551,
      "speak": 3552,
      "hed": 3553,
      "mimi": 3554,
      "wheat": 3555,
      "pilot": 3556,
      "gorilla": 3557,
      "impro": 3558,
      "maria": 3559,
      "hippo": 3560,
      "squash": 3561,
      "modest": 3562,
      "lee": 3563,
      "leopard": 3564,
      "yogurt": 3565,
      "jellyfish": 3566,
      "jess": 3567,
      "kate": 3568,
      "batt": 3569,
      "lid": 3570,
      "obser": 3571,
      "ur": 3572,
      "meat": 3573,
      "millie": 3574,
      "dessert": 3575,
      "support": 3576,
      "sort": 3577,
      "harry": 3578,
      "##hood": 3579,
      "forgave": 3580,
      "stared": 3581,
      "hedge": 3582,
      "alligator": 3583,
      "oat": 3584,
      "tripped": 3585,
      "breat": 3586,
      "split": 3587,
      "cact": 3588,
      "melon": 3589,
      "given": 3590,
      "rescue": 3591,
      "shade": 3592,
      "pal": 3593,
      "mule": 3594,
      "cats": 3595,
      "human": 3596,
      "prov": 3597,
      "riding": 3598,
      "paid": 3599,
      "salt": 3600,
      "rice": 3601,
      "bin": 3602,
      "##xi": 3603,
      "swinging": 3604,
      "organize": 3605,
      "size": 3606,
      "mild": 3607,
      "inse": 3608,
      "purse": 3609,
      "sle": 3610,
      "##can": 3611,
      "ped": 3612,
      "hall": 3613,
      "however": 3614,
      "violin": 3615,
      "bananas": 3616,
      "starting": 3617,
      "##ogn": 3618,
      "##ci": 3619,
      "tuna": 3620,
      "recogn": 3621,
      "triangle": 3622,
      "raft": 3623,
      "holes": 3624,
      "sheet": 3625,
      "behave": 3626,
      "roared": 3627,
      "sock": 3628,
      "cactus": 3629,
      "grabs": 3630,
      "twink": 3631,
      "pushing": 3632,
      "rod": 3633,
      "##bul": 3634,
      "silver": 3635,
      "finds": 3636,
      "##ophone": 3637,
      "bears": 3638,
      "haircut": 3639,
      "brus": 3640,
      "volcan": 3641,
      "chalk": 3642,
      "knot": 3643,
      "strawberry": 3644,
      "##seum": 3645,
      "volcano": 3646,
      "museum": 3647,
      "bikes": 3648,
      "energy": 3649,
      "cel": 3650,
      "pole": 3651,
      "boots": 3652,
      "seeing": 3653,
      "evening": 3654,
      "chain": 3655,
      "ended": 3656,
      "##ebook": 3657,
      "notebook": 3658,
      "lions": 3659,
      "either": 3660,
      "##aled": 3661,
      "avoc": 3662,
      "scold": 3663,
      "##chy": 3664,
      "porch": 3665,
      "jokes": 3666,
      "lend": 3667,
      "palace": 3668,
      "imagine": 3669,
      "pulls": 3670,
      "##chan": 3671,
      "appre": 3672,
      "steak": 3673,
      "rolling": 3674,
      "lear": 3675,
      "climbing": 3676,
      "learnt": 3677,
      "judge": 3678,
      "##urch": 3679,
      "resist": 3680,
      "taxi": 3681,
      "wallet": 3682,
      "prun": 3683,
      "reind": 3684,
      "sweater": 3685,
      "frowned": 3686,
      "reinde": 3687,
      "appreci": 3688,
      "laund": 3689,
      "ins": 3690,
      "magnet": 3691,
      "##ucked": 3692,
      "pit": 3693,
      "trains": 3694,
      "comf": 3695,
      "pad": 3696,
      "ink": 3697,
      "laundry": 3698,
      "rever": 3699,
      "barrel": 3700,
      "shopkeeper": 3701,
      "putting": 3702,
      "penguin": 3703,
      "since": 3704,
      "unlock": 3705,
      "james": 3706,
      "saus": 3707,
      "visited": 3708,
      "hive": 3709,
      "goal": 3710,
      "drawings": 3711,
      "micr": 3712,
      "hadn": 3713,
      "papers": 3714,
      "tony": 3715,
      "quarrel": 3716,
      "##form": 3717,
      "sprink": 3718,
      "sailor": 3719,
      "sticker": 3720,
      "neighbour": 3721,
      "##ooped": 3722,
      "##me": 3723,
      "##ffee": 3724,
      "falling": 3725,
      "rhin": 3726,
      "##icer": 3727,
      "clapping": 3728,
      "shrimp": 3729,
      "oy": 3730,
      "tricks": 3731,
      "##iling": 3732,
      "shelter": 3733,
      "shield": 3734,
      "reindeer": 3735,
      "ambul": 3736,
      "zoomed": 3737,
      "tube": 3738,
      "##play": 3739,
      "coffee": 3740,
      "airport": 3741,
      "celery": 3742,
      "disc": 3743,
      "display": 3744,
      "marry": 3745,
      "avail": 3746,
      "troph": 3747,
      "microphone": 3748,
      "alive": 3749,
      "wool": 3750,
      "smells": 3751,
      "winter": 3752,
      "apologized": 3753,
      "##cast": 3754,
      "leaned": 3755,
      "##uli": 3756,
      "shakes": 3757,
      "marched": 3758,
      "softly": 3759,
      "peek": 3760,
      "dive": 3761,
      "sandcast": 3762,
      "film": 3763,
      "ambulance": 3764,
      "checked": 3765,
      "rubber": 3766,
      "colours": 3767,
      "herb": 3768,
      "pair": 3769,
      "dishes": 3770,
      "available": 3771,
      "belongs": 3772,
      "maggie": 3773,
      "aeroplane": 3774,
      "spike": 3775,
      "costume": 3776,
      "polish": 3777,
      "fields": 3778,
      "sir": 3779,
      "smith": 3780,
      "loop": 3781,
      "ske": 3782,
      "yach": 3783,
      "mechan": 3784,
      "incl": 3785,
      "mechanic": 3786,
      "shovel": 3787,
      "planet": 3788,
      "skill": 3789,
      "quit": 3790,
      "fisher": 3791,
      "soil": 3792,
      "eraser": 3793,
      "hoping": 3794,
      "baking": 3795,
      "basketball": 3796,
      "pushes": 3797,
      "grapes": 3798,
      "elev": 3799,
      "shouldn": 3800,
      "medal": 3801,
      "tap": 3802,
      "stom": 3803,
      "onion": 3804,
      "bul": 3805,
      "short": 3806,
      "##very": 3807,
      "##nam": 3808,
      "art": 3809,
      "kat": 3810,
      "insect": 3811,
      "trophy": 3812,
      "##ense": 3813,
      "perfectly": 3814,
      "raining": 3815,
      "complete": 3816,
      "player": 3817,
      "ray": 3818,
      "##happy": 3819,
      "##ages": 3820,
      "yacht": 3821,
      "church": 3822,
      "feelings": 3823,
      "unhappy": 3824,
      "elevator": 3825,
      "diary": 3826,
      "god": 3827,
      "glove": 3828,
      "journal": 3829,
      "minute": 3830,
      "men": 3831,
      "closely": 3832,
      "magaz": 3833,
      "yoga": 3834,
      "fog": 3835,
      "tut": 3836,
      "page": 3837,
      "golf": 3838,
      "eagerly": 3839,
      "freez": 3840,
      "clara": 3841,
      "disag": 3842,
      "##inking": 3843,
      "cord": 3844,
      "bulb": 3845,
      "coal": 3846,
      "cardboard": 3847,
      "##eath": 3848,
      "mos": 3849,
      "barks": 3850,
      "stuffed": 3851,
      "furn": 3852,
      "vend": 3853,
      "##iture": 3854,
      "furniture": 3855,
      "wife": 3856,
      "##quit": 3857,
      "sunset": 3858,
      "mosquit": 3859,
      "frogs": 3860,
      "drops": 3861,
      "oil": 3862,
      "cauli": 3863,
      "bree": 3864,
      "football": 3865,
      "factor": 3866,
      "flies": 3867,
      "imagination": 3868,
      "tub": 3869,
      "treasures": 3870,
      "knob": 3871,
      "peach": 3872,
      "lie": 3873,
      "cooler": 3874,
      "skull": 3875,
      "flame": 3876,
      "switch": 3877,
      "mosquito": 3878,
      "headed": 3879,
      "offer": 3880,
      "##gen": 3881,
      "rag": 3882,
      "counter": 3883,
      "factory": 3884,
      "##ween": 3885,
      "between": 3886,
      "hotel": 3887,
      "jul": 3888,
      "giraffe": 3889,
      "ornam": 3890,
      "ornament": 3891,
      "##place": 3892,
      "frame": 3893,
      "blowing": 3894,
      "boo": 3895,
      "disappear": 3896,
      "painter": 3897,
      "skelet": 3898,
      "mop": 3899,
      "hut": 3900,
      "rot": 3901,
      "rele": 3902,
      "sung": 3903,
      "cauliflower": 3904,
      "isn": 3905,
      "hors": 3906,
      "##zzy": 3907,
      "motorcycle": 3908,
      "breaks": 3909,
      "cushion": 3910,
      "rhinocer": 3911,
      "laser": 3912,
      "swung": 3913,
      "rosie": 3914,
      "fishing": 3915,
      "rhinoceros": 3916,
      "fisherman": 3917,
      "##right": 3918,
      "##ories": 3919,
      "cheek": 3920,
      "shouting": 3921,
      "folder": 3922,
      "cups": 3923,
      "vendor": 3924,
      "video": 3925,
      "mixer": 3926,
      "wipe": 3927,
      "soc": 3928,
      "##rect": 3929,
      "battery": 3930,
      "created": 3931,
      "pirates": 3932,
      "soccer": 3933,
      "cable": 3934,
      "poke": 3935,
      "gear": 3936,
      "powder": 3937,
      "attention": 3938,
      "slept": 3939,
      "##bol": 3940,
      "popped": 3941,
      "anch": 3942,
      "weather": 3943,
      "##ides": 3944,
      "luckily": 3945,
      "jazz": 3946,
      "alright": 3947,
      "surre": 3948,
      "surrender": 3949,
      "stud": 3950,
      "##loo": 3951,
      "capt": 3952,
      "##sses": 3953,
      "sym": 3954,
      "symbol": 3955,
      "flea": 3956,
      "horses": 3957,
      "##angu": 3958,
      "langu": 3959,
      "iron": 3960,
      "heads": 3961,
      "accep": 3962,
      "vet": 3963,
      "maze": 3964,
      "##uc": 3965,
      "##rod": 3966,
      "greed": 3967,
      "swamp": 3968,
      "introd": 3969,
      "tutor": 3970,
      "forgotten": 3971,
      "kingdom": 3972,
      "##izes": 3973,
      "throws": 3974,
      "sub": 3975,
      "celebrated": 3976,
      "tina": 3977,
      "##unately": 3978,
      "point": 3979,
      "encoura": 3980,
      "glowing": 3981,
      "skeleton": 3982,
      "pine": 3983,
      "mistakes": 3984,
      "squirrels": 3985,
      "igloo": 3986,
      "lives": 3987,
      "surround": 3988,
      "trail": 3989,
      "batter": 3990,
      "fireplace": 3991,
      "complain": 3992,
      "##lasses": 3993,
      "vest": 3994,
      "##ckey": 3995,
      "sunglasses": 3996,
      "waving": 3997,
      "hockey": 3998,
      "im": 3999,
      "breeze": 4000,
      "sneak": 4001,
      "ax": 4002,
      "anchor": 4003,
      "reve": 4004,
      "claw": 4005,
      "baseball": 4006,
      "##hero": 4007,
      "superhero": 4008,
      "seas": 4009,
      "ga": 4010,
      "parent": 4011,
      "memories": 4012,
      "streng": 4013,
      "##ache": 4014,
      "photo": 4015,
      "snowy": 4016,
      "ceiling": 4017,
      "dancer": 4018,
      "miner": 4019,
      "petals": 4020,
      "slipp": 4021,
      "hanging": 4022,
      "##ney": 4023,
      "bury": 4024,
      "strength": 4025,
      "eaten": 4026,
      "##chie": 4027,
      "points": 4028,
      "bang": 4029,
      "zipper": 4030,
      "temple": 4031,
      "discu": 4032,
      "newsp": 4033,
      "musician": 4034,
      "newspap": 4035,
      "puddles": 4036,
      "micro": 4037,
      "during": 4038,
      "doggy": 4039,
      "cob": 4040,
      "chickens": 4041,
      "##ef": 4042,
      "trave": 4043,
      "chess": 4044,
      "theater": 4045,
      "staff": 4046,
      "novel": 4047,
      "grin": 4048,
      "sniffed": 4049,
      "uniform": 4050,
      "argue": 4051,
      "radish": 4052,
      "microsc": 4053,
      "writing": 4054,
      "napkin": 4055,
      "avocado": 4056,
      "##vent": 4057,
      "golden": 4058,
      "greedy": 4059,
      "invest": 4060,
      "lotion": 4061,
      "##chair": 4062,
      "shoulder": 4063,
      "investig": 4064,
      "bouncing": 4065,
      "lime": 4066,
      "throwing": 4067,
      "meeting": 4068,
      "axe": 4069,
      "kayak": 4070,
      "##medi": 4071,
      "##erc": 4072,
      "quietly": 4073,
      "microscope": 4074,
      "immedi": 4075,
      "welcomed": 4076,
      "freezer": 4077,
      "immediately": 4078,
      "pist": 4079,
      "##aking": 4080,
      "exerc": 4081,
      "flapped": 4082,
      "pistol": 4083,
      "mattress": 4084,
      "slippery": 4085,
      "accepted": 4086,
      "##ssible": 4087,
      "spear": 4088,
      "news": 4089,
      "myst": 4090,
      "vall": 4091,
      "##web": 4092,
      "wigg": 4093,
      "##ipping": 4094,
      "crib": 4095,
      "lawy": 4096,
      "suff": 4097,
      "skirt": 4098,
      "armchair": 4099,
      "doors": 4100,
      "sailing": 4101,
      "plastic": 4102,
      "##reek": 4103,
      "fought": 4104,
      "creek": 4105,
      "makeup": 4106,
      "cobweb": 4107,
      "##te": 4108,
      "##arm": 4109,
      "oyster": 4110,
      "investigate": 4111,
      "mystery": 4112,
      "yield": 4113,
      "##house": 4114,
      "cared": 4115,
      "beef": 4116,
      "sticky": 4117,
      "weigh": 4118,
      "cub": 4119,
      "reef": 4120,
      "##ison": 4121,
      "oak": 4122,
      "chim": 4123,
      "yum": 4124,
      "fauc": 4125,
      "freddy": 4126,
      "ticket": 4127,
      "appla": 4128,
      "toil": 4129,
      "moves": 4130,
      "prevent": 4131,
      "##esday": 4132,
      "regret": 4133,
      "cherries": 4134,
      "tip": 4135,
      "##ler": 4136,
      "worth": 4137,
      "splashing": 4138,
      "passport": 4139,
      "##was": 4140,
      "##inked": 4141,
      "magazine": 4142,
      "applaud": 4143,
      "faucet": 4144,
      "collected": 4145,
      "separate": 4146,
      "dishwas": 4147,
      "tug": 4148,
      "alarm": 4149,
      "sprayed": 4150,
      "muffin": 4151,
      "entered": 4152,
      "dishwasher": 4153,
      "calls": 4154,
      "chimney": 4155,
      "presents": 4156,
      "raz": 4157,
      "mint": 4158,
      "captain": 4159,
      "toilet": 4160,
      "shrugged": 4161,
      "rise": 4162,
      "shrink": 4163,
      "happens": 4164,
      "ble": 4165,
      "keeping": 4166,
      "ruby": 4167,
      "attach": 4168,
      "castles": 4169,
      "flutter": 4170,
      "easily": 4171,
      "lawyer": 4172,
      "veil": 4173,
      "meow": 4174,
      "milly": 4175,
      "scolded": 4176,
      "classroom": 4177,
      "choice": 4178,
      "blankets": 4179,
      "accept": 4180,
      "tucked": 4181,
      "jewelry": 4182,
      "letting": 4183,
      "sparkle": 4184,
      "missile": 4185,
      "ignored": 4186,
      "wags": 4187,
      "appro": 4188,
      "##sit": 4189,
      "rake": 4190,
      "##mand": 4191,
      "apart": 4192,
      "trusted": 4193,
      "cane": 4194,
      "opera": 4195,
      "ward": 4196,
      "veter": 4197,
      "wed": 4198,
      "veterin": 4199,
      "veterinarian": 4200,
      "requ": 4201,
      "straight": 4202,
      "lawn": 4203,
      "burned": 4204,
      "language": 4205,
      "wardrobe": 4206,
      "##mend": 4207,
      "incre": 4208,
      "dressed": 4209,
      "caring": 4210,
      "candles": 4211,
      "shower": 4212,
      "perfu": 4213,
      "aut": 4214,
      "chairs": 4215,
      "trade": 4216,
      "cabinet": 4217,
      "cell": 4218,
      "##ival": 4219,
      "claws": 4220,
      "##act": 4221,
      "stable": 4222,
      "coats": 4223,
      "shamp": 4224,
      "shampoo": 4225,
      "delay": 4226,
      "bookshe": 4227,
      "olive": 4228,
      "blueberries": 4229,
      "planes": 4230,
      "crawling": 4231,
      "recom": 4232,
      "puzzles": 4233,
      "valley": 4234,
      "recommend": 4235,
      "razor": 4236,
      "mustache": 4237,
      "##anges": 4238,
      "bother": 4239,
      "##vision": 4240,
      "tornado": 4241,
      "##ives": 4242,
      "lumber": 4243,
      "kisses": 4244,
      "fuel": 4245,
      "##men": 4246,
      "##ray": 4247,
      "hopes": 4248,
      "pur": 4249,
      "bookcase": 4250,
      "follows": 4251,
      "blinked": 4252,
      "##ement": 4253,
      "newspaper": 4254,
      "blouse": 4255,
      "grill": 4256,
      "gym": 4257,
      "##mer": 4258,
      "teleph": 4259,
      "subway": 4260,
      "crossed": 4261,
      "reverse": 4262,
      "bookshelf": 4263,
      "rooms": 4264,
      "sizes": 4265,
      "##iday": 4266,
      "perfume": 4267,
      "steam": 4268,
      "!'": 4269,
      "##eas": 4270,
      "squeezed": 4271,
      "improve": 4272,
      "helper": 4273,
      "cliff": 4274,
      "sigh": 4275,
      "squeeze": 4276,
      "unfort": 4277,
      "file": 4278,
      "amazement": 4279,
      "telephone": 4280,
      "stro": 4281,
      "crow": 4282,
      "following": 4283,
      "television": 4284,
      "##orted": 4285,
      "fest": 4286,
      "cale": 4287,
      "##ety": 4288,
      "matches": 4289,
      "##iction": 4290,
      "pinch": 4291,
      "ollie": 4292,
      "ou": 4293,
      "##omes": 4294,
      "##lier": 4295,
      "poked": 4296,
      "diction": 4297,
      "serve": 4298,
      "ringing": 4299,
      "snap": 4300,
      "yucky": 4301,
      "demand": 4302,
      "rabbits": 4303,
      "unfortunately": 4304,
      "waste": 4305,
      "prop": 4306,
      "dictionary": 4307,
      "experience": 4308,
      "birdc": 4309,
      "pra": 4310,
      "hol": 4311,
      "sneeze": 4312,
      "birdcage": 4313,
      "row": 4314,
      "crash": 4315,
      "holiday": 4316,
      "begged": 4317,
      "berry": 4318,
      "recei": 4319,
      "ignore": 4320,
      "invite": 4321,
      "warmth": 4322,
      "rail": 4323,
      "blood": 4324,
      "fallen": 4325,
      "##hic": 4326,
      "vehic": 4327,
      "enter": 4328,
      "weep": 4329,
      "ideas": 4330,
      "growled": 4331,
      "ribbon": 4332,
      "below": 4333,
      "married": 4334,
      "worms": 4335,
      "refre": 4336,
      "##ndar": 4337,
      "kneel": 4338,
      "katie": 4339,
      "calendar": 4340,
      "bravely": 4341,
      "licks": 4342,
      "safety": 4343,
      "##ising": 4344,
      "moments": 4345,
      "struct": 4346,
      "float": 4347,
      "airpl": 4348,
      "strawberries": 4349,
      "structure": 4350,
      "surprises": 4351,
      "laught": 4352,
      "instr": 4353,
      "##cus": 4354,
      "hurting": 4355,
      "pages": 4356,
      "harb": 4357,
      "betsy": 4358,
      "sparkles": 4359,
      "drain": 4360,
      "earlier": 4361,
      "wandered": 4362,
      "laughter": 4363,
      "quiz": 4364,
      "bathe": 4365,
      "buried": 4366,
      "understanding": 4367,
      "inf": 4368,
      "junk": 4369,
      "festival": 4370,
      "oas": 4371,
      "oasis": 4372,
      "item": 4373,
      "apron": 4374,
      "sandcastle": 4375,
      "somed": 4376,
      "someday": 4377,
      "mys": 4378,
      "autom": 4379,
      "root": 4380,
      "hearts": 4381,
      "admir": 4382,
      "myself": 4383,
      "buckle": 4384,
      "pastry": 4385,
      "ups": 4386,
      "automob": 4387,
      "relaxed": 4388,
      "ouch": 4389,
      "##chel": 4390,
      "asht": 4391,
      "skills": 4392,
      "invit": 4393,
      "##cakes": 4394,
      "ashtray": 4395,
      "spade": 4396,
      "whip": 4397,
      "dare": 4398,
      "##aked": 4399,
      "rachel": 4400,
      "received": 4401,
      "##riger": 4402,
      "plates": 4403,
      "raise": 4404,
      "refriger": 4405,
      "mass": 4406,
      "score": 4407,
      "direct": 4408,
      "steve": 4409,
      "model": 4410,
      "refrigerator": 4411,
      "socks": 4412,
      "weap": 4413,
      "harbor": 4414,
      "dar": 4415,
      "reaches": 4416,
      "lic": 4417,
      "balan": 4418,
      "snapped": 4419,
      "supply": 4420,
      "vac": 4421,
      "saving": 4422,
      "thumb": 4423,
      "beamed": 4424,
      "insisted": 4425,
      "##pare": 4426,
      "wag": 4427,
      "spending": 4428,
      "prepare": 4429,
      "bumped": 4430,
      "jail": 4431,
      "vanished": 4432,
      "spots": 4433,
      "known": 4434,
      "waffle": 4435,
      "toes": 4436,
      "##ium": 4437,
      "bathrobe": 4438,
      "teaching": 4439,
      "tong": 4440,
      "scattered": 4441,
      "encouraged": 4442,
      "replace": 4443,
      "destroyed": 4444,
      "none": 4445,
      "##amber": 4446,
      "sparkling": 4447,
      "fro": 4448,
      "dav": 4449,
      "lemonade": 4450,
      "remain": 4451,
      "settled": 4452,
      "remove": 4453,
      "dried": 4454,
      "wisdom": 4455,
      "abig": 4456,
      "blackboard": 4457,
      "mmm": 4458,
      "tease": 4459,
      "frank": 4460,
      "decorations": 4461,
      "jewels": 4462,
      "yawned": 4463,
      "hanger": 4464,
      "##ission": 4465,
      "boot": 4466,
      "abigail": 4467,
      "permission": 4468,
      "breathe": 4469,
      "achie": 4470,
      "scooped": 4471,
      "wine": 4472,
      "patiently": 4473,
      "hardly": 4474,
      "'.": 4475,
      "beans": 4476,
      "mall": 4477,
      "wiz": 4478,
      "pulling": 4479,
      "poison": 4480,
      "afterwards": 4481,
      "cartoon": 4482,
      "mention": 4483,
      "##antly": 4484,
      "license": 4485,
      "##sters": 4486,
      "pride": 4487,
      "washing": 4488,
      "respons": 4489,
      "nation": 4490,
      "hate": 4491,
      "simp": 4492,
      "suffer": 4493,
      "sausage": 4494,
      "cuddled": 4495,
      "fastest": 4496,
      "port": 4497,
      "dresses": 4498,
      "buzzing": 4499,
      "chirping": 4500,
      "david": 4501,
      "restore": 4502,
      "equ": 4503,
      "digg": 4504,
      "struggling": 4505,
      "flav": 4506,
      "warning": 4507,
      "repeat": 4508,
      "##fied": 4509,
      "hurric": 4510,
      "##asp": 4511,
      "##xture": 4512,
      "appreciate": 4513,
      "##sity": 4514,
      "homes": 4515,
      "mitten": 4516,
      "digging": 4517,
      "palm": 4518,
      "taller": 4519,
      "infant": 4520,
      "sits": 4521,
      "destination": 4522,
      "proper": 4523,
      "automobile": 4524,
      "crun": 4525,
      "snowball": 4526,
      "wizard": 4527,
      "glo": 4528,
      "##nies": 4529,
      "!\",": 4530,
      "label": 4531,
      "chamber": 4532,
      "believed": 4533,
      "hesit": 4534,
      "##aces": 4535,
      "shot": 4536,
      "university": 4537,
      "praised": 4538,
      "upstairs": 4539,
      "anytime": 4540,
      "compan": 4541,
      "discuss": 4542,
      "approached": 4543,
      "ke": 4544,
      "brain": 4545,
      "##ops": 4546,
      "bleed": 4547,
      "##..": 4548,
      "tour": 4549,
      "heat": 4550,
      "deeper": 4551,
      "provide": 4552,
      "hurricane": 4553,
      "hits": 4554,
      "sneezed": 4555,
      "universe": 4556,
      "tore": 4557,
      "sport": 4558,
      "climbs": 4559,
      "##rm": 4560,
      "panic": 4561,
      "rust": 4562,
      "hers": 4563,
      "therm": 4564,
      "chore": 4565,
      "hills": 4566,
      "punish": 4567,
      "billboard": 4568,
      "oranges": 4569,
      "cherry": 4570,
      "solved": 4571,
      "sty": 4572,
      "##ents": 4573,
      "twisted": 4574,
      "examine": 4575,
      "frost": 4576,
      "##ude": 4577,
      "weeks": 4578,
      "ranch": 4579,
      "shooting": 4580,
      "rhy": 4581,
      "airplane": 4582,
      "vacation": 4583,
      "neighborhood": 4584,
      "awe": 4585,
      "firef": 4586,
      "tongue": 4587,
      "worse": 4588,
      "setting": 4589,
      "thermomet": 4590,
      "##osed": 4591,
      "glowed": 4592,
      "pillows": 4593,
      "##allen": 4594,
      "wherever": 4595,
      "parts": 4596,
      "##thm": 4597,
      "##osity": 4598,
      "rhythm": 4599,
      "thrilled": 4600,
      "\",": 4601,
      "leak": 4602,
      "challen": 4603,
      "remained": 4604,
      "sprinkles": 4605,
      "fixing": 4606,
      "thermometer": 4607,
      "paints": 4608,
      "##bey": 4609,
      "...": 4610,
      "##shing": 4611,
      "sunr": 4612,
      "massage": 4613,
      "##adium": 4614,
      "stadium": 4615,
      "shed": 4616,
      "chores": 4617,
      "floating": 4618,
      "floated": 4619,
      "grey": 4620,
      "collection": 4621,
      "exercise": 4622,
      "sunrise": 4623,
      "teasp": 4624,
      "teaspoon": 4625,
      "##son": 4626,
      "actually": 4627,
      "sew": 4628,
      "##ring": 4629,
      "copper": 4630,
      "conf": 4631,
      "fut": 4632,
      "girls": 4633,
      "memory": 4634,
      "##icing": 4635,
      "measured": 4636,
      "fasc": 4637,
      "future": 4638,
      "stomach": 4639,
      "plays": 4640,
      "includ": 4641,
      "grinned": 4642,
      "paused": 4643,
      "gust": 4644,
      "everybody": 4645,
      "vehicle": 4646,
      "##sing": 4647,
      "elephants": 4648,
      "supposed": 4649,
      "marbles": 4650,
      "remy": 4651,
      "urge": 4652,
      "surrounded": 4653,
      "##ari": 4654,
      "meowed": 4655,
      "unite": 4656,
      "gifts": 4657,
      "flood": 4658,
      "cartoons": 4659,
      "rush": 4660,
      "brings": 4661,
      "bites": 4662,
      "bes": 4663,
      "tide": 4664,
      "beth": 4665,
      "mineral": 4666,
      "mailman": 4667,
      "zoe": 4668,
      "observe": 4669,
      "discovery": 4670,
      "jogging": 4671,
      "jan": 4672,
      "##elv": 4673,
      "beg": 4674,
      "toe": 4675,
      "weapon": 4676,
      "chewed": 4677,
      "grape": 4678,
      "chr": 4679,
      "strang": 4680,
      "scratch": 4681,
      "velv": 4682,
      "fascin": 4683,
      "signs": 4684,
      "mister": 4685,
      "tomatoes": 4686,
      "decision": 4687,
      "sliding": 4688,
      "lugg": 4689,
      "zer": 4690,
      "sunlight": 4691,
      "##ishing": 4692,
      "scur": 4693,
      "##ab": 4694,
      "velvet": 4695,
      "##nday": 4696,
      "collecting": 4697,
      "luggage": 4698,
      "eag": 4699,
      "skipping": 4700,
      "chirped": 4701,
      "cakes": 4702,
      "zig": 4703,
      "possible": 4704,
      "luna": 4705,
      "problems": 4706,
      "difference": 4707,
      "##iers": 4708,
      "oper": 4709,
      "folded": 4710,
      "appear": 4711,
      "melted": 4712,
      "fet": 4713,
      "choo": 4714,
      "manage": 4715,
      "curled": 4716,
      "##uing": 4717,
      "zero": 4718,
      "itch": 4719,
      "sip": 4720,
      "sore": 4721,
      "tracks": 4722,
      "##ities": 4723,
      "accidents": 4724,
      "squeak": 4725,
      "mountains": 4726,
      "gran": 4727,
      "potatoes": 4728,
      "##umble": 4729,
      "satis": 4730,
      "beat": 4731,
      "spill": 4732,
      "watered": 4733,
      "robb": 4734,
      "twigs": 4735,
      "laid": 4736,
      "navy": 4737,
      "eagle": 4738,
      "equip": 4739,
      "contain": 4740,
      "equipment": 4741,
      "bak": 4742,
      "whistling": 4743,
      "goodnight": 4744,
      "bricks": 4745,
      "admiring": 4746,
      "lets": 4747,
      "##nie": 4748,
      "receive": 4749,
      "gain": 4750,
      "thom": 4751,
      "kindly": 4752,
      "zipped": 4753,
      "prune": 4754,
      "petted": 4755,
      "soldiers": 4756,
      "ordered": 4757,
      "lick": 4758,
      "keeper": 4759,
      "emer": 4760,
      "##bers": 4761,
      "hist": 4762,
      "##oved": 4763,
      "##eren": 4764,
      "safari": 4765,
      "##ipe": 4766,
      "continue": 4767,
      "spaces": 4768,
      "growl": 4769,
      "sunday": 4770,
      "earthqu": 4771,
      "gotten": 4772,
      "overjoy": 4773,
      "gloves": 4774,
      "network": 4775,
      "history": 4776,
      "overjoyed": 4777,
      "##xy": 4778,
      "##walk": 4779,
      "beside": 4780,
      "strangers": 4781,
      "pigs": 4782,
      "##mother": 4783,
      "marching": 4784,
      "weight": 4785,
      "chl": 4786,
      "officer": 4787,
      "patterns": 4788,
      "thomas": 4789,
      "acorns": 4790,
      "invitation": 4791,
      "##do": 4792,
      "vict": 4793,
      "prayed": 4794,
      "chloe": 4795,
      "slice": 4796,
      "floppy": 4797,
      "seats": 4798,
      "eff": 4799,
      "nina": 4800,
      "julie": 4801,
      "##bbled": 4802,
      "len": 4803,
      "flap": 4804,
      "sidewalk": 4805,
      "weren": 4806,
      "racing": 4807,
      "attached": 4808,
      "##ocery": 4809,
      "grocery": 4810,
      "watches": 4811,
      "peered": 4812,
      "fireworks": 4813,
      "disagreed": 4814,
      "company": 4815,
      "wre": 4816,
      "lands": 4817,
      "wooden": 4818,
      "bones": 4819,
      "brid": 4820,
      "zigz": 4821,
      "zigzag": 4822,
      "fed": 4823,
      "suzy": 4824,
      "drinks": 4825,
      "request": 4826,
      "##amb": 4827,
      "spit": 4828,
      "operation": 4829,
      "price": 4830,
      "explor": 4831,
      "ali": 4832,
      "raised": 4833,
      "burning": 4834,
      "weig": 4835,
      "crashed": 4836,
      "exact": 4837,
      "onwards": 4838,
      "turning": 4839,
      "ours": 4840,
      "happiest": 4841,
      "josh": 4842,
      "peanuts": 4843,
      "##cious": 4844,
      "lip": 4845,
      "refreshed": 4846,
      "brick": 4847,
      "warn": 4848,
      "hurried": 4849,
      "##die": 4850,
      "whistled": 4851,
      "stitch": 4852,
      "crunchy": 4853,
      "pies": 4854,
      "dinosaurs": 4855,
      "brand": 4856,
      "escaped": 4857,
      "##pared": 4858,
      "whatever": 4859,
      "tremb": 4860,
      "planted": 4861,
      "freeze": 4862,
      "accom": 4863,
      "prepared": 4864,
      "drinking": 4865,
      "##hest": 4866,
      "spoons": 4867,
      "easier": 4868,
      "selling": 4869,
      "clearing": 4870,
      "comfy": 4871,
      "talent": 4872,
      "menu": 4873,
      "##aded": 4874,
      "settle": 4875,
      "revealed": 4876,
      "scratched": 4877,
      "buildings": 4878,
      "lips": 4879,
      "padd": 4880,
      "bowed": 4881,
      "bridges": 4882,
      "earthquake": 4883,
      "muddy": 4884,
      "remembers": 4885,
      "landscap": 4886,
      "recognized": 4887,
      "hated": 4888,
      "circus": 4889,
      "accompl": 4890,
      "oxy": 4891,
      "jamie": 4892,
      "slip": 4893,
      "lect": 4894,
      "works": 4895,
      "measuring": 4896,
      "crept": 4897,
      "rained": 4898,
      "effort": 4899,
      "cutting": 4900,
      "##ences": 4901,
      "precious": 4902,
      "pupp": 4903,
      "simple": 4904,
      "oxygen": 4905,
      "steel": 4906,
      "wid": 4907,
      "curi": 4908,
      "yawn": 4909,
      "pedal": 4910,
      "spaceship": 4911,
      "perched": 4912,
      "reminder": 4913,
      "printer": 4914,
      "curiosity": 4915,
      "grandmother": 4916,
      "screams": 4917,
      "allow": 4918,
      "beds": 4919,
      "lecture": 4920,
      "shadows": 4921,
      "served": 4922,
      "responsible": 4923,
      "##ases": 4924,
      "succeeded": 4925,
      "soared": 4926,
      "rested": 4927,
      "pitch": 4928,
      "shopping": 4929,
      "rang": 4930,
      "voices": 4931,
      "pearl": 4932,
      "fashion": 4933,
      "exactly": 4934,
      "nutty": 4935,
      "wonders": 4936,
      "comforted": 4937,
      "practicing": 4938,
      "ah": 4939,
      "cuddle": 4940,
      "apologize": 4941,
      "olives": 4942,
      "landscape": 4943,
      "drag": 4944,
      "stealing": 4945,
      "ladyb": 4946,
      "##ffic": 4947,
      "traffic": 4948,
      "disturbed": 4949,
      "secrets": 4950,
      "waist": 4951,
      "style": 4952,
      "woof": 4953,
      "trapped": 4954,
      "agreement": 4955,
      "stripes": 4956,
      "oats": 4957,
      "tastes": 4958,
      "soak": 4959,
      "bringing": 4960,
      "hanna": 4961,
      "##icorn": 4962,
      "unicorn": 4963,
      "##mble": 4964,
      "six": 4965,
      "waits": 4966,
      "sings": 4967,
      "items": 4968,
      "obey": 4969,
      "visiting": 4970,
      "answers": 4971,
      "sisters": 4972,
      "bab": 4973,
      "##izing": 4974,
      "pets": 4975,
      "scoop": 4976,
      "breaking": 4977,
      "fuzzy": 4978,
      "waffles": 4979,
      "encourage": 4980,
      "swims": 4981,
      "catching": 4982,
      "blueberry": 4983,
      "underground": 4984,
      "activ": 4985,
      "nails": 4986,
      "startled": 4987,
      "undern": 4988,
      "victory": 4989,
      "leather": 4990,
      "lemons": 4991,
      "underneath": 4992,
      "fascinated": 4993,
      "brushed": 4994,
      "##itten": 4995,
      "sadness": 4996,
      "##mare": 4997,
      "nightmare": 4998,
      "outdo": 4999,
      "anne": 5000,
      "costumes": 5001,
      "tremble": 5002,
      "writ": 5003,
      "##ishes": 5004,
      "owned": 5005,
      ".'": 5006,
      "exit": 5007,
      "pupil": 5008,
      "claire": 5009,
      "beneath": 5010,
      "caut": 5011,
      "unlocked": 5012,
      "winning": 5013,
      "snea": 5014,
      "monsters": 5015,
      "creation": 5016,
      "##agers": 5017,
      "chef": 5018,
      "recognize": 5019,
      "fetch": 5020,
      "bouncy": 5021,
      "died": 5022,
      "##enty": 5023,
      "doctors": 5024,
      "image": 5025,
      "villagers": 5026,
      "yester": 5027,
      "yesterday": 5028,
      "knelt": 5029,
      "carl": 5030,
      "downstairs": 5031,
      "jogged": 5032,
      "mouths": 5033,
      "wanting": 5034,
      "struggled": 5035,
      "chirpy": 5036,
      "planned": 5037,
      "strip": 5038,
      "##vin": 5039,
      "tilly": 5040,
      "mission": 5041,
      "betty": 5042,
      "soaring": 5043,
      "cape": 5044,
      "glitter": 5045,
      "##oming": 5046,
      "wondering": 5047,
      "jessie": 5048,
      "adam": 5049,
      "##lu": 5050,
      "seag": 5051,
      "punished": 5052,
      "famil": 5053,
      "##lings": 5054,
      "##ley": 5055,
      "argued": 5056,
      "studied": 5057,
      "seagull": 5058,
      "introdu": 5059,
      "eats": 5060,
      "increase": 5061,
      "peaches": 5062,
      "stirring": 5063,
      "lulu": 5064,
      "machines": 5065,
      "gained": 5066,
      "situ": 5067,
      "examined": 5068,
      "dolly": 5069,
      "satisfied": 5070,
      "herbs": 5071,
      "challenge": 5072,
      "wreck": 5073,
      "comple": 5074,
      "hannah": 5075,
      "nicer": 5076,
      "properly": 5077,
      "guessed": 5078,
      "bunnies": 5079,
      "twinkle": 5080,
      "bleeding": 5081,
      "teasing": 5082,
      "pancakes": 5083,
      "keys": 5084,
      "##ues": 5085,
      "wagging": 5086,
      "shivering": 5087,
      "area": 5088,
      "ripped": 5089,
      "##iggy": 5090,
      "zooming": 5091,
      "mice": 5092,
      "sus": 5093,
      "firemen": 5094,
      "release": 5095,
      "tune": 5096,
      "west": 5097,
      "piles": 5098,
      "studying": 5099,
      "bare": 5100,
      "lux": 5101,
      "spiders": 5102,
      "burrow": 5103,
      "peel": 5104,
      "blink": 5105,
      "winner": 5106,
      "gathering": 5107,
      "heav": 5108,
      "firefight": 5109,
      "mira": 5110,
      "deser": 5111,
      "mixing": 5112,
      "tugged": 5113,
      "##zing": 5114,
      "permit": 5115,
      "decorated": 5116,
      "outdoors": 5117,
      "todd": 5118,
      "susan": 5119,
      "##ury": 5120,
      "supplies": 5121,
      "beha": 5122,
      "twirling": 5123,
      "baked": 5124,
      "yelling": 5125,
      "loaded": 5126,
      "rides": 5127,
      "sights": 5128,
      "weighed": 5129,
      "slapped": 5130,
      "released": 5131,
      "neighbourhood": 5132,
      "abby": 5133,
      "begin": 5134,
      "tonight": 5135,
      "instruct": 5136,
      "muffins": 5137,
      "ladybug": 5138,
      "contro": 5139,
      "budge": 5140,
      "loving": 5141,
      "introduce": 5142,
      "solut": 5143,
      "bend": 5144,
      "competition": 5145,
      "confident": 5146,
      "pastel": 5147,
      "struck": 5148,
      "tickets": 5149,
      "##ales": 5150,
      "siren": 5151,
      "##gers": 5152,
      "stair": 5153,
      "##ib": 5154,
      "instructions": 5155,
      "realize": 5156,
      "web": 5157,
      "##ica": 5158,
      "giggling": 5159,
      "printed": 5160,
      "prunes": 5161,
      "emergen": 5162,
      "cal": 5163,
      "opin": 5164,
      "lou": 5165,
      "pinched": 5166,
      "##ding": 5167,
      "pockets": 5168,
      "inch": 5169,
      "stretching": 5170,
      "shoulders": 5171,
      "draws": 5172,
      "chuck": 5173,
      "ty": 5174,
      "lines": 5175,
      "bunch": 5176,
      "sneaked": 5177,
      "pears": 5178,
      "east": 5179,
      "ourselves": 5180,
      "poking": 5181,
      "broom": 5182,
      "stamps": 5183,
      "patience": 5184,
      "momo": 5185,
      "linda": 5186,
      "##nesday": 5187,
      "wednesday": 5188,
      "frosting": 5189,
      "kicking": 5190,
      "reluct": 5191,
      "scurried": 5192,
      "youth": 5193,
      "mentioned": 5194,
      "ago": 5195,
      "cones": 5196,
      "forgi": 5197,
      "##allow": 5198,
      "deal": 5199,
      "strings": 5200,
      "brushes": 5201,
      "touching": 5202,
      "repeated": 5203,
      "##rr": 5204,
      "une": 5205,
      "protected": 5206,
      "demanded": 5207,
      "neighbors": 5208,
      "crowd": 5209,
      "prints": 5210,
      "sides": 5211,
      "tuesday": 5212,
      "##kins": 5213,
      "luke": 5214,
      "decides": 5215,
      "disagree": 5216,
      "cautious": 5217,
      "jeff": 5218,
      "##flow": 5219,
      "##tiest": 5220,
      "prettiest": 5221,
      "marks": 5222,
      "control": 5223,
      "ruler": 5224,
      "##zie": 5225,
      "sant": 5226,
      "honk": 5227,
      "santa": 5228,
      "sorting": 5229,
      "hoppy": 5230,
      "keeps": 5231,
      "sting": 5232,
      "##bbing": 5233,
      "ruin": 5234,
      "soaked": 5235,
      "guns": 5236,
      "luxury": 5237,
      "camping": 5238,
      "reluctantly": 5239,
      "discovering": 5240,
      "claps": 5241,
      "chat": 5242,
      "guys": 5243,
      "buckets": 5244,
      "kayla": 5245,
      "babies": 5246,
      "eight": 5247,
      "dolphins": 5248,
      "strike": 5249,
      "shock": 5250,
      "boom": 5251,
      "##icked": 5252,
      "vent": 5253,
      "slim": 5254,
      "##jam": 5255,
      "##riage": 5256,
      "parked": 5257,
      "barely": 5258,
      "silence": 5259,
      "gazed": 5260,
      "movies": 5261,
      "sweeties": 5262,
      "result": 5263,
      "stole": 5264,
      "twinkling": 5265,
      "nan": 5266,
      "writes": 5267,
      "surface": 5268,
      "ribbons": 5269,
      "texture": 5270,
      "project": 5271,
      "dragons": 5272,
      "horns": 5273,
      "##xp": 5274,
      "lizzy": 5275,
      "chewing": 5276,
      "expect": 5277,
      "dent": 5278,
      "mick": 5279,
      "rocking": 5280,
      "season": 5281,
      "emergency": 5282,
      "unexp": 5283,
      "unexpected": 5284,
      "greet": 5285,
      "purred": 5286,
      "muscles": 5287,
      "steep": 5288,
      "contest": 5289,
      "pebbles": 5290,
      "cind": 5291,
      "urged": 5292,
      "heel": 5293,
      "moo": 5294,
      "applauded": 5295,
      "##zen": 5296,
      "loose": 5297,
      "powers": 5298,
      "suzie": 5299,
      "leap": 5300,
      "tickle": 5301,
      "uh": 5302,
      "vowed": 5303,
      "jenna": 5304,
      "beard": 5305,
      "tru": 5306,
      "chips": 5307,
      "fab": 5308,
      "bank": 5309,
      "acted": 5310,
      "entire": 5311,
      "flat": 5312,
      "nick": 5313,
      "curtains": 5314,
      "fabric": 5315,
      "completed": 5316,
      "introduced": 5317,
      "snail": 5318,
      "solution": 5319,
      "direction": 5320,
      "repla": 5321,
      "frozen": 5322,
      "staring": 5323,
      "curly": 5324,
      "lena": 5325,
      "importance": 5326,
      "cindy": 5327,
      "rubbing": 5328,
      "balancing": 5329,
      "catches": 5330,
      "dragged": 5331,
      "highest": 5332,
      "bubb": 5333,
      "achieve": 5334,
      "##usted": 5335,
      "pouring": 5336,
      "include": 5337,
      "##ults": 5338,
      "excuse": 5339,
      "rocked": 5340,
      "sled": 5341,
      "foods": 5342,
      "crumb": 5343,
      "screaming": 5344,
      "figured": 5345,
      "sorted": 5346,
      "ka": 5347,
      "pinky": 5348,
      "jun": 5349,
      "##ern": 5350,
      "hugging": 5351,
      "shelves": 5352,
      "roaring": 5353,
      "##ky": 5354,
      "den": 5355,
      "momma": 5356,
      "slimy": 5357,
      "shivered": 5358,
      "##jo": 5359,
      "mart": 5360,
      "yea": 5361,
      "librarian": 5362,
      "passing": 5363,
      "wound": 5364,
      "rainbows": 5365,
      "radishes": 5366,
      "##ledge": 5367,
      "homework": 5368,
      "theirs": 5369,
      "chases": 5370,
      "mater": 5371,
      "situation": 5372,
      "exha": 5373,
      "dared": 5374,
      "##reat": 5375,
      "usual": 5376,
      "resting": 5377,
      "materi": 5378,
      "pepp": 5379,
      "jon": 5380,
      "##esome": 5381,
      "##fit": 5382,
      "knowledge": 5383,
      "##ella": 5384,
      "##apping": 5385,
      "shined": 5386,
      "planets": 5387,
      "sausages": 5388,
      "zookeeper": 5389,
      "bravery": 5390,
      "policeman": 5391,
      "safer": 5392,
      "gro": 5393,
      "cott": 5394,
      "wink": 5395,
      "##itely": 5396,
      "awesome": 5397,
      "ris": 5398,
      "outfit": 5399,
      "##irts": 5400,
      "drives": 5401,
      "jaco": 5402,
      "threat": 5403,
      "wedding": 5404,
      "plenty": 5405,
      "jacob": 5406,
      "matched": 5407,
      "lied": 5408,
      "cheering": 5409,
      "sweets": 5410,
      "alth": 5411,
      "although": 5412,
      "flags": 5413,
      "goals": 5414,
      "caused": 5415,
      "piggy": 5416,
      "marriage": 5417,
      "desp": 5418,
      "baa": 5419,
      "towels": 5420,
      "dusty": 5421,
      "sighs": 5422,
      "##jamas": 5423,
      "truly": 5424,
      "patted": 5425,
      "motion": 5426,
      "yeah": 5427,
      "slap": 5428,
      "paintings": 5429,
      "accomplish": 5430,
      "##flowers": 5431,
      "markers": 5432,
      "reaching": 5433,
      "exhausted": 5434,
      "packing": 5435,
      "blooming": 5436,
      "spraying": 5437,
      "colored": 5438,
      "reveal": 5439,
      "pipp": 5440,
      "arguing": 5441,
      "pretends": 5442,
      "paddled": 5443,
      "##bert": 5444,
      "##zzie": 5445,
      "worker": 5446,
      "?'": 5447,
      "growling": 5448,
      "tara": 5449,
      "struggle": 5450,
      "matching": 5451,
      "sticking": 5452,
      "organizing": 5453,
      "rescued": 5454,
      "sway": 5455,
      "singer": 5456,
      "waiter": 5457,
      "gle": 5458,
      "traveled": 5459,
      "##ki": 5460,
      "cent": 5461,
      "inviting": 5462,
      "lizzie": 5463,
      "##ason": 5464,
      "flavor": 5465,
      "lamb": 5466,
      "fir": 5467,
      "princesses": 5468,
      "replaced": 5469,
      "ranger": 5470,
      "jessica": 5471,
      "kneeled": 5472,
      "creating": 5473,
      "johnson": 5474,
      "regretted": 5475,
      "##inky": 5476,
      "guest": 5477,
      "included": 5478,
      "observed": 5479,
      "##away": 5480,
      "master": 5481,
      "arrive": 5482,
      "bottles": 5483,
      "shh": 5484,
      "written": 5485,
      "##ashed": 5486,
      "bloomed": 5487,
      "workers": 5488,
      "trembling": 5489,
      "recorded": 5490,
      "##angled": 5491,
      "abb": 5492,
      "expected": 5493,
      "removed": 5494,
      "prayer": 5495,
      "bead": 5496,
      "dais": 5497,
      "cubes": 5498,
      "completely": 5499,
      "firm": 5500,
      "worries": 5501,
      "opening": 5502,
      "vanish": 5503,
      "##aster": 5504,
      "mane": 5505,
      "cuts": 5506,
      "pencils": 5507,
      "despite": 5508,
      "gig": 5509,
      "relief": 5510,
      "daisies": 5511,
      "squeaky": 5512,
      "activities": 5513,
      "pajamas": 5514,
      "peeking": 5515,
      "##ction": 5516,
      "##sa": 5517,
      "seesaw": 5518,
      "darkness": 5519,
      "ventured": 5520,
      "##bel": 5521,
      "kites": 5522,
      "roads": 5523,
      "wires": 5524,
      "fairies": 5525,
      "countryside": 5526,
      "belly": 5527,
      "snakes": 5528,
      "reply": 5529,
      "julia": 5530,
      "stare": 5531,
      "poems": 5532,
      "owners": 5533,
      "crabs": 5534,
      "folding": 5535,
      "storekeeper": 5536,
      "polishing": 5537,
      "timer": 5538,
      "uses": 5539,
      "penguins": 5540,
      "##rees": 5541,
      "unf": 5542,
      "cautiously": 5543,
      "flames": 5544,
      "becoming": 5545,
      "ast": 5546,
      "wasted": 5547,
      "##immer": 5548,
      "partic": 5549,
      "miles": 5550,
      "pots": 5551,
      "learns": 5552,
      "christ": 5553,
      "leader": 5554,
      "grocer": 5555,
      "suggest": 5556,
      "usually": 5557,
      "dollar": 5558,
      "fault": 5559,
      "scales": 5560,
      "stern": 5561,
      "mun": 5562,
      "faced": 5563,
      "melting": 5564,
      "granny": 5565,
      "lollipops": 5566,
      "##hell": 5567,
      "squealed": 5568,
      "bess": 5569,
      "healed": 5570,
      "helmets": 5571,
      "scra": 5572,
      "shaped": 5573,
      "conn": 5574,
      "quacked": 5575,
      "opinion": 5576,
      "jones": 5577,
      "staying": 5578,
      "snat": 5579,
      "seems": 5580,
      "coloured": 5581,
      "groceries": 5582,
      "larry": 5583,
      "##vers": 5584,
      "united": 5585,
      "logs": 5586,
      "bumpy": 5587,
      "cash": 5588,
      "agrees": 5589,
      "crumbs": 5590,
      "knights": 5591,
      "ed": 5592,
      "tractor": 5593,
      "ripe": 5594,
      "thro": 5595,
      "valued": 5596,
      "faraway": 5597,
      "polished": 5598,
      "dipped": 5599,
      "freed": 5600,
      "##asm": 5601,
      "marked": 5602,
      "mickey": 5603,
      "june": 5604,
      "throat": 5605,
      "insist": 5606,
      "cracked": 5607,
      "comm": 5608,
      "lap": 5609,
      "teaches": 5610,
      "dentist": 5611,
      "protecting": 5612,
      "jay": 5613,
      "scru": 5614,
      "provided": 5615,
      "roots": 5616,
      "roses": 5617,
      "interested": 5618,
      "wrist": 5619,
      "##ivery": 5620,
      "gigi": 5621,
      "baker": 5622,
      "naps": 5623,
      "sparky": 5624,
      "desert": 5625,
      "?\",": 5626,
      "pastries": 5627,
      "rusty": 5628,
      "##mas": 5629,
      "actions": 5630,
      "pastels": 5631,
      "chuckled": 5632,
      "somebody": 5633,
      "balanced": 5634,
      "wandering": 5635,
      "twin": 5636,
      "snuggles": 5637,
      "##zes": 5638,
      "sophia": 5639,
      "youn": 5640,
      "younger": 5641,
      "hu": 5642,
      "particular": 5643,
      "delivery": 5644,
      "avo": 5645,
      "sim": 5646,
      "blows": 5647,
      "copy": 5648,
      "directions": 5649,
      "winked": 5650,
      "forehead": 5651,
      "##len": 5652,
      "tig": 5653,
      "##iar": 5654,
      "filling": 5655,
      "abbie": 5656,
      "signed": 5657,
      "rubs": 5658,
      "cous": 5659,
      "crackers": 5660,
      "single": 5661,
      "itchy": 5662,
      "nect": 5663,
      "splashes": 5664,
      "restored": 5665,
      "nectar": 5666,
      "rings": 5667,
      "ki": 5668,
      "beads": 5669,
      "listens": 5670,
      "swooped": 5671,
      "##rance": 5672,
      "fluttered": 5673,
      "christmas": 5674,
      "##dies": 5675,
      "##hile": 5676,
      "misses": 5677,
      "stem": 5678,
      "sweat": 5679,
      "wiggled": 5680,
      "gaze": 5681,
      "cause": 5682,
      "cough": 5683,
      "closes": 5684,
      "snowballs": 5685,
      "##oline": 5686,
      "froze": 5687,
      "pandy": 5688,
      "##ility": 5689,
      "tallest": 5690,
      "complaining": 5691,
      "tipto": 5692,
      "lined": 5693,
      "##ora": 5694,
      "aud": 5695,
      "acting": 5696,
      "noon": 5697,
      "burst": 5698,
      "trips": 5699,
      "refle": 5700,
      "pam": 5701,
      "buzzy": 5702,
      "suitcase": 5703,
      "purr": 5704,
      "swirl": 5705,
      "determination": 5706,
      "sneaky": 5707,
      "pause": 5708,
      "celebration": 5709,
      "laura": 5710,
      "milo": 5711,
      "photos": 5712,
      "neither": 5713,
      "hoot": 5714,
      "rolls": 5715,
      "cashier": 5716,
      "backed": 5717,
      "health": 5718,
      "##ormed": 5719,
      "mikey": 5720,
      "wee": 5721,
      "videos": 5722,
      "awake": 5723,
      "slam": 5724,
      "spea": 5725,
      "month": 5726,
      "secure": 5727,
      "darker": 5728,
      "speaking": 5729,
      "bars": 5730,
      "delivered": 5731,
      "aff": 5732,
      "recording": 5733,
      "rockets": 5734,
      "indeed": 5735,
      "pleasure": 5736,
      "pedals": 5737,
      "insects": 5738,
      "seven": 5739,
      "##iding": 5740,
      "insp": 5741,
      "knees": 5742,
      "emmy": 5743,
      "sandcastles": 5744,
      "remote": 5745,
      "candies": 5746,
      "accomplishment": 5747,
      "liqu": 5748,
      "silent": 5749,
      "liquid": 5750,
      "##yond": 5751,
      "beyond": 5752,
      "entrance": 5753,
      "##if": 5754,
      "shirts": 5755,
      "opp": 5756,
      "intr": 5757,
      "smar": 5758,
      "attack": 5759,
      "glee": 5760,
      "tricky": 5761,
      "##anes": 5762,
      "mes": 5763,
      "hearing": 5764,
      "tangled": 5765,
      "##sequ": 5766,
      "joking": 5767,
      "--": 5768,
      "click": 5769,
      "consequ": 5770,
      "tickled": 5771,
      "mesmer": 5772,
      "robbie": 5773,
      "scaring": 5774,
      "sib": 5775,
      "stolen": 5776,
      "glasses": 5777,
      "farther": 5778,
      "chip": 5779,
      "lung": 5780,
      "smiley": 5781,
      "##boat": 5782,
      "adding": 5783,
      "batteries": 5784,
      "sense": 5785,
      "robby": 5786,
      "cheeks": 5787,
      "stella": 5788,
      "##cha": 5789,
      "dam": 5790,
      "tricked": 5791,
      "darling": 5792,
      "wears": 5793,
      "rac": 5794,
      "seashell": 5795,
      "magnets": 5796,
      "hissed": 5797,
      "rule": 5798,
      "bowls": 5799,
      "choices": 5800,
      "talented": 5801,
      "giraffes": 5802,
      "instrum": 5803,
      "##avi": 5804,
      "sobbed": 5805,
      "aren": 5806,
      "stays": 5807,
      "##cky": 5808,
      "robert": 5809,
      "handful": 5810,
      "masks": 5811,
      "maya": 5812,
      "ry": 5813,
      "##ddled": 5814,
      "defe": 5815,
      "calmed": 5816,
      "leading": 5817,
      "smarter": 5818,
      "covers": 5819,
      "behavi": 5820,
      "recommended": 5821,
      "consequences": 5822,
      "achieved": 5823,
      "##ah": 5824,
      "tess": 5825,
      "##pered": 5826,
      "bakery": 5827,
      "clowns": 5828,
      "tigers": 5829,
      "hesitated": 5830,
      "guy": 5831,
      "mixture": 5832,
      "ham": 5833,
      "impo": 5834,
      "impossible": 5835,
      "mushrooms": 5836,
      "weeping": 5837,
      "mabel": 5838,
      "bumps": 5839,
      "##brush": 5840,
      "chris": 5841,
      "behaved": 5842,
      "karen": 5843,
      "flapping": 5844,
      "experi": 5845,
      "firefighters": 5846,
      "improved": 5847,
      "gracefully": 5848,
      "badge": 5849,
      "##atul": 5850,
      "##coat": 5851,
      "reads": 5852,
      "scarves": 5853,
      "##ners": 5854,
      "sy": 5855,
      "paddle": 5856,
      "salty": 5857,
      "yourselves": 5858,
      "convin": 5859,
      "objects": 5860,
      "complained": 5861,
      "ryan": 5862,
      "##ker": 5863,
      "birdy": 5864,
      "swept": 5865,
      "cupcakes": 5866,
      "##bell": 5867,
      "third": 5868,
      "explorers": 5869,
      "##ords": 5870,
      "parties": 5871,
      "steer": 5872,
      "thorn": 5873,
      "beginning": 5874,
      "teased": 5875,
      "whee": 5876,
      "snuck": 5877,
      "seconds": 5878,
      "deserve": 5879,
      "finn": 5880,
      "kicks": 5881,
      "seeker": 5882,
      "janie": 5883,
      "fever": 5884,
      "buying": 5885,
      "##iled": 5886,
      "##!\"": 5887,
      "fluttering": 5888,
      "intrig": 5889,
      "##indr": 5890,
      "raindr": 5891,
      "paying": 5892,
      "heading": 5893,
      "cust": 5894,
      "raincoat": 5895,
      "stroked": 5896,
      "dots": 5897,
      "travelled": 5898,
      "concer": 5899,
      "wrapping": 5900,
      "beam": 5901,
      "artist": 5902,
      "horiz": 5903,
      "abi": 5904,
      "##lling": 5905,
      "hider": 5906,
      "drums": 5907,
      "##sen": 5908,
      "horizon": 5909,
      "bedtime": 5910,
      "marker": 5911,
      "celebrating": 5912,
      "martha": 5913,
      "risk": 5914,
      "jacky": 5915,
      "wipes": 5916,
      "cans": 5917,
      "siblings": 5918,
      "puppies": 5919,
      "jojo": 5920,
      "##anging": 5921,
      "puff": 5922,
      "snatched": 5923,
      "sale": 5924,
      "performance": 5925,
      "lett": 5926,
      "families": 5927,
      "custom": 5928,
      "rumble": 5929,
      "##da": 5930,
      "lighter": 5931,
      "basement": 5932,
      "annoy": 5933,
      "mer": 5934,
      "##cho": 5935,
      "scrubbed": 5936,
      "fid": 5937,
      "gems": 5938,
      "among": 5939,
      "peacefully": 5940,
      "needles": 5941,
      "auntie": 5942,
      "kiki": 5943,
      "ni": 5944,
      "hallway": 5945,
      "grandpare": 5946,
      "binky": 5947,
      "rover": 5948,
      "losing": 5949,
      "knocks": 5950,
      "jackets": 5951,
      "lettuce": 5952,
      "##band": 5953,
      "##ivity": 5954,
      "drifted": 5955,
      "echo": 5956,
      "joan": 5957,
      "ruining": 5958,
      "dollhouse": 5959,
      "repa": 5960,
      "creamy": 5961,
      "intrigued": 5962,
      "including": 5963,
      "maddie": 5964,
      "##mies": 5965,
      "gina": 5966,
      "cuddly": 5967,
      "##umbling": 5968,
      "rising": 5969,
      "woo": 5970,
      "##ades": 5971,
      "rivers": 5972,
      "ew": 5973,
      "##llen": 5974,
      "jackie": 5975,
      "minerals": 5976,
      "repaired": 5977,
      "rewarded": 5978,
      "yells": 5979,
      "treehouse": 5980,
      "##ments": 5981,
      "widened": 5982,
      "imagining": 5983,
      "creativity": 5984,
      "##step": 5985,
      "temper": 5986,
      "willing": 5987,
      "fact": 5988,
      "ral": 5989,
      "scratches": 5990,
      "arrows": 5991,
      "earn": 5992,
      "diving": 5993,
      "wins": 5994,
      "##iles": 5995,
      "tasks": 5996,
      "shrinking": 5997,
      "creations": 5998,
      "hides": 5999,
      "fears": 6000,
      "onions": 6001,
      "passen": 6002,
      "##hog": 6003,
      "players": 6004,
      "ralph": 6005,
      "sadie": 6006,
      "lower": 6007,
      "cong": 6008,
      "separated": 6009,
      "congr": 6010,
      "##immering": 6011,
      "arr": 6012,
      "source": 6013,
      "sprinkled": 6014,
      "##fall": 6015,
      "merry": 6016,
      "grassy": 6017,
      "decorating": 6018,
      "##cas": 6019,
      "flop": 6020,
      "tiptoed": 6021,
      "##ded": 6022,
      "marie": 6023,
      "forgiven": 6024,
      "tapped": 6025,
      "granted": 6026,
      "squish": 6027,
      "congratul": 6028,
      "chop": 6029,
      "printing": 6030,
      "hesitant": 6031,
      "damage": 6032,
      "raindrops": 6033,
      "tiss": 6034,
      "planning": 6035,
      "simon": 6036,
      "tramp": 6037,
      "limes": 6038,
      "marsh": 6039,
      "##itude": 6040,
      "squares": 6041,
      "wobb": 6042,
      "hedgehog": 6043,
      "haw": 6044,
      "recipe": 6045,
      "peppers": 6046,
      "##vest": 6047,
      "swimsuit": 6048,
      "unpacked": 6049,
      "backwards": 6050,
      "rocky": 6051,
      "gross": 6052,
      "stomped": 6053,
      "##dri": 6054,
      "spong": 6055,
      "bluey": 6056,
      "avoid": 6057,
      "sailboat": 6058,
      "praying": 6059,
      "stit": 6060,
      "grabbing": 6061,
      "coup": 6062,
      "promises": 6063,
      "##kend": 6064,
      "lia": 6065,
      "amel": 6066,
      "beloved": 6067,
      "weekend": 6068,
      "dot": 6069,
      "screwdri": 6070,
      "surroundings": 6071,
      "##rac": 6072,
      "windy": 6073,
      "chefs": 6074,
      "blocking": 6075,
      "wrink": 6076,
      "zo": 6077,
      "stung": 6078,
      "whoever": 6079,
      "##iece": 6080,
      "curiously": 6081,
      "pointy": 6082,
      "swans": 6083,
      "designed": 6084,
      "micha": 6085,
      "snowmen": 6086,
      "michael": 6087,
      "cousin": 6088,
      "audience": 6089,
      "dreamt": 6090,
      "judy": 6091,
      "materials": 6092,
      "pouted": 6093,
      "ache": 6094,
      "stool": 6095,
      "pans": 6096,
      "oops": 6097,
      "wiping": 6098,
      "center": 6099,
      "meg": 6100,
      "rip": 6101,
      "refu": 6102,
      "slower": 6103,
      "##itted": 6104,
      "gobbled": 6105,
      "temperature": 6106,
      "##eds": 6107,
      "wobbled": 6108,
      "afford": 6109,
      "trampoline": 6110,
      "zoey": 6111,
      "##aut": 6112,
      "prepar": 6113,
      "helpers": 6114,
      "ornaments": 6115,
      "vanilla": 6116,
      "rustling": 6117,
      "screwdriver": 6118,
      "hus": 6119,
      "feast": 6120,
      "nine": 6121,
      "discussed": 6122,
      "hitting": 6123,
      "requested": 6124,
      "neighbours": 6125,
      "##ening": 6126,
      "heavier": 6127,
      "exce": 6128,
      "##come": 6129,
      "muscle": 6130,
      "##cope": 6131,
      "10": 6132,
      "zara": 6133,
      "racco": 6134,
      "couple": 6135,
      "shoo": 6136,
      "remembering": 6137,
      "potion": 6138,
      "growls": 6139,
      "##ably": 6140,
      "coloring": 6141,
      "magician": 6142,
      "noses": 6143,
      "age": 6144,
      "stain": 6145,
      "##child": 6146,
      "sunflowers": 6147,
      "sports": 6148,
      "slices": 6149,
      "warnings": 6150,
      "yel": 6151,
      "streets": 6152,
      "peep": 6153,
      "grandchild": 6154,
      "tissue": 6155,
      "det": 6156,
      "##ho": 6157,
      "pecked": 6158,
      "corners": 6159,
      "forks": 6160,
      "meals": 6161,
      "er": 6162,
      "slammed": 6163,
      "reb": 6164,
      "hops": 6165,
      "reflection": 6166,
      "duckling": 6167,
      "grandparents": 6168,
      "uns": 6169,
      "astron": 6170,
      "sparks": 6171,
      "spreading": 6172,
      "leaning": 6173,
      "sponge": 6174,
      "aside": 6175,
      "flight": 6176,
      "prett": 6177,
      "fido": 6178,
      "astronaut": 6179,
      "plans": 6180,
      "bows": 6181,
      "changing": 6182,
      "dads": 6183,
      "gardener": 6184,
      "tails": 6185,
      "chosen": 6186,
      "zipping": 6187,
      "rott": 6188,
      "enthusiasm": 6189,
      "##ans": 6190,
      "familiar": 6191,
      "bessie": 6192,
      "daring": 6193,
      "greeted": 6194,
      "spoonful": 6195,
      "screws": 6196,
      "adult": 6197,
      "rotten": 6198,
      "sailors": 6199,
      "tunnels": 6200,
      "prettier": 6201,
      "hour": 6202,
      "forgetting": 6203,
      "snuggle": 6204,
      "breathed": 6205,
      "davey": 6206,
      "dollars": 6207,
      "scam": 6208,
      "borrowed": 6209,
      "##ertain": 6210,
      "##mallow": 6211,
      "wishing": 6212,
      "marshmallow": 6213,
      "sending": 6214,
      "feeding": 6215,
      "bodies": 6216,
      "husband": 6217,
      "reass": 6218,
      "shops": 6219,
      "correct": 6220,
      "twice": 6221,
      "spikes": 6222,
      "swords": 6223,
      "dances": 6224,
      "##ounced": 6225,
      "dod": 6226,
      "##ition": 6227,
      "least": 6228,
      "superheroes": 6229,
      "thrown": 6230,
      "amelia": 6231,
      "seaw": 6232,
      "guests": 6233,
      "baths": 6234,
      "flavors": 6235,
      "?!\"": 6236,
      "forgets": 6237,
      "cuddles": 6238,
      "counts": 6239,
      "skunk": 6240,
      "wil": 6241,
      "charac": 6242,
      "character": 6243,
      "pens": 6244,
      "zebras": 6245,
      "reason": 6246,
      "##shions": 6247,
      "nibble": 6248,
      "raccoon": 6249,
      "touches": 6250,
      "neatly": 6251,
      "cond": 6252,
      "buzzed": 6253,
      "heroes": 6254,
      "bless": 6255,
      "##stick": 6256,
      "wendy": 6257,
      "wobble": 6258,
      "##ca": 6259,
      "oatme": 6260,
      "mesmerized": 6261,
      "##using": 6262,
      "handsome": 6263,
      "poss": 6264,
      "months": 6265,
      "wiggle": 6266,
      "oatmeal": 6267,
      "suffering": 6268,
      "delivering": 6269,
      "holly": 6270,
      "steady": 6271,
      "blast": 6272,
      "grows": 6273,
      "hopeful": 6274,
      "nibb": 6275,
      "napkins": 6276,
      "embarrass": 6277,
      "politely": 6278,
      "lungs": 6279,
      "alien": 6280,
      "students": 6281,
      "seaweed": 6282,
      "warmer": 6283,
      "gri": 6284,
      "samant": 6285,
      "mints": 6286,
      "samantha": 6287,
      "bully": 6288,
      "unsure": 6289,
      "throughout": 6290,
      "refreshing": 6291,
      "maddy": 6292,
      "rick": 6293,
      "##iley": 6294,
      "onward": 6295,
      "plain": 6296,
      "frosty": 6297,
      "crashing": 6298,
      "serv": 6299,
      "increased": 6300,
      "honked": 6301,
      "sneezing": 6302,
      "wraps": 6303,
      "confl": 6304,
      "pops": 6305,
      "toddler": 6306,
      "die": 6307,
      "watering": 6308,
      "respond": 6309,
      "hawk": 6310,
      "matters": 6311,
      "foc": 6312,
      "dived": 6313,
      "biting": 6314,
      "crew": 6315,
      "thud": 6316,
      "glued": 6317,
      "lessons": 6318,
      "express": 6319,
      "preparing": 6320,
      "plucked": 6321,
      "dip": 6322,
      "##cers": 6323,
      "joining": 6324,
      "performed": 6325,
      "##allowed": 6326,
      "ropes": 6327,
      "scen": 6328,
      "swallowed": 6329,
      "bubba": 6330,
      "shall": 6331,
      "freedom": 6332,
      "ruth": 6333,
      "lifts": 6334,
      "smelling": 6335,
      "oc": 6336,
      "rushing": 6337,
      "geese": 6338,
      "triangles": 6339,
      "##ados": 6340,
      "grant": 6341,
      "postman": 6342,
      "wobbly": 6343,
      "poster": 6344,
      "waddled": 6345,
      "glitt": 6346,
      "amount": 6347,
      "trembled": 6348,
      "wrigg": 6349,
      "toaster": 6350,
      "focused": 6351,
      "mina": 6352,
      "firmly": 6353,
      "stands": 6354,
      "polar": 6355,
      "panicked": 6356,
      "quarreling": 6357,
      "dancers": 6358,
      "whispers": 6359,
      "scraped": 6360,
      "freddie": 6361,
      "nervously": 6362,
      "napping": 6363,
      "...\"": 6364,
      "##gg": 6365,
      "##while": 6366,
      "cushions": 6367,
      "resisted": 6368,
      "humans": 6369,
      "softer": 6370,
      "thump": 6371,
      "dropping": 6372,
      "trot": 6373,
      "avocados": 6374,
      "##attered": 6375,
      "starfish": 6376,
      "leads": 6377,
      "encouraging": 6378,
      "puppet": 6379,
      "##laces": 6380,
      "necklaces": 6381,
      "tested": 6382,
      "flopsy": 6383,
      "lifting": 6384,
      "adults": 6385,
      "speedy": 6386,
      "##ne": 6387,
      "instantly": 6388,
      "presses": 6389,
      "thoughts": 6390,
      "tables": 6391,
      "pigeons": 6392,
      "worn": 6393,
      "talks": 6394,
      "frowning": 6395,
      "rout": 6396,
      "joyful": 6397,
      "playtime": 6398,
      "tuck": 6399,
      "flas": 6400,
      "within": 6401,
      "drawers": 6402,
      "froggy": 6403,
      "wiggly": 6404,
      "faded": 6405,
      "##onna": 6406,
      "certain": 6407,
      "nu": 6408,
      "##bbie": 6409,
      "tam": 6410,
      "scient": 6411,
      "firefighter": 6412,
      "stacked": 6413,
      "firefly": 6414,
      "san": 6415,
      "garb": 6416,
      "waterfall": 6417,
      "sofia": 6418,
      "scientist": 6419,
      "garbage": 6420,
      "overcome": 6421,
      "drawn": 6422,
      "scampered": 6423,
      "##cake": 6424,
      "surprising": 6425,
      "dresser": 6426,
      "cobwebs": 6427,
      "nood": 6428,
      "megan": 6429,
      "twinkled": 6430,
      "##fus": 6431,
      "appreciation": 6432,
      "whose": 6433,
      "meanwhile": 6434,
      "explo": 6435,
      "eva": 6436,
      "sniffs": 6437,
      "respected": 6438,
      "notes": 6439,
      "scored": 6440,
      "##ushed": 6441,
      "pumpkins": 6442,
      "convers": 6443,
      "slips": 6444,
      "fits": 6445,
      "bravest": 6446,
      "drivers": 6447,
      "squishy": 6448,
      "strongest": 6449,
      "##ndred": 6450,
      "twisty": 6451,
      "hundred": 6452,
      "bamb": 6453,
      "##lets": 6454,
      "##old": 6455,
      "flown": 6456,
      "forgiving": 6457,
      "leapt": 6458,
      "pennies": 6459,
      "cosy": 6460,
      "elf": 6461,
      "colder": 6462,
      "oysters": 6463,
      "robber": 6464,
      "hoo": 6465,
      "nur": 6466,
      "echoed": 6467,
      "gonna": 6468,
      "ken": 6469,
      "peck": 6470,
      "squeezing": 6471,
      "performing": 6472,
      "katy": 6473,
      "blinking": 6474,
      "sharks": 6475,
      "designs": 6476,
      "spat": 6477,
      "wept": 6478,
      "##bro": 6479,
      "sank": 6480,
      "robots": 6481,
      "cotton": 6482,
      "causing": 6483,
      "fleas": 6484,
      "prove": 6485,
      "##idey": 6486,
      "sweetest": 6487,
      "prob": 6488,
      "mate": 6489,
      "guide": 6490,
      "healing": 6491,
      "def": 6492,
      "pippin": 6493,
      "probably": 6494,
      "angels": 6495,
      "gest": 6496,
      "marshmallows": 6497,
      "##fire": 6498,
      "spidey": 6499,
      "##iment": 6500,
      "##iona": 6501,
      "sadd": 6502,
      "spins": 6503,
      "pours": 6504,
      "behaving": 6505,
      "oo": 6506,
      "spices": 6507,
      "awo": 6508,
      "tar": 6509,
      "wakes": 6510,
      "haird": 6511,
      "bells": 6512,
      "shown": 6513,
      "##broken": 6514,
      "ell": 6515,
      "passports": 6516,
      "##itched": 6517,
      "conflict": 6518,
      "##ggy": 6519,
      "##iel": 6520,
      "tossed": 6521,
      "playroom": 6522,
      "jonny": 6523,
      "apr": 6524,
      "tricycle": 6525,
      "surfing": 6526,
      "passengers": 6527,
      "offic": 6528,
      "fiona": 6529,
      "pound": 6530,
      "tighter": 6531,
      "kittens": 6532,
      "louise": 6533,
      "yielded": 6534,
      "sewing": 6535,
      "maisy": 6536,
      "giggles": 6537,
      "ties": 6538,
      "bru": 6539,
      "ally": 6540,
      "slither": 6541,
      "explorer": 6542,
      "heartbroken": 6543,
      "reversed": 6544,
      "unw": 6545,
      "cottage": 6546,
      "reun": 6547,
      "sever": 6548,
      "paintbrush": 6549,
      "bits": 6550,
      "drift": 6551,
      "aimed": 6552,
      "##rup": 6553,
      "nearly": 6554,
      "melo": 6555,
      "##eth": 6556,
      "robin": 6557,
      "laying": 6558,
      "##mates": 6559,
      "##ently": 6560,
      "inj": 6561,
      "##bird": 6562,
      "ri": 6563,
      "patches": 6564,
      "brushing": 6565,
      "fant": 6566,
      "rainy": 6567,
      "ease": 6568,
      "til": 6569,
      "tying": 6570,
      "soaking": 6571,
      "appreciated": 6572,
      "scurry": 6573,
      "mae": 6574,
      "##ading": 6575,
      "puzzled": 6576,
      "bon": 6577,
      "action": 6578,
      "pays": 6579,
      "twisting": 6580,
      "becky": 6581,
      "pins": 6582,
      "clues": 6583,
      "instruments": 6584,
      "hallow": 6585,
      "cloudy": 6586,
      "mac": 6587,
      "evil": 6588,
      "eliz": 6589,
      "wider": 6590,
      "loading": 6591,
      "halloween": 6592,
      "ais": 6593,
      "sweep": 6594,
      "several": 6595,
      "##go": 6596,
      "##lves": 6597,
      "anger": 6598,
      "doorway": 6599,
      "##maid": 6600,
      "slipping": 6601,
      "pippa": 6602,
      "wally": 6603,
      "faith": 6604,
      "blocked": 6605,
      "finishing": 6606,
      "mailed": 6607,
      "paths": 6608,
      "##isc": 6609,
      "mermaid": 6610,
      "figures": 6611,
      "grandson": 6612,
      "ignoring": 6613,
      "##amaged": 6614,
      "damaged": 6615,
      "shrug": 6616,
      "coug": 6617,
      "caw": 6618,
      "streamers": 6619,
      "surrendered": 6620,
      "gaz": 6621,
      "breathing": 6622,
      "suffered": 6623,
      "responsib": 6624,
      "nuzz": 6625,
      "grandda": 6626,
      "hairdress": 6627,
      "defin": 6628,
      "##onies": 6629,
      "cleaner": 6630,
      "tablet": 6631,
      "repeating": 6632,
      "lending": 6633,
      "behavior": 6634,
      "fantastic": 6635,
      "crossing": 6636,
      "connected": 6637,
      "janey": 6638,
      "results": 6639,
      "cheers": 6640,
      "risks": 6641,
      "kelly": 6642,
      "##ilda": 6643,
      "accomplished": 6644,
      "shady": 6645,
      "except": 6646,
      "encount": 6647,
      "supported": 6648,
      "rather": 6649,
      "granddaughter": 6650,
      "squaw": 6651,
      "prick": 6652,
      "belts": 6653,
      "bracelets": 6654,
      "licking": 6655,
      "noodles": 6656,
      "popp": 6657,
      "stroll": 6658,
      "toward": 6659,
      "rin": 6660,
      "shovels": 6661,
      "awoke": 6662,
      "##fla": 6663,
      "genie": 6664,
      "edges": 6665,
      "ponies": 6666,
      "tasting": 6667,
      "humming": 6668,
      "##unity": 6669,
      "##flakes": 6670,
      "goodbyes": 6671,
      "ding": 6672,
      "handing": 6673,
      "hairdresser": 6674,
      "roars": 6675,
      "snowflakes": 6676,
      "stitches": 6677,
      "coral": 6678,
      "frankie": 6679,
      "definitely": 6680,
      "##piece": 6681,
      "surv": 6682,
      "warri": 6683,
      "buses": 6684,
      "quieter": 6685,
      "focus": 6686,
      "smallest": 6687,
      "##hew": 6688,
      "kevin": 6689,
      "final": 6690,
      "drown": 6691,
      "battle": 6692,
      "##isions": 6693,
      "driveway": 6694,
      "gesture": 6695,
      "vines": 6696,
      "thorns": 6697,
      "sped": 6698,
      "weeds": 6699,
      "##ms": 6700,
      "##found": 6701,
      "roger": 6702,
      "dory": 6703,
      "##oni": 6704,
      "occas": 6705,
      "correctly": 6706,
      "fishes": 6707,
      "simply": 6708,
      "peeled": 6709,
      "terrified": 6710,
      "reminding": 6711,
      "##crow": 6712,
      "wisely": 6713,
      "kings": 6714,
      "maker": 6715,
      "##dding": 6716,
      "scarecrow": 6717,
      "rays": 6718,
      "rains": 6719,
      "frowns": 6720,
      "newfound": 6721,
      "experien": 6722,
      "nast": 6723,
      "inspired": 6724,
      "decisions": 6725,
      "elbow": 6726,
      "chopped": 6727,
      "##erk": 6728,
      "sav": 6729,
      "disturbing": 6730,
      "exercises": 6731,
      "nasty": 6732,
      "tipped": 6733,
      "stopping": 6734,
      "sou": 6735,
      "squeaked": 6736,
      "afar": 6737,
      "footstep": 6738,
      "testing": 6739,
      "craft": 6740,
      "ships": 6741,
      "stan": 6742,
      "flipped": 6743,
      "bandages": 6744,
      "travels": 6745,
      "windowsill": 6746,
      "lent": 6747,
      "quackers": 6748,
      "nat": 6749,
      "symbols": 6750,
      "planting": 6751,
      "footsteps": 6752,
      "believing": 6753,
      "travelling": 6754,
      "reunited": 6755,
      "chocolates": 6756,
      "apologised": 6757,
      "student": 6758,
      "gus": 6759,
      "##onse": 6760,
      "birdhouse": 6761,
      "response": 6762,
      "covering": 6763,
      "##ulp": 6764,
      "officers": 6765,
      "speeding": 6766,
      "surfboard": 6767,
      "oink": 6768,
      "##worm": 6769,
      "antic": 6770,
      "jax": 6771,
      "gears": 6772,
      "##cie": 6773,
      "banged": 6774,
      "pedaled": 6775,
      "congratulated": 6776,
      "desper": 6777,
      "concert": 6778,
      "darlings": 6779,
      "nancy": 6780,
      "patty": 6781,
      "phil": 6782,
      "lies": 6783,
      "daniel": 6784,
      "reassured": 6785,
      "trotted": 6786,
      "business": 6787,
      "poppies": 6788,
      "##ya": 6789,
      "encouragement": 6790,
      "reapp": 6791,
      "address": 6792,
      "worrying": 6793,
      "elle": 6794,
      "solving": 6795,
      "presented": 6796,
      "target": 6797,
      "magnif": 6798,
      "stumble": 6799,
      "nodding": 6800,
      "forests": 6801,
      "##father": 6802,
      "ribbit": 6803,
      "sails": 6804,
      "punishment": 6805,
      "mam": 6806,
      "chilly": 6807,
      "campfire": 6808,
      "magazines": 6809,
      "images": 6810,
      "discussing": 6811,
      "arranged": 6812,
      "ti": 6813,
      "##line": 6814,
      "elly": 6815,
      "pand": 6816,
      "foxes": 6817,
      "burying": 6818,
      "##boy": 6819,
      "labels": 6820,
      "wrinkled": 6821,
      "grandfather": 6822,
      "marve": 6823,
      "sniffing": 6824,
      "##fly": 6825,
      "delayed": 6826,
      "braver": 6827,
      "comforting": 6828,
      "grip": 6829,
      "##sha": 6830,
      "seller": 6831,
      "expert": 6832,
      "und": 6833,
      "fills": 6834,
      "pandas": 6835,
      "ana": 6836,
      "knots": 6837,
      "jean": 6838,
      "spits": 6839,
      "displayed": 6840,
      "##ooky": 6841,
      "##eys": 6842,
      "whoo": 6843,
      "calmly": 6844,
      "ger": 6845,
      "amanda": 6846,
      "backpacks": 6847,
      "suggestion": 6848,
      "artwork": 6849,
      "pleaded": 6850,
      "##issa": 6851,
      "clerk": 6852,
      "suits": 6853,
      "masterpiece": 6854,
      "refuse": 6855,
      "yelped": 6856,
      "mood": 6857,
      "aim": 6858,
      "dragonfly": 6859,
      "mischie": 6860,
      "activity": 6861,
      "seashells": 6862,
      "rotting": 6863,
      "##arrow": 6864,
      "changes": 6865,
      "mischievous": 6866,
      "dev": 6867,
      "toolbox": 6868,
      "spies": 6869,
      "satur": 6870,
      "bothering": 6871,
      "##whe": 6872,
      "efforts": 6873,
      "saturday": 6874,
      "bitten": 6875,
      "packages": 6876,
      "aware": 6877,
      "helen": 6878,
      "appl": 6879,
      "elsa": 6880,
      "annoyed": 6881,
      "##action": 6882,
      "experienced": 6883,
      "belongings": 6884,
      "nana": 6885,
      "posit": 6886,
      "spills": 6887,
      "jars": 6888,
      "admiration": 6889,
      "##rier": 6890,
      "cowboy": 6891,
      "##iam": 6892,
      "##screen": 6893,
      "scent": 6894,
      "fires": 6895,
      "argum": 6896,
      "sasha": 6897,
      "##otte": 6898,
      "charlotte": 6899,
      "puck": 6900,
      "height": 6901,
      "##ddie": 6902,
      "sunscreen": 6903,
      "tammy": 6904,
      "dump": 6905,
      "fortunately": 6906,
      "gazing": 6907,
      "eddie": 6908,
      "crowns": 6909,
      "coach": 6910,
      "ava": 6911,
      "treated": 6912,
      "baskets": 6913,
      "understands": 6914,
      "conversation": 6915,
      "tumbled": 6916,
      "##inted": 6917,
      "troubles": 6918,
      "decl": 6919,
      "forgiveness": 6920,
      "towns": 6921,
      "sewed": 6922,
      "insisting": 6923,
      "##int": 6924,
      "warmly": 6925,
      "spooky": 6926,
      "rudy": 6927,
      "rud": 6928,
      "wealth": 6929,
      "nibbled": 6930,
      "eric": 6931,
      "##elope": 6932,
      "material": 6933,
      "ruff": 6934,
      "prayers": 6935,
      "##ongo": 6936,
      "peas": 6937,
      "##arest": 6938,
      "untied": 6939,
      "soot": 6940,
      "##iron": 6941,
      "environ": 6942,
      "servant": 6943,
      "lina": 6944,
      "fishy": 6945,
      "permitted": 6946,
      "stored": 6947,
      "melody": 6948,
      "encountered": 6949,
      "loops": 6950,
      "conqu": 6951,
      "spells": 6952,
      "memb": 6953,
      "quarre": 6954,
      "members": 6955,
      "trans": 6956,
      "##wise": 6957,
      "exch": 6958,
      "curl": 6959,
      "environment": 6960,
      "finny": 6961,
      "##ugging": 6962,
      "jason": 6963,
      "sill": 6964,
      "parted": 6965,
      "bathing": 6966,
      "vehicles": 6967,
      "teachers": 6968,
      "scurrying": 6969,
      "sheets": 6970,
      "fins": 6971,
      "turtles": 6972,
      "bisc": 6973,
      "otherwise": 6974,
      "diso": 6975,
      "collap": 6976,
      "type": 6977,
      "biscuit": 6978,
      "joked": 6979,
      "terry": 6980,
      "scram": 6981,
      "films": 6982,
      "glittering": 6983,
      "detail": 6984,
      "anticip": 6985,
      "whispering": 6986,
      "creams": 6987,
      "jud": 6988,
      "goats": 6989,
      "honesty": 6990,
      "##acles": 6991,
      "cafe": 6992,
      "warrior": 6993,
      "##nded": 6994,
      "convinced": 6995,
      "orders": 6996,
      "conc": 6997,
      "examining": 6998,
      "diamonds": 6999,
      "william": 7000,
      "purpose": 7001,
      "hunters": 7002,
      "opport": 7003,
      "##racted": 7004,
      "races": 7005,
      "dressing": 7006,
      "##ix": 7007,
      "wasting": 7008,
      "ends": 7009,
      "fif": 7010,
      "zoomy": 7011,
      "ly": 7012,
      "beaming": 7013,
      "tapping": 7014,
      "knives": 7015,
      "brian": 7016,
      "bobbie": 7017,
      "joins": 7018,
      "stroke": 7019,
      "hoops": 7020,
      "sweaty": 7021,
      "bongo": 7022,
      "customers": 7023,
      "crabby": 7024,
      "queens": 7025,
      "cleared": 7026,
      "visitors": 7027,
      "ting": 7028,
      "loses": 7029,
      "slowed": 7030,
      "tilted": 7031,
      "penelope": 7032,
      "guessing": 7033,
      "connect": 7034,
      "tubes": 7035,
      "nearest": 7036,
      "elsie": 7037,
      "seagulls": 7038,
      "inchworm": 7039,
      "oppos": 7040,
      "declared": 7041,
      "##sers": 7042,
      "peppa": 7043,
      "seals": 7044,
      "amber": 7045,
      "tires": 7046,
      "nurses": 7047,
      "failed": 7048,
      "gap": 7049,
      "##ka": 7050,
      "beaver": 7051,
      "pupils": 7052,
      "donkey": 7053,
      "untie": 7054,
      "wounds": 7055,
      "questioned": 7056,
      "bou": 7057,
      "thanking": 7058,
      "characters": 7059,
      "mosquitoes": 7060,
      "lipstick": 7061,
      "bouqu": 7062,
      "spy": 7063,
      "opposite": 7064,
      "una": 7065,
      "##ilities": 7066,
      "sternly": 7067,
      "charge": 7068,
      "responsibility": 7069,
      "sens": 7070,
      "cons": 7071,
      "picnics": 7072,
      "rescuing": 7073,
      "##orter": 7074,
      "cooper": 7075,
      "tin": 7076,
      "##choo": 7077,
      "attacked": 7078,
      "tessa": 7079,
      "responded": 7080,
      "youngest": 7081,
      "beeh": 7082,
      "meowing": 7083,
      "scrambled": 7084,
      "##pit": 7085,
      "##rily": 7086,
      "grat": 7087,
      "earned": 7088,
      "aisle": 7089,
      "goodies": 7090,
      "blond": 7091,
      "rebec": 7092,
      "signing": 7093,
      "floors": 7094,
      "beeped": 7095,
      "anticipation": 7096,
      "shin": 7097,
      "tidied": 7098,
      "aeroplanes": 7099,
      "survive": 7100,
      "rebecca": 7101,
      "classmates": 7102,
      "decoration": 7103,
      "emerged": 7104,
      "gratitude": 7105,
      "##emp": 7106,
      "##order": 7107,
      "force": 7108,
      "scratching": 7109,
      "ricky": 7110,
      "rely": 7111,
      "swo": 7112,
      "novels": 7113,
      "##uctor": 7114,
      "##inger": 7115,
      "gasp": 7116,
      "attemp": 7117,
      "swollen": 7118,
      "izzy": 7119,
      "snug": 7120,
      "active": 7121,
      "dripping": 7122,
      "fain": 7123,
      "argument": 7124,
      "oliv": 7125,
      "stall": 7126,
      "breaths": 7127,
      "vibr": 7128,
      "shelly": 7129,
      "form": 7130,
      "jenn": 7131,
      "knocking": 7132,
      "whim": 7133,
      "visits": 7134,
      "ashley": 7135,
      "munched": 7136,
      "loc": 7137,
      "glist": 7138,
      "badger": 7139,
      "swaying": 7140,
      "achoo": 7141,
      "smashed": 7142,
      "shrunk": 7143,
      "##athan": 7144,
      "gary": 7145,
      "discoveries": 7146,
      "##ana": 7147,
      "designing": 7148,
      "announced": 7149,
      "rats": 7150,
      "twists": 7151,
      "obeyed": 7152,
      "##ral": 7153,
      "unwra": 7154,
      "flip": 7155,
      "increasing": 7156,
      "eliza": 7157,
      "prickly": 7158,
      "roo": 7159,
      "manners": 7160,
      "##munk": 7161,
      "##hy": 7162,
      "##bit": 7163,
      "##idence": 7164,
      "chipmunk": 7165,
      "jugg": 7166,
      "##storm": 7167,
      "winding": 7168,
      "brightest": 7169,
      "robo": 7170,
      "doorbell": 7171,
      "explains": 7172,
      "cracks": 7173,
      "purrs": 7174,
      "offering": 7175,
      "ramp": 7176,
      "ghosts": 7177,
      "olivia": 7178,
      "fel": 7179,
      "##rie": 7180,
      "rumbling": 7181,
      "bond": 7182,
      "manager": 7183,
      "nora": 7184,
      "minds": 7185,
      "crops": 7186,
      "flick": 7187,
      "movements": 7188,
      "hike": 7189,
      "prevented": 7190,
      "buckled": 7191,
      "aliens": 7192,
      "flaps": 7193,
      "ginger": 7194,
      "tum": 7195,
      "poses": 7196,
      "closing": 7197,
      "wooly": 7198,
      "beating": 7199,
      "',": 7200,
      "switched": 7201,
      "zooms": 7202,
      "generosity": 7203,
      "destroying": 7204,
      "jilly": 7205,
      "##lt": 7206,
      "isab": 7207,
      "observing": 7208,
      "shines": 7209,
      "germs": 7210,
      "disobey": 7211,
      "arrr": 7212,
      "honking": 7213,
      "lowered": 7214,
      "##aret": 7215,
      "smelt": 7216,
      "##bun": 7217,
      "shimmering": 7218,
      "##boards": 7219,
      "matilda": 7220,
      "##opes": 7221,
      "bunbun": 7222,
      "ill": 7223,
      "toss": 7224,
      "beehive": 7225,
      "rowed": 7226,
      "unpacking": 7227,
      "million": 7228,
      "dino": 7229,
      "dangers": 7230,
      "jobs": 7231,
      "cupcake": 7232,
      "gracie": 7233,
      "vegg": 7234,
      "veggies": 7235,
      "##va": 7236,
      "cluck": 7237,
      "deed": 7238,
      "##olph": 7239,
      "##udged": 7240,
      "satisf": 7241,
      "paddling": 7242,
      "rudolph": 7243,
      "taped": 7244,
      "checkout": 7245,
      "haven": 7246,
      "beautifully": 7247,
      "swayed": 7248,
      "dodged": 7249,
      "glimmering": 7250,
      "exploded": 7251,
      "court": 7252,
      "recorder": 7253,
      "##lied": 7254,
      "clicked": 7255,
      "drowned": 7256,
      "supplied": 7257,
      "tidying": 7258,
      "routine": 7259,
      "##belle": 7260,
      "flips": 7261,
      "crawls": 7262,
      "peggy": 7263,
      "nuzzled": 7264,
      "goo": 7265,
      "stamped": 7266,
      "cocoon": 7267,
      "bouquet": 7268,
      "shorts": 7269,
      "particularly": 7270,
      "thankfully": 7271,
      "scooters": 7272,
      "groan": 7273,
      "steth": 7274,
      "swap": 7275,
      "##oscope": 7276,
      "whistles": 7277,
      "midnight": 7278,
      "##bee": 7279,
      "tummies": 7280,
      "cares": 7281,
      "steering": 7282,
      "gabby": 7283,
      "chatted": 7284,
      "disappoint": 7285,
      "customer": 7286,
      "tyler": 7287,
      "statues": 7288,
      "expecting": 7289,
      "nic": 7290,
      "healthier": 7291,
      "astronauts": 7292,
      "cara": 7293,
      "twenty": 7294,
      "conductor": 7295,
      "bert": 7296,
      "robbers": 7297,
      "elect": 7298,
      "stomp": 7299,
      "languages": 7300,
      "snaps": 7301,
      "strum": 7302,
      "floats": 7303,
      "scri": 7304,
      "scolds": 7305,
      "riley": 7306,
      "ket": 7307,
      "belle": 7308,
      "stethoscope": 7309,
      "plug": 7310,
      "lapt": 7311,
      "nests": 7312,
      "defeated": 7313,
      "ooh": 7314,
      "##vy": 7315,
      "overhead": 7316,
      "sculp": 7317,
      "providing": 7318,
      "syrup": 7319,
      "hood": 7320,
      "##imm": 7321,
      "squished": 7322,
      "wildflowers": 7323,
      "reminds": 7324,
      "container": 7325,
      "consid": 7326,
      "swallow": 7327,
      "combed": 7328,
      "weapons": 7329,
      "##uel": 7330,
      "foxy": 7331,
      "sprinkle": 7332,
      "beast": 7333,
      "opinions": 7334,
      "traded": 7335,
      "hardest": 7336,
      "tests": 7337,
      "##ita": 7338,
      "annabelle": 7339,
      "returning": 7340,
      "##con": 7341,
      "hiss": 7342,
      "plugged": 7343,
      "minded": 7344,
      "wiser": 7345,
      "rufus": 7346,
      "serving": 7347,
      "dears": 7348,
      "applause": 7349,
      "bust": 7350,
      "##cl": 7351,
      "gall": 7352,
      "awful": 7353,
      "flashing": 7354,
      "pout": 7355,
      "zack": 7356,
      "locks": 7357,
      "fascinating": 7358,
      "sadder": 7359,
      "laptop": 7360,
      "##anced": 7361,
      "deserved": 7362,
      "rav": 7363,
      "nights": 7364,
      "gardens": 7365,
      "april": 7366,
      "ky": 7367,
      "burnt": 7368,
      "##ats": 7369,
      "glided": 7370,
      "stretches": 7371,
      "confidence": 7372,
      "sculpture": 7373,
      "adds": 7374,
      "##entr": 7375,
      "farmers": 7376,
      "applauding": 7377,
      "concentr": 7378,
      "shorter": 7379,
      "bluebird": 7380,
      "tearing": 7381,
      "matey": 7382,
      "electric": 7383,
      "ass": 7384,
      "whales": 7385,
      "underw": 7386,
      "hotter": 7387,
      "bonnie": 7388,
      "faint": 7389,
      "playd": 7390,
      "grad": 7391,
      "trusting": 7392,
      "paula": 7393,
      "andrew": 7394,
      "killed": 7395,
      "experiences": 7396,
      "##flies": 7397,
      "bothered": 7398,
      "flashed": 7399,
      "convince": 7400,
      "mamma": 7401,
      "##raged": 7402,
      "examp": 7403,
      "grumbled": 7404,
      "##rench": 7405,
      "umbrell": 7406,
      "discou": 7407,
      "##ators": 7408,
      "prizes": 7409,
      "munching": 7410,
      "umbrellas": 7411,
      "carries": 7412,
      "checks": 7413,
      "extraord": 7414,
      "traveling": 7415,
      "##lers": 7416,
      "blown": 7417,
      "checking": 7418,
      "lim": 7419,
      "raising": 7420,
      "scrub": 7421,
      "cheated": 7422,
      "cubs": 7423,
      "##ssss": 7424,
      "grassho": 7425,
      "extraordinary": 7426,
      "liam": 7427,
      "vio": 7428,
      "teles": 7429,
      "carla": 7430,
      "lil": 7431,
      "##ative": 7432,
      "dryer": 7433,
      "sirens": 7434,
      "##pot": 7435,
      "##covered": 7436,
      "barry": 7437,
      "awhile": 7438,
      "##ware": 7439,
      "inches": 7440,
      "sets": 7441,
      "hunting": 7442,
      "natu": 7443,
      "bounces": 7444,
      "born": 7445,
      "flora": 7446,
      "melissa": 7447,
      "crystals": 7448,
      "sprang": 7449,
      "unable": 7450,
      "rosa": 7451,
      "##ession": 7452,
      "petting": 7453,
      "sprays": 7454,
      "relaxing": 7455,
      "types": 7456,
      "telescope": 7457,
      "maj": 7458,
      "emb": 7459,
      "teams": 7460,
      "##parable": 7461,
      "jody": 7462,
      "visitor": 7463,
      "collapsed": 7464,
      "inseparable": 7465,
      "imaginary": 7466,
      "odd": 7467,
      "lenny": 7468,
      "##ances": 7469,
      "sprout": 7470,
      "blur": 7471,
      "mila": 7472,
      "pinching": 7473,
      "member": 7474,
      "torto": 7475,
      "##pr": 7476,
      "oliver": 7477,
      "waters": 7478,
      "flowing": 7479,
      "distracted": 7480,
      "example": 7481,
      "icing": 7482,
      "##lest": 7483,
      "dock": 7484,
      "##angle": 7485,
      "discouraged": 7486,
      "opportunity": 7487,
      "singers": 7488,
      "burns": 7489,
      "soapy": 7490,
      "peeped": 7491,
      "liza": 7492,
      "instrument": 7493,
      "mona": 7494,
      "tortoise": 7495,
      "coolest": 7496,
      "behaviour": 7497,
      "##getic": 7498,
      "attitude": 7499,
      "necks": 7500,
      "marking": 7501,
      "otters": 7502,
      "upside": 7503,
      "countries": 7504,
      "meows": 7505,
      "waded": 7506,
      "yawning": 7507,
      "longest": 7508,
      "burger": 7509,
      "##igger": 7510,
      "ability": 7511,
      "##omb": 7512,
      "sometime": 7513,
      "forgives": 7514,
      "swimmer": 7515,
      "wriggled": 7516,
      "##lo": 7517,
      "chin": 7518,
      "grasshopper": 7519,
      "willy": 7520,
      "miller": 7521,
      "unlo": 7522,
      "engines": 7523,
      "jose": 7524,
      "trigger": 7525,
      "##abra": 7526,
      "conquered": 7527,
      "hamm": 7528,
      "##adabra": 7529,
      "soundly": 7530,
      "salon": 7531,
      "exploration": 7532,
      "expression": 7533,
      "hmm": 7534,
      "gradually": 7535,
      "clip": 7536,
      "envelopes": 7537,
      "flock": 7538,
      "surely": 7539,
      "tips": 7540,
      "clearly": 7541,
      "reappeared": 7542,
      "bride": 7543,
      "jennie": 7544,
      "bicycles": 7545,
      "rows": 7546,
      "uniforms": 7547,
      "majest": 7548,
      "cheaper": 7549,
      "weighing": 7550,
      "sweaters": 7551,
      "gallop": 7552,
      "storms": 7553,
      "tro": 7554,
      "enem": 7555,
      "enemies": 7556,
      "##erg": 7557,
      "##ids": 7558,
      "overwhe": 7559,
      "cheat": 7560,
      "pills": 7561,
      "annoying": 7562,
      "overwhel": 7563,
      "##balls": 7564,
      "mattered": 7565,
      "##bur": 7566,
      "heaven": 7567,
      "fond": 7568,
      "realizes": 7569,
      "crowded": 7570,
      "noticing": 7571,
      "compete": 7572,
      "airplanes": 7573,
      "enjoyable": 7574,
      "mommies": 7575,
      "crocodiles": 7576,
      "details": 7577,
      "repairman": 7578,
      "haircuts": 7579,
      "thicker": 7580,
      "outfits": 7581,
      "natural": 7582,
      "wan": 7583,
      "bud": 7584,
      "moat": 7585,
      "martin": 7586,
      "##ouched": 7587,
      "treas": 7588,
      "chatting": 7589,
      "stur": 7590,
      "cheerfully": 7591,
      "quacking": 7592,
      "whined": 7593,
      "##sol": 7594,
      "glittered": 7595,
      "blank": 7596,
      "smoking": 7597,
      "freezing": 7598,
      "approach": 7599,
      "violet": 7600,
      "scrun": 7601,
      "whoosh": 7602,
      "beetles": 7603,
      "zee": 7604,
      "passes": 7605,
      "strips": 7606,
      "abo": 7607,
      "spilling": 7608,
      "yumm": 7609,
      "companion": 7610,
      "occasion": 7611,
      "aboard": 7612,
      "formed": 7613,
      "becomes": 7614,
      "skies": 7615,
      "wanna": 7616,
      "bomb": 7617,
      "vibrant": 7618,
      "treasured": 7619,
      "bubbly": 7620,
      "janet": 7621,
      "pleas": 7622,
      "##boys": 7623,
      "miracle": 7624,
      "bund": 7625,
      "johny": 7626,
      "##scot": 7627,
      "cowboys": 7628,
      "compliment": 7629,
      "common": 7630,
      "abrac": 7631,
      "messes": 7632,
      "prod": 7633,
      "!'.": 7634,
      "abracadabra": 7635,
      "du": 7636,
      "habit": 7637,
      "cheating": 7638,
      "circ": 7639,
      "##ena": 7640,
      "##icate": 7641,
      "positive": 7642,
      ",'": 7643,
      "leah": 7644,
      "commun": 7645,
      "joyfully": 7646,
      "moonlight": 7647,
      "##hole": 7648,
      "bamboo": 7649,
      "meatballs": 7650,
      "jasm": 7651,
      "goodness": 7652,
      "caterpillars": 7653,
      "hangers": 7654,
      "slee": 7655,
      "smartest": 7656,
      "washes": 7657,
      "calmer": 7658,
      "chill": 7659,
      "blushed": 7660,
      "traps": 7661,
      "answering": 7662,
      "joanna": 7663,
      "##cere": 7664,
      "sincere": 7665,
      "erase": 7666,
      "scenery": 7667,
      "shallow": 7668,
      "newspapers": 7669,
      "hummed": 7670,
      "scattering": 7671,
      "##ering": 7672,
      "leaking": 7673,
      "swirls": 7674,
      "sipped": 7675,
      "clut": 7676,
      "squinted": 7677,
      "lump": 7678,
      "##rest": 7679,
      "backs": 7680,
      "explaining": 7681,
      "weighs": 7682,
      "blonde": 7683,
      "##ruct": 7684,
      "##belt": 7685,
      "##rey": 7686,
      "clue": 7687,
      "cris": 7688,
      "grump": 7689,
      "chickie": 7690,
      "local": 7691,
      "ratt": 7692,
      "cathy": 7693,
      "##mel": 7694,
      "shattered": 7695,
      "##ippers": 7696,
      "roast": 7697,
      "hopper": 7698,
      "teapot": 7699,
      "mugs": 7700,
      "fifi": 7701,
      "jasmine": 7702,
      "ank": 7703,
      "talents": 7704,
      "##venir": 7705,
      "seatbelt": 7706,
      "sneezes": 7707,
      "souvenir": 7708,
      "##ints": 7709,
      "situations": 7710,
      "hootie": 7711,
      "jem": 7712,
      "slapping": 7713,
      "burgers": 7714,
      "fireflies": 7715,
      "popsic": 7716,
      "alf": 7717,
      "pepperoni": 7718,
      "satisfaction": 7719,
      "osc": 7720,
      "pou": 7721,
      "##bank": 7722,
      "welcoming": 7723,
      "successfully": 7724,
      "hundreds": 7725,
      "oscar": 7726,
      "peac": 7727,
      "stuffing": 7728,
      "pantry": 7729,
      "baller": 7730,
      "rubbish": 7731,
      "certainly": 7732,
      "bruce": 7733,
      "watermel": 7734,
      "##shadow": 7735,
      "possib": 7736,
      "##scotch": 7737,
      "practised": 7738,
      "pipes": 7739,
      "forts": 7740,
      "bulbs": 7741,
      "peacock": 7742,
      "tickling": 7743,
      "binoc": 7744,
      "avery": 7745,
      "angrily": 7746,
      "models": 7747,
      "bruises": 7748,
      "binocular": 7749,
      "intently": 7750,
      "pressing": 7751,
      "cells": 7752,
      "foreshadow": 7753,
      "sandpit": 7754,
      "teamwork": 7755,
      "rowing": 7756,
      "rewarding": 7757,
      "glittery": 7758,
      "sturdy": 7759,
      "bound": 7760,
      "rewards": 7761,
      "runner": 7762,
      "nightmares": 7763,
      "embra": 7764,
      "pilots": 7765,
      "energetic": 7766,
      "stew": 7767,
      "scares": 7768,
      "##immered": 7769,
      "fris": 7770,
      "transf": 7771,
      "jets": 7772,
      "lookout": 7773,
      "unfair": 7774,
      "hisses": 7775,
      "playhouse": 7776,
      "##chup": 7777,
      "doorstep": 7778,
      "hopscotch": 7779,
      "coughed": 7780,
      "''": 7781,
      "##its": 7782,
      "stepping": 7783,
      "spoiling": 7784,
      "ketchup": 7785,
      "brad": 7786,
      "funn": 7787,
      "scow": 7788,
      "horri": 7789,
      "loyalty": 7790,
      "groaned": 7791,
      "sweeter": 7792,
      "messages": 7793,
      "crust": 7794,
      "croaked": 7795,
      "rebu": 7796,
      "cleans": 7797,
      "defeat": 7798,
      "nate": 7799,
      "##jack": 7800,
      "##aming": 7801,
      "##amil": 7802,
      "##sey": 7803,
      "obst": 7804,
      "unfamil": 7805,
      "exchange": 7806,
      "tugging": 7807,
      "shyly": 7808,
      "meadows": 7809,
      "melons": 7810,
      "unfamiliar": 7811,
      "felix": 7812,
      "josie": 7813,
      "protection": 7814,
      "tempted": 7815,
      "ahoy": 7816,
      "bubbling": 7817,
      "topp": 7818,
      "tunes": 7819,
      "microw": 7820,
      "marveled": 7821,
      "apology": 7822,
      "cages": 7823,
      "guardian": 7824,
      "invites": 7825,
      "##val": 7826,
      "shrank": 7827,
      "aston": 7828,
      "underwater": 7829,
      "microwave": 7830,
      "stores": 7831,
      "playdate": 7832,
      "dou": 7833,
      "ric": 7834,
      "slithered": 7835,
      "mumma": 7836,
      "acts": 7837,
      "overwhelmed": 7838,
      "crisp": 7839,
      "ballerina": 7840,
      "ping": 7841,
      "interest": 7842,
      "fade": 7843,
      "buggy": 7844,
      "tentacles": 7845,
      "alley": 7846,
      "patri": 7847,
      "pinchy": 7848,
      "demanding": 7849,
      "chopping": 7850,
      "bends": 7851,
      "judges": 7852,
      "finishes": 7853,
      "differently": 7854,
      "steven": 7855,
      "attend": 7856,
      "##,\"": 7857,
      "rosy": 7858,
      "raking": 7859,
      "guards": 7860,
      "allie": 7861,
      "minnie": 7862,
      "digs": 7863,
      "cherish": 7864,
      "crickets": 7865,
      "seasons": 7866,
      "binoculars": 7867,
      "rhino": 7868,
      "hesitation": 7869,
      "bambi": 7870,
      "watermelon": 7871,
      "ripp": 7872,
      "boards": 7873,
      "section": 7874,
      "##iciest": 7875,
      "moons": 7876,
      "gasps": 7877,
      "motorcy": 7878,
      "marley": 7879,
      "pouch": 7880,
      "randy": 7881,
      "meaning": 7882,
      "##rrrr": 7883,
      "wilbur": 7884,
      "realizing": 7885,
      "sweetly": 7886,
      "chews": 7887,
      "tempt": 7888,
      "jing": 7889,
      "##ounce": 7890,
      "gemma": 7891,
      "rita": 7892,
      "recess": 7893,
      "fries": 7894,
      "landing": 7895,
      "##ial": 7896,
      "snar": 7897,
      "shoel": 7898,
      "tickles": 7899,
      "strolled": 7900,
      "disappointment": 7901,
      "amused": 7902,
      "unwrapped": 7903,
      "pounced": 7904,
      "riverbank": 7905,
      "creak": 7906,
      "thunderstorm": 7907,
      "transformed": 7908,
      "curre": 7909,
      "##stand": 7910,
      "##ulf": 7911,
      "##gets": 7912,
      "foam": 7913,
      "crouched": 7914,
      "ms": 7915,
      "mayor": 7916,
      "keyhole": 7917,
      "##lish": 7918,
      "##chief": 7919,
      "petal": 7920,
      "frustration": 7921,
      "wiggles": 7922,
      "choosing": 7923,
      "sacks": 7924,
      "shares": 7925,
      "cherished": 7926,
      "tot": 7927,
      "carol": 7928,
      "ankle": 7929,
      "##ris": 7930,
      "blades": 7931,
      "\"!": 7932,
      "rips": 7933,
      "thie": 7934,
      "kangaroos": 7935,
      "structures": 7936,
      "centre": 7937,
      "temptation": 7938,
      "dep": 7939,
      "fist": 7940,
      "arrest": 7941,
      "lulla": 7942,
      "trusty": 7943,
      "patrick": 7944,
      "icky": 7945,
      "mysteries": 7946,
      "lumberjack": 7947,
      "injured": 7948,
      "##inct": 7949,
      "groups": 7950,
      "kneeling": 7951,
      "condition": 7952,
      "##ole": 7953,
      "claus": 7954,
      "rack": 7955,
      "##oma": 7956,
      "snorted": 7957,
      "styles": 7958,
      "whir": 7959,
      "prog": 7960,
      "sandra": 7961,
      "halfway": 7962,
      "reversing": 7963,
      "munch": 7964,
      "consider": 7965,
      "gates": 7966,
      "blo": 7967,
      "napped": 7968,
      "spears": 7969,
      "##othy": 7970,
      "snapping": 7971,
      "squeezes": 7972,
      "squawk": 7973,
      "ravi": 7974,
      "thieves": 7975,
      "actor": 7976,
      "jodie": 7977,
      "luckiest": 7978,
      "electricity": 7979,
      "lan": 7980,
      "##iring": 7981,
      "thrill": 7982,
      "charm": 7983,
      "##ifer": 7984,
      "ziggy": 7985,
      "computers": 7986,
      "whimpered": 7987,
      "motorcycles": 7988,
      "##gar": 7989,
      "alongside": 7990,
      "trading": 7991,
      "softened": 7992,
      "##ites": 7993,
      "##lyn": 7994,
      "spare": 7995,
      "wiggling": 7996,
      "unless": 7997,
      "jere": 7998,
      "level": 7999,
      "##elle": 8000,
      "magically": 8001,
      "cracker": 8002,
      "banging": 8003,
      "jennifer": 8004,
      "kenny": 8005,
      "lizards": 8006,
      "supporting": 8007,
      "foggy": 8008,
      "quarreled": 8009,
      "##enna": 8010,
      "absol": 8011,
      "intelligence": 8012,
      "absolut": 8013,
      "till": 8014,
      "pokes": 8015,
      "weaker": 8016,
      "disappearing": 8017,
      "textures": 8018,
      "warmed": 8019,
      "hissing": 8020,
      "skirts": 8021,
      "lush": 8022,
      "toothbrush": 8023,
      "fran": 8024,
      "lucas": 8025,
      "stanley": 8026,
      "nicest": 8027,
      "benches": 8028,
      "magnifying": 8029,
      "boil": 8030,
      "snowfl": 8031,
      "thumper": 8032,
      "communicate": 8033,
      "snowflake": 8034,
      "heels": 8035,
      "sleeps": 8036,
      "tant": 8037,
      "mooed": 8038,
      "astonished": 8039,
      "##rum": 8040,
      "continuing": 8041,
      "camel": 8042,
      "jonathan": 8043,
      "footpr": 8044,
      "plo": 8045,
      "pedaling": 8046,
      "sid": 8047,
      "##emy": 8048,
      "boiling": 8049,
      "##formation": 8050,
      "revealing": 8051,
      "shinier": 8052,
      "stun": 8053,
      "laun": 8054,
      "enemy": 8055,
      "bowing": 8056,
      "scene": 8057,
      "jes": 8058,
      "##wn": 8059,
      "toto": 8060,
      "bushy": 8061,
      "experiment": 8062,
      "poisonous": 8063,
      "rebuild": 8064,
      "thumbs": 8065,
      "levers": 8066,
      "swimsuits": 8067,
      "nibbles": 8068,
      "wolves": 8069,
      "##people": 8070,
      "compared": 8071,
      "leans": 8072,
      "improving": 8073,
      "soothing": 8074,
      "journeys": 8075,
      "cops": 8076,
      "fetched": 8077,
      "tantrum": 8078,
      "instinct": 8079,
      "timid": 8080,
      "concerned": 8081,
      "groom": 8082,
      "##rob": 8083,
      "##anie": 8084,
      "cupboards": 8085,
      "ahh": 8086,
      "bloss": 8087,
      "peak": 8088,
      "const": 8089,
      "writer": 8090,
      "surprisingly": 8091,
      "troll": 8092,
      "ton": 8093,
      "##urity": 8094,
      "worst": 8095,
      "gw": 8096,
      "oar": 8097,
      "##edic": 8098,
      "repairing": 8099,
      "knobs": 8100,
      "buster": 8101,
      "whine": 8102,
      "tops": 8103,
      "guarding": 8104,
      "tink": 8105,
      "##mie": 8106,
      "sensation": 8107,
      "jeremy": 8108,
      "absolutely": 8109,
      "##rom": 8110,
      "security": 8111,
      "trusts": 8112,
      "townspeople": 8113,
      "popping": 8114,
      "larger": 8115,
      "kyle": 8116,
      "prank": 8117,
      "creep": 8118,
      "narrow": 8119,
      "lava": 8120,
      "lullaby": 8121,
      "##ics": 8122,
      "owls": 8123,
      "##utt": 8124,
      "bold": 8125,
      "alan": 8126,
      "mold": 8127,
      "ratty": 8128,
      "property": 8129,
      "##yl": 8130,
      "brains": 8131,
      "cooled": 8132,
      "wrench": 8133,
      "tock": 8134,
      "oldest": 8135,
      "deeply": 8136,
      "croak": 8137,
      "desperate": 8138,
      "kayaking": 8139,
      "tend": 8140,
      "whipped": 8141,
      "snort": 8142,
      "realise": 8143,
      "allowing": 8144,
      "##ibly": 8145,
      "embarrassing": 8146,
      "##lor": 8147,
      "drying": 8148,
      "mais": 8149,
      "rails": 8150,
      "##ruction": 8151,
      "allerg": 8152,
      "aloud": 8153,
      "nearer": 8154,
      "courageous": 8155,
      "coughing": 8156,
      "owns": 8157,
      "cuddling": 8158,
      "current": 8159,
      "spe": 8160,
      "facing": 8161,
      "angrier": 8162,
      "cutter": 8163,
      "hank": 8164,
      "exh": 8165,
      "blade": 8166,
      "colin": 8167,
      "maisie": 8168,
      "scoops": 8169,
      "heavily": 8170,
      "tippy": 8171,
      "eld": 8172,
      "canv": 8173,
      "##ike": 8174,
      "sooner": 8175,
      "##barrow": 8176,
      "wheelbarrow": 8177,
      "##guard": 8178,
      "alligators": 8179,
      "pickles": 8180,
      "ami": 8181,
      "harmony": 8182,
      "whirl": 8183,
      "quilt": 8184,
      "flooded": 8185,
      "ria": 8186,
      "chewy": 8187,
      "completing": 8188,
      "skate": 8189,
      "pedall": 8190,
      "throne": 8191,
      "warmest": 8192,
      "mustered": 8193,
      "dashed": 8194,
      "loudest": 8195,
      "sleds": 8196,
      "##vering": 8197,
      "shoots": 8198,
      "springtime": 8199,
      "flashes": 8200,
      "##pan": 8201,
      "shave": 8202,
      "mast": 8203,
      "mindful": 8204,
      "costs": 8205,
      "blooms": 8206,
      "facts": 8207,
      "stinky": 8208,
      "sobbing": 8209,
      "##aging": 8210,
      "misty": 8211,
      "zips": 8212,
      "scratchy": 8213,
      "hips": 8214,
      "waking": 8215,
      "necess": 8216,
      "knit": 8217,
      "##artment": 8218,
      "springing": 8219,
      "hooves": 8220,
      "pleasant": 8221,
      "caps": 8222,
      "disaster": 8223,
      "gratefully": 8224,
      "attempts": 8225,
      "footprints": 8226,
      "canvas": 8227,
      "opt": 8228,
      "incredibly": 8229,
      "invitations": 8230,
      "puppets": 8231,
      "juiciest": 8232,
      "lunchtime": 8233,
      "preschool": 8234,
      "minding": 8235,
      "allowance": 8236,
      "lantern": 8237,
      "shrugs": 8238,
      "gret": 8239,
      "builder": 8240,
      "calming": 8241,
      "huddled": 8242,
      "libby": 8243,
      "fights": 8244,
      "spiky": 8245,
      "missy": 8246,
      "medals": 8247,
      "achievement": 8248,
      "cousins": 8249,
      "soda": 8250,
      "##ala": 8251,
      "contented": 8252,
      "susp": 8253,
      "babys": 8254,
      "##?\"": 8255,
      "tale": 8256,
      "chatter": 8257,
      "cooperate": 8258,
      "comprom": 8259,
      "hollow": 8260,
      "repeats": 8261,
      "brun": 8262,
      "circled": 8263,
      "##ili": 8264,
      "hooks": 8265,
      "plopped": 8266,
      "gwen": 8267,
      "##cri": 8268,
      "winds": 8269,
      "woodcut": 8270,
      "pose": 8271,
      "honks": 8272,
      "copied": 8273,
      "sneaks": 8274,
      "woodcutter": 8275,
      "hangs": 8276,
      "bruno": 8277,
      "dozed": 8278,
      "robe": 8279,
      "hatched": 8280,
      "wrapper": 8281,
      "desperately": 8282,
      "lace": 8283,
      "glared": 8284,
      "whether": 8285,
      "freya": 8286,
      "bats": 8287,
      "lifeguard": 8288,
      "cig": 8289,
      "bellies": 8290,
      "purch": 8291,
      "movement": 8292,
      "seriously": 8293,
      "challenges": 8294,
      "stalk": 8295,
      "##uries": 8296,
      "greg": 8297,
      "glanced": 8298,
      "kissing": 8299,
      "ticking": 8300,
      "ostriches": 8301,
      "##ping": 8302,
      "clare": 8303,
      "sniffled": 8304,
      "pounds": 8305,
      "##iments": 8306,
      "oceans": 8307,
      "smoothly": 8308,
      "capture": 8309,
      "strokes": 8310,
      "babysitter": 8311,
      "aroma": 8312,
      "daily": 8313,
      "##olved": 8314,
      "cigaret": 8315,
      "gul": 8316,
      "ron": 8317,
      "champ": 8318,
      "distract": 8319,
      "roller": 8320,
      "admit": 8321,
      "persistence": 8322,
      "nicky": 8323,
      "congratulations": 8324,
      "mous": 8325,
      "olly": 8326,
      "indo": 8327,
      "energ": 8328,
      "caution": 8329,
      "glistening": 8330,
      "yummiest": 8331,
      "squeal": 8332,
      "piled": 8333,
      "chains": 8334,
      "musicians": 8335,
      "magnific": 8336,
      "fulf": 8337,
      "gummy": 8338,
      "##bl": 8339,
      "lasted": 8340,
      "bumping": 8341,
      "##mark": 8342,
      "scutt": 8343,
      "stacking": 8344,
      "possibilities": 8345,
      "deciding": 8346,
      "matthew": 8347,
      "introducing": 8348,
      "fer": 8349,
      "##cup": 8350,
      "##oned": 8351,
      "sparrow": 8352,
      "swapped": 8353,
      "clover": 8354,
      "process": 8355,
      "coop": 8356,
      "comets": 8357,
      "recommendation": 8358,
      "joseph": 8359,
      "fay": 8360,
      "chili": 8361,
      "racer": 8362,
      "dept": 8363,
      "##otion": 8364,
      "loads": 8365,
      "quacks": 8366,
      "depth": 8367,
      "theat": 8368,
      "uncovered": 8369,
      "hatch": 8370,
      "folds": 8371,
      "rinse": 8372,
      "exhib": 8373,
      "doug": 8374,
      "##upt": 8375,
      "booth": 8376,
      "doggie": 8377,
      "webs": 8378,
      "stains": 8379,
      "willow": 8380,
      "##ective": 8381,
      "messed": 8382,
      "date": 8383,
      "bathed": 8384,
      "biggie": 8385,
      "necessary": 8386,
      "ned": 8387,
      "cocon": 8388,
      "coconut": 8389,
      "##erts": 8390,
      "royal": 8391,
      "retrie": 8392,
      "bolt": 8393,
      "hovering": 8394,
      "nets": 8395,
      "plus": 8396,
      "maps": 8397,
      "desks": 8398,
      "crafts": 8399,
      "lever": 8400,
      "mend": 8401,
      "desserts": 8402,
      "##idi": 8403,
      "untangle": 8404,
      "speaks": 8405,
      "imaginations": 8406,
      "passenger": 8407,
      "instincts": 8408,
      "noah": 8409,
      "laces": 8410,
      "antenna": 8411,
      "obediently": 8412,
      "##oray": 8413,
      "hooray": 8414,
      "theatre": 8415,
      "pollen": 8416,
      "trim": 8417,
      "hamster": 8418,
      "shooed": 8419,
      "magnificent": 8420,
      "##mate": 8421,
      "handy": 8422,
      "kinder": 8423,
      "mesmerised": 8424,
      "cooed": 8425,
      "awa": 8426,
      "speaker": 8427,
      "flavour": 8428,
      "dedic": 8429,
      "parks": 8430,
      "whoa": 8431,
      "hoses": 8432,
      "allergic": 8433,
      "compromise": 8434,
      "##ashes": 8435,
      "charged": 8436,
      "borrowing": 8437,
      "fuss": 8438,
      "toot": 8439,
      "gooey": 8440,
      "blamed": 8441,
      "stirs": 8442,
      "disobeyed": 8443,
      "greatest": 8444,
      "clubs": 8445,
      "widely": 8446,
      "progress": 8447,
      "lif": 8448,
      "##ically": 8449,
      "unz": 8450,
      "hippos": 8451,
      "vinegar": 8452,
      "purring": 8453,
      "undone": 8454,
      "doves": 8455,
      "bait": 8456,
      "gogg": 8457,
      "##ection": 8458,
      "confus": 8459,
      "headache": 8460,
      "amongst": 8461,
      "aprons": 8462,
      "bundle": 8463,
      "confusion": 8464,
      "halves": 8465,
      "differences": 8466,
      "cuc": 8467,
      "cutest": 8468,
      "carly": 8469,
      "fived": 8470,
      "swat": 8471,
      "drip": 8472,
      "army": 8473,
      "##imbo": 8474,
      "challenged": 8475,
      "frisbee": 8476,
      "gulped": 8477,
      "##umed": 8478,
      "barb": 8479,
      "cloths": 8480,
      "##keepers": 8481,
      "##book": 8482,
      "science": 8483,
      "laws": 8484,
      "roamed": 8485,
      "gladly": 8486,
      "fooled": 8487,
      "gogo": 8488,
      "ages": 8489,
      "keen": 8490,
      "valleys": 8491,
      "wax": 8492,
      "wadd": 8493,
      "confidently": 8494,
      "shoelaces": 8495,
      "goggles": 8496,
      "unfold": 8497,
      "hare": 8498,
      "host": 8499,
      "victor": 8500,
      "mousy": 8501,
      "learner": 8502,
      "pecks": 8503,
      "overhe": 8504,
      "jumpy": 8505,
      "sleigh": 8506,
      "nibbling": 8507,
      "depths": 8508,
      "##utter": 8509,
      "sean": 8510,
      "##athy": 8511,
      "plumber": 8512,
      "boiled": 8513,
      "##inda": 8514,
      "billie": 8515,
      "files": 8516,
      "performers": 8517,
      "freely": 8518,
      "heidi": 8519,
      "lunchbox": 8520,
      "riddle": 8521,
      "unicorns": 8522,
      "jimbo": 8523,
      "neig": 8524,
      "softest": 8525,
      "appearance": 8526,
      "rory": 8527,
      "##sm": 8528,
      "tempting": 8529,
      "indoors": 8530,
      "scre": 8531,
      "snoring": 8532,
      "tay": 8533,
      "slurp": 8534,
      "silently": 8535,
      "eve": 8536,
      "steered": 8537,
      "mustn": 8538,
      "tiring": 8539,
      "##inny": 8540,
      "##ppers": 8541,
      "summ": 8542,
      "pearls": 8543,
      "tastiest": 8544,
      "rinsed": 8545,
      "grandad": 8546,
      "marg": 8547,
      "rotted": 8548,
      "crunch": 8549,
      "pancake": 8550,
      "automobiles": 8551,
      "globe": 8552,
      "##ift": 8553,
      "##how": 8554,
      "##bed": 8555,
      "galloped": 8556,
      "toppings": 8557,
      "squirted": 8558,
      "beeping": 8559,
      "department": 8560,
      "fart": 8561,
      "tia": 8562,
      "snip": 8563,
      "drill": 8564,
      "crushed": 8565,
      "peacefulness": 8566,
      "rooster": 8567,
      "##off": 8568,
      "##any": 8569,
      "route": 8570,
      "carton": 8571,
      "##los": 8572,
      "whizz": 8573,
      "##uffy": 8574,
      "lilies": 8575,
      "sinking": 8576,
      "helicopters": 8577,
      "gorge": 8578,
      "beware": 8579,
      "'.\"": 8580,
      "fashionable": 8581,
      "##ality": 8582,
      "somehow": 8583,
      "##orth": 8584,
      "restoring": 8585,
      "stripe": 8586,
      "ladybird": 8587,
      "macar": 8588,
      "occasions": 8589,
      "plat": 8590,
      "listener": 8591,
      "dee": 8592,
      "leaped": 8593,
      "pizzas": 8594,
      "pecking": 8595,
      "##cloth": 8596,
      "scrunched": 8597,
      "lur": 8598,
      "brakes": 8599,
      "shortcut": 8600,
      "##rings": 8601,
      "lightly": 8602,
      "sends": 8603,
      "macaroni": 8604,
      "kel": 8605,
      "caroline": 8606,
      "regularly": 8607,
      "nug": 8608,
      "nations": 8609,
      "north": 8610,
      "##free": 8611,
      "winners": 8612,
      "##umn": 8613,
      "enclos": 8614,
      "dusted": 8615,
      "gorgeous": 8616,
      "enclosure": 8617,
      "##etah": 8618,
      "stings": 8619,
      "span": 8620,
      "carefree": 8621,
      "cheetah": 8622,
      "hunger": 8623,
      "lonel": 8624,
      "rods": 8625,
      "carn": 8626,
      "exercising": 8627,
      "soul": 8628,
      "sly": 8629,
      "swoop": 8630,
      "furious": 8631,
      "earrings": 8632,
      "fanc": 8633,
      "deserves": 8634,
      "joanne": 8635,
      "softness": 8636,
      "snuggling": 8637,
      "scrubbing": 8638,
      "bumble": 8639,
      "ashes": 8640,
      "hovered": 8641,
      "pref": 8642,
      "overheard": 8643,
      "gert": 8644,
      "enjo": 8645,
      "risky": 8646,
      "##ippy": 8647,
      "##dia": 8648,
      "sta": 8649,
      "susy": 8650,
      "lydia": 8651,
      "enjoys": 8652,
      "dumb": 8653,
      "stacks": 8654,
      "pounding": 8655,
      "handles": 8656,
      "brightened": 8657,
      "rider": 8658,
      "enthusiastically": 8659,
      "shots": 8660,
      "willie": 8661,
      "rags": 8662,
      "phones": 8663,
      "organised": 8664,
      "scores": 8665,
      "horrible": 8666,
      "platform": 8667,
      "ordering": 8668,
      "woken": 8669,
      "unlocking": 8670,
      "leng": 8671,
      "##aly": 8672,
      "slight": 8673,
      "mats": 8674,
      "steph": 8675,
      "##cases": 8676,
      "hates": 8677,
      "disagreement": 8678,
      "##bly": 8679,
      "isla": 8680,
      "dripped": 8681,
      "venture": 8682,
      "mashed": 8683,
      "fail": 8684,
      "twel": 8685,
      "handlebar": 8686,
      "popsicle": 8687,
      "guesses": 8688,
      "mischief": 8689,
      "poop": 8690,
      "##ups": 8691,
      "descri": 8692,
      "tents": 8693,
      "kai": 8694,
      "length": 8695,
      "kara": 8696,
      "niece": 8697,
      "##tail": 8698,
      "##gr": 8699,
      "taps": 8700,
      "adj": 8701,
      "johnnie": 8702,
      "builders": 8703,
      "crispy": 8704,
      "##ks": 8705,
      "information": 8706,
      "access": 8707,
      "peeks": 8708,
      "twelve": 8709,
      "whines": 8710,
      "sweetness": 8711,
      "honeycom": 8712,
      "devast": 8713,
      "honeycomb": 8714,
      "overflow": 8715,
      "untangled": 8716,
      "rightful": 8717,
      "zookeepers": 8718,
      "community": 8719,
      "guided": 8720,
      "majestic": 8721,
      "carnival": 8722,
      "nightstand": 8723,
      "fans": 8724,
      "feathered": 8725,
      "displaying": 8726,
      "isabella": 8727,
      "cd": 8728,
      "##cker": 8729,
      "lasers": 8730,
      "shaky": 8731,
      "nanny": 8732,
      "excell": 8733,
      "stroller": 8734,
      "spice": 8735,
      "grumble": 8736,
      "dives": 8737,
      "invent": 8738,
      "calf": 8739,
      "ivy": 8740,
      "tad": 8741,
      "##illas": 8742,
      "kelsey": 8743,
      "##ige": 8744,
      "proved": 8745,
      "striking": 8746,
      "actors": 8747,
      "champion": 8748,
      "gail": 8749,
      "devastated": 8750,
      "anybody": 8751,
      "jumper": 8752,
      "deck": 8753,
      "competing": 8754,
      "praise": 8755,
      "weights": 8756,
      "scowled": 8757,
      "jaw": 8758,
      "chicky": 8759,
      "servants": 8760,
      "##ical": 8761,
      "complimented": 8762,
      "exhibit": 8763,
      "state": 8764,
      "backward": 8765,
      "##shop": 8766,
      "dining": 8767,
      "threads": 8768,
      "heights": 8769,
      "nuggets": 8770,
      "cine": 8771,
      "kathy": 8772,
      "skinny": 8773,
      "sundays": 8774,
      "excellent": 8775,
      "cinema": 8776,
      "toad": 8777,
      "homeless": 8778,
      "contained": 8779,
      "batch": 8780,
      "glows": 8781,
      "nudged": 8782,
      "##shes": 8783,
      "##field": 8784,
      "boarded": 8785,
      "subject": 8786,
      "reflect": 8787,
      "sizz": 8788,
      "##anna": 8789,
      "caves": 8790,
      "afterward": 8791,
      "frightening": 8792,
      "palms": 8793,
      "service": 8794,
      "damp": 8795,
      "timothy": 8796,
      "atmo": 8797,
      "enchan": 8798,
      "##sphere": 8799,
      "priest": 8800,
      "panting": 8801,
      "audrey": 8802,
      "dedication": 8803,
      "atmosphere": 8804,
      "enchanted": 8805,
      "managing": 8806,
      "beaks": 8807,
      "entering": 8808,
      "blossom": 8809,
      "lakes": 8810,
      "##ously": 8811,
      "lighting": 8812,
      "gorillas": 8813,
      "autumn": 8814,
      "jemma": 8815,
      "peels": 8816,
      "values": 8817,
      "fiercely": 8818,
      "farthest": 8819,
      "mound": 8820,
      "wheee": 8821,
      "wrecked": 8822,
      "speck": 8823,
      "energized": 8824,
      "funniest": 8825,
      "mushy": 8826,
      "##rap": 8827,
      "solid": 8828,
      "camps": 8829,
      "vacu": 8830,
      "oars": 8831,
      "invis": 8832,
      "tanks": 8833,
      "taylor": 8834,
      "fences": 8835,
      "rumbled": 8836,
      "shuff": 8837,
      "glor": 8838,
      "##ilar": 8839,
      "suck": 8840,
      "##icking": 8841,
      "pace": 8842,
      "tripping": 8843,
      "pads": 8844,
      "attaching": 8845,
      "tongues": 8846,
      "duke": 8847,
      "invisible": 8848,
      "##icious": 8849,
      "stormy": 8850,
      "eyed": 8851,
      "##issy": 8852,
      "ducklings": 8853,
      "trunks": 8854,
      "considerate": 8855,
      "hamb": 8856,
      "farms": 8857,
      "carous": 8858,
      "parking": 8859,
      "offers": 8860,
      "marcy": 8861,
      "spirits": 8862,
      "chooses": 8863,
      "##seed": 8864,
      "bailey": 8865,
      "birdseed": 8866,
      "slot": 8867,
      "sunb": 8868,
      "sickness": 8869,
      "cerem": 8870,
      "carousel": 8871,
      "wig": 8872,
      "##bi": 8873,
      "polka": 8874,
      "##appy": 8875,
      "shimmered": 8876,
      "##ssy": 8877,
      "practising": 8878,
      "sleeve": 8879,
      "twitched": 8880,
      "matty": 8881,
      "blessed": 8882,
      "possess": 8883,
      "greta": 8884,
      "20": 8885,
      "##ders": 8886,
      "runny": 8887,
      "nestled": 8888,
      "alfie": 8889,
      "totally": 8890,
      "hambur": 8891,
      "##owing": 8892,
      "bernie": 8893,
      "ceremony": 8894,
      "hind": 8895,
      "mara": 8896,
      "pudding": 8897,
      "addition": 8898,
      "scrape": 8899,
      "smoother": 8900,
      "recip": 8901,
      "parrots": 8902,
      "obl": 8903,
      "layla": 8904,
      "antlers": 8905,
      "sneaking": 8906,
      "grandk": 8907,
      "unst": 8908,
      "##aps": 8909,
      "commotion": 8910,
      "campsite": 8911,
      "albert": 8912,
      "everytime": 8913,
      "seeking": 8914,
      "blob": 8915,
      "reality": 8916,
      "interrup": 8917,
      "tours": 8918,
      "loneliness": 8919,
      "##rit": 8920,
      "workshop": 8921,
      "potty": 8922,
      "exams": 8923,
      "vests": 8924,
      "mur": 8925,
      "dips": 8926,
      "amen": 8927,
      "goldie": 8928,
      "elders": 8929,
      "roy": 8930,
      "twirls": 8931,
      "supplying": 8932,
      "squawked": 8933,
      "arth": 8934,
      "knitting": 8935,
      "howl": 8936,
      "alexa": 8937,
      "faye": 8938,
      "dyl": 8939,
      "##ndel": 8940,
      "atop": 8941,
      "chattered": 8942,
      "solutions": 8943,
      "handlebars": 8944,
      "dylan": 8945,
      "stained": 8946,
      "scaly": 8947,
      "buckles": 8948,
      "presence": 8949,
      "urging": 8950,
      "threatened": 8951,
      "lat": 8952,
      "delightful": 8953,
      "studies": 8954,
      "##wood": 8955,
      "bop": 8956,
      "patients": 8957,
      "disagreeing": 8958,
      "purchase": 8959,
      "arthur": 8960,
      "rum": 8961,
      "##ridge": 8962,
      "thous": 8963,
      "##lee": 8964,
      "gliding": 8965,
      "designer": 8966,
      "resisting": 8967,
      "winks": 8968,
      "neighed": 8969,
      "thousand": 8970,
      "huff": 8971,
      "cooks": 8972,
      "droop": 8973,
      "cruel": 8974,
      "contents": 8975,
      "pitcher": 8976,
      "massages": 8977,
      "avoided": 8978,
      "swirled": 8979,
      "injuries": 8980,
      "suspicious": 8981,
      "voy": 8982,
      "##inting": 8983,
      "nelly": 8984,
      "aback": 8985,
      "geor": 8986,
      "nia": 8987,
      "sax": 8988,
      "online": 8989,
      "inn": 8990,
      "##icia": 8991,
      "carrie": 8992,
      "dustpan": 8993,
      "freshly": 8994,
      "pairs": 8995,
      "ripples": 8996,
      "margaret": 8997,
      "lurking": 8998,
      "reck": 8999,
      "glimmer": 9000,
      "aids": 9001,
      "possession": 9002,
      "##over": 9003,
      "swirling": 9004,
      "defend": 9005,
      "bounded": 9006,
      "##icated": 9007,
      "##ann": 9008,
      "alison": 9009,
      "blame": 9010,
      "dandel": 9011,
      "clothing": 9012,
      "spied": 9013,
      "erasers": 9014,
      "wilma": 9015,
      "crusty": 9016,
      "recipes": 9017,
      "tone": 9018,
      "skips": 9019,
      "zippy": 9020,
      "tutu": 9021,
      "darted": 9022,
      "dodging": 9023,
      "scree": 9024,
      "carve": 9025,
      "flappy": 9026,
      "prof": 9027,
      "foreshadowing": 9028,
      "perse": 9029,
      "woodpe": 9030,
      "fourth": 9031,
      "suggests": 9032,
      "puffy": 9033,
      "scribble": 9034,
      "reckless": 9035,
      "##cted": 9036,
      "reel": 9037,
      "clips": 9038,
      "owning": 9039,
      "snowing": 9040,
      "harvest": 9041,
      "settling": 9042,
      "attendant": 9043,
      "ellen": 9044,
      "hoof": 9045,
      "sells": 9046,
      "trailer": 9047,
      "tingle": 9048,
      "pals": 9049,
      "##aa": 9050,
      "aband": 9051,
      "hairs": 9052,
      "suitcases": 9053,
      "porridge": 9054,
      "gilly": 9055,
      "adop": 9056,
      "gardening": 9057,
      "desce": 9058,
      "eww": 9059,
      "scientists": 9060,
      "launch": 9061,
      "tumbling": 9062,
      "##ils": 9063,
      "marvel": 9064,
      "dv": 9065,
      "laure": 9066,
      "hy": 9067,
      "##dream": 9068,
      "daydream": 9069,
      "painful": 9070,
      "protector": 9071,
      "theo": 9072,
      "code": 9073,
      "raw": 9074,
      "stretchy": 9075,
      "voyage": 9076,
      "horror": 9077,
      "streams": 9078,
      "embrace": 9079,
      "##bbling": 9080,
      "anyways": 9081,
      "hurtful": 9082,
      "guitars": 9083,
      "supermark": 9084,
      "arrange": 9085,
      "?!": 9086,
      "div": 9087,
      "meets": 9088,
      "holidays": 9089,
      "var": 9090,
      "raked": 9091,
      "supermarket": 9092,
      "vast": 9093,
      "wicked": 9094,
      "lolly": 9095,
      "grasp": 9096,
      "armor": 9097,
      "disgusted": 9098,
      "reappear": 9099,
      "rink": 9100,
      "gruff": 9101,
      "##eller": 9102,
      "justin": 9103,
      "wetter": 9104,
      "hammering": 9105,
      "##ssssssss": 9106,
      "grandkids": 9107,
      "missiles": 9108,
      "fully": 9109,
      "##ipper": 9110,
      "reaction": 9111,
      "##ffy": 9112,
      "tightened": 9113,
      "godmother": 9114,
      "sculptures": 9115,
      "woodpecker": 9116,
      "vit": 9117,
      "slightly": 9118,
      "gerry": 9119,
      "quizz": 9120,
      "mmmm": 9121,
      "surrounding": 9122,
      "dumped": 9123,
      "glistened": 9124,
      "dora": 9125,
      "##acle": 9126,
      "mailing": 9127,
      "streaming": 9128,
      "projects": 9129,
      "clutched": 9130,
      "pave": 9131,
      "squirmed": 9132,
      "obstacles": 9133,
      "innoc": 9134,
      "dong": 9135,
      "phew": 9136,
      "tul": 9137,
      "##hen": 9138,
      "showers": 9139,
      "winking": 9140,
      "spoken": 9141,
      "toothp": 9142,
      "cy": 9143,
      "ada": 9144,
      "##ushes": 9145,
      "##ivated": 9146,
      "refusing": 9147,
      "##ira": 9148,
      "soggy": 9149,
      "witches": 9150,
      "forwards": 9151,
      "islands": 9152,
      "unlike": 9153,
      "pavement": 9154,
      "##ooked": 9155,
      "wea": 9156,
      "flyer": 9157,
      "disappears": 9158,
      "assist": 9159,
      "afric": 9160,
      "puffed": 9161,
      "vitam": 9162,
      "'?\"": 9163,
      "pedalled": 9164,
      "saxophone": 9165,
      "carved": 9166,
      "charles": 9167,
      "explode": 9168,
      "riches": 9169,
      "acrob": 9170,
      "unkind": 9171,
      "discussion": 9172,
      "stomachs": 9173,
      "wobbles": 9174,
      "rani": 9175,
      "petey": 9176,
      "contentment": 9177,
      "begun": 9178,
      "device": 9179,
      "explan": 9180,
      "quicker": 9181,
      "villain": 9182,
      "performer": 9183,
[...]
