{
  "version": "1.0",
  "truncation": null,
  "padding": null,
  "added_tokens": [
    {
      "id": 0,
      "content": "<unk>",
      "single_word": false,
      "lstrip": false,
      "rstrip": false,
      "normalized": false,
      "special": true
    },
    {
      "id": 1,
      "content": "<pad>",
      "single_word": false,
      "lstrip": false,
      "rstrip": false,
      "normalized": false,
      "special": true
    },
    {
      "id": 2,
      "content": "<s>",
      "single_word": false,
      "lstrip": false,
      "rstrip": false,
      "normalized": false,
      "special": true
    },
    {
      "id": 3,
      "content": "</s>",
      "single_word": false,
      "lstrip": false,
      "rstrip": false,
      "normalized": false,
      "special": true
    }
  ],
  "normalizer": {
    "type": "Sequence",
    "normalizers": [
      {
        "type": "Replace",
        "pattern": {
          "String": "``"
        },
        "content": "\""
      },
      {
        "type": "Replace",
        "pattern": {
          "String": "''"
        },
        "content": "\""
      },
      {
        "type": "NFKD"
      },
      {
        "type": "StripAccents"
      },
      {
        "type": "Replace",
        "pattern": {
          "Regex": " {2,}"
        },
        "content": " "
      }
    ]
  },
  "pre_tokenizer": {
    "type": "Metaspace",
    "replacement": "▁",
    "add_prefix_space": true,
    "prepend_scheme": "always"
  },
  "post_processor": {
    "type": "TemplateProcessing",
    "single": [
      {
        "Sequence": {
          "id": "A",
          "type_id": 0
        }
      },
      {
        "SpecialToken": {
          "id": "</s>",
          "type_id": 0
        }
      },
      {
        "SpecialToken": {
          "id": "<s>",
          "type_id": 2
        }
      }
    ],
    "pair": [
      {
        "Sequence": {
          "id": "A",
          "type_id": 0
        }
      },
      {
        "Sequence": {
          "id": "B",
          "type_id": 1
        }
      }
    ],
    "special_tokens": {
      "</s>": {
        "id": "</s>",
        "ids": [
          3
        ],
        "tokens": [
          "</s>"
        ]
      },
      "<s>": {
        "id": "<s>",
        "ids": [
          2
        ],
        "tokens": [
          "<s>"
        ]
      }
    }
  },
  "decoder": {
    "type": "Metaspace",
    "replacement": "▁",
    "add_prefix_space": true,
    "prepend_scheme": "always"
  },
  "model": {
    "type": "Unigram",
    "unk_id": 0,
    "vocab": [
      [
        "<unk>",
        0.0
      ],
      [
        "<pad>",
        0.0
      ],
      [
        "<s>",
        0.0
      ],
      [
        "</s>",
        0.0
      ],
      [
        "▁",
        -2.561769670123514
      ],
      [
        "▁and",
        -3.156519649649951
      ],
      [
        "▁the",
        -3.224006141139448
      ],
      [
        "▁to",
        -3.4927923663346903
      ],
      [
        "a",
        -3.5011315121065962
      ],
      [
        "▁was",
        -3.785036359824316
      ],
      [
        ",",
        -4.05036029202517
      ],
      [
        "▁She",
        -4.544288949924738
      ],
      [
        "▁her",
        -4.570958319176338
      ],
      [
        "▁He",
        -4.589293947139028
      ],
      [
        "▁it",
        -4.6466786397465665
      ],
      [
        "They",
        -4.663685890805404
      ],
      [
        "▁he",
        -4.7811548622162725
      ],
      [
        "▁in",
        -4.896278781283769
      ],
      [
        "▁she",
        -4.90145377851716
      ],
      [
        "▁with",
        -4.922820741247955
      ],
      [
        "▁his",
        -4.980359256304274
      ],
      [
        "▁of",
        -5.0651992689747924
      ],
      [
        "▁that",
        -5.077806996882941
      ],
      [
        "▁had",
        -5.162298857184419
      ],
      [
        "▁they",
        -5.163807097662996
      ],
      [
        "▁so",
        -5.17110997736302
      ],
      [
        "The",
        -5.274569583663151
      ],
      [
        "▁for",
        -5.335596577580462
      ],
      [
        "▁on",
        -5.384316948153952
      ],
      [
        "very",
        -5.398756153153149
      ],
      [
        "▁you",
        -5.42505956968337
      ],
      [
        "▁little",
        -5.429969910298459
      ],
      [
        "▁Lily",
        -5.434220990821373
      ],
      [
        "▁said,",
        -5.471417977153928
      ],
      [
        "▁there",
        -5.477914250778419
      ],
      [
        "▁saw",
        -5.536802700173336
      ],
      [
        "▁big",
        -5.540147530256524
      ],
      [
        "▁is",
        -5.5483879917639385
      ],
      [
        "▁day,",
        -5.548583301954345
      ],
      [
        "▁not",
        -5.55777382759265
      ],
      [
        "▁It",
        -5.560593266311672
      ],
      [
        "▁but",
        -5.630060335988821
      ],
      [
        "Once",
        -5.6550301424680445
      ],
      [
        "▁were",
        -5.65884263194361
      ],
      [
        "▁mom",
        -5.671824950048666
      ],
      [
        "I",
        -5.722714235170919
      ],
      [
        "▁play",
        -5.7489252213242015
      ],
      [
        "▁upon",
        -5.773638974395983
      ],
      [
        "▁said",
        -5.786894132973414
      ],
      [
        "▁wanted",
        -5.796349213913079
      ],
      [
        "▁are",
        -5.802258545347788
      ],
      [
        "▁happy",
        -5.836782858193162
      ],
      [
        "t",
        -5.837532398126438
      ],
      [
        "▁their",
        -5.85888901968111
      ],
      [
        "▁girl",
        -5.875512048292428
      ],
      [
        "▁be",
        -5.905099960984943
      ],
      [
        "▁have",
        -5.913225216516404
      ],
      [
        "▁time,",
        -5.964227501362178
      ],
      [
        "▁went",
        -5.971437492267057
      ],
      [
        "One",
        -6.029235442454603
      ],
      [
        "▁up",
        -6.035777587113888
      ],
      [
        "▁go",
        -6.0631592666563225
      ],
      [
        "▁all",
        -6.083810171121478
      ],
      [
        "▁named",
        -6.124696802189813
      ],
      [
        "▁them",
        -6.159229655347135
      ],
      [
        "▁him",
        -6.159391025106851
      ],
      [
        "▁loved",
        -6.16462798759814
      ],
      [
        "▁can",
        -6.168063439600944
      ],
      [
        "▁day",
        -6.209389804466532
      ],
      [
        "▁felt",
        -6.214583571098181
      ],
      [
        "▁like",
        -6.2231377584029755
      ],
      [
        "▁looked",
        -6.2317751841828635
      ],
      [
        "▁could",
        -6.2476359305550115
      ],
      [
        "▁Ben",
        -6.260248761759211
      ],
      [
        "▁Tom",
        -6.31810594589054
      ],
      [
        "▁back",
        -6.32756040905339
      ],
      [
        "▁would",
        -6.356631623001364
      ],
      [
        "▁what",
        -6.375858680518673
      ],
      [
        "▁some",
        -6.381718814452485
      ],
      [
        "▁make",
        -6.3819534880668645
      ],
      [
        "▁But",
        -6.385325192915122
      ],
      [
        "▁out",
        -6.403531238041557
      ],
      [
        "▁see",
        -6.404553563091866
      ],
      [
        "▁started",
        -6.4059088223125595
      ],
      [
        "▁boy",
        -6.4081580995945195
      ],
      [
        "▁smiled",
        -6.419562956303876
      ],
      [
        "▁it.",
        -6.419591501500436
      ],
      [
        "▁around",
        -6.419671315508822
      ],
      [
        "▁ran",
        -6.420346128147601
      ],
      [
        "▁did",
        -6.422079675731563
      ],
      [
        "▁You",
        -6.433797026886184
      ],
      [
        "▁asked",
        -6.446843670216552
      ],
      [
        "▁time",
        -6.447666214975946
      ],
      [
        "▁made",
        -6.450617487532888
      ],
      [
        "▁want",
        -6.4646687242402425
      ],
      [
        ",\"",
        -6.484612490521506
      ],
      [
        "▁put",
        -6.495955625770261
      ],
      [
        "s",
        -6.5000206737673825
      ],
      [
        "▁something",
        -6.500663226106646
      ],
      [
        "▁from",
        -6.5102132428839425
      ],
      [
        "▁new",
        -6.5502780047878755
      ],
      [
        "▁Timmy",
        -6.553648094695427
      ],
      [
        "▁help",
        -6.564243272317075
      ],
      [
        "▁found",
        -6.577984162536065
      ],
      [
        "▁when",
        -6.578933055143766
      ],
      [
        "\n\nThe",
        -6.592256304909942
      ],
      [
        "▁too",
        -6.597302026645233
      ],
      [
        ".",
        -6.599240816430338
      ],
      [
        "'s",
        -6.607822617721643
      ],
      [
        "▁who",
        -6.609219263153506
      ],
      [
        "▁got",
        -6.656448159571189
      ],
      [
        "▁liked",
        -6.6645476071409675
      ],
      [
        "▁we",
        -6.670600171392325
      ],
      [
        "▁decided",
        -6.677440950786327
      ],
      [
        "▁friends",
        -6.685608141625043
      ],
      [
        "▁came",
        -6.701109166399391
      ],
      [
        "▁an",
        -6.702609293083656
      ],
      [
        "▁as",
        -6.7053340353123065
      ],
      [
        "▁playing",
        -6.709399405141189
      ],
      [
        "▁fun",
        -6.7158440314023
      ],
      [
        "▁do",
        -6.728313635991373
      ],
      [
        "▁didn't",
        -6.78444766666944
      ],
      [
        "▁bird",
        -6.790252405272966
      ],
      [
        "▁your",
        -6.797828081415579
      ],
      [
        "▁get",
        -6.797868525715314
      ],
      [
        "▁find",
        -6.800374532389874
      ],
      [
        "▁always",
        -6.803676329294847
      ],
      [
        "▁took",
        -6.813960258062824
      ],
      [
        "▁will",
        -6.814693507562055
      ],
      [
        "▁about",
        -6.821810660924523
      ],
      [
        "▁Lily.",
        -6.835264268706064
      ],
      [
        "▁one",
        -6.852008083986798
      ],
      [
        "▁man",
        -6.852066629012139
      ],
      [
        "▁then",
        -6.857272977860195
      ],
      [
        "▁my",
        -6.880564252818857
      ],
      [
        "▁\"I",
        -6.893444880542896
      ],
      [
        "▁other",
        -6.901000368071182
      ],
      [
        "▁sad",
        -6.902065415149764
      ],
      [
        "▁Tim",
        -6.905162335676078
      ],
      [
        "▁thought",
        -6.919004168955185
      ],
      [
        "▁take",
        -6.919300508706181
      ],
      [
        "▁happy.",
        -6.920447524408889
      ],
      [
        "▁knew",
        -6.923241374048802
      ],
      [
        "▁mommy",
        -6.939657420549468
      ],
      [
        "▁down",
        -6.940715247673598
      ],
      [
        "▁good",
        -6.974536529856005
      ],
      [
        ".\n\nOne",
        -6.9837693883556735
      ],
      [
        "▁friends.",
        -6.990582698280864
      ],
      [
        "▁old",
        -6.99309921123014
      ],
      [
        "▁how",
        -6.995283862655224
      ],
      [
        "▁said.",
        -6.9999395165866645
      ],
      [
        "▁more",
        -7.006583976569949
      ],
      [
        "▁excited",
        -7.018966595537117
      ],
      [
        "▁things",
        -7.019064010168817
      ],
      [
        "▁tried",
        -7.064435007124898
      ],
      [
        "▁dog",
        -7.065615598236477
      ],
      [
        "▁into",
        -7.067202188276955
      ],
      [
        "▁told",
        -7.068408941233276
      ],
      [
        "if",
        -7.0771970331962155
      ],
      [
        "▁special",
        -7.086883319150294
      ],
      [
        "▁gave",
        -7.093025303800797
      ],
      [
        "▁know",
        -7.094814976044892
      ],
      [
        "▁never",
        -7.1024015931336635
      ],
      [
        "▁heard",
        -7.104273339228168
      ],
      [
        "▁couldn't",
        -7.106430443706257
      ],
      [
        "▁again.",
        -7.120357416046122
      ],
      [
        "▁each",
        -7.127413018745406
      ],
      [
        "▁played",
        -7.1288475949537435
      ],
      [
        "▁outside",
        -7.130054215849459
      ],
      [
        "▁We",
        -7.1412192377246
      ],
      [
        "!",
        -7.14456602937218
      ],
      [
        "▁just",
        -7.149095716962719
      ],
      [
        "▁on,",
        -7.152930381458933
      ],
      [
        "▁because",
        -7.158198411552279
      ],
      [
        "▁look",
        -7.177630488791678
      ],
      [
        "▁hugged",
        -7.181581379533624
      ],
      [
        "▁Sam",
        -7.184572791531892
      ],
      [
        "▁toy",
        -7.188709720196496
      ],
      [
        "▁over",
        -7.189962294116416
      ],
      [
        "▁together",
        -7.1906274602814655
      ],
      [
        "▁Max",
        -7.1945336626373635
      ],
      [
        "▁this",
        -7.1948403400571905
      ],
      [
        "▁many",
        -7.204013469829361
      ],
      [
        "▁toys",
        -7.205212262645173
      ],
      [
        "▁away",
        -7.208680966326318
      ],
      [
        "▁much",
        -7.211555295600142
      ],
      [
        "▁him.",
        -7.245376984200064
      ],
      [
        "▁Anna",
        -7.253598239150067
      ],
      [
        "▁park",
        -7.255862775920864
      ],
      [
        "▁proud",
        -7.258982423738193
      ],
      [
        "▁park.",
        -7.263503673272135
      ],
      [
        "▁until",
        -7.2649607163304
      ],
      [
        "▁dad",
        -7.276142695782731
      ],
      [
        "▁learned",
        -7.2815027840094135
      ],
      [
        "▁scared",
        -7.285270071836688
      ],
      [
        "▁car",
        -7.290447978230652
      ],
      [
        "▁me",
        -7.30186852168033
      ],
      [
        "▁Mom",
        -7.319162192470946
      ],
      [
        "▁them.",
        -7.323855043610502
      ],
      [
        "▁don't",
        -7.332733242261126
      ],
      [
        "▁her.",
        -7.359111208393596
      ],
      [
        "▁Her",
        -7.36003733088965
      ],
      [
        "▁sorry",
        -7.363630459560943
      ],
      [
        "▁thanked",
        -7.3653786558997165
      ],
      [
        "▁small",
        -7.366879264252232
      ],
      [
        "▁even",
        -7.378126516447969
      ],
      [
        "▁no",
        -7.381581703408056
      ],
      [
        "▁And",
        -7.3825858374038145
      ],
      [
        "▁best",
        -7.389373462686878
      ],
      [
        "!\"",
        -7.389589634155026
      ],
      [
        "▁together.",
        -7.402502104865457
      ],
      [
        "▁lots",
        -7.409569899391455
      ],
      [
        "▁come",
        -7.41063167765067
      ],
      [
        "▁friend",
        -7.4280268182592035
      ],
      [
        "▁home",
        -7.429114285136258
      ],
      [
        "From",
        -7.446507614386357
      ],
      [
        "▁still",
        -7.453621979888842
      ],
      [
        "His",
        -7.457131290755187
      ],
      [
        "▁away.",
        -7.458707380141224
      ],
      [
        "▁tree",
        -7.4615293250406065
      ],
      [
        "▁ball",
        -7.465189648930846
      ],
      [
        "▁by",
        -7.469542833898553
      ],
      [
        "▁both",
        -7.481938745387286
      ],
      [
        "▁Jack",
        -7.486598694969608
      ],
      [
        "▁love",
        -7.493797585298504
      ],
      [
        "▁eat",
        -7.496917841891451
      ],
      [
        "▁Mia",
        -7.4989224979075715
      ],
      [
        "▁lived",
        -7.4992249402604045
      ],
      [
        "▁off",
        -7.499348940074862
      ],
      [
        "▁too.",
        -7.5009189716046905
      ],
      [
        "▁feel",
        -7.503567458932796
      ],
      [
        "▁nice",
        -7.519361101870576
      ],
      [
        "▁fun.",
        -7.520823440464124
      ],
      [
        "▁walked",
        -7.522237306768639
      ],
      [
        "▁bear",
        -7.5247114989093316
      ],
      [
        "▁two",
        -7.525315763313184
      ],
      [
        "▁day.",
        -7.534942182436087
      ],
      [
        "▁flew",
        -7.542540765722963
      ],
      [
        "▁water",
        -7.54429558387009
      ],
      [
        "▁says,",
        -7.544750272562203
      ],
      [
        "▁every",
        -7.545261841632437
      ],
      [
        "▁its",
        -7.5562079675418
      ],
      [
        "▁called",
        -7.559669383572661
      ],
      [
        "▁kept",
        -7.567600787734358
      ],
      [
        "▁home.",
        -7.569139121230645
      ],
      [
        "▁give",
        -7.569399069629359
      ],
      [
        "▁cat",
        -7.5778102369779194
      ],
      [
        "▁beautiful",
        -7.577942868795679
      ],
      [
        "▁red",
        -7.584995343768645
      ],
      [
        "▁laughed",
        -7.5864971653947535
      ],
      [
        "d",
        -7.5911077199170425
      ],
      [
        "▁mom.",
        -7.594445327090792
      ],
      [
        "▁long",
        -7.601141479482568
      ],
      [
        "▁box",
        -7.609352803986727
      ],
      [
        "\"You",
        -7.612819607130161
      ],
      [
        "▁or",
        -7.620659069694833
      ],
      [
        "▁Sara",
        -7.624558085509962
      ],
      [
        "▁inside",
        -7.625274007968235
      ],
      [
        "▁kind",
        -7.639386941295207
      ],
      [
        "▁try",
        -7.644979897025685
      ],
      [
        "▁loud",
        -7.6468528736594035
      ],
      [
        "▁says.",
        -7.65325008230287
      ],
      [
        "▁should",
        -7.653302207762769
      ],
      [
        "▁opened",
        -7.660404419395322
      ],
      [
        "When",
        -7.665259971495484
      ],
      [
        "▁also",
        -7.671349772419678
      ],
      [
        "▁going",
        -7.671538406598577
      ],
      [
        "\n\nLily",
        -7.676628246598479
      ],
      [
        ".\n\nThey",
        -7.68081447113329
      ],
      [
        "▁sad.",
        -7.6819173499119735
      ],
      [
        "▁keep",
        -7.6876117961143144
      ],
      [
        "▁Lily's",
        -7.687934471180654
      ],
      [
        "▁people",
        -7.693140852111707
      ],
      [
        "?\"",
        -7.69537548831836
      ],
      [
        "▁picked",
        -7.6979461655512775
      ],
      [
        "▁feeling",
        -7.702018448034334
      ],
      [
        "▁next",
        -7.723040419429253
      ],
      [
        "▁share",
        -7.724805207620339
      ],
      [
        "e",
        -7.726645848359405
      ],
      [
        "▁animals",
        -7.734684033415018
      ],
      [
        "▁hard",
        -7.736432689699999
      ],
      [
        "▁run",
        -7.743278583683365
      ],
      [
        "▁has",
        -7.745374775091305
      ],
      [
        "▁sun",
        -7.745525548267075
      ],
      [
        "▁walking",
        -7.746490239744396
      ],
      [
        "▁being",
        -7.749312213490677
      ],
      [
        "▁careful",
        -7.75470592134195
      ],
      [
        "▁shiny",
        -7.778717863296155
      ],
      [
        "▁room",
        -7.782233996197045
      ],
      [
        "▁house",
        -7.782348684848758
      ],
      [
        "▁you,",
        -7.790168410265753
      ],
      [
        "▁hurt",
        -7.794910167760268
      ],
      [
        "▁need",
        -7.799416790337933
      ],
      [
        "▁way",
        -7.801062857266976
      ],
      [
        "▁looking",
        -7.808919048466265
      ],
      [
        "\"Yes,",
        -7.809234407024144
      ],
      [
        "▁lot",
        -7.811736407595481
      ],
      [
        "▁show",
        -7.821158739644236
      ],
      [
        "▁brave",
        -7.823759905299566
      ],
      [
        "▁say",
        -7.825166123620916
      ],
      [
        "▁noticed",
        -7.827572757512588
      ],
      [
        "▁you.",
        -7.829920684739067
      ],
      [
        "Then",
        -7.833881137048538
      ],
      [
        "▁smiled.",
        -7.834010407170998
      ],
      [
        "▁Every",
        -7.837230343806185
      ],
      [
        "\n\nThey",
        -7.849071444505624
      ],
      [
        "▁tree.",
        -7.8569475634111186
      ],
      [
        "I'm",
        -7.861053787045032
      ],
      [
        "▁showed",
        -7.8611445083791605
      ],
      [
        "▁better",
        -7.864630511386622
      ],
      [
        "▁family",
        -7.866640610294493
      ],
      [
        "▁stopped",
        -7.87796138225195
      ],
      [
        "▁great",
        -7.8804699143819
      ],
      [
        "▁pretty",
        -7.880721272930851
      ],
      [
        "▁bad",
        -7.8846970561137955
      ],
      [
        "▁explore",
        -7.901125373498434
      ],
      [
        "▁watched",
        -7.905652815119744
      ],
      [
        "▁where",
        -7.91491344616994
      ],
      [
        "\n\nOne",
        -7.916403494329934
      ],
      [
        "\"",
        -7.916614626025929
      ],
      [
        "Suddenly,",
        -7.918348108188136
      ],
      [
        "▁So",
        -7.923649095591193
      ],
      [
        "▁became",
        -7.926676462669704
      ],
      [
        "▁scared.",
        -7.92734817102043
      ],
      [
        "▁says",
        -7.927472452909493
      ],
      [
        "▁stay",
        -7.927589099702109
      ],
      [
        "▁been",
        -7.930699245232992
      ],
      [
        "▁room.",
        -7.930729688965542
      ],
      [
        "▁important",
        -7.936268372907408
      ],
      [
        ".\"",
        -7.943249022973658
      ],
      [
        "▁safe",
        -7.945406252314347
      ],
      [
        "▁then,",
        -7.947908363997607
      ],
      [
        "▁things.",
        -7.948548516402562
      ],
      [
        "▁house.",
        -7.951109802220033
      ],
      [
        "▁clean",
        -7.956269200788784
      ],
      [
        "▁soon",
        -7.9573957881184825
      ],
      [
        "▁sure",
        -7.964372001326678
      ],
      [
        "▁end.",
        -7.964815026539599
      ],
      [
        "▁again",
        -7.966959252054826
      ],
      [
        "▁Lucy",
        -7.969224570633125
      ],
      [
        "\"Let's",
        -7.9865151588625665
      ],
      [
        ".\n\nBut",
        -7.989492695748856
      ],
      [
        "▁quickly",
        -7.99377818493172
      ],
      [
        "▁our",
        -7.994729958180455
      ],
      [
        "-",
        -7.99824287131727
      ],
      [
        "▁blue",
        -7.9987156088753135
      ],
      [
        "▁everyone",
        -8.030193267621065
      ],
      [
        "▁Timmy.",
        -8.038512032798137
      ],
      [
        "▁grabbed",
        -8.041774329770728
      ],
      [
        "▁fast",
        -8.04694067108608
      ],
      [
        "▁different",
        -8.048015306474174
      ],
      [
        "▁use",
        -8.049478175526366
      ],
      [
        "▁toys.",
        -8.052897748294969
      ],
      [
        "▁only",
        -8.055212957106825
      ],
      [
        "▁helped",
        -8.063619382131657
      ],
      [
        "▁sky",
        -8.064693909552675
      ],
      [
        "▁before",
        -8.066052137494012
      ],
      [
        "'re",
        -8.070941580867643
      ],
      [
        "▁jumped",
        -8.073658941047555
      ],
      [
        "▁nodded",
        -8.079678988396884
      ],
      [
        "▁\"Thank",
        -8.081904081078548
      ],
      [
        "▁three",
        -8.08417460993582
      ],
      [
        "it's",
        -8.085466152091241
      ],
      [
        "▁up.",
        -8.088612755511347
      ],
      [
        "▁am",
        -8.094463658382905
      ],
      [
        "▁garden.",
        -8.094636690875225
      ],
      [
        "▁fell",
        -8.097600185778399
      ],
      [
        "▁realized",
        -8.097727747930916
      ],
      [
        "▁friend.",
        -8.097886784746695
      ],
      [
        "▁closer",
        -8.098205291520145
      ],
      [
        "▁let",
        -8.105245281992952
      ],
      [
        "▁door",
        -8.10748400551423
      ],
      [
        "▁hug",
        -8.110165235074948
      ],
      [
        "▁does",
        -8.116239269882787
      ],
      [
        "▁tell",
        -8.11694488775585
      ],
      [
        "▁glad",
        -8.118247251211773
      ],
      [
        "ate",
        -8.119618427968483
      ],
      [
        "▁rabbit",
        -8.11965442690668
      ],
      [
        "▁reached",
        -8.120636825752369
      ],
      [
        "▁fish",
        -8.121403688907208
      ],
      [
        "▁after",
        -8.12289725886563
      ],
      [
        "▁idea.",
        -8.126608238372272
      ],
      [
        "▁having",
        -8.128159381163469
      ],
      [
        "\"I'm",
        -8.130797329284407
      ],
      [
        "▁sees",
        -8.136404067331593
      ],
      [
        "▁goodbye",
        -8.138141801097506
      ],
      [
        "▁favorite",
        -8.138167724396503
      ],
      [
        "▁wait",
        -8.138922946400136
      ],
      [
        "▁fly",
        -8.139220820874664
      ],
      [
        "▁\"We",
        -8.140128350336948
      ],
      [
        "▁eyes",
        -8.141492621829684
      ],
      [
        "Everyone",
        -8.142739514894624
      ],
      [
        "▁Sue",
        -8.146656059940286
      ],
      [
        "▁sky.",
        -8.147445097859947
      ],
      [
        "▁As",
        -8.147631777006897
      ],
      [
        "▁play.",
        -8.148037620931118
      ],
      [
        "▁really",
        -8.150467706260011
      ],
      [
        "▁high",
        -8.152321141977074
      ],
      [
        "▁walk",
        -8.156606932628664
      ],
      [
        "h",
        -8.159208687637713
      ],
      [
        "▁ground.",
        -8.161288282470274
      ],
      [
        ".\n\nLily",
        -8.161463334632277
      ],
      [
        "▁home,",
        -8.164439420547998
      ],
      [
        "▁through",
        -8.1711262717071
      ],
      [
        "▁began",
        -8.171717816173594
      ],
      [
        "▁other.",
        -8.172656341522035
      ],
      [
        "n",
        -8.177123613755397
      ],
      [
        "▁Spot",
        -8.177894331421632
      ],
      [
        "▁Can",
        -8.178640770173708
      ],
      [
        "▁ever",
        -8.181452194772188
      ],
      [
        "▁near",
        -8.183055005463647
      ],
      [
        "▁help.",
        -8.184385977807054
      ],
      [
        "▁making",
        -8.188057158896934
      ],
      [
        "Let's",
        -8.19117267013506
      ],
      [
        "▁looks",
        -8.194091135012743
      ],
      [
        "▁right",
        -8.19534163584082
      ],
      [
        "▁now",
        -8.19585677721985
      ],
      [
        "▁\"What",
        -8.19862806815827
      ],
      [
        "▁bit",
        -8.198722380173365
      ],
      [
        "▁food",
        -8.199738978085335
      ],
      [
        "▁Mommy",
        -8.202259597286927
      ],
      [
        "▁than",
        -8.20248803337845
      ],
      [
        "▁flowers",
        -8.2076512094271
      ],
      [
        "▁learn",
        -8.21036666289824
      ],
      [
        "▁it,",
        -8.21239113028722
      ],
      [
        "▁bright",
        -8.212609261420512
      ],
      [
        "▁John",
        -8.213498297538914
      ],
      [
        "▁waved",
        -8.216507539895083
      ],
      [
        "▁inside.",
        -8.217222318361609
      ],
      [
        "▁Do",
        -8.223123385391178
      ],
      [
        "▁used",
        -8.2240210735781
      ],
      [
        "▁watch",
        -8.228266441042557
      ],
      [
        "\n\nWhen",
        -8.228638724849947
      ],
      [
        "▁outside.",
        -8.229228998572077
      ],
      [
        "▁under",
        -8.231196944692494
      ],
      [
        "▁bunny",
        -8.231376364879814
      ],
      [
        "▁hopped",
        -8.234486056854724
      ],
      [
        "▁Bob",
        -8.235998699750008
      ],
      [
        "▁why",
        -8.237065714963983
      ],
      [
        "▁warm",
        -8.240260982514584
      ],
      [
        "▁listen",
        -8.241173601848386
      ],
      [
        "▁back.",
        -8.246001376851849
      ],
      [
        "\"It's",
        -8.247931546017707
      ],
      [
        "▁truck",
        -8.250030839648625
      ],
      [
        "▁water.",
        -8.250807643797916
      ],
      [
        "▁store",
        -8.25502871806881
      ],
      [
        "▁angry",
        -8.257827125083088
      ],
      [
        "▁hands",
        -8.264442063557643
      ],
      [
        "▁let's",
        -8.265074796903654
      ],
      [
        "▁birds",
        -8.266049103777942
      ],
      [
        "▁noise",
        -8.266634798497101
      ],
      [
        "▁garden",
        -8.266757752875671
      ],
      [
        "▁anymore.",
        -8.274305363070809
      ],
      [
        "▁another",
        -8.278321606814986
      ],
      [
        "▁mum",
        -8.279225973633409
      ],
      [
        "▁open",
        -8.27925973839517
      ],
      [
        "▁hand",
        -8.281552756039828
      ],
      [
        "▁replied,",
        -8.282941879405007
      ],
      [
        "▁story",
        -8.283396818853966
      ],
      [
        "▁car.",
        -8.290878827368244
      ],
      [
        "▁catch",
        -8.295587053322706
      ],
      [
        "▁excited.",
        -8.295863456807702
      ],
      [
        "▁can't",
        -8.296142723740276
      ],
      [
        "▁mean",
        -8.29640208261778
      ],
      [
        "▁wished",
        -8.29697481852184
      ],
      [
        "▁touch",
        -8.298440504428122
      ],
      [
        "▁pick",
        -8.29992392463976
      ],
      [
        "▁lady",
        -8.300609585954666
      ],
      [
        "▁think",
        -8.303708088992911
      ],
      [
        "▁years",
        -8.30418987748659
      ],
      [
        "▁remembered",
        -8.307024910951263
      ],
      [
        "▁place",
        -8.307367096801627
      ],
      [
        "\"No,",
        -8.307691757705324
      ],
      [
        "▁end",
        -8.310300619389668
      ],
      [
        "▁better.",
        -8.312603628835504
      ],
      [
        "▁while",
        -8.3152505321473
      ],
      [
        ".\n\nThe",
        -8.319665910560413
      ],
      [
        "▁coming",
        -8.320714263953834
      ],
      [
        "▁angry.",
        -8.323849471844607
      ],
      [
        "▁do.",
        -8.326574027501445
      ],
      [
        "▁green",
        -8.326877547357252
      ],
      [
        "▁likes",
        -8.329994451660744
      ],
      [
        "▁held",
        -8.330525961679417
      ],
      [
        "▁boat",
        -8.334276515639512
      ],
      [
        "▁Jane",
        -8.336227194161346
      ],
      [
        "▁Tom.",
        -8.337757424533265
      ],
      [
        "▁worry",
        -8.340139880749106
      ],
      [
        "▁Timmy's",
        -8.343966747100666
      ],
      [
        "▁sat",
        -8.345740460563096
      ],
      [
        "▁smile",
        -8.34783073966695
      ],
      [
        "▁Sarah",
        -8.35153956722698
      ],
      [
        "▁slide",
        -8.35253773180207
      ],
      [
        "▁Ben.",
        -8.354578679374466
      ],
      [
        "▁time.",
        -8.359225600861278
      ],
      [
        "▁yellow",
        -8.359866101694292
      ],
      [
        "▁enjoyed",
        -8.36132257713116
      ],
      [
        "▁running",
        -8.362828838650705
      ],
      [
        "▁first",
        -8.362856133127709
      ],
      [
        "▁behind",
        -8.368153106445472
      ],
      [
        "▁curious",
        -8.369499634301986
      ],
      [
        "▁sorry.",
        -8.370262975785034
      ],
      [
        "▁Dad",
        -8.37242469683485
      ],
      [
        "▁full",
        -8.373030733180274
      ],
      [
        "▁buy",
        -8.374485277343323
      ],
      [
        "▁worked",
        -8.375265726407388
      ],
      [
        "▁soft",
        -8.380328517523733
      ],
      [
        "▁strong",
        -8.3842290598096
      ],
      [
        "▁needed",
        -8.385126926227388
      ],
      [
        "▁friend,",
        -8.385680225083801
      ],
      [
        "▁voice",
        -8.387131672353116
      ],
      [
        "▁hear",
        -8.387676806432347
      ],
      [
        "▁followed",
        -8.390944221836186
      ],
      [
        "▁ready",
        -8.398006088587048
      ],
      [
        "▁There",
        -8.401420520453714
      ],
      [
        "▁forest",
        -8.401497439037199
      ],
      [
        "After",
        -8.40161210537709
      ],
      [
        "able",
        -8.405037155224287
      ],
      [
        "▁mouse",
        -8.405067281128701
      ],
      [
        "▁seen",
        -8.40740842043002
      ],
      [
        "▁parents",
        -8.409188391201562
      ],
      [
        "▁doll",
        -8.411095596930727
      ],
      [
        "▁yummy",
        -8.41190795739987
      ],
      [
        "▁care",
        -8.41360650580049
      ],
      [
        "▁work",
        -8.415960798153993
      ],
      [
        "\"Don't",
        -8.416630971137938
      ],
      [
        ".\n\nWhen",
        -8.418682357266272
      ],
      [
        "▁funny",
        -8.423771732128587
      ],
      [
        "▁cake",
        -8.424411776047004
      ],
      [
        "\n\nBut",
        -8.431169384389888
      ],
      [
        "▁finished",
        -8.432629138982524
      ],
      [
        "▁bed",
        -8.434461400978995
      ],
      [
        "▁happily",
        -8.436768867974669
      ],
      [
        "▁down.",
        -8.438987292070419
      ],
      [
        "▁thing",
        -8.4400437189013
      ],
      [
        "▁done",
        -8.441027909690355
      ],
      [
        "▁dog.",
        -8.443642937699119
      ],
      [
        "▁girl.",
        -8.446285894047358
      ],
      [
        "\"That's",
        -8.449954890357464
      ],
      [
        "▁Now",
        -8.450399779027363
      ],
      [
        "▁continued",
        -8.4505551888623
      ],
      [
        "▁carefully",
        -8.452656565802547
      ],
      [
        "▁ball.",
        -8.455044852420205
      ],
      [
        "▁filled",
        -8.459480652041284
      ],
      [
        "▁Joe",
        -8.462630164244294
      ],
      [
        "▁around.",
        -8.466390763349404
      ],
      [
        "▁left",
        -8.468633066450053
      ],
      [
        "▁lost",
        -8.471426251119217
      ],
      [
        "▁name",
        -8.473479973757982
      ],
      [
        "▁dress",
        -8.474301417196516
      ],
      [
        "▁Lila",
        -8.475359989367549
      ],
      [
        ".\"\n\nLily",
        -8.481820414690343
      ],
      [
        "▁rock",
        -8.484426362196865
      ],
      [
        "▁book",
        -8.486254085606317
      ],
      [
        "▁stop",
        -8.489266206228123
      ],
      [
        "▁noise.",
        -8.493100852016672
      ],
      [
        "▁wonderful",
        -8.497693909279773
      ],
      [
        "▁finally",
        -8.502174838056085
      ],
      [
        "▁someone",
        -8.503858713218749
      ],
      [
        "?",
        -8.510628438116656
      ],
      [
        "▁getting",
        -8.510751586661318
      ],
      [
        "▁box.",
        -8.51464476588043
      ],
      [
        "▁top",
        -8.518341668820348
      ],
      [
        "▁\"Can",
        -8.51840023655205
      ],
      [
        "▁cars",
        -8.518528663850711
      ],
      [
        "It's",
        -8.519861543148812
      ],
      [
        "▁asked,",
        -8.522439109893005
      ],
      [
        "▁wants",
        -8.525952290009325
      ],
      [
        "▁read",
        -8.526242818447782
      ],
      [
        "▁stayed",
        -8.527343115443918
      ],
      [
        "▁any",
        -8.527746361926742
      ],
      [
        "▁ask",
        -8.531627032690844
      ],
      [
        "That",
        -8.531762818786971
      ],
      [
        "▁ice",
        -8.5317857502625
      ],
      [
        "▁tall",
        -8.533317263576562
      ],
      [
        "A",
        -8.535515155413185
      ],
      [
        "▁forgot",
        -8.537922630728492
      ],
      [
        "▁pink",
        -8.53861089249146
      ],
      [
        "▁climb",
        -8.539846868920298
      ],
      [
        "▁few",
        -8.54061839008307
      ],
      [
        "▁turned",
        -8.542281749134546
      ],
      [
        "▁head",
        -8.544729141762524
      ],
      [
        "\n\nSuddenly,",
        -8.549311053062437
      ],
      [
        "▁kids",
        -8.551554673287058
      ],
      [
        "▁flower",
        -8.551582035821195
      ],
      [
        "Maybe",
        -8.557936935157262
      ],
      [
        "▁own",
        -8.558996395602033
      ],
      [
        "▁wind",
        -8.559310462625398
      ],
      [
        "▁climbed",
        -8.563610809022856
      ],
      [
        "▁close",
        -8.565651565915154
      ],
      [
        "▁picture",
        -8.568482000458648
      ],
      [
        "This",
        -8.568859382672425
      ],
      [
        "▁jump",
        -8.576271386807464
      ],
      [
        "▁baby",
        -8.581084852673456
      ],
      [
        "▁tired",
        -8.581324354859968
      ],
      [
        "\n\nHe",
        -8.583232714359873
      ],
      [
        "▁fix",
        -8.585263797729358
      ],
      [
        "▁dark",
        -8.585746959974248
      ],
      [
        "▁far",
        -8.590502044925415
      ],
      [
        "▁brother",
        -8.591451813883175
      ],
      [
        "▁makes",
        -8.595318029639415
      ],
      [
        "▁sometimes",
        -8.596813894408994
      ],
      [
        "Then,",
        -8.59882656787929
      ],
      [
        "▁happened.",
        -8.600008619163772
      ],
      [
        "▁friendly",
        -8.600691184890396
      ],
      [
        "▁trying",
        -8.605543358471385
      ],
      [
        "▁bird.",
        -8.606545876483382
      ],
      [
        "▁wasn't",
        -8.60732776759129
      ],
      [
        "▁frog",
        -8.610048821945892
      ],
      [
        "▁brought",
        -8.610397665290398
      ],
      [
        "▁trees",
        -8.615777495621463
      ],
      [
        "▁away,",
        -8.619678331536582
      ],
      [
        "▁Tommy",
        -8.62434463917652
      ],
      [
        "▁listened",
        -8.626028078282019
      ],
      [
        "▁dad.",
        -8.62711637161823
      ],
      [
        "▁paper",
        -8.628582621690992
      ],
      [
        ".\n\nShe",
        -8.636793073436706
      ],
      [
        "▁surprised",
        -8.636845107612835
      ],
      [
        "▁Sally",
        -8.637635125918926
      ],
      [
        "▁face",
        -8.637867674098453
      ],
      [
        "▁surprise",
        -8.640174512646874
      ],
      [
        "▁butterfly",
        -8.642201309656013
      ],
      [
        "▁set",
        -8.645339489412027
      ],
      [
        "▁game",
        -8.646204920317265
      ],
      [
        "▁Benny",
        -8.652700008143945
      ],
      [
        "So,",
        -8.65434888181712
      ],
      [
        "▁white",
        -8.654510861777668
      ],
      [
        "▁us",
        -8.654761639064327
      ],
      [
        "▁sweet",
        -8.657817463125946
      ],
      [
        "▁ground",
        -8.65782677226559
      ],
      [
        "▁safe.",
        -8.659682929608643
      ],
      [
        "▁pulled",
        -8.660439563330964
      ],
      [
        "What",
        -8.663150602872596
      ],
      [
        "▁thank",
        -8.66777596822455
      ],
      [
        "▁Daisy",
        -8.671341319733054
      ],
      [
        "▁towards",
        -8.674613201133699
      ],
      [
        "▁teddy",
        -8.674783239554223
      ],
      [
        "▁toy.",
        -8.675259014832944
      ],
      [
        "▁children",
        -8.675435259763018
      ],
      [
        "▁forest.",
        -8.678829654292652
      ],
      [
        ".\"\n\nThe",
        -8.681389949979355
      ],
      [
        "▁cold",
        -8.682790222153484
      ],
      [
        "▁world",
        -8.684769787994862
      ],
      [
        "▁anything",
        -8.691488900223327
      ],
      [
        "▁face.",
        -8.69399129353049
      ],
      [
        "▁kitchen",
        -8.698038267676475
      ],
      [
        "▁might",
        -8.698414295301358
      ],
      [
        "▁hole",
        -8.699363238625649
      ],
      [
        "▁Billy",
        -8.701268638316808
      ],
      [
        "▁mother",
        -8.704037026279137
      ],
      [
        "▁moral",
        -8.705495522344627
      ],
      [
        "▁out.",
        -8.70588995097518
      ],
      [
        "▁promised",
        -8.707202098168521
      ],
      [
        "▁sit",
        -8.709082638266382
      ],
      [
        "\n\nAfter",
        -8.713577397697074
      ],
      [
        ".\n\nSuddenly,",
        -8.714636716888922
      ],
      [
        "▁while,",
        -8.715071881196309
      ],
      [
        "▁lion",
        -8.718246892274921
      ],
      [
        "▁cry.",
        -8.719677798022248
      ],
      [
        "▁shared",
        -8.723011243653321
      ],
      [
        "▁living",
        -8.7268175983649
      ],
      [
        "▁friends,",
        -8.729991596454939
      ],
      [
        "▁smile.",
        -8.732489493412087
      ],
      [
        "ing",
        -8.733666143815478
      ],
      [
        "▁hot",
        -8.734225190895708
      ],
      [
        "▁runs",
        -8.7354524502507
      ],
      [
        "▁swing",
        -8.735637521736551
      ],
      [
        "▁agreed",
        -8.736510601759186
      ],
      [
        "\n\nFrom",
        -8.736680950755016
      ],
      [
        "▁grass",
        -8.737423171649281
      ],
      [
        "▁delicious",
        -8.74038166541081
      ],
      [
        "▁cried",
        -8.744246981368546
      ],
      [
        "▁cool",
        -8.744940015635258
      ],
      [
        "▁boy.",
        -8.751152552341395
      ],
      [
        "▁blocks",
        -8.751178648111734
      ],
      [
        "▁door.",
        -8.755520554053163
      ],
      [
        "▁Tim.",
        -8.755537712925085
      ],
      [
        "▁doing",
        -8.755840726202626
      ],
      [
        "▁stick",
        -8.758591717732623
      ],
      [
        "▁talk",
        -8.758650877293665
      ],
      [
        "▁suc",
        -8.762530880638607
      ],
      [
        "▁pretend",
        -8.764012245521833
      ],
      [
        "▁everything",
        -8.76965356161616
      ],
      [
        ".\n\n\"Look,",
        -8.77066022915284
      ],
      [
        "▁squirrel",
        -8.772809207987521
      ],
      [
        "\"That",
        -8.772930855861315
      ],
      [
        "▁broken",
        -8.77647910047592
      ],
      [
        "▁thinks",
        -8.779347564904988
      ],
      [
        "▁pond",
        -8.780655709177958
      ],
      [
        "▁deep",
        -8.78338951134673
      ],
      [
        "▁waited",
        -8.791311055219104
      ],
      [
        "▁flying",
        -8.791441822679516
      ],
      [
        "▁Max.",
        -8.79185090030702
      ],
      [
        "▁colors",
        -8.793981254653195
      ],
      [
        "▁bag",
        -8.798139793340443
      ],
      [
        "▁All",
        -8.79835108013175
      ],
      [
        "▁mom,",
        -8.800600801958884
      ],
      [
        "▁ride",
        -8.807691832849887
      ],
      [
        "▁draw",
        -8.808065884751137
      ],
      [
        "▁fox",
        -8.812130585768516
      ],
      [
        "▁animals.",
        -8.812149340847165
      ],
      [
        "\"This",
        -8.813560262474452
      ],
      [
        "▁leave",
        -8.814461140641821
      ],
      [
        "▁move",
        -8.815922565262738
      ],
      [
        "\n\nHer",
        -8.819319015238964
      ],
      [
        "▁himself",
        -8.820860900159738
      ],
      [
        "▁helping",
        -8.824669874211212
      ],
      [
        "▁across",
        -8.826142574931684
      ],
      [
        "▁much.",
        -8.826397743420335
      ],
      [
        "▁join",
        -8.826843904583903
      ],
      [
        "▁wear",
        -8.829168079929042
      ],
      [
        ":",
        -8.830960194522737
      ],
      [
        "▁say,",
        -8.833303329105615
      ],
      [
        "▁puppy",
        -8.834009601888926
      ],
      [
        "▁family.",
        -8.834039644148502
      ],
      [
        "▁duck",
        -8.835431972748614
      ],
      [
        "▁slowly",
        -8.838156757093355
      ],
      [
        "▁owner",
        -8.839935338698247
      ],
      [
        "▁kitchen.",
        -8.839939410087105
      ],
      [
        "▁shouted",
        -8.840615107244897
      ],
      [
        "▁understand",
        -8.842822090232069
      ],
      [
        "▁scary",
        -8.845610756702067
      ],
      [
        "▁rain",
        -8.84599651372344
      ],
      [
        "▁stepped",
        -8.848094718279341
      ],
      [
        "▁most",
        -8.849879599313866
      ],
      [
        "▁wouldn't",
        -8.85084613883575
      ],
      [
        "▁threw",
        -8.851521404801378
      ],
      [
        "▁before.",
        -8.852589522104195
      ],
      [
        "\".",
        -8.853808443807106
      ],
      [
        "▁magical",
        -8.853924987872832
      ],
      [
        "▁hug.",
        -8.854356951198781
      ],
      [
        ".\n\nHe",
        -8.854932631397144
      ],
      [
        "▁lesson",
        -8.85662062944324
      ],
      [
        "▁colorful",
        -8.85872465215105
      ],
      [
        "▁met",
        -8.859811493110554
      ],
      [
        "\"It",
        -8.861255115020331
      ],
      [
        "▁nodded.",
        -8.862558383853587
      ],
      [
        "▁park,",
        -8.864092630988058
      ],
      [
        "▁cut",
        -8.865964114543637
      ],
      [
        "▁pictures",
        -8.866262489778983
      ],
      [
        "▁adventure.",
        -8.867494667101033
      ],
      [
        "▁leaves",
        -8.86867577411437
      ],
      [
        "▁believe",
        -8.869787172498297
      ],
      [
        "▁daddy",
        -8.875570296781516
      ],
      [
        "▁head.",
        -8.87769602411376
      ],
      [
        "▁Molly",
        -8.880183550901368
      ],
      [
        "▁sound",
        -8.88040646140909
      ],
      [
        "▁perfect",
        -8.884082905563583
      ],
      [
        "▁strange",
        -8.88689297706767
      ],
      [
        "▁visit",
        -8.892250634287834
      ],
      [
        "▁nice.",
        -8.898436606079494
      ],
      [
        "▁amazing",
        -8.89844493042359
      ],
      [
        "▁farmer",
        -8.898932956669064
      ],
      [
        "▁window",
        -8.899233526453026
      ],
      [
        "\n\nTimmy",
        -8.901740993672144
      ],
      [
        "▁Amy",
        -8.902235847134781
      ],
      [
        "▁reach",
        -8.903696258996957
      ],
      [
        "▁books",
        -8.903840550948134
      ],
      [
        "▁remember",
        -8.904478638786664
      ],
      [
        "▁slide.",
        -8.90470884931334
      ],
      [
        "▁Mom.",
        -8.904724943854747
      ],
      [
        "▁floor.",
        -8.907266405639353
      ],
      [
        "▁must",
        -8.907592020836578
      ],
      [
        "▁scared,",
        -8.907718605968437
      ],
      [
        "▁hide",
        -8.91264527506179
      ],
      [
        "▁hand.",
        -8.912922551594676
      ],
      [
        "▁sing",
        -8.913059876243098
      ],
      [
        "▁fire",
        -8.91306453879206
      ],
      [
        "▁night,",
        -8.916045767905164
      ],
      [
        "▁hoped",
        -8.917543474150074
      ],
      [
        "▁careful.",
        -8.919642381182053
      ],
      [
        "▁rest",
        -8.92199279359794
      ],
      [
        "▁enough",
        -8.923385674591561
      ],
      [
        "hat",
        -8.927774059388263
      ],
      [
        "▁special.",
        -8.928260355378905
      ],
      [
        "\n\nAs",
        -8.929263534951094
      ],
      [
        "▁light",
        -8.934052949299534
      ],
      [
        "▁without",
        -8.935403426448634
      ],
      [
        "▁feels",
        -8.935522673903218
      ],
      [
        "▁cookies",
        -8.937184864174213
      ],
      [
        "▁hands.",
        -8.938825238858566
      ],
      [
        "▁drove",
        -8.93975754246032
      ],
      [
        "▁grass.",
        -8.939856578303738
      ],
      [
        "▁wet",
        -8.942231701157324
      ],
      [
        "▁closed",
        -8.94223502798261
      ],
      [
        "▁same",
        -8.944445944581489
      ],
      [
        "▁food.",
        -8.945813577748577
      ],
      [
        "▁bed.",
        -8.94720028592915
      ],
      [
        "▁eating",
        -8.948193008612488
      ],
      [
        "▁\"But",
        -8.950688987381263
      ],
      [
        "▁grateful",
        -8.951220630936698
      ],
      [
        "▁arrived",
        -8.951250592742786
      ],
      [
        "▁pushed",
        -8.952262731206313
      ],
      [
        "▁hair",
        -8.952574174083924
      ],
      [
        "▁start",
        -8.955901522923027
      ],
      [
        "▁else",
        -8.956736815657633
      ],
      [
        "▁bear.",
        -8.959836785167917
      ],
      [
        "▁broke",
        -8.961109956159037
      ],
      [
        "▁moment",
        -8.966281397919339
      ],
      [
        "▁bigger",
        -8.966547476046086
      ],
      [
        "▁adventure",
        -8.979207593960602
      ],
      [
        "▁idea",
        -8.980222684638797
      ],
      [
        "▁you.\"",
        -8.980460669798932
      ],
      [
        "▁cream",
        -8.982087909314005
      ],
      [
        "▁brown",
        -8.982620971142627
      ],
      [
        "▁man.",
        -8.985774954484771
      ],
      [
        "▁Daddy",
        -8.985849235221147
      ],
      [
        "▁clothes",
        -8.986319347758675
      ],
      [
        "▁black",
        -8.991297313668595
      ],
      [
        "▁fast.",
        -8.994736445792606
      ],
      [
        "▁night",
        -8.998119087226183
      ],
      [
        "▁there.",
        -8.999211128351703
      ],
      [
        "▁clapped",
        -9.002522932342018
      ],
      [
        "Their",
        -9.004343084544113
      ],
      [
        "▁herself",
        -9.012431510501674
      ],
      [
        "▁asked.",
        -9.013106934637856
      ],
      [
        ".\n\nAs",
        -9.013322386762061
      ],
      [
        "▁wrong.",
        -9.016219597909304
      ],
      [
        "▁cry",
        -9.016758274163227
      ],
      [
        "o",
        -9.018195853075516
      ],
      [
        "▁sang",
        -9.018468277882693
      ],
      [
        "▁silly",
        -9.01902370636411
      ],
      [
        "▁build",
        -9.019771426777332
      ],
      [
        "▁laugh",
        -9.021193507952589
      ],
      [
        "▁\"Why",
        -9.022327400769289
      ],
      [
        "▁me.",
        -9.022942441784028
      ],
      [
        "y",
        -9.024830647656527
      ],
      [
        "▁flowers.",
        -9.026432971449344
      ],
      [
        "▁more.",
        -9.027586188431746
      ],
      [
        "▁Sam.",
        -9.028649770749599
      ],
      [
        "▁okay",
        -9.033719617341704
      ],
      [
        "▁piece",
        -9.035926525417713
      ],
      [
        "▁hill",
        -9.038158553208293
      ],
      [
        "▁others",
        -9.043341186516566
      ],
      [
        "▁around,",
        -9.049426817839167
      ],
      [
        "▁Jill",
        -9.05354896923135
      ],
      [
        "and",
        -9.054728518661562
      ],
      [
        "▁stuck",
        -9.055701888790912
      ],
      [
        "▁pond.",
        -9.057335178153965
      ],
      [
        "▁turn",
        -9.057898772208974
      ],
      [
        "▁longer",
        -9.058109820138359
      ],
      [
        "▁work.",
        -9.058330385218568
      ],
      [
        "▁shook",
        -9.058842952860553
      ],
      [
        "▁train",
        -9.05955319283897
      ],
      [
        "▁young",
        -9.06144218798754
      ],
      [
        "▁child",
        -9.064575554439203
      ],
      [
        "▁woke",
        -9.064676077419005
      ],
      [
        "▁seemed",
        -9.064764163424657
      ],
      [
        "▁amazed",
        -9.065253215484312
      ],
      [
        "▁swam",
        -9.065736248877682
      ],
      [
        "▁grandma",
        -9.068926029645608
      ],
      [
        "▁bad.",
        -9.07117266839772
      ],
      [
        "▁taking",
        -9.071311284174246
      ],
      [
        "▁dropped",
        -9.07259626131829
      ],
      [
        "▁bug",
        -9.073140388652764
      ],
      [
        "'ll",
        -9.073714644245007
      ],
      [
        "▁listen.",
        -9.074216791898069
      ],
      [
        "▁caught",
        -9.074652773138574
      ],
      [
        "▁hold",
        -9.076359912104689
      ],
      [
        "▁monster",
        -9.080460418538078
      ],
      [
        "▁hugs",
        -9.08173145708813
      ],
      [
        "▁swim",
        -9.082998634659905
      ],
      [
        "▁dance",
        -9.083635635908573
      ],
      [
        "▁castle",
        -9.085138037674007
      ],
      [
        "▁floor",
        -9.089514584437035
      ],
      [
        "▁one.",
        -9.0899312492684
      ],
      [
        "▁fairy",
        -9.090573844291564
      ],
      [
        "▁year",
        -9.090990474842123
      ],
      [
        "I'll",
        -9.092733135178472
      ],
      [
        "f",
        -9.099382702611239
      ],
      [
        "▁beach",
        -9.101199198234825
      ],
      [
        "▁spot",
        -9.10249662447034
      ],
      [
        "▁hit",
        -9.103854708921963
      ],
      [
        "▁though",
        -9.104704832015146
      ],
      [
        "▁table",
        -9.107075371893925
      ],
      [
        "▁pet",
        -9.108415918672504
      ],
      [
        "▁wise",
        -9.109156306055427
      ],
      [
        "▁tiny",
        -9.109582003104483
      ],
      [
        ".\n\n\"Wow,",
        -9.109671297867525
      ],
      [
        "▁moved",
        -9.110251233521392
      ],
      [
        "▁eyes.",
        -9.110910700042536
      ],
      [
        ".\n\nTom",
        -9.111228898313517
      ],
      [
        "▁enjoy",
        -9.113614583541027
      ],
      [
        "▁hungry",
        -9.118797247545684
      ],
      [
        "▁together,",
        -9.119354415613886
      ],
      [
        "▁bite",
        -9.120200733945035
      ],
      [
        "▁wondered",
        -9.120734174947412
      ],
      [
        "▁break",
        -9.121326757459578
      ],
      [
        "▁sitting",
        -9.121884381181626
      ],
      [
        "▁gentle",
        -9.123326086572167
      ],
      [
        "▁explained",
        -9.126337229667888
      ],
      [
        "▁dragon",
        -9.129134455190595
      ],
      [
        "▁it!",
        -9.130482740151558
      ],
      [
        "okay,",
        -9.131443681806015
      ],
      [
        "▁princess",
        -9.132480940349943
      ],
      [
        "▁race",
        -9.133850135404124
      ],
      [
        "▁job",
        -9.134263378065425
      ],
      [
        "▁Inside",
        -9.135729963510375
      ],
      [
        "▁holding",
        -9.139128664253038
      ],
      [
        "▁lesson.",
        -9.140248809118399
      ],
      [
        "▁money",
        -9.141890793683778
      ],
      [
        "▁turns",
        -9.143941671038696
      ],
      [
        "▁table.",
        -9.145701306773715
      ],
      [
        "▁was.",
        -9.148008362382292
      ],
      [
        "!\"\n\nThe",
        -9.1488588912037
      ],
      [
        "▁Anna.",
        -9.149090529295997
      ],
      [
        "▁hard.",
        -9.149309622737281
      ],
      [
        "▁course",
        -9.151459449144278
      ],
      [
        "▁magic",
        -9.151503215557373
      ],
      [
        "▁sister",
        -9.151631287871503
      ],
      [
        "▁takes",
        -9.152227976053686
      ],
      [
        "▁it!\"",
        -9.15526196483876
      ],
      [
        "▁won't",
        -9.156133507078785
      ],
      [
        ".\n\n\"Let's",
        -9.156468388065944
      ],
      [
        "▁side",
        -9.158337035860917
      ],
      [
        "▁again,",
        -9.16149339912819
      ],
      [
        "▁excited!",
        -9.162091907979972
      ],
      [
        "▁purple",
        -9.165726612920414
      ],
      [
        "▁Mary",
        -9.165981446750822
      ],
      [
        "▁animal",
        -9.166457788524317
      ],
      [
        "▁forget",
        -9.167508258182506
      ],
      [
        "▁said:",
        -9.168051588547105
      ],
      [
        "▁smiles",
        -9.170035129156915
      ],
      [
        "▁heavy",
        -9.17125449822611
      ],
      [
        "▁Thank",
        -9.17130718146732
      ],
      [
        "▁owl",
        -9.172789811943453
      ],
      [
        "▁bring",
        -9.174013684356531
      ],
      [
        "▁higher",
        -9.175009903108966
      ],
      [
        "▁happy!",
        -9.175627297989958
      ],
      [
        "▁brave.",
        -9.175983510949989
      ],
      [
        "▁pieces",
        -9.177649464143968
      ],
      [
        "▁monkey",
        -9.178475084574368
      ],
      [
        "▁suddenly",
        -9.17939678578669
      ],
      [
        "▁pull",
        -9.18093693087403
      ],
      [
        "▁onto",
        -9.181793632817099
      ],
      [
        "▁go.",
        -9.18192904046146
      ],
      [
        "▁voice.",
        -9.182684097643824
      ],
      [
        "▁good.",
        -9.183205773793263
      ],
      [
        "▁accidentally",
        -9.183656810331652
      ],
      [
        "\n\nHis",
        -9.183732369127531
      ],
      [
        "▁curious.",
        -9.187273537725012
      ],
      [
        "▁faster",
        -9.187285605813205
      ],
      [
        "▁mommy.",
        -9.187748531121557
      ],
      [
        "▁\"Do",
        -9.188211263815813
      ],
      [
        "▁morning,",
        -9.189903496666448
      ],
      [
        "▁orange",
        -9.190122601379427
      ],
      [
        "▁sign",
        -9.190131406816063
      ],
      [
        "▁Come",
        -9.190659140187096
      ],
      [
        "▁dolls",
        -9.192521535796363
      ],
      [
        "▁along",
        -9.192810466252405
      ],
      [
        "▁grab",
        -9.195838281492307
      ],
      [
        "▁touched",
        -9.198426357624713
      ],
      [
        "▁wish",
        -9.198733831230335
      ],
      [
        "▁Mama",
        -9.199069051165951
      ],
      [
        "▁everywhere",
        -9.200439127870473
      ],
      [
        "▁3",
        -9.200563849349804
      ],
      [
        "▁paint",
        -9.200741666711082
      ],
      [
        "▁please",
        -9.20092713644366
      ],
      [
        "▁worried",
        -9.202629575648102
      ],
      [
        "▁gone",
        -9.20266409210503
      ],
      [
        "▁sunny",
        -9.203333868667713
      ],
      [
        "▁huge",
        -9.204217304141979
      ],
      [
        "▁exploring",
        -9.204420180168663
      ],
      [
        "▁laughed.",
        -9.206505630907287
      ],
      [
        "▁air",
        -9.206775922121073
      ],
      [
        "▁bowl",
        -9.207412891403733
      ],
      [
        "▁teacher",
        -9.209699488333895
      ],
      [
        "▁music",
        -9.210300151011865
      ],
      [
        "\"Mommy,",
        -9.210691546980488
      ],
      [
        "▁bike",
        -9.212763074345778
      ],
      [
        ".\n\n\"Can",
        -9.214775248160729
      ],
      [
        "\n\nShe",
        -9.216178976687054
      ],
      [
        "▁long.",
        -9.216460792452562
      ],
      [
        "▁candy",
        -9.22380940082632
      ],
      [
        "▁smart",
        -9.22611318979959
      ],
      [
        "▁cheered",
        -9.229033420907976
      ],
      [
        "▁welcome",
        -9.229096886209705
      ],
      [
        "Finally,",
        -9.229194646205588
      ],
      [
        "▁himself.",
        -9.230878582082585
      ],
      [
        "▁bee",
        -9.234073996689634
      ],
      [
        "▁tail",
        -9.234419955567345
      ],
      [
        "▁comes",
        -9.237280483457786
      ],
      [
        "▁searched",
        -9.24197664848382
      ],
      [
        "▁world.",
        -9.244111144869622
      ],
      [
        "▁real",
        -9.245195152675434
      ],
      [
        "▁nothing",
        -9.247363434651362
      ],
      [
        "▁game.",
        -9.248042530822604
      ],
      [
        "▁follow",
        -9.249056783295783
      ],
      [
        "▁doctor",
        -9.249685976175538
      ],
      [
        "\n\nSo",
        -9.24973624790269
      ],
      [
        "▁party",
        -9.250271274883097
      ],
      [
        ".\"\n\nTom",
        -9.252629947181058
      ],
      [
        "▁Mr.",
        -9.252772416348343
      ],
      [
        "▁cat.",
        -9.254667701946486
      ],
      [
        "▁watching",
        -9.25548216619538
      ],
      [
        "▁pointed",
        -9.25645540702992
      ],
      [
        "▁him,",
        -9.258048719635378
      ],
      [
        "▁bought",
        -9.258352372783449
      ],
      [
        "▁quiet",
        -9.263753693809626
      ],
      [
        "▁singing",
        -9.263888874064657
      ],
      [
        "▁blocks.",
        -9.264565542696953
      ],
      [
        "▁place.",
        -9.26585738707781
      ],
      [
        "▁Jimmy",
        -9.26777258774813
      ],
      [
        "▁tower",
        -9.26778529466631
      ],
      [
        "▁wings",
        -9.268255644532907
      ],
      [
        "▁dinner",
        -9.273602162607437
      ],
      [
        "▁happened",
        -9.27439681474956
      ],
      [
        "▁soon.",
        -9.275621769226001
      ],
      [
        "▁explore.",
        -9.275902486151663
      ],
      [
        ".\n\nMom",
        -9.276009904573176
      ],
      [
        "▁cake.",
        -9.27792645585544
      ],
      [
        "▁balloon",
        -9.278987977752436
      ],
      [
        "▁Emma",
        -9.279258195748167
      ],
      [
        "▁way.",
        -9.280501979921318
      ],
      [
        "\"Okay,",
        -9.280685185249865
      ],
      [
        "▁truck.",
        -9.281213360838203
      ],
      [
        "▁jar",
        -9.282524056067624
      ],
      [
        "▁with.",
        -9.283198528361043
      ],
      [
        "▁talked",
        -9.284124386973922
      ],
      [
        "\"Wow,",
        -9.28450877791106
      ],
      [
        "▁it?\"",
        -9.284966613513749
      ],
      [
        "▁lake",
        -9.286865618169127
      ],
      [
        "▁hurt.",
        -9.287171914996017
      ],
      [
        "▁words",
        -9.287608080951053
      ],
      [
        "▁fit",
        -9.287653803153631
      ],
      [
        "▁sleep",
        -9.288548804048085
      ],
      [
        "▁swimming",
        -9.291291077828772
      ],
      [
        "▁town",
        -9.291456156685381
      ],
      [
        "▁late.",
        -9.29314381535628
      ],
      [
        "▁blanket",
        -9.293655754183686
      ],
      [
        "▁swings",
        -9.29482566745241
      ],
      [
        "\n\nAt",
        -9.295899531925711
      ],
      [
        "▁alone",
        -9.297544774574854
      ],
      [
        "▁yes",
        -9.297764271691175
      ],
      [
        "▁sun.",
        -9.29906496393895
      ],
      [
        "▁cried.",
        -9.299751233850719
      ],
      [
        "▁wrong",
        -9.302195026538243
      ],
      [
        "▁busy",
        -9.302265149988257
      ],
      [
        "With",
        -9.302797468597298
      ],
      [
        "▁fun!",
        -9.310065588842322
      ],
      [
        "▁in.",
        -9.31033076653903
      ],
      [
        "▁apple",
        -9.31068912220398
      ],
      [
        "▁Jack.",
        -9.310716625400984
      ],
      [
        "▁okay.",
        -9.310953397168165
      ],
      [
        "▁driver",
        -9.312231227448564
      ],
      [
        "▁house,",
        -9.317467622092986
      ],
      [
        "▁dry",
        -9.317949755802717
      ],
      [
        ".\n\nAfter",
        -9.320875390549139
      ],
      [
        "▁woods",
        -9.320917217598868
      ],
      [
        "▁sounds",
        -9.323362846203526
      ],
      [
        "▁shoes",
        -9.32357540258688
      ],
      [
        "▁eat.",
        -9.32482953679293
      ],
      [
        "▁kind.",
        -9.32611306634599
      ],
      [
        "▁smelled",
        -9.326271377053986
      ],
      [
        "▁mess.",
        -9.326615116651869
      ],
      [
        "▁dinner.",
        -9.327873968386859
      ],
      [
        "▁gone.",
        -9.328849039025988
      ],
      [
        "▁games",
        -9.329319562949719
      ],
      [
        "▁spotted",
        -9.332291702614729
      ],
      [
        "▁dirty",
        -9.332766763877146
      ],
      [
        "?\"\n\nThe",
        -9.333582349780812
      ],
      [
        "\n\nJohn",
        -9.334412638157367
      ],
      [
        "▁Sammy",
        -9.337849983095637
      ],
      [
        "▁round",
        -9.33834823197615
      ],
      [
        "'",
        -9.338492652950032
      ],
      [
        "▁woods.",
        -9.338508720928477
      ],
      [
        "▁Grandma",
        -9.340016900540224
      ],
      [
        "That's",
        -9.341037627302397
      ],
      [
        "▁which",
        -9.34301956632414
      ],
      [
        "▁tired.",
        -9.347078015392796
      ],
      [
        "▁hope",
        -9.347138855899553
      ],
      [
        "▁sharp",
        -9.348600172167625
      ],
      [
        "▁naughty",
        -9.348837668925139
      ],
      [
        "▁mess",
        -9.351099103195507
      ],
      [
        "▁store.",
        -9.357051166369144
      ],
      [
        "▁elephant",
        -9.360481969301187
      ],
      [
        "▁front",
        -9.36240489351695
      ],
      [
        ".\n\nAt",
        -9.362489184883643
      ],
      [
        "\n\nJack",
        -9.363116484430588
      ],
      [
        "▁days",
        -9.364609847632552
      ],
      [
        "▁joy",
        -9.368772732940943
      ],
      [
        "▁whole",
        -9.369333627890686
      ],
      [
        "▁stars",
        -9.369590249993974
      ],
      [
        "▁stories",
        -9.37201250896049
      ],
      [
        "▁secret",
        -9.374607316664434
      ],
      [
        "▁mom's",
        -9.374633503652298
      ],
      [
        "▁you!\"",
        -9.374886467004972
      ],
      [
        "!\n\nThe",
        -9.375543638593166
      ],
      [
        "▁danced",
        -9.377955637061946
      ],
      [
        "▁right.",
        -9.378147498853355
      ],
      [
        "▁wearing",
        -9.379891144297096
      ],
      [
        "▁\"Maybe",
        -9.380261171882708
      ],
      [
        "▁school",
        -9.381269353846013
      ],
      [
        "▁nearby",
        -9.382707672569492
      ],
      [
        "▁rocks",
        -9.383206533417644
      ],
      [
        "▁upset",
        -9.383858456553796
      ],
      [
        "▁field",
        -9.384023216596171
      ],
      [
        "▁tight",
        -9.384921684441089
      ],
      [
        "▁on.",
        -9.386915231909903
      ],
      [
        "▁Fluffy",
        -9.387766458588677
      ],
      [
        "▁strong.",
        -9.388545545370395
      ],
      [
        "▁song",
        -9.394491316941352
      ],
      [
        "▁daughter",
        -9.394879046468084
      ],
      [
        "here",
        -9.39549947742747
      ],
      [
        "▁bucket",
        -9.403637172253333
      ],
      [
        "▁hill.",
        -9.404675173932082
      ],
      [
        "▁replied",
        -9.404907987234928
      ],
      [
        "▁chair",
        -9.40629588490726
      ],
      [
        "▁rolled",
        -9.40709460241775
      ],
      [
        "▁river",
        -9.407154991259771
      ],
      [
        "▁shining",
        -9.407480889521251
      ],
      [
        "▁goes",
        -9.409200685951003
      ],
      [
        "▁woman",
        -9.40929598689826
      ],
      [
        "▁doll.",
        -9.410631939730592
      ],
      [
        "▁spent",
        -9.410757605514831
      ],
      [
        "▁cute",
        -9.411470040959701
      ],
      [
        "▁wide",
        -9.412236084985897
      ],
      [
        "▁forgive",
        -9.41298362020927
      ],
      [
        "▁matter",
        -9.413366795841167
      ],
      [
        "▁pile",
        -9.414855763398217
      ],
      [
        "▁beach.",
        -9.414858558167312
      ],
      [
        "▁bottle",
        -9.4176186253055
      ],
      [
        "▁\"Oh",
        -9.418671526482909
      ],
      [
        "▁tries",
        -9.419837123585971
      ],
      [
        "▁book.",
        -9.42115748054707
      ],
      [
        "▁smiled,",
        -9.42308033792357
      ],
      [
        "▁drink",
        -9.4246591907713
      ],
      [
        "▁arrived,",
        -9.424995961202262
      ],
      [
        "▁sound.",
        -9.425555225801748
      ],
      [
        "▁window.",
        -9.426149910558049
      ],
      [
        "▁soup",
        -9.426828148700464
      ],
      [
        "▁proud.",
        -9.427853713618683
      ],
      [
        "▁arms",
        -9.430416783397797
      ],
      [
        "▁herself.",
        -9.43229360761647
      ],
      [
        "▁fight",
        -9.432392043513262
      ],
      [
        "▁shouted,",
        -9.43413075791079
      ],
      [
        "▁pretended",
        -9.43423043393085
      ],
      [
        "▁playing.",
        -9.434848875188337
      ],
      [
        "▁star",
        -9.435015588578239
      ],
      [
        "▁cozy",
        -9.436913551461231
      ],
      [
        "▁lucky",
        -9.438873778276465
      ],
      [
        "▁afraid",
        -9.439582333545182
      ],
      [
        ".\n\nBen",
        -9.441756034384461
      ],
      [
        "▁lovely",
        -9.443888219657685
      ],
      [
        "▁\"The",
        -9.444387225128668
      ],
      [
        ".\n\nTim",
        -9.445206916732758
      ],
      [
        "▁Lucy.",
        -9.449589762643603
      ],
      [
        "\"Lily,",
        -9.450736592131438
      ],
      [
        "▁it.\"",
        -9.453348006655647
      ],
      [
        "▁person",
        -9.453417489637843
      ],
      [
        "▁eventually",
        -9.453895038191705
      ],
      [
        ".\"\n\nBen",
        -9.457110295013177
      ],
      [
        "▁noises",
        -9.45759316921048
      ],
      [
        "▁fall",
        -9.459395216028499
      ],
      [
        "▁crying",
        -9.459508583653234
      ],
      [
        "▁air.",
        -9.461512538584286
      ],
      [
        "▁loves",
        -9.461876165288214
      ],
      [
        "▁storm",
        -9.462783207709386
      ],
      [
        "▁lonely",
        -9.463912204172841
      ],
      [
        "▁giant",
        -9.464640924327751
      ],
      [
        "▁kite",
        -9.464995520042871
      ],
      [
        "▁old.",
        -9.469658293583882
      ],
      [
        "\"Hello,",
        -9.471013672893378
      ],
      [
        "▁rock.",
        -9.471566584071867
      ],
      [
        "▁Tom's",
        -9.471914685723451
      ],
      [
        "▁hungry.",
        -9.472595269359593
      ],
      [
        "▁throw",
        -9.47434840419619
      ],
      [
        "▁key",
        -9.475244904632603
      ],
      [
        "▁wore",
        -9.475422144935491
      ],
      [
        "▁treasure",
        -9.476204994066832
      ],
      [
        "▁dangerous",
        -9.47741507535075
      ],
      [
        "▁tail.",
        -9.47957900861915
      ],
      [
        ".\n\n\"No,",
        -9.480201375006256
      ],
      [
        "▁exciting",
        -9.481012400179123
      ],
      [
        "▁now.",
        -9.481093829561972
      ],
      [
        "▁promise",
        -9.482222503796518
      ],
      [
        "▁alone.",
        -9.484262119145557
      ],
      [
        "▁last",
        -9.48548976054324
      ],
      [
        "▁wild",
        -9.487977528150255
      ],
      [
        "▁mouth",
        -9.488395023346424
      ],
      [
        "▁chased",
        -9.490562937344203
      ],
      [
        "▁smiles.",
        -9.492219834371713
      ],
      [
        "▁relieved",
        -9.492903303780091
      ],
      [
        "▁pot",
        -9.494080582090989
      ],
      [
        "whenever",
        -9.4961818193661
      ],
      [
        "▁morning",
        -9.496444849617104
      ],
      [
        "▁grow",
        -9.498452254846281
      ],
      [
        "▁basket",
        -9.501366505642643
      ],
      [
        "▁shapes",
        -9.501738664749658
      ],
      [
        "▁heart",
        -9.504567973124981
      ],
      [
        "▁Spot.",
        -9.50483920071518
      ],
      [
        "▁fish.",
        -9.50605041064762
      ],
      [
        "▁pretty.",
        -9.511261949183838
      ],
      [
        "r",
        -9.511653063307977
      ],
      [
        "▁yard.",
        -9.512651990107152
      ],
      [
        "▁joy.",
        -9.512686138395136
      ],
      [
        "▁furry",
        -9.516360145099465
      ],
      [
        "▁blew",
        -9.51714267211205
      ],
      [
        "\nThe",
        -9.518697409956156
      ],
      [
        "?\"\n\nLily",
        -9.51877954644373
      ],
      [
        "▁\"Of",
        -9.520113549532814
      ],
      [
        "▁Mia.",
        -9.522614118454308
      ],
      [
        "▁lay",
        -9.524230816468343
      ],
      [
        "▁tasted",
        -9.524637237986395
      ],
      [
        "▁Tim's",
        -9.52527842648767
      ],
      [
        "▁happy,",
        -9.525743204942398
      ],
      [
        "\"Mom,",
        -9.527229908671089
      ],
      [
        "▁Jen",
        -9.527653557628229
      ],
      [
        "▁me?\"",
        -9.528010592042357
      ],
      [
        "▁part",
        -9.530096084914122
      ],
      [
        "▁maybe",
        -9.531262676637377
      ],
      [
        "ly",
        -9.531834299564292
      ],
      [
        "▁finish",
        -9.532413475104713
      ],
      [
        "▁cheese",
        -9.533438628011739
      ],
      [
        "▁large",
        -9.53675810964165
      ],
      [
        "▁asks",
        -9.537220134355232
      ],
      [
        "▁anyone",
        -9.538453378497554
      ],
      [
        "▁Everywhere",
        -9.539452554210225
      ],
      [
        "▁call",
        -9.540699585219285
      ],
      [
        "Just",
        -9.54085778069649
      ],
      [
        "▁adventures",
        -9.541136833162842
      ],
      [
        "▁something.",
        -9.5422094325602
      ],
      [
        "▁push",
        -9.545268688805491
      ],
      [
        "▁off.",
        -9.545581387747934
      ],
      [
        "▁bread",
        -9.547200394121786
      ],
      [
        "▁pocket",
        -9.547417586464404
      ],
      [
        ".\n\n\"What",
        -9.55117484377166
      ],
      [
        "▁laughing",
        -9.55150589625479
      ],
      [
        "▁juice",
        -9.55156138144442
      ],
      [
        "▁wave",
        -9.551793408689486
      ],
      [
        "▁after.",
        -9.552199135063391
      ],
      [
        "▁move.",
        -9.553413325714336
      ],
      [
        "▁Sometimes",
        -9.553839142406352
      ],
      [
        ".\n\n",
        -9.555047889022468
      ],
      [
        "▁tasty",
        -9.555457547427258
      ],
      [
        "▁dream",
        -9.556649763982152
      ],
      [
        "▁clever",
        -9.556895508360544
      ],
      [
        "▁books.",
        -9.559017150234466
      ],
      [
        "▁spread",
        -9.56113675392068
      ],
      [
        "▁waiting",
        -9.562014152238941
      ],
      [
        "▁dress.",
        -9.562520549884049
      ],
      [
        "▁king",
        -9.562608057782645
      ],
      [
        "▁twins.",
        -9.565989305879887
      ],
      [
        "▁landed",
        -9.567504323021083
      ],
      [
        "▁trees.",
        -9.568699783111043
      ],
      [
        "▁drive",
        -9.570824067337943
      ],
      [
        "▁Mum",
        -9.572895181089372
      ],
      [
        "▁meet",
        -9.574378503213563
      ],
      [
        "▁wall",
        -9.574392684516063
      ],
      [
        "▁cannot",
        -9.574798589117185
      ],
      [
        "▁laugh.",
        -9.574903729097088
      ],
      [
        "▁hole.",
        -9.575980010112533
      ],
      [
        "▁\"Look",
        -9.577803850455753
      ],
      [
        "▁rain.",
        -9.579041209789892
      ],
      [
        "▁paper.",
        -9.579697835069599
      ],
      [
        "▁flower.",
        -9.580600320930799
      ],
      [
        "▁twins",
        -9.58252690951375
      ],
      [
        "▁missed",
        -9.583375090311561
      ],
      [
        "▁hiding",
        -9.584255174554347
      ],
      [
        "▁Emily",
        -9.585290498478722
      ],
      [
        "▁says.\n\n",
        -9.585425702625395
      ],
      [
        "▁talking",
        -9.587329612139337
      ],
      [
        "▁people.",
        -9.588774155378676
      ],
      [
        "▁others.",
        -9.590049566331457
      ],
      [
        "▁interesting",
        -9.590662732411307
      ],
      [
        "▁stood",
        -9.591984910462417
      ],
      [
        "▁rainbow",
        -9.593153907258149
      ],
      [
        ".\n\n\"Hello,",
        -9.593190297629906
      ],
      [
        "▁gently",
        -9.594383214063399
      ],
      [
        "▁cup",
        -9.594587596779654
      ],
      [
        "▁backyard.",
        -9.595764536851043
      ],
      [
        "▁else.",
        -9.595859244152988
      ],
      [
        "▁fence",
        -9.596193910696082
      ],
      [
        "▁nest",
        -9.596811217572887
      ],
      [
        "▁knocked",
        -9.599195490013038
      ],
      [
        "▁protect",
        -9.59944999516511
      ],
      [
        "▁mad",
        -9.60018837011822
      ],
      [
        "▁playing,",
        -9.600268904622878
      ],
      [
        "▁kids.",
        -9.601173643183852
      ],
      [
        "▁ducks",
        -9.601547171818483
      ],
      [
        "▁walk.",
        -9.60271440167349
      ],
      [
        "▁smell",
        -9.603361316095478
      ],
      [
        "▁no.",
        -9.604461336265507
      ],
      [
        "▁How",
        -9.604529355727047
      ],
      [
        "▁almost",
        -9.604644103471012
      ],
      [
        "▁boat.",
        -9.60522312913201
      ],
      [
        "▁teach",
        -9.605393012259828
      ],
      [
        "▁patient",
        -9.60605353917593
      ],
      [
        "▁hid",
        -9.60626292796568
      ],
      [
        ".\"\n\n",
        -9.609357482412411
      ],
      [
        "▁plane",
        -9.610094808728752
      ],
      [
        "▁healthy",
        -9.610155036555497
      ],
      [
        ".\n\n\"I'm",
        -9.610252019538555
      ],
      [
        "▁write",
        -9.61067231292403
      ],
      [
        "▁carried",
        -9.61071222824577
      ],
      [
        "▁hears",
        -9.612225281232549
      ],
      [
        "▁hello",
        -9.61443546705564
      ],
      [
        "▁gift",
        -9.616419856325738
      ],
      [
        "▁branch",
        -9.616884691552922
      ],
      [
        "▁nose",
        -9.616994183521491
      ],
      [
        "▁wall.",
        -9.617148122586034
      ],
      [
        "▁save",
        -9.618257885580473
      ],
      [
        "▁cars.",
        -9.618813058998263
      ],
      [
        "▁barked",
        -9.619634578333674
      ],
      [
        "Don't",
        -9.622042014844196
      ],
      [
        "▁Please",
        -9.6234964446755
      ],
      [
        "▁castle.",
        -9.62410128893458
      ],
      [
        "▁carry",
        -9.62551618405304
      ],
      [
        "▁Jenny",
        -9.626233526500016
      ],
      [
        "▁horse",
        -9.629093409513436
      ],
      [
        "▁grew",
        -9.62940445763761
      ],
      [
        "▁rope",
        -9.629468440931825
      ],
      [
        "▁forever.",
        -9.630363871620359
      ],
      [
        "▁lake.",
        -9.633748739149821
      ],
      [
        "i",
        -9.637195242423882
      ],
      [
        "▁apples",
        -9.638574297438
      ],
      [
        "▁taste",
        -9.63867125476409
      ],
      [
        "▁Why",
        -9.64067823419655
      ],
      [
        "▁Jim",
        -9.645725581809776
      ],
      [
        "▁farm",
        -9.646993636218014
      ],
      [
        "▁Even",
        -9.647573066260998
      ],
      [
        "▁sharing",
        -9.648404555432528
      ],
      [
        "▁count",
        -9.651058146460509
      ],
      [
        ".\n\nAnna",
        -9.65193948463504
      ],
      [
        "▁cow",
        -9.652558746668324
      ],
      [
        "▁jumping",
        -9.653582851632661
      ],
      [
        "▁forward",
        -9.653690660936277
      ],
      [
        "\n\nFinally,",
        -9.654027546126036
      ],
      [
        "▁On",
        -9.654660355689414
      ],
      [
        "▁knowing",
        -9.654795855607187
      ],
      [
        "\"What's",
        -9.655819732108391
      ],
      [
        "▁hat.",
        -9.657432015245679
      ],
      [
        "▁first.",
        -9.657691637982253
      ],
      [
        "▁bow",
        -9.6583742926652
      ],
      [
        "▁taught",
        -9.660107962501218
      ],
      [
        "▁snow",
        -9.660542975624734
      ],
      [
        "▁sort",
        -9.663693509790797
      ],
      [
        "▁coat",
        -9.673250066538298
      ],
      [
        "▁Mittens",
        -9.67397318751059
      ],
      [
        "▁tree,",
        -9.676072740539265
      ],
      [
        "▁did.",
        -9.67829057734238
      ],
      [
        "\"Look,",
        -9.678712618181386
      ],
      [
        "▁spider",
        -9.679341018922322
      ],
      [
        "▁journey",
        -9.682847973036232
      ],
      [
        "▁milk",
        -9.684383832192108
      ],
      [
        "▁share.",
        -9.684891179900116
      ],
      [
        "▁standing",
        -9.686041528155105
      ],
      [
        "Soon,",
        -9.686582713604752
      ],
      [
        "▁hair.",
        -9.687101232423192
      ],
      [
        "\n\nTom",
        -9.6873338518439
      ],
      [
        "▁shouted.",
        -9.687943351042362
      ],
      [
        "▁snake",
        -9.689292778231662
      ],
      [
        "▁could.",
        -9.689385395912351
      ],
      [
        "▁surprise.",
        -9.691002505306642
      ],
      [
        "▁gray",
        -9.693140279775761
      ],
      [
        "▁button",
        -9.695664680809765
      ],
      [
        "\"Sure,",
        -9.696762387514934
      ],
      [
        "▁bench",
        -9.697158371502777
      ],
      [
        "▁leaves.",
        -9.697644234993527
      ],
      [
        "▁know.",
        -9.697884736317603
      ],
      [
        "▁cold.",
        -9.698359356836605
      ],
      [
        "▁Ben's",
        -9.69847112276912
      ],
      [
        "▁Jake",
        -9.699583036603006
      ],
      [
        "▁drew",
        -9.699900571324708
      ],
      [
        "▁screamed",
        -9.702604057191422
      ],
      [
        "▁help,",
        -9.703316432779799
      ],
      [
        "▁birthday",
        -9.704590536229295
      ],
      [
        "▁colors.",
        -9.705140042050102
      ],
      [
        ".\"\n\nAnna",
        -9.70556322782994
      ],
      [
        "▁goodbye.",
        -9.7060989981047
      ],
      [
        "▁clouds",
        -9.706132589838434
      ],
      [
        "▁new.",
        -9.70699915032077
      ],
      [
        "▁win",
        -9.707252636967551
      ],
      [
        "▁thing.",
        -9.708772906373898
      ],
      [
        "▁snowman",
        -9.708849288298698
      ],
      [
        "▁these",
        -9.709841624549473
      ],
      [
        "▁hidden",
        -9.710661352382932
      ],
      [
        "▁Sara.",
        -9.710990227373625
      ],
      [
        "▁calm",
        -9.7128213229752
      ],
      [
        "▁top.",
        -9.7164372512531
      ],
      [
        "▁shiny.",
        -9.716551869955289
      ],
      [
        "▁\"My",
        -9.71865787518013
      ],
      [
        "▁well",
        -9.719309620071416
      ],
      [
        "\n\nMommy",
        -9.719719154285846
      ],
      [
        "▁cookies.",
        -9.721766808101034
      ],
      [
        "▁returned",
        -9.725290919480532
      ],
      [
        "▁gathered",
        -9.726165000562276
      ],
      [
        "▁fun!\"",
        -9.72676587755459
      ],
      [
        "▁spoon",
        -9.727284377740302
      ],
      [
        ".\n\n\"I",
        -9.731915887882105
      ],
      [
        "▁mud",
        -9.732355370224356
      ],
      [
        "▁mysterious",
        -9.734841482457048
      ],
      [
        "▁letter",
        -9.740559703426298
      ],
      [
        "▁later",
        -9.74265923068571
      ],
      [
        "▁garden,",
        -9.743292581915057
      ],
      [
        ".\"\n\nMom",
        -9.744530721669962
      ],
      [
        "▁dangerous.",
        -9.74472300423143
      ],
      [
        "▁sea",
        -9.745690312959267
      ],
      [
        "▁lunch",
        -9.74642670400657
      ],
      [
        "▁river.",
        -9.747667979372205
      ],
      [
        "▁lit",
        -9.747817174627153
      ],
      [
        "▁passed",
        -9.748011379175134
      ],
      [
        "▁that?\"",
        -9.748342904359493
      ],
      [
        "▁path",
        -9.749108890534684
      ],
      [
        "▁shy",
        -9.749752698639101
      ],
      [
        "▁building",
        -9.750229667294326
      ],
      [
        "▁hop",
        -9.750766450638817
      ],
      [
        ".\n\nHer",
        -9.751469287859694
      ],
      [
        "▁surprised.",
        -9.752794721900901
      ],
      [
        ".\n\n\"Mom,",
        -9.752902023000553
      ],
      [
        "▁crying.",
        -9.75366170037433
      ],
      [
        "▁wagged",
        -9.75430185689342
      ],
      [
        "▁group",
        -9.754308556512171
      ],
      [
        "▁hopping",
        -9.755186402521998
      ],
      [
        "▁smooth",
        -9.75707271910206
      ],
      [
        "▁you?\"",
        -9.759194283581202
      ],
      [
        "ting",
        -9.759444665850626
      ],
      [
        "▁stand",
        -9.762536383156577
      ],
      [
        "▁street.",
        -9.763183729488498
      ],
      [
        "▁field.",
        -9.763625608279021
      ],
      [
        "▁kissed",
        -9.765442754326067
      ],
      [
        "▁machine",
        -9.766237813657106
      ],
      [
        "▁corner",
        -9.766392347033895
      ],
      [
        "▁nap",
        -9.767096248776786
      ],
      [
        "▁fancy",
        -9.768052661301619
      ],
      [
        "▁creature",
        -9.768534611097621
      ],
      [
        "▁mean.",
        -9.77003057658361
      ],
      [
        "▁especially",
        -9.770452608934262
      ],
      [
        "▁fixed",
        -9.771779416364234
      ],
      [
        "▁minutes",
        -9.771969276545411
      ],
      [
        "▁Little",
        -9.77279559503732
      ],
      [
        "▁street",
        -9.773804398066169
      ],
      [
        "▁anything.",
        -9.776500192491689
      ],
      [
        "▁today",
        -9.778013013057473
      ],
      [
        "▁moment.",
        -9.778162385837126
      ],
      [
        "▁cave",
        -9.778568780285267
      ],
      [
        "▁tea",
        -9.78123546063417
      ],
      [
        ".\n\nTimmy",
        -9.781277241477884
      ],
      [
        "▁party.",
        -9.781583938960981
      ],
      [
        "▁fruit",
        -9.78207687737439
      ],
      [
        "▁poor",
        -9.782216265483518
      ],
      [
        "▁back,",
        -9.782529603013302
      ],
      [
        "▁you,\"",
        -9.784033594227044
      ],
      [
        "▁plant",
        -9.785180506803405
      ],
      [
        "▁night.",
        -9.791099756165766
      ],
      [
        "▁packed",
        -9.791616159568793
      ],
      [
        "▁taken",
        -9.79371569406815
      ],
      [
        "▁shop",
        -9.795184965253252
      ],
      [
        "▁tight.",
        -9.795366251790526
      ],
      [
        "▁meant",
        -9.795566330678588
      ],
      [
        "▁carrot",
        -9.796580570868166
      ],
      [
        "▁chocolate",
        -9.79697167761841
      ],
      [
        "▁smiling",
        -9.79881081169009
      ],
      [
        "▁Lisa",
        -9.799507673210435
      ],
      [
        "▁cloud",
        -9.800343255990505
      ],
      [
        "▁treat",
        -9.803603839919552
      ],
      [
        "▁helpful",
        -9.803651874472676
      ],
      [
        "▁sea.",
        -9.804056414547853
      ],
      [
        "▁thankful",
        -9.805225886661098
      ],
      [
        "▁Go",
        -9.807057938377904
      ],
      [
        "▁picks",
        -9.807496240331409
      ],
      [
        "▁determined",
        -9.808001264408091
      ],
      [
        "▁slow",
        -9.808899547543433
      ],
      [
        "▁village",
        -9.809979857640986
      ],
      [
        "▁phone",
        -9.810843088793549
      ],
      [
        "▁worried.",
        -9.811520224741415
      ],
      [
        "▁clothes.",
        -9.811695018659998
      ],
      [
        "▁saved",
        -9.81198923113673
      ],
      [
        "▁arm",
        -9.812416833206216
      ],
      [
        "▁peaceful",
        -9.812444297876446
      ],
      [
        ".\n\nSara",
        -9.81469011687311
      ],
      [
        "\n\nSo,",
        -9.81761962398022
      ],
      [
        "▁splash",
        -9.817922445112597
      ],
      [
        "▁mouth.",
        -9.81812562404912
      ],
      [
        ".\n\nThen,",
        -9.820447985504027
      ],
      [
        "▁appeared",
        -9.820503622216815
      ],
      [
        "▁sticks",
        -9.821797604704503
      ],
      [
        "▁pay",
        -9.822037026740201
      ],
      [
        "▁string",
        -9.822344223949775
      ],
      [
        "▁powerful",
        -9.823741740528584
      ],
      [
        "▁prince",
        -9.823766916154433
      ],
      [
        "▁Peter",
        -9.824587135656348
      ],
      [
        "▁often",
        -9.825510795753267
      ],
      [
        "▁ladder",
        -9.825618752546347
      ],
      [
        "▁\"Come",
        -9.826541938518961
      ],
      [
        "▁cloth",
        -9.827053885599799
      ],
      [
        "▁honey",
        -9.828471743796543
      ],
      [
        "▁feed",
        -9.828593153695017
      ],
      [
        "▁life",
        -9.828966659336183
      ],
      [
        "▁yard",
        -9.82936416812429
      ],
      [
        "▁doing?\"",
        -9.830263833702649
      ],
      [
        "▁sand.",
        -9.830783444998234
      ],
      [
        "▁sack",
        -9.831275671552628
      ],
      [
        "licked",
        -9.831798451512697
      ],
      [
        "▁that.",
        -9.83185742647269
      ],
      [
        "\n\nAnd",
        -9.831929586245867
      ],
      [
        "▁all.",
        -9.83273374102862
      ],
      [
        "▁sail",
        -9.832753302565106
      ],
      [
        "▁dirt",
        -9.833369341054667
      ],
      [
        "▁picnic",
        -9.833986365021085
      ],
      [
        "▁cook",
        -9.835222143915203
      ],
      [
        "▁birds.",
        -9.836489784846686
      ],
      [
        "▁won",
        -9.837945974131445
      ],
      [
        "▁breath",
        -9.83860030286904
      ],
      [
        "▁crab",
        -9.841638380879582
      ],
      [
        "▁gets",
        -9.842602235297315
      ],
      [
        "▁them,",
        -9.843735682441412
      ],
      [
        "▁robot",
        -9.843895597174582
      ],
      [
        "▁mix",
        -9.844209826226058
      ],
      [
        "▁bush",
        -9.844686064738752
      ],
      [
        "▁bag.",
        -9.845218779276568
      ],
      [
        "▁figure",
        -9.846151035074012
      ],
      [
        "▁well.",
        -9.84687900366476
      ],
      [
        "▁splashed",
        -9.847335451909911
      ],
      [
        "▁mummy",
        -9.848897515863746
      ],
      [
        "▁Teddy",
        -9.848943025340315
      ],
      [
        "▁roll",
        -9.851555923649643
      ],
      [
        "▁broken.",
        -9.851703045596551
      ],
      [
        "?\"\n\nHer",
        -9.852981429387818
      ],
      [
        "▁become",
        -9.8545649108763
      ],
      [
        "▁by.",
        -9.854704725388602
      ],
      [
        "▁elderly",
        -9.855302965064185
      ],
      [
        "▁lot.",
        -9.8554879701463
      ],
      [
        "▁hours",
        -9.855825937757897
      ],
      [
        "▁ever.",
        -9.856074355020674
      ],
      [
        "▁kitten",
        -9.858901213192055
      ],
      [
        "▁beautiful.",
        -9.862011595536902
      ],
      [
        "▁over.",
        -9.86438857704039
      ],
      [
        "▁At",
        -9.864663962180217
      ],
      [
        "▁sick",
        -9.865384852162803
      ],
      [
        "▁honest",
        -9.865723373256994
      ],
      [
        "▁Sue.",
        -9.86584938860912
      ],
      [
        "▁cookie",
        -9.866278361522467
      ],
      [
        "▁crayons",
        -9.866724818344675
      ],
      [
        "▁me!\"",
        -9.868418803092487
      ],
      [
        "▁school.",
        -9.869174523598417
      ],
      [
        "▁coin",
        -9.869964387845883
      ],
      [
        "▁bus",
        -9.870010186693966
      ],
      [
        "▁Johnny",
        -9.870871237493189
      ],
      [
        "▁sparkly",
        -9.871365149301928
      ],
      [
        "▁inside,",
        -9.872124390684222
      ],
      [
        "▁lunch.",
        -9.873368692959318
      ],
      [
        "▁calling",
        -9.874286339942413
      ],
      [
        ".\n\nFinally,",
        -9.874770974027811
      ],
      [
        "▁oven",
        -9.876291147851411
      ],
      [
        "▁\n\n",
        -9.87644676349357
      ],
      [
        "▁skipped",
        -9.8770744582908
      ],
      [
        "▁fence.",
        -9.877276593725837
      ],
      [
        "▁fill",
        -9.880769243147954
      ],
      [
        "▁mind",
        -9.881106758840467
      ],
      [
        "▁lose",
        -9.887083131033226
      ],
      [
        "▁covered",
        -9.88724726290686
      ],
      [
        "▁bench.",
        -9.887564876160264
      ],
      [
        "▁stone",
        -9.887780667969576
      ],
      [
        "▁instead",
        -9.888255529708292
      ],
      [
        "▁sailed",
        -9.888332366626107
      ],
      [
        "▁seat",
        -9.889607085692884
      ],
      [
        "▁feet",
        -9.890654563805528
      ],
      [
        "▁wolf",
        -9.890657721994398
      ],
      [
        "▁fire.",
        -9.891052082659417
      ],
      [
        "▁drank",
        -9.892196566502243
      ],
      [
        "▁middle",
        -9.893827287818453
      ],
      [
        "▁wrote",
        -9.894023635287793
      ],
      [
        "▁fair",
        -9.895859142785376
      ],
      [
        "▁sheep",
        -9.896336210485549
      ],
      [
        "▁lying",
        -9.896443738969666
      ],
      [
        "▁Some",
        -9.896722497637212
      ],
      [
        "▁song.",
        -9.896960457368083
      ],
      [
        "▁high.",
        -9.898779444994346
      ],
      [
        "▁bugs",
        -9.902780883457785
      ],
      [
        "▁sunshine.",
        -9.903439956614655
      ],
      [
        "▁leaf",
        -9.904439485784915
      ],
      [
        "▁yes.",
        -9.904772151232274
      ],
      [
        "▁can.",
        -9.905320682525188
      ],
      [
        "▁realised",
        -9.90637184216991
      ],
      [
        "▁warm.",
        -9.906745153047819
      ],
      [
        "▁careful,",
        -9.907514846538033
      ],
      [
        "▁generous",
        -9.908052977052725
      ],
      [
        "▁color",
        -9.90805985688501
      ],
      [
        "▁lift",
        -9.908284755816123
      ],
      [
        "▁eager",
        -9.908950706114654
      ],
      [
        "▁sleep.",
        -9.909297750867966
      ],
      [
        "▁spicy",
        -9.909920058789854
      ],
      [
        "▁bell",
        -9.913367905678895
      ],
      [
        "▁offered",
        -9.914727709845481
      ],
      [
        "▁cleaned",
        -9.916969831826302
      ],
      [
        "▁tidy",
        -9.917451814171635
      ],
      [
        "▁pieces.",
        -9.917643318400131
      ],
      [
        "▁plate",
        -9.918441107249244
      ],
      [
        "▁places",
        -9.9191299205148
      ],
      [
        "▁enough,",
        -9.91925818068083
      ],
      [
        "▁swing.",
        -9.919292414605529
      ],
      [
        "▁tie",
        -9.919768133100701
      ],
      [
        "▁us.",
        -9.920004039522683
      ],
      [
        "\n\nMax",
        -9.920600526644389
      ],
      [
        "▁grumpy",
        -9.921456421585036
      ],
      [
        "▁understood",
        -9.922435722999149
      ],
      [
        "▁\"No",
        -9.922797835261832
      ],
      [
        "▁free",
        -9.92310183604262
      ],
      [
        "▁way,",
        -9.92436971196567
      ],
      [
        "▁plan",
        -9.924470631197147
      ],
      [
        "▁trip",
        -9.924701663965815
      ],
      [
        "▁rude",
        -9.92576193584159
      ],
      [
        "▁walks",
        -9.926236089794413
      ],
      [
        "▁sick.",
        -9.926530821491063
      ],
      [
        "▁nap.",
        -9.926893529288392
      ],
      [
        "▁look.",
        -9.927494671717426
      ],
      [
        "▁cream.",
        -9.927834594368989
      ],
      [
        "▁dirty.",
        -9.929945892481099
      ],
      [
        "▁backyard",
        -9.930280547160171
      ],
      [
        "▁words.",
        -9.931089428186231
      ],
      [
        ".\n\nThen",
        -9.931657284219053
      ],
      [
        "\n\nLater",
        -9.932668212457807
      ],
      [
        "▁daddy.",
        -9.932886230752281
      ],
      [
        "▁asleep",
        -9.933199980979767
      ],
      [
        "▁pig",
        -9.934332974138279
      ],
      [
        "▁lifted",
        -9.936084297542113
      ],
      [
        "▁fur",
        -9.937992150824847
      ],
      [
        "▁decide",
        -9.938462881730795
      ],
      [
        "▁stick.",
        -9.939282233248655
      ],
      [
        "▁police",
        -9.939747513020897
      ],
      [
        "▁legs",
        -9.94081300689455
      ],
      [
        "▁discovered",
        -9.941402460491426
      ],
      [
        ".\n\n\"Thank",
        -9.94163612098812
      ],
      [
        "▁pleased",
        -9.941865778583276
      ],
      [
        "▁spin",
        -9.941940694524272
      ],
      [
        "▁Sarah.",
        -9.942055238453888
      ],
      [
        "▁faster.",
        -9.942340536149532
      ],
      [
        "▁fake",
        -9.943618400214461
      ],
      [
        "▁agreed.",
        -9.94691348354453
      ],
      [
        "▁caterpillar",
        -9.948692698856616
      ],
      [
        "▁creative",
        -9.949686205521514
      ],
      [
        "▁waves",
        -9.950175655002472
      ],
      [
        "▁crawled",
        -9.951044651551785
      ],
      [
        "Suddenly",
        -9.951499835764528
      ],
      [
        "▁managed",
        -9.951837539550434
      ],
      [
        "▁No",
        -9.95266349308841
      ],
      [
        "▁necklace",
        -9.952753722551968
      ],
      [
        "▁needs",
        -9.953468120536993
      ],
      [
        "▁shows",
        -9.954685158736716
      ],
      [
        "▁Bob.",
        -9.954783098648027
      ],
      [
        "▁pictures.",
        -9.956261222809982
      ],
      [
        "▁wet.",
        -9.95776657847191
      ],
      [
        "▁zoo",
        -9.95823970335
      ],
      [
        "▁famous",
        -9.958321892020113
      ],
      [
        "▁wake",
        -9.958843574486234
      ],
      [
        ".\"\n\nSara",
        -9.959534688991377
      ],
      [
        "▁block",
        -9.960047107484723
      ],
      [
        ".\n\n\"Yes,",
        -9.960059824307018
      ],
      [
        "▁teeth",
        -9.962795287892346
      ],
      [
        "▁carrots",
        -9.963460767728677
      ],
      [
        "▁deer",
        -9.963487429365236
      ],
      [
        "▁chase",
        -9.963603950247654
      ],
      [
        "▁candy.",
        -9.963775781484227
      ],
      [
        "▁glue",
        -9.96412033189043
      ],
      [
        "▁brush",
        -9.965232302368142
      ],
      [
        "l",
        -9.965374804029432
      ],
      [
        "▁dark.",
        -9.96666040891973
      ],
      [
        "▁grandma.",
        -9.96680249798914
      ],
      [
        "\"OK,",
        -9.96733914629681
      ],
      [
        "▁ugly",
        -9.970273524441167
      ],
      [
        "▁extra",
        -9.970332600756024
      ],
      [
        "▁respect",
        -9.970684126900807
      ],
      [
        ".\n\n\"It's",
        -9.972154221032177
      ],
      [
        "\n\nThen",
        -9.975290203058437
      ],
      [
        "▁rare",
        -9.975835470421732
      ],
      [
        "▁shirt",
        -9.976038774899205
      ],
      [
        "▁loyal",
        -9.976045116602187
      ],
      [
        "▁lock",
        -9.976266534720953
      ],
      [
        "!\"\n\nLily",
        -9.976481385593003
      ],
      [
        "▁measure",
        -9.978850254686042
      ],
      [
        "▁father",
        -9.979098399446139
      ],
      [
        "▁dig",
        -9.979730979649991
      ],
      [
        "▁favourite",
        -9.979769075764953
      ],
      [
        "▁rabbit.",
        -9.979915861474552
      ],
      [
        "▁added",
        -9.980022585284596
      ],
      [
        "▁children.",
        -9.980170558497864
      ],
      [
        "▁snack",
        -9.98048946970214
      ],
      [
        "▁enjoying",
        -9.980512038180617
      ],
      [
        "▁puddle",
        -9.980902890234702
      ],
      [
        "▁Dad.",
        -9.981540343956402
      ],
      [
        "▁farm.",
        -9.982470015626966
      ],
      [
        "▁giggled",
        -9.983467975093012
      ],
      [
        "▁\"Now",
        -9.98423914393008
      ],
      [
        "▁plan.",
        -9.986003285703495
      ],
      [
        "▁Jane.",
        -9.98755052613931
      ],
      [
        "▁butterfly.",
        -9.987950549641425
      ],
      [
        "▁stop.",
        -9.988231116327785
      ],
      [
        "▁whistle",
        -9.989537041716112
      ],
      [
        "▁polite",
        -9.99041539194913
      ],
      [
        "▁pointing",
        -9.992250358106553
      ],
      [
        "m",
        -9.992469576063307
      ],
      [
        "▁couch",
        -9.992714123141132
      ],
      [
        "▁wrapped",
        -9.993688268160867
      ],
      [
        "▁sunshine",
        -9.994243481716778
      ],
      [
        "▁giving",
        -9.995421490987093
      ],
      [
        "▁neighbor",
        -9.996431987983948
      ],
      [
        "▁check",
        -9.996557447389812
      ],
      [
        "▁sour",
        -9.997275767401145
      ],
      [
        "▁Mommy.",
        -9.998481199513721
      ],
      [
        ".\"\n\nBut",
        -10.000028965402542
      ],
      [
        "▁here.",
        -10.001598133444206
      ],
      [
        "▁lazy",
        -10.002448840583353
      ],
      [
        "▁pocket.",
        -10.002816028465947
      ],
      [
        "▁fighting",
        -10.002901286026935
      ],
      [
        "▁money.",
        -10.003113811872076
      ],
      [
        "▁moon",
        -10.00342519514122
      ],
      [
        "▁glass",
        -10.005324695261882
      ],
      [
        "▁ocean",
        -10.006138848252395
      ],
      [
        "▁land",
        -10.006290418514265
      ],
      [
        "▁working",
        -10.006522168491593
      ],
      [
        "▁colourful",
        -10.006648052715054
      ],
      [
        "▁bike.",
        -10.007590613478678
      ],
      [
        "▁worm",
        -10.008702739757679
      ],
      [
        "▁spun",
        -10.008991192582215
      ],
      [
        "▁rest.",
        -10.009324858498854
      ],
      [
        "▁road.",
        -10.009343857696713
      ],
      [
        "▁rich",
        -10.01001753082227
      ],
      [
        "▁mighty",
        -10.01109699306592
      ],
      [
        "▁line",
        -10.011116434625686
      ],
      [
        "▁it.\n\nThe",
        -10.012155593299571
      ],
      [
        "▁invited",
        -10.013469867861412
      ],
      [
        "▁against",
        -10.014719900876992
      ],
      [
        "▁dreamed",
        -10.01527186224566
      ],
      [
        ".\n\n\"Hey,",
        -10.015989425868856
      ],
      [
        "▁adventures.",
        -10.016220069821484
      ],
      [
        "▁already",
        -10.016896596452636
      ],
      [
        "▁number",
        -10.018547936328078
      ],
      [
        "▁easy",
        -10.018663092955899
      ],
      [
        ".\n\nLater",
        -10.019206140522108
      ],
      [
        "▁Leo",
        -10.019601271758631
      ],
      [
        "▁once",
        -10.022483017265184
      ],
      [
        "▁plants",
        -10.02404807134542
      ],
      [
        "▁treats",
        -10.025313085715723
      ],
      [
        "▁snow.",
        -10.025461318375374
      ],
      [
        "▁asking",
        -10.027265380887858
      ],
      [
        "▁zoom",
        -10.027396827817238
      ],
      [
        "▁bake",
        -10.02834143253035
      ],
      [
        "▁Max's",
        -10.028355269199198
      ],
      [
        "\n\nThen,",
        -10.02871165865727
      ],
      [
        "▁change",
        -10.028972957877293
      ],
      [
        "▁trouble.",
        -10.029068426707614
      ],
      [
        "▁bush.",
        -10.030206727413978
      ],
      [
        "▁live",
        -10.030817915891758
      ],
      [
        "▁bald",
        -10.03171423500851
      ],
      [
        "▁again!",
        -10.03372983659914
      ],
      [
        "▁closer.",
        -10.03514639969983
      ],
      [
        "▁pizza",
        -10.039152839127523
      ],
      [
        "▁kiss",
        -10.039811201510098
      ],
      [
        "▁miss",
        -10.039858733642815
      ],
      [
        "▁replied.",
        -10.042604549306631
      ],
      [
        "▁clean.",
        -10.042894401890887
      ],
      [
        "▁search",
        -10.043859015053878
      ],
      [
        "▁noises.",
        -10.043912893250056
      ],
      [
        "▁dancing",
        -10.044611843064407
      ],
      [
        "▁everywhere.",
        -10.045986606874733
      ],
      [
        "▁music.",
        -10.046787846257944
      ],
      [
        "▁ship",
        -10.047157690374318
      ],
      [
        "▁choose",
        -10.047304073415969
      ],
      [
        "▁amazed.",
        -10.047669712568439
      ],
      [
        "▁thin",
        -10.04865115936225
      ],
      [
        "▁bird,",
        -10.050153303072783
      ],
      [
        "▁empty",
        -10.050319476050026
      ],
      [
        "▁wood",
        -10.052623350224032
      ],
      [
        "▁sandwich",
        -10.053705433730983
      ],
      [
        "▁girl's",
        -10.055162994326036
      ],
      [
        "▁disappointed",
        -10.056403239256932
      ],
      [
        "▁Bobby",
        -10.057330427436447
      ],
      [
        "▁borrow",
        -10.057507651580101
      ],
      [
        "▁mail",
        -10.057993804959931
      ],
      [
        "▁thick",
        -10.058061188901712
      ],
      [
        "▁understand.",
        -10.059098227168029
      ],
      [
        "Together,",
        -10.059394170874121
      ],
      [
        "▁yummy.",
        -10.061714633806208
      ],
      [
        "yes,",
        -10.061771644185121
      ],
      [
        "▁mixed",
        -10.062699580901073
      ],
      [
        ";",
        -10.063535084680023
      ],
      [
        "▁ancient",
        -10.06394713744611
      ],
      [
        "▁scary.",
        -10.064238652261151
      ],
      [
        ".\"\n\nShe",
        -10.06548780313041
      ],
      [
        "▁My",
        -10.0670117476969
      ],
      [
        ".\n\n\"That",
        -10.06738596050593
      ],
      [
        "▁\"Good",
        -10.067516027320808
      ],
      [
        "▁songs",
        -10.068101067959923
      ],
      [
        "▁learning",
        -10.068238267665732
      ],
      [
        "▁out,",
        -10.07088350514282
      ],
      [
        "▁collect",
        -10.071115332105306
      ],
      [
        ".\n\nSam",
        -10.071223036552768
      ],
      [
        "▁wiped",
        -10.071458038435413
      ],
      [
        "▁drawing",
        -10.071923072034137
      ],
      [
        "▁poured",
        -10.072207131680518
      ],
      [
        "▁sugar",
        -10.072720554359044
      ],
      [
        "▁clear",
        -10.07313549973352
      ],
      [
        "▁fluffy",
        -10.073462962806706
      ],
      [
        "▁anymore",
        -10.07412697514471
      ],
      [
        "▁together.\"",
        -10.076220996229324
      ],
      [
        "▁pool",
        -10.076400676493503
      ],
      [
        "▁confused",
        -10.076804126581074
      ],
      [
        "▁card",
        -10.077076015796205
      ],
      [
        "▁lonely.",
        -10.077122009121533
      ],
      [
        "▁belong",
        -10.079783534680889
      ],
      [
        "▁dad,",
        -10.080200730037959
      ],
      [
        "▁fly.",
        -10.080610354104062
      ],
      [
        "▁tape",
        -10.08103153620274
      ],
      [
        "▁unique",
        -10.081073341090326
      ],
      [
        "▁tower.",
        -10.08115836824293
      ],
      [
        "▁juicy",
        -10.081759675151533
      ],
      [
        "▁edge",
        -10.081889713209556
      ],
      [
        "▁scarf",
        -10.082114148822898
      ],
      [
        "▁strange.",
        -10.083931027168136
      ],
      [
        "\n\nJust",
        -10.084453135828827
      ],
      [
        "▁faces.",
        -10.085334960781609
      ],
      [
        "End.",
        -10.08699223056247
      ],
      [
        "▁belonged",
        -10.087010108074283
      ],
      [
        ".\n\nFrom",
        -10.088102161071326
      ],
      [
        "▁slipped",
        -10.088171988679148
      ],
      [
        "▁comfortable",
        -10.08864636102108
      ],
      [
        "▁four",
        -10.09043460006544
      ],
      [
        "▁fat",
        -10.09061734934515
      ],
      [
        "▁me.\"",
        -10.090694020192059
      ],
      [
        "▁smart.",
        -10.091030227443586
      ],
      [
        "▁road",
        -10.09336627775858
      ],
      [
        "▁means",
        -10.093733451767392
      ],
      [
        ".\n\nSoon",
        -10.09435557343271
      ],
      [
        "▁sounded",
        -10.095272866345956
      ],
      [
        "▁yelled",
        -10.09919104898474
      ],
      [
        "▁smelly",
        -10.101128647963334
      ],
      [
        "▁scissors",
        -10.101362412995126
      ],
      [
        "▁rode",
        -10.101577305359214
      ],
      [
        "▁kinds",
        -10.102203276757022
      ],
      [
        "▁scare",
        -10.102992396118145
      ],
      [
        "▁showing",
        -10.103435254852869
      ],
      [
        "▁problem.",
        -10.103581127014987
      ],
      [
        "▁answer",
        -10.104346012576789
      ],
      [
        "▁wanted.",
        -10.105120834899468
      ],
      [
        "▁meadow",
        -10.105672725043682
      ],
      [
        "▁happen",
        -10.106024954441265
      ],
      [
        "▁cross",
        -10.106213586723626
      ],
      [
        "▁selfish",
        -10.108593343533693
      ],
      [
        "▁balance",
        -10.109359148378044
      ],
      [
        "▁TV",
        -10.109808132869807
      ],
      [
        "▁match",
        -10.11085316795195
      ],
      [
        "▁said.\n\nThe",
        -10.111293563625248
      ],
      [
        "▁confused.",
        -10.111788034325398
      ],
      [
        "▁trust",
        -10.11236497768285
      ],
      [
        "▁puzzle",
        -10.112378680680468
      ],
      [
        "▁knows",
        -10.112651137215792
      ],
      [
        "▁done.",
        -10.113561354853957
      ],
      [
        "Whenever",
        -10.11365679169053
      ],
      [
        "▁cool.",
        -10.113773239093566
      ],
      [
        "▁things,",
        -10.114215240522261
      ],
      [
        "▁reminded",
        -10.115388185980045
      ],
      [
        "▁medicine",
        -10.115508882097943
      ],
      [
        "▁fruits",
        -10.116506777128084
      ],
      [
        "▁nose.",
        -10.116603232104556
      ],
      [
        "▁valuable",
        -10.117312077623332
      ],
      [
        "led",
        -10.117503122213115
      ],
      [
        "▁\"Hi",
        -10.117989133045239
      ],
      [
        "▁admired",
        -10.119691361426064
      ],
      [
        "▁kick",
        -10.120396024467814
      ],
      [
        "▁friendly.",
        -10.120566580832458
      ],
      [
        "▁raced",
        -10.121097772079498
      ],
      [
        "▁suggested",
        -10.121228874014358
      ],
      [
        ".\"\n\nHer",
        -10.122434932253574
      ],
      [
        "▁incredible",
        -10.122472266349769
      ],
      [
        "▁eggs",
        -10.12307866321329
      ],
      [
        "▁town.",
        -10.123463998482324
      ],
      [
        "▁embarrassed",
        -10.123698499289718
      ],
      [
        "▁kid",
        -10.123839186068102
      ],
      [
        "▁using",
        -10.124010414997633
      ],
      [
        "▁Kitty",
        -10.124235295884072
      ],
      [
        "▁queen",
        -10.124717038937494
      ],
      [
        "▁race.",
        -10.125874776591576
      ],
      [
        "▁test",
        -10.126188461975339
      ],
      [
        "▁too!\"",
        -10.12715181322593
      ],
      [
        "▁knee",
        -10.128347031660867
      ],
      [
        "▁snacks",
        -10.128723693345757
      ],
      [
        "▁birdie",
        -10.129186661104296
      ],
      [
        "▁bedroom",
        -10.129617249308382
      ],
      [
        "▁explored",
        -10.130249608283687
      ],
      [
        "▁tough",
        -10.131766363449556
      ],
      [
        "▁stumbled",
        -10.131812391580008
      ],
      [
        "▁noisy",
        -10.131826314035516
      ],
      [
        "▁Mark",
        -10.132107047220703
      ],
      [
        "▁branch.",
        -10.13215017590935
      ],
      [
        "he'd",
        -10.132567308646905
      ],
      [
        "▁answer.",
        -10.133710616119432
      ],
      [
        "▁present",
        -10.133769775685789
      ],
      [
        "▁shell",
        -10.135500691685497
      ],
      [
        "▁vase",
        -10.13598393017917
      ],
      [
        "▁chicken",
        -10.136290579691973
      ],
      [
        "▁chose",
        -10.138073898105821
      ],
      [
        "▁dolls.",
        -10.138171696131563
      ],
      [
        "▁moving",
        -10.138848169788947
      ],
      [
        "▁quiet.",
        -10.138981842146771
      ],
      [
        "▁kicked",
        -10.139229274971868
      ],
      [
        "▁cave.",
        -10.139776244941254
      ],
      [
        "▁handed",
        -10.139828110173163
      ],
      [
        "▁bridge",
        -10.140500451588492
      ],
      [
        "▁games.",
        -10.141331882856853
      ],
      [
        "▁tiger",
        -10.141482225588176
      ],
      [
        "▁notice",
        -10.142308203430721
      ],
      [
        "▁rocket",
        -10.142669582097998
      ],
      [
        "▁Rex",
        -10.144231264481336
      ],
      [
        "▁Susie",
        -10.144862740032858
      ],
      [
        "▁spend",
        -10.145468386545701
      ],
      [
        "▁weird",
        -10.146151778308196
      ],
      [
        "▁distance.",
        -10.146504677975484
      ],
      [
        "\"Hi,",
        -10.147905078220901
      ],
      [
        "▁gate",
        -10.148152772331876
      ],
      [
        "▁upset.",
        -10.149113092148761
      ],
      [
        "▁\"Please",
        -10.149505874555285
      ],
      [
        "▁counted",
        -10.149537953138756
      ],
      [
        "▁finding",
        -10.149914652014887
      ],
      [
        "▁step",
        -10.150412686026904
      ],
      [
        "▁loud.",
        -10.150453573209038
      ],
      [
        "▁difficult",
        -10.151273441800178
      ],
      [
        "▁joined",
        -10.152254113185519
      ],
      [
        "▁tears",
        -10.153033486822348
      ],
      [
        "▁bath",
        -10.153158957652414
      ],
      [
        "▁shone",
        -10.154182042640853
      ],
      [
        "▁solve",
        -10.156017814987733
      ],
      [
        "▁everyone.",
        -10.156196541287898
      ],
      [
        "▁say.",
        -10.156580491373596
      ],
      [
        "Soon",
        -10.157140462727442
      ],
      [
        "▁picture.",
        -10.157681042740458
      ],
      [
        "▁crayons.",
        -10.158023207138152
      ],
      [
        "▁jungle",
        -10.15819649284412
      ],
      [
        "▁away.\n\nThe",
        -10.158348981258253
      ],
      [
        "▁knight",
        -10.160482929647241
      ],
      [
        "▁mouse.",
        -10.160680345365662
      ],
      [
        "▁Benny.",
        -10.162156907904237
      ],
      [
        "▁picking",
        -10.163151762514756
      ],
      [
        "▁dance.",
        -10.163185913368675
      ],
      [
        "▁\"Where",
        -10.163659414752345
      ],
      [
        "▁light.",
        -10.16405266487645
      ],
      [
        "▁frustrated",
        -10.164970737252123
      ],
      [
        "▁Anna's",
        -10.165079002654378
      ],
      [
        "▁please!\"",
        -10.165195702896915
      ],
      [
        "▁turtle",
        -10.166678551516663
      ],
      [
        "▁doesn't",
        -10.166687469524296
      ],
      [
        "▁wonder",
        -10.166999585748389
      ],
      [
        "▁vegetables",
        -10.167136934983153
      ],
      [
        "▁painted",
        -10.168115299763171
      ],
      [
        "▁messy",
        -10.168250867826552
      ],
      [
        "!\"\n\nBut",
        -10.168916217876703
      ],
      [
        "▁bottom",
        -10.171353195905056
      ],
      [
        "▁delicate",
        -10.172299468793321
      ],
      [
        "▁built",
        -10.172958682104353
      ],
      [
        "Your",
        -10.17331296396018
      ],
      [
        "▁cheerful",
        -10.173706066092471
      ],
      [
        "▁nosy",
        -10.174145825591715
      ],
      [
        "▁falls",
        -10.17438124421373
      ],
      [
        "▁clown",
        -10.174457783789789
      ],
      [
        "▁ring",
        -10.175206120103823
      ],
      [
        "▁mad.",
        -10.17669414758201
      ],
      [
        "▁brilliant",
        -10.17710828335372
      ],
      [
        "▁adventurous",
        -10.179497729367652
      ],
      [
        "▁icy",
        -10.180577060920534
      ],
      [
        "▁unusual",
        -10.180716874753319
      ],
      [
        "▁Mummy",
        -10.180752563192119
      ],
      [
        ".\n\nSo",
        -10.181951560829184
      ],
      [
        "▁leaving",
        -10.184723378854754
      ],
      [
        "▁Lily!",
        -10.184880168218395
      ],
      [
        "▁funny.",
        -10.185332267093182
      ],
      [
        ".\"\n\nTim",
        -10.185723549747552
      ],
      [
        "▁butter",
        -10.187236168191696
      ],
      [
        "▁telling",
        -10.187579374939746
      ],
      [
        "▁rushed",
        -10.187833103571279
      ],
      [
        "\n\nLucy",
        -10.188183192032065
      ],
      [
        "▁fierce",
        -10.188185410318411
      ],
      [
        "▁brother.",
        -10.188276924324937
      ],
      [
        "▁care.",
        -10.189353775328215
      ],
      [
        "▁enormous",
        -10.189876726431295
      ],
      [
        "▁okay?\"",
        -10.190845176528455
      ],
      [
        "▁whale",
        -10.194027763488206
      ],
      [
        "▁Blue",
        -10.194625006338198
      ],
      [
        "▁side.",
        -10.19566356255605
      ],
      [
        "▁sighed",
        -10.196088369455529
      ],
      [
        "▁tightly",
        -10.196301318377062
      ],
      [
        "▁shapes.",
        -10.197514091217078
      ],
      [
        "▁\"Hello",
        -10.197820834043666
      ],
      [
        "▁net",
        -10.19798815671408
      ],
      [
        "▁stones",
        -10.198718472260653
      ],
      [
        "▁swings.",
        -10.20065606763995
      ],
      [
        "▁those",
        -10.201491845384002
      ],
      [
        "▁bird's",
        -10.201962847536056
      ],
      [
        "▁allowed",
        -10.203006081448434
      ],
      [
        "▁heavy.",
        -10.203371484303558
      ],
      [
        "er",
        -10.205068788603246
      ],
      [
        "▁spinning",
        -10.205199999688341
      ],
      [
        "▁ruined",
        -10.205647157440811
      ],
      [
        "▁job.",
        -10.205932056501117
      ],
      [
        "▁chest",
        -10.205958468819732
      ],
      [
        "▁different.",
        -10.205961958779746
      ],
      [
        "▁add",
        -10.206047269042443
      ],
      [
        "▁shelf",
        -10.20673463678236
      ],
      [
        "▁shelf.",
        -10.208074541599323
      ],
      [
        "▁important.",
        -10.208458032764497
      ],
      [
        "▁mountain",
        -10.208639599956253
      ],
      [
        "▁Tweety",
        -10.208667092315226
      ],
      [
        "▁holds",
        -10.208874581418385
      ],
      [
        "▁nervous",
        -10.209237012839633
      ],
      [
        "▁Pete",
        -10.210732960073258
      ],
      [
        "▁balloon.",
        -10.211025227555186
      ],
      [
        "▁silly.",
        -10.211928348547266
      ],
      [
        "▁ever!",
        -10.212275429409303
      ],
      [
        "▁create",
        -10.21267150426489
      ],
      [
        "▁pain",
        -10.212746456281677
      ],
      [
        "▁jolly",
        -10.214548176849032
      ],
      [
        "▁heart.",
        -10.215172745519165
      ],
      [
        "\n",
        -10.217213029162398
      ],
      [
        "▁expensive",
        -10.21875133296068
      ],
      [
        "▁nest.",
        -10.21878134091519
      ],
      [
        "▁hairy",
        -10.219538037701264
      ],
      [
        "▁body",
        -10.220234817126059
      ],
      [
        "▁cleaning",
        -10.221382533069335
      ],
      [
        "▁snack.",
        -10.2215746991444
      ],
      [
        "▁normal",
        -10.224237974169892
      ],
      [
        "▁sleepy",
        -10.224640465972985
      ],
      [
        "▁modern",
        -10.224723890455643
      ],
      [
        "▁instead.",
        -10.224726027029623
      ],
      [
        "▁faces",
        -10.224975370116573
      ],
      [
        "▁word",
        -10.225065762014637
      ],
      [
        ".\n\nMax",
        -10.22528133756984
      ],
      [
        "▁life.",
        -10.225908694526213
      ],
      [
        "▁tied",
        -10.22618879258719
      ],
      [
        "▁stories.",
        -10.22739614610537
      ],
      [
        "▁no!\"",
        -10.227477449202528
      ],
      [
        "▁lamp",
        -10.227611598740616
      ],
      [
        "▁map",
        -10.227840348560969
      ],
      [
        ".\n\nJohn",
        -10.227875789778896
      ],
      [
        "▁smiling.",
        -10.228544935092183
      ],
      [
        "▁birthday.",
        -10.229105831871907
      ],
      [
        "▁hats",
        -10.230413216810726
      ],
      [
        "▁crown",
        -10.230756829237308
      ],
      [
        "▁carrying",
        -10.231894074931715
      ],
      [
        "▁sister.",
        -10.231967962340528
      ],
      [
        "▁thinking",
        -10.232752004776756
      ],
      [
        "▁original",
        -10.232881341153622
      ],
      [
        ".\n\n\"Maybe",
        -10.234054081814522
      ],
      [
        "▁ashamed.",
        -10.234549480718002
      ],
      [
        "▁circle",
        -10.235084881052662
      ],
      [
        "Whil",
        -10.236238182345225
      ],
      [
        "▁washed",
        -10.236408240980042
      ],
      [
        "▁while.",
        -10.23642265982096
      ],
      [
        "▁rubbed",
        -10.236615985347274
      ],
      [
        "▁treat.",
        -10.237178878992207
      ],
      [
        "▁practice",
        -10.239805419170438
      ],
      [
        "▁soap",
        -10.239933327965003
      ],
      [
        "▁bunny.",
        -10.240368933882065
      ],
      [
        "▁bone",
        -10.240607064496764
      ],
      [
        "▁bowl.",
        -10.241132085733444
      ],
      [
        "▁hospital",
        -10.242213592695643
      ],
      [
        "▁spilled",
        -10.242688256808488
      ],
      [
        "▁sudden",
        -10.242874267318179
      ],
      [
        "▁print",
        -10.243582775432136
      ],
      [
        "▁searching",
        -10.24427576693581
      ],
      [
        "▁Ellie",
        -10.244326988209037
      ],
      [
        "▁asleep.",
        -10.24474810812913
      ],
      [
        "▁today.",
        -10.245242255945971
      ],
      [
        "▁rough",
        -10.246041623256481
      ],
      [
        "▁blanket.",
        -10.246397504279571
      ],
      [
        "▁mine",
        -10.24705857645702
      ],
      [
        "▁spray",
        -10.247323920381177
      ],
      [
        "▁treasure.",
        -10.248930734468878
      ],
      [
        "▁proudly",
        -10.249375487321329
      ],
      [
        "▁bossy",
        -10.24973230369483
      ],
      [
        "▁honey.",
        -10.250821770186416
      ],
      [
        "▁fight.",
        -10.251229279814629
      ],
      [
        "▁Sam's",
        -10.252382956039684
      ],
      [
        "▁dreaming",
        -10.252858445535951
      ],
      [
        "▁To",
        -10.252922239585981
      ],
      [
        "▁story.",
        -10.253980288478648
      ],
      [
        "▁hang",
        -10.254465263138737
      ],
      [
        "▁wrap",
        -10.254870784747498
      ],
      [
        "▁Sam,",
        -10.256940890759822
      ],
      [
        "▁swan",
        -10.258037527611775
      ],
      [
        "▁driving",
        -10.258416179858216
      ],
      [
        "▁seek",
        -10.25850316364226
      ],
      [
        "▁ocean.",
        -10.258655147809325
      ],
      [
        "▁wheel",
        -10.259140131494867
      ],
      [
        "▁regular",
        -10.260430986591594
      ],
      [
        "▁peeked",
        -10.260829565562863
      ],
      [
        ".\n\nHis",
        -10.26140920338931
      ],
      [
        "▁mine!\"",
        -10.261473520692581
      ],
      [
        "▁journey.",
        -10.263400503211324
      ],
      [
        "▁Alice",
        -10.264098803627935
      ],
      [
        "▁go!\"",
        -10.264865269828839
      ],
      [
        "▁finger",
        -10.265550374755495
      ],
      [
        "▁yourself",
        -10.26642016567828
      ],
      [
        "\n\nSam",
        -10.267478194870112
      ],
      [
        "▁knife",
        -10.268804378533432
      ],
      [
        "▁aunt",
        -10.268908462431448
      ],
      [
        "▁ones",
        -10.269024087223016
      ],
      [
        "▁happily.",
        -10.269586500817672
      ],
      [
        "▁wealthy",
        -10.271446885451859
      ],
      [
        "▁lion.",
        -10.2722000772559
      ],
      [
        "▁flag",
        -10.273060453726263
      ],
      [
        "▁unknown",
        -10.27385616205226
      ],
      [
        "▁dinosaur",
        -10.275979131679447
      ],
      [
        "▁gift.",
        -10.276410768381474
      ],
      [
        "▁clap",
        -10.278792914767552
      ],
      [
        "▁opens",
        -10.279269032211992
      ],
      [
        "▁Mrs.",
        -10.279304569289188
      ],
      [
        "▁towel",
        -10.279370636845664
      ],
      [
        "▁placed",
        -10.279983890391541
      ],
      [
        ".\n\nMia",
        -10.281121316117492
      ],
      [
        "▁biggest",
        -10.281328080034527
      ],
      [
        "▁feathers",
        -10.281447828290418
      ],
      [
        "▁places.",
        -10.281599345629965
      ],
      [
        "▁see.",
        -10.281621820191829
      ],
      [
        "▁juice.",
        -10.28312645716362
      ],
      [
        "▁lady.",
        -10.28360763839646
      ],
      [
        "▁no!",
        -10.28362670919551
      ],
      [
        "▁mirror",
        -10.28477460810993
      ],
      [
        "▁organized",
        -10.284861076435028
      ],
      [
        "▁bounce",
        -10.285284317551342
      ],
      [
        "▁wand",
        -10.285503549996315
      ],
      [
        "▁trouble",
        -10.286072076797739
      ],
      [
        "▁board",
        -10.286425435185125
      ],
      [
        "▁tag",
        -10.287332588846642
      ],
      [
        "▁mistake.",
        -10.287785518406976
      ],
      [
        "▁nods.",
        -10.287898167697286
      ],
      [
        "▁goat",
        -10.290053149589976
      ],
      [
        "▁dependable",
        -10.290419451607054
      ],
      [
        "▁balls",
        -10.290756351474146
      ],
      [
        "▁cage",
        -10.290807338042917
      ],
      [
        "▁rose",
        -10.291217243798716
      ],
      [
        "▁pass",
        -10.291711839611079
      ],
      [
        "▁dogs",
        -10.292486469548107
      ],
      [
        "▁gun",
        -10.293021263109434
      ],
      [
        "▁above",
        -10.293471236167305
      ],
      [
        "▁pillow",
        -10.295206841715624
      ],
      [
        "▁closet",
        -10.295238763381484
      ],
      [
        "▁act",
        -10.295701433290402
      ],
      [
        "▁eye",
        -10.295799510311767
      ],
      [
        "▁coins",
        -10.29625706444633
      ],
      [
        "▁it,\"",
        -10.296564112245685
      ],
      [
        "▁knee.",
        -10.297179700437816
      ],
      [
        "▁impressed",
        -10.297259941597568
      ],
      [
        "▁sparkled",
        -10.298171290128362
      ],
      [
        "▁bent",
        -10.298866194634039
      ],
      [
        "▁problem",
        -10.298875081262697
      ],
      [
        "▁tent",
        -10.299695875274676
      ],
      [
        "▁warned",
        -10.300832632400134
      ],
      [
        "▁shake",
        -10.301443055834957
      ],
      [
        "▁Bobo",
        -10.301633489409548
      ],
      [
        "\n\nSarah",
        -10.302840492815204
      ],
      [
        "▁milk.",
        -10.306209382699855
      ],
      [
        "▁painting",
        -10.30646586877245
      ],
      [
        "▁dove",
        -10.307498043889249
      ],
      [
        "▁smaller",
        -10.30767619003107
      ],
      [
        "▁suddenly,",
        -10.30854661370555
      ],
      [
        "▁parents.",
        -10.308700152270479
      ],
      [
        "▁hose",
        -10.309221624993716
      ],
      [
        "▁weak",
        -10.309865581121866
      ],
      [
        "?\"\n\nTom",
        -10.31017992579076
      ],
      [
        "▁Nemo",
        -10.310282202532242
      ],
      [
        "▁too!",
        -10.3112581554776
      ],
      [
        "▁nearby.",
        -10.31189133954677
      ],
      [
        "▁small,",
        -10.312178922143758
      ],
      [
        "?\"\n\nBen",
        -10.312557426922359
      ],
      [
        "▁slid",
        -10.313345936041944
      ],
      [
        "▁jealous",
        -10.314184256727668
      ],
      [
        "▁roar",
        -10.314897206320024
      ],
      [
        "▁metal",
        -10.315077734472755
      ],
      [
        "▁snuggled",
        -10.315255565798997
      ],
      [
        "▁frog.",
        -10.315320915841564
      ],
      [
        "▁smoke",
        -10.315782475884944
      ],
      [
        "▁Fred",
        -10.316530965304445
      ],
      [
        "▁hot.",
        -10.317042196815516
      ],
      [
        "▁boys",
        -10.317187506791784
      ],
      [
        "▁here?\"",
        -10.317793813467382
      ],
      [
        "▁chasing",
        -10.318269087216262
      ],
      [
        "▁soup.",
        -10.318815851978723
      ],
      [
        "▁this?\"",
        -10.319313494229316
      ],
      [
        "\n\n\"I",
        -10.319801486730722
      ],
      [
        "▁seen.",
        -10.321589836617628
      ],
      [
        "▁stopped.",
        -10.321983895799184
      ],
      [
        "▁Ella",
        -10.322164083596547
      ],
      [
        ".\n\n\"Oh",
        -10.322542952836997
      ],
      [
        "▁walls",
        -10.323874924939176
      ],
      [
        "▁teeth.",
        -10.324930330121626
      ],
      [
        "▁witch",
        -10.325967334109954
      ],
      [
        "▁dream.",
        -10.32601233313723
      ],
      [
        "p",
        -10.326343529583228
      ],
      [
        "▁movie",
        -10.32656826539349
      ],
      [
        ".\"\n\nSam",
        -10.327062238157357
      ],
      [
        "▁playful",
        -10.32729968849625
      ],
      [
        "▁best.",
        -10.330860925804103
      ],
      [
        "Give",
        -10.331087182882422
      ],
      [
        "▁jog",
        -10.332289290952547
      ],
      [
        "▁tummy",
        -10.33253687584435
      ],
      [
        "▁went.",
        -10.332847907680481
      ],
      [
        "\n\nBob",
        -10.33338814590852
      ],
      [
        "▁Bella",
        -10.334072480709514
      ],
      [
        "▁saying",
        -10.334418929049422
      ],
      [
        "▁lost.",
        -10.335043168080935
      ],
      [
        "▁asks.",
        -10.335389315748664
      ],
      [
        "▁banana",
        -10.33672575430054
      ],
      [
        "▁Rose",
        -10.337316504207818
      ],
      [
        "▁joke",
        -10.337338399734373
      ],
      [
        "▁shoes.",
        -10.33764373385106
      ],
      [
        "▁Sally.",
        -10.34009869126681
      ],
      [
        "▁gold",
        -10.34034480352453
      ],
      [
        "▁imagined",
        -10.341373966330504
      ],
      [
        "▁please?\"",
        -10.342779302366148
      ],
      [
        ".\n\nJack",
        -10.3453334300278
      ],
      [
        "▁hung",
        -10.345780885570138
      ],
      [
        "▁rat",
        -10.345968609031134
      ],
      [
        "▁train.",
        -10.347233626535676
      ],
      [
        "▁graceful",
        -10.347592923677096
      ],
      [
        "▁reading",
        -10.347859875381767
      ],
      [
        "▁wagon",
        -10.347968555154585
      ],
      [
        "▁arm.",
        -10.348438390023354
      ],
      [
        "▁not.",
        -10.349276673195815
      ],
      [
        "▁leg",
        -10.350450347945735
      ],
      [
        "▁open.",
        -10.352666471962714
      ],
      [
        "▁dug",
        -10.353145727760866
      ],
      [
        "▁buttons",
        -10.353335558085975
      ],
      [
        "▁sell",
        -10.35346919325834
      ],
      [
        "▁zip",
        -10.355185089219374
      ],
      [
        "▁log",
        -10.355274860424114
      ],
      [
        "▁Daisy.",
        -10.35600902434947
      ],
      [
        "▁soon,",
        -10.356046899980782
      ],
      [
        "▁harder",
        -10.356319333792683
      ],
      [
        "▁songs.",
        -10.356740348869405
      ],
      [
        "▁pour",
        -10.357155966367406
      ],
      [
        "▁fine",
        -10.358249412102506
      ],
      [
        "▁past",
        -10.358482230088123
      ],
      [
        "▁Joe.",
        -10.360065895214142
      ],
      [
        "▁fresh",
        -10.360325407571203
      ],
      [
        "▁Ducky",
        -10.360672189430339
      ],
      [
        "▁bored",
        -10.36070680551422
      ],
      [
        "▁thoughtful",
        -10.361019597122406
      ],
      [
        "▁drop",
        -10.361348366313894
      ],
      [
        "▁boring",
        -10.362255113486036
      ],
      [
        "\n\nMom",
        -10.36256657349344
      ],
      [
        "▁spoke",
        -10.362984741125024
      ],
      [
        "▁bags",
        -10.363779857593256
      ],
      [
        "▁bored.",
        -10.364398569126518
      ],
      [
        "▁houses",
        -10.365412618767154
      ],
      [
        "▁stubborn",
        -10.365717371052131
      ],
      [
        "▁twirled",
        -10.365959911749254
      ],
      [
        "▁name.",
        -10.36616489953474
      ],
      [
        ".\n\nLila",
        -10.366341885073762
      ],
      [
        "▁jungle.",
        -10.367776205789768
      ],
      [
        "▁lead",
        -10.367907911260833
      ],
      [
        "▁basket.",
        -10.368607783421211
      ],
      [
        "▁reliable",
        -10.370290321729426
      ],
      [
        "▁friend's",
        -10.371271376021022
      ],
      [
        "▁worry.",
        -10.371281011691305
      ],
      [
        "▁shoot",
        -10.371632100495146
      ],
      [
        "▁\"Be",
        -10.372158512664695
      ],
      [
        "▁market",
        -10.373453132151079
      ],
      [
        "▁boxes",
        -10.373679183764807
      ],
      [
        "▁sword",
        -10.373820142395997
      ],
      [
        "▁Today",
        -10.374583875628069
      ],
      [
        "▁Mandy",
        -10.37461047554278
      ],
      [
        "▁\"Yes",
        -10.374822424749611
      ],
      [
        "▁humble",
        -10.375032334335177
      ],
      [
        "▁nobody",
        -10.375232496709822
      ],
      [
        "▁older",
        -10.37559422071905
      ],
      [
        "gave",
        -10.375925332644714
      ],
      [
        "▁brightly",
        -10.37631445825578
      ],
      [
        "▁ordinary",
        -10.377115371669737
      ],
      [
        "▁pale",
        -10.377306648125993
      ],
      [
        "▁pretending",
        -10.37770740996645
      ],
      [
        "▁frightened",
        -10.37805335067015
      ],
      [
        "▁bubbles",
        -10.378485535286433
      ],
      [
        "▁mark",
        -10.378745025200297
      ],
      [
        "▁angel",
        -10.379204597713697
      ],
      [
        "▁wings.",
        -10.379645413312213
      ],
      [
        "▁spoiled",
        -10.380238870192807
      ],
      [
        "▁obedient",
        -10.380974310183023
      ],
      [
        "▁practiced",
        -10.382122830477257
      ],
      [
        "▁parrot",
        -10.38213953450716
      ],
      [
        "▁team",
        -10.382228177829859
      ],
      [
        "▁too.\"",
        -10.382819001225569
      ],
      [
        "▁pie",
        -10.382855292410802
      ],
      [
        "▁patch",
        -10.3830483455449
      ],
      [
        "▁power",
        -10.38436401910402
      ],
      [
        "▁clumsy",
        -10.384557614801668
      ],
      [
        "▁pirate",
        -10.384693086080661
      ],
      [
        "▁rocks.",
        -10.384742472147433
      ],
      [
        "▁chair.",
        -10.385030659703718
      ],
      [
        "▁cries",
        -10.386728464007899
      ],
      [
        "▁pool.",
        -10.386945046564966
      ],
      [
        "▁bounced",
        -10.387069883952806
      ],
      [
        "▁fragile",
        -10.387199777674907
      ],
      [
        "▁drum",
        -10.387295987589262
      ],
      [
        "▁paint.",
        -10.38764975066568
      ],
      [
        "▁dolphin",
        -10.388359328430438
      ],
      [
        "▁dough",
        -10.38862300004279
      ],
      [
        "▁terrible",
        -10.389178582273662
      ],
      [
        "▁balloons",
        -10.389307089110215
      ],
      [
        "▁ashamed",
        -10.390080402953188
      ],
      [
        "▁found.",
        -10.390887331245892
      ],
      [
        "▁shore.",
        -10.391037701876883
      ],
      [
        "▁chew",
        -10.391110814705998
      ],
      [
        "▁tools",
        -10.391644915060338
      ],
      [
        "▁Amy.",
        -10.391664115625817
      ],
      [
        "▁barber",
        -10.392355689171971
      ],
      [
        "▁bite.",
        -10.392531662856415
      ],
      [
        "▁seem",
        -10.392560573317338
      ],
      [
        "▁march",
        -10.393037994138483
      ],
      [
        "▁cover",
        -10.395548229096294
      ],
      [
        "▁egg",
        -10.396757487808133
      ],
      [
        "▁love.",
        -10.396851762309513
      ],
      [
        "▁carefully.",
        -10.39710970912829
      ],
      [
        "▁foot",
        -10.398325736218586
      ],
      [
        "▁bathroom",
        -10.398508751312898
      ],
      [
        "▁puppy.",
        -10.398750119767746
      ],
      [
        "▁berries",
        -10.399361273287218
      ],
      [
        "▁shape",
        -10.399441930490031
      ],
      [
        "▁Are",
        -10.39999543558178
      ],
      [
        "▁nod.",
        -10.400980975974075
      ],
      [
        "▁goose",
        -10.40140930804171
      ],
      [
        "\n\nIt",
        -10.40194190357969
      ],
      [
        "▁useful",
        -10.402059855865172
      ],
      [
        "▁may",
        -10.402695852139566
      ],
      [
        "▁bees",
        -10.402816431101407
      ],
      [
        "▁clock",
        -10.403288611562704
      ],
      [
        "▁chubby",
        -10.403393578841449
      ],
      [
        "▁sing.",
        -10.40465037954564
      ],
      [
        "▁questions",
        -10.404855530007834
      ],
      [
        "▁pressed",
        -10.405307305401783
      ],
      [
        "▁paw",
        -10.405847930143045
      ],
      [
        ".\"\n\nSo",
        -10.406594434562493
      ],
      [
        "\nOne",
        -10.407088721677544
      ],
      [
        "▁successful",
        -10.40767885760324
      ],
      [
        "▁sweet.",
        -10.40793219294535
      ],
      [
        "▁pen",
        -10.408330467012519
      ],
      [
        "▁tightly.",
        -10.408976772741756
      ],
      [
        "▁free.",
        -10.40937817822705
      ],
      [
        "▁Max,",
        -10.409904223860917
      ],
      [
        "\"Are",
        -10.410231092090896
      ],
      [
        "▁stirred",
        -10.410349808974626
      ],
      [
        "▁foolish",
        -10.411334293211779
      ],
      [
        "▁pack",
        -10.41140546230171
      ],
      [
        "▁dad's",
        -10.411890981872805
      ],
      [
        "▁kindness",
        -10.411913686008011
      ],
      [
        ".\"\n\nTimmy",
        -10.412025475201817
      ],
      [
        "b",
        -10.412347466005548
      ],
      [
        "▁value",
        -10.412556564238457
      ],
      [
        "▁less",
        -10.412564230448684
      ],
      [
        "▁hammer",
        -10.412592720759083
      ],
      [
        "▁changed",
        -10.41333224959449
      ],
      [
        "▁stretched",
        -10.413628259902675
      ],
      [
        "▁sleeping",
        -10.414512030956738
      ],
      [
        "▁Grandpa",
        -10.41485922675285
      ],
      [
        "▁small.",
        -10.41500019579601
      ],
      [
        "▁popular",
        -10.415478658284723
      ],
      [
        "▁selfish.",
        -10.415854703744426
      ],
      [
        "▁blow",
        -10.417166017282186
      ],
      [
        "▁late",
        -10.417274050649352
      ],
      [
        "▁shore",
        -10.41757212216168
      ],
      [
        "▁clay",
        -10.417875623711268
      ],
      [
        "▁circles",
        -10.417944702938094
      ],
      [
        "▁trunk",
        -10.418220860202453
      ],
      [
        "▁charming",
        -10.41857091813004
      ],
      [
        "▁louder",
        -10.4188080111976
      ],
      [
        "▁lights",
        -10.419206703601732
      ],
      [
        "Would",
        -10.419603403450772
      ],
      [
        "▁shark",
        -10.419878822276912
      ],
      [
        "▁Bear",
        -10.420394228432176
      ],
      [
        "▁gifted",
        -10.421687723085807
      ],
      [
        "▁pumpkin",
        -10.421965824519841
      ],
      [
        "▁shop.",
        -10.42298066385537
      ],
      [
        "▁happen.",
        -10.42326385920302
      ],
      [
        "▁stranger",
        -10.423661248491824
      ],
      [
        "▁growing",
        -10.423874318851443
      ],
      [
        "▁jumps",
        -10.424055217583726
      ],
      [
        "▁delicious.",
        -10.425003636156934
      ],
      [
        "▁couch.",
        -10.425234001895284
      ],
      [
        "▁dull",
        -10.425285748182393
      ],
      [
        "Where",
        -10.425714645465915
      ],
      [
        "▁ingredients",
        -10.425760435460962
      ],
      [
        "▁guitar",
        -10.426515652797761
      ],
      [
        "▁do?\"",
        -10.429122834194143
      ],
      [
        "▁close.",
        -10.429156319434814
      ],
      [
        "▁Jack's",
        -10.430087771623215
      ],
      [
        "▁day!",
        -10.430219873707701
      ],
      [
        "▁rude.",
        -10.431683612567657
      ],
      [
        "▁counting",
        -10.432879164347654
      ],
      [
        "▁delighted",
        -10.433759592446071
      ],
      [
        "▁spot.",
        -10.435066974375626
      ],
      [
        "▁barn",
        -10.435395598048855
      ],
      [
        "▁nods",
        -10.43724070015413
      ],
      [
        "▁oven.",
        -10.438938576873452
      ],
      [
        "▁crayon",
        -10.439158714542916
      ],
      [
        "▁laughing.",
        -10.439704275859865
      ],
      [
        "▁playground",
        -10.44055382939764
      ],
      [
        "▁quite",
        -10.442643948441736
      ],
      [
        "▁lively",
        -10.442854619622368
      ],
      [
        "▁toast",
        -10.443191968947142
      ],
      [
        "!\"\n\nTom",
        -10.443279792261162
      ],
      [
        "▁said.\n\n",
        -10.444486849378633
      ],
      [
        "▁Kim",
        -10.444848144334642
      ],
      [
        "▁independent",
        -10.44551342355895
      ],
      [
        "▁decorate",
        -10.446109301095795
      ],
      [
        ".\n\n\"Ben,",
        -10.446206915254985
      ],
      [
        "▁Toby",
        -10.446400774303287
      ],
      [
        ".\n\n\"Tom,",
        -10.447384024047482
      ],
      [
        "▁mole",
        -10.447416662831843
      ],
      [
        "▁guard",
        -10.448120650729889
      ],
      [
        ".\n\n\"OK,",
        -10.448681924490037
      ],
      [
        "▁ready.",
        -10.449439213609136
      ],
      [
        "▁dirt.",
        -10.45062601678636
      ],
      [
        "▁Let",
        -10.451867470633793
      ],
      [
        "▁Dave",
        -10.452579237381226
      ],
      [
        "▁branches",
        -10.453276293049822
      ],
      [
        "▁cheap",
        -10.453725291260607
      ],
      [
        "▁boats",
        -10.453886235540583
      ],
      [
        "▁flour",
        -10.454087839578836
      ],
      [
        "▁admire",
        -10.454486241071086
      ],
      [
        "▁run.",
        -10.454540659922177
      ],
      [
        "▁hurts",
        -10.456483491637565
      ],
      [
        "▁space",
        -10.456654399514104
      ],
      [
        "▁now.\"",
        -10.458770328098653
      ],
      [
        "▁sweetie.",
        -10.45942961887738
      ],
      [
        "▁tripped",
        -10.459574756079805
      ],
      [
        "▁escape",
        -10.460081693241564
      ],
      [
        "▁coming.",
        -10.460855039061403
      ],
      [
        "▁flexible",
        -10.46138653662321
      ],
      [
        "▁stars.",
        -10.462977307428785
      ],
      [
        "▁crazy",
        -10.46400389381282
      ],
      [
        "▁\"How",
        -10.464724748633682
      ],
      [
        "▁Everything",
        -10.464747551198094
      ],
      [
        "▁early",
        -10.467409811587482
      ],
      [
        "▁shut",
        -10.46779553475599
      ],
      [
        "▁pan",
        -10.46788682084482
      ],
      [
        "▁came.",
        -10.46819719197423
      ],
      [
        "▁you!",
        -10.46843183397592
      ],
      [
        "▁baby.",
        -10.468648279714555
      ],
      [
        "▁excitement.",
        -10.468870183577815
      ],
      [
        "▁starts",
        -10.468900260799973
      ],
      [
        "▁paid",
        -10.469117605339253
      ],
      [
        "▁rub",
        -10.469470066381765
      ],
      [
        "▁whispered",
        -10.475187233899799
      ],
      [
        "▁towers",
        -10.47703616016456
      ],
      [
        "▁George",
        -10.477084150486753
      ],
      [
        "▁Sara's",
        -10.477092405189536
      ],
      [
        "▁sent",
        -10.47757617738657
      ],
      [
        "▁shells",
        -10.47798248876527
      ],
      [
        "▁Joey",
        -10.478456707297346
      ],
      [
        "▁relieved.",
        -10.478483265229777
      ],
      [
        "▁starting",
        -10.478522353732311
      ],
      [
        "\n\nMolly",
        -10.480223636360119
      ],
      [
        "▁stops",
        -10.480728618161008
      ],
      [
        "▁hospital.",
        -10.48179636714851
      ],
      [
        "▁cooking",
        -10.483118700771472
      ],
      [
        "▁lemon",
        -10.484060327447674
      ],
      [
        ".\n\nJust",
        -10.484565654032208
      ],
      [
        "▁together!\"",
        -10.48463534742896
      ],
      [
        "▁sadly",
        -10.485624598068505
      ],
      [
        "▁Bill",
        -10.486233303185996
      ],
      [
        "▁serious",
        -10.486613346917396
      ],
      [
        "▁zoo.",
        -10.4867393581113
      ],
      [
        "▁hunter",
        -10.4869162733941
      ],
      [
        "▁uncle",
        -10.487379579471442
      ],
      [
        "▁hello.",
        -10.487400541582897
      ],
      [
        "▁grandpa",
        -10.488810932853484
      ],
      [
        "▁duck.",
        -10.489093847844803
      ],
      [
        "▁cooked",
        -10.4894575439386
      ],
      [
        "▁island",
        -10.489858860917927
      ],
      [
        "▁safely",
        -10.490276054849527
      ],
      [
        "▁mine.",
        -10.491463710591397
      ],
      [
        "▁name?\"",
        -10.491922022626053
      ],
      [
        "▁dead",
        -10.492001587760885
      ],
      [
        "▁dragon.",
        -10.492523972969618
      ],
      [
        "▁stared",
        -10.493157216753035
      ],
      [
        "▁John.",
        -10.493701302573827
      ],
      [
        "▁crane",
        -10.493831535254753
      ],
      [
        "▁design",
        -10.493918683751588
      ],
      [
        "▁raven",
        -10.494353998450993
      ],
      [
        "▁order",
        -10.494748489307694
      ],
      [
        "▁bandage",
        -10.49483858612825
      ],
      [
        "▁stir",
        -10.495019842743307
      ],
      [
        "▁nurse",
        -10.496318727371381
      ],
      [
        "▁ears",
        -10.496514720633732
      ],
      [
        "▁Be",
        -10.497377714614638
      ],
      [
        "▁given",
        -10.497378160728356
      ],
      [
        "▁sauce",
        -10.49739267044414
      ],
      [
        "▁fridge",
        -10.497497446485603
      ],
      [
        "▁guess",
        -10.497695503677834
      ],
      [
        "?\"\n\nAnna",
        -10.497940992480597
      ],
      [
        "▁distant",
        -10.49842478778449
      ],
      [
        "▁try.",
        -10.498753416785595
      ],
      [
        "▁disappeared",
        -10.498827384856023
      ],
      [
        "▁send",
        -10.499935530951362
      ],
      [
        "▁bull",
        -10.500269562779899
      ],
      [
        "▁dry.",
        -10.500943511967517
      ],
      [
        "▁blue.",
        -10.501350242484767
      ],
      [
        "▁locked",
        -10.501855016756785
      ],
      [
        "▁jam",
        -10.501921696068587
      ],
      [
        "▁neck",
        -10.502930821979923
      ],
      [
        "▁Ann",
        -10.503083377950713
      ],
      [
        "▁mud.",
        -10.50325949777781
      ],
      [
        "▁feet.",
        -10.503410182259907
      ],
      [
        "▁organize",
        -10.503614708400946
      ],
      [
        ".\n\nA",
        -10.504187784610032
      ],
      [
        "!\"\n\nHer",
        -10.504374486250079
      ],
      [
        "▁pencil",
        -10.50493689263661
      ],
      [
        ".\n\n\"Hi,",
        -10.50548186665692
      ],
      [
        "▁crawl",
        -10.50549952990158
      ],
      [
        "▁boy's",
        -10.505799760151612
      ],
      [
        "▁cone",
        -10.50771834883435
      ],
      [
        "▁clouds.",
        -10.508541693443712
      ],
      [
        "▁man's",
        -10.508650920458285
      ],
      [
        "▁grandma's",
        -10.508907024915862
      ],
      [
        "▁office",
        -10.509420541689648
      ],
      [
        "▁arms.",
        -10.509836906963336
      ],
      [
        "▁engine",
        -10.510216202137821
      ],
      [
        "\n\n\"What",
        -10.510289196181072
      ],
      [
        "!\"\n\n",
        -10.510630751215901
      ],
      [
        "\n\n\"Let's",
        -10.512723922382756
      ],
      [
        "▁pulls",
        -10.512734877136928
      ],
      [
        "▁tomorrow",
        -10.51301470917444
      ],
      [
        "▁friend.\"",
        -10.513539060713265
      ],
      [
        "▁gloomy",
        -10.513714570272187
      ],
      [
        "▁dreams",
        -10.514407363415032
      ],
      [
        "▁split",
        -10.515324879911871
      ],
      [
        "▁TV.",
        -10.515327330888727
      ],
      [
        "▁pushing",
        -10.515756243059014
      ],
      [
        "▁Tommy.",
        -10.515990732816444
      ],
      [
        "▁dizzy",
        -10.516369548219256
      ],
      [
        "▁closet.",
        -10.517022181272026
      ],
      [
        "▁princess.",
        -10.517098793960441
      ],
      [
        "▁wishes",
        -10.517189870911977
      ],
      [
        "▁spaghetti",
        -10.517566257054908
      ],
      [
        "▁popcorn",
        -10.519051969768954
      ],
      [
        "▁fur.",
        -10.519792081424441
      ],
      [
        "▁ear",
        -10.52108676400876
      ],
      [
        "▁too?\"",
        -10.521590100882431
      ],
      [
        "▁flashlight",
        -10.522151371806617
      ],
      [
        "▁beetle",
        -10.522357182660741
      ],
      [
        "▁return",
        -10.522359689758256
      ],
      [
        "▁apple.",
        -10.522412245673056
      ],
      [
        "▁Mike",
        -10.522424433314075
      ],
      [
        "▁ok",
        -10.522434458325971
      ],
      [
        "▁soar",
        -10.522516048080046
      ],
      [
        "▁knock",
        -10.522743997105682
      ],
      [
        "\n\nTommy",
        -10.523283495199012
      ],
      [
        "▁somewhere",
        -10.523470924355149
      ],
      [
        "▁afraid.",
        -10.523472333688543
      ],
      [
        "ucked",
        -10.524497874995697
      ],
      [
        "g",
        -10.525633703410792
      ],
      [
        "▁sandwiches",
        -10.526195909656511
      ],
      [
        "\n\nOn",
        -10.52680278659882
      ],
      [
        "▁squirrel.",
        -10.527294179641155
      ],
      [
        "▁treats.",
        -10.52929739820842
      ],
      [
        "▁\"Who",
        -10.530075902971227
      ],
      [
        "▁nowhere",
        -10.530489278546526
      ],
      [
        "▁riding",
        -10.5309259585685
      ],
      [
        "▁garage.",
        -10.531146059651215
      ],
      [
        "▁fold",
        -10.531508424605477
      ],
      [
        "▁jacket",
        -10.532030290367274
      ],
      [
        "▁going.",
        -10.532061968478153
      ],
      [
        "▁record",
        -10.532079963680609
      ],
      [
        "▁kite.",
        -10.532612495689552
      ],
      [
        "▁mama",
        -10.533781705063715
      ],
      [
        "▁seeds",
        -10.534473670200056
      ],
      [
        "▁bitter",
        -10.53487093662562
      ],
      [
        "▁\"He",
        -10.534958424895475
      ],
      [
        "▁naughty.",
        -10.535980819066243
      ],
      [
        "▁delicious!",
        -10.536210597325017
      ],
      [
        "▁harmless",
        -10.536586586539894
      ],
      [
        ".\n\n\"Come",
        -10.537303843675309
      ],
      [
        "▁stretch",
        -10.53778142415588
      ],
      [
        "▁zoomed",
        -10.538433215059298
      ],
      [
        "▁soft.",
        -10.541418945070053
      ],
      [
        "▁doctor.",
        -10.541886599421977
      ],
      [
        "▁courage",
        -10.542604473127286
      ],
      [
        "▁Lola",
        -10.543282664026357
      ],
      [
        "▁grateful.",
        -10.543547382372346
      ],
      [
        "▁corner.",
        -10.54405415475276
      ],
      [
        "▁leaned",
        -10.544271548770434
      ],
      [
        "▁gum",
        -10.54492242241933
      ],
      [
        "▁path.",
        -10.545782729651565
      ],
      [
        "▁hay",
        -10.54641290834319
      ],
      [
        ".\n\nIn",
        -10.547554511984657
      ],
      [
        "▁marched",
        -10.548390119310346
      ],
      [
        "▁skip",
        -10.548698066700988
      ],
      [
        "▁again.\"",
        -10.549317062113461
      ],
      [
        "▁singing.",
        -10.550427934371655
      ],
      [
        "▁finds",
        -10.550993256344682
      ],
      [
        "▁wind.",
        -10.553804072233214
      ],
      [
        "▁finger.",
        -10.555684252702576
      ],
      [
        "▁brothers",
        -10.55619872486431
      ],
      [
        "▁seal",
        -10.556331876709775
      ],
      [
        "▁fireman",
        -10.556453160031559
      ],
      [
        "▁fingers",
        -10.556454713992853
      ],
      [
        ".\n\n\"Are",
        -10.556952467624885
      ],
      [
        "▁penny",
        -10.557264512063824
      ],
      [
        "▁checked",
        -10.558065785834067
      ],
      [
        "▁crocodile",
        -10.558372326127365
      ],
      [
        "?\"\n\nHis",
        -10.558788571461474
      ],
      [
        "▁pigeon",
        -10.558990879947416
      ],
      [
        "▁Polly",
        -10.559313548594703
      ],
      [
        "▁rolling",
        -10.560181763828806
      ],
      [
        "\n\nTim",
        -10.560233977250832
      ],
      [
        "▁belongs",
        -10.560791418993396
      ],
      [
        "▁idea!",
        -10.561162484709646
      ],
      [
        "▁fountain",
        -10.561196292730042
      ],
      [
        "▁intelligent",
        -10.561319525689115
      ],
      [
        "▁yarn",
        -10.561473572502601
      ],
      [
        "▁hadn't",
        -10.561720970146645
      ],
      [
        ".\n\n\"Look",
        -10.562428798579218
      ],
      [
        "▁study",
        -10.563293444071642
      ],
      [
        "▁apples.",
        -10.563363627554182
      ],
      [
        "▁pot.",
        -10.563801643830338
      ],
      [
        "▁tank",
        -10.564788176173538
      ],
      [
        "▁statue",
        -10.565582349214928
      ],
      [
        "▁now!\"",
        -10.566316911154178
      ],
      [
        "▁listening",
        -10.56638718674518
      ],
      [
        "▁broke.",
        -10.56705111703999
      ],
      [
        "▁monster.",
        -10.567084563844801
      ],
      [
        "▁Mia's",
        -10.567342963493392
      ],
      [
        "▁leg.",
        -10.567361892877924
      ],
      [
        "▁cheese.",
        -10.567505376745434
      ],
      [
        "▁pushes",
        -10.567591819609936
      ],
      [
        "▁tomorrow.",
        -10.56759906240821
      ],
      [
        "▁appeared.",
        -10.56797007321014
      ],
      [
        "!\"\n\nBen",
        -10.568383674591718
      ],
      [
        "▁learnt",
        -10.568526195422427
      ],
      [
        "▁impressive",
        -10.568983310029354
      ],
      [
        "▁steal",
        -10.56919098643454
      ],
      [
        "▁phone.",
        -10.569265729013248
      ],
      [
        "▁bread.",
        -10.56946902246174
      ],
      [
        "▁ways",
        -10.569696351673558
      ],
      [
        "▁further",
        -10.570045080566487
      ],
      [
        "▁soldier",
        -10.570177154816204
      ],
      [
        "▁alert",
        -10.571908239199308
      ],
      [
        "▁hoping",
        -10.571919207647966
      ],
      [
        "▁later.",
        -10.572347421896644
      ],
      [
        "▁other's",
        -10.572843436933978
      ],
      [
        "▁city",
        -10.573574087972768
      ],
      [
        "▁modest",
        -10.574582460711268
      ],
      [
        "▁bug.",
        -10.574659922817913
      ],
      [
        "▁refused",
        -10.574939343149243
      ],
      [
        "▁laughs",
        -10.576227629276303
      ],
      [
        "▁visited",
        -10.5762416728437
      ],
      [
        "▁happy.\n\nThe",
        -10.576372610864953
      ],
      [
        "▁excitedly",
        -10.57671464383402
      ],
      [
        "▁spoon.",
        -10.576965391088748
      ],
      [
        "▁puddle.",
        -10.577138313144891
      ],
      [
        "▁cries.",
        -10.577477733956657
      ],
      [
        "\"Tom,",
        -10.578441587815853
      ],
      [
        "▁handle",
        -10.578645978421214
      ],
      [
        "▁\"Yes!",
        -10.579495732004792
      ],
      [
        "▁amazing.",
        -10.579674094443508
      ],
      [
        "▁octopus",
        -10.579882175400392
      ],
      [
        ".\n\n\"We",
        -10.579968147407268
      ],
      [
        "▁beauty",
        -10.579991955857539
      ],
      [
        "▁sunflower",
        -10.580032708713338
      ],
      [
        "▁shakes",
        -10.581228980616936
      ],
      [
        "▁lizard",
        -10.582919983334838
      ],
      [
        "▁cereal",
        -10.582973406293853
      ],
      [
        "▁loudly",
        -10.583271710630568
      ],
      [
        "▁slides",
        -10.583542325374083
      ],
      [
        ".\n\n\"Sorry,",
        -10.583930588997447
      ],
      [
        "\n\nSoon",
        -10.585147450648853
      ],
      [
        "in",
        -10.585216715533653
      ],
      [
        "▁compassionate",
        -10.58525080806823
      ],
      [
        ".\"\n\nHe",
        -10.585734810959298
      ],
      [
        "▁roared",
        -10.586504055631869
      ],
      [
        "▁rug",
        -10.586504436131825
      ],
      [
        "▁zebra",
        -10.587584109892255
      ],
      [
        "▁creatures",
        -10.587621081983709
      ],
      [
        "▁silver",
        -10.588034418622147
      ],
      [
        "w",
        -10.588045705262237
      ],
      [
        "▁himself,",
        -10.588239785339308
      ],
      [
        "?\"\n\n\"Yes,",
        -10.588665835287836
      ],
      [
        "▁skin",
        -10.588804092347191
      ],
      [
        "▁cows",
        -10.589202882128658
      ],
      [
        "▁umbrella",
        -10.589302240489076
      ],
      [
        "▁cheered.",
        -10.590178446663929
      ],
      [
        "▁horn",
        -10.590850458022262
      ],
      [
        "▁\"There",
        -10.59130818164948
      ],
      [
        "▁poke",
        -10.591899025930001
      ],
      [
        "▁corn",
        -10.592047908723602
      ],
      [
        "Eventually,",
        -10.59226570922559
      ],
      [
        "▁ended",
        -10.59248028380726
      ],
      [
        "▁wander",
        -10.593173696845904
      ],
      [
        "▁otter",
        -10.593448761952168
      ],
      [
        "▁left.",
        -10.593696311458578
      ],
      [
        "▁turkey",
        -10.594675225503538
      ],
      [
        "▁Together",
        -10.594939716189318
      ],
      [
        "▁stuffed",
        -10.595207511596097
      ],
      [
        "▁own.",
        -10.59550402957383
      ],
      [
        "▁package",
        -10.595755555291486
      ],
      [
        "▁breakfast",
        -10.595879082414712
      ],
      [
        "▁stream",
        -10.597171081435592
      ],
      [
        "▁Lila.",
        -10.597598437096243
      ],
      [
        "▁pony",
        -10.598291480695758
      ],
      [
        "▁envelope",
        -10.598514880616213
      ],
      [
        "▁meadow.",
        -10.599176495386294
      ],
      [
        "▁needle",
        -10.599208607158545
      ],
      [
        "▁quickly.",
        -10.599328564039416
      ],
      [
        "▁nut",
        -10.599517430113393
      ],
      [
        "▁fair.",
        -10.599520048266657
      ],
      [
        "▁forth",
        -10.600395414568084
      ],
      [
        ".\n\nOn",
        -10.60081545524914
      ],
      [
        "▁nicely",
        -10.601164722068022
      ],
      [
        "▁post",
        -10.601231654891315
      ],
      [
        "▁numbers",
        -10.602221473291038
      ],
      [
        "▁band-aid",
        -10.602365844224087
      ],
      [
        "▁happiness",
        -10.603852483482564
      ],
      [
        "▁scale",
        -10.604061401641973
      ],
      [
        "▁sighed.",
        -10.60412452871612
      ],
      [
        "▁button.",
        -10.605174063390866
      ],
      [
        "▁deaf",
        -10.605974177885404
      ],
      [
        "▁drops",
        -10.606169006417096
      ],
      [
        "▁swinging",
        -10.60701142562638
      ],
      [
        "▁sleepy.",
        -10.607085836367725
      ],
      [
        "▁repair",
        -10.607266872063452
      ],
      [
        "▁answered",
        -10.607458316851853
      ],
      [
        "▁mountain.",
        -10.60759451140315
      ],
      [
        "▁shaking",
        -10.607869180750873
      ],
      [
        "▁stove",
        -10.60802959312484
      ],
      [
        "▁feather",
        -10.608437721502339
      ],
      [
        "▁trucks",
        -10.610794032527542
      ],
      [
        "▁shouldn't",
        -10.610807279416187
      ],
      [
        "▁rubber",
        -10.611352913143453
      ],
      [
        "▁monkeys",
        -10.611401619708552
      ],
      [
        "▁wheels",
        -10.613250149407927
      ],
      [
        "▁forever",
        -10.613895942659116
      ],
      [
        "▁star.",
        -10.61390408664339
      ],
      [
        "\n\nJane",
        -10.614714917140818
      ],
      [
        "▁fruit.",
        -10.615398983670962
      ],
      [
        "▁Alex",
        -10.615404022449296
      ],
      [
        "▁helmet",
        -10.615452973538117
      ],
      [
        "▁library",
        -10.615544890325896
      ],
      [
        "▁salad",
        -10.615586942944692
      ],
      [
        "▁Andy",
        -10.616320338334255
      ],
      [
        "▁headed",
        -10.616462381202469
      ],
      [
        "▁cookie.",
        -10.616964398978585
      ],
      [
        "▁perform",
        -10.617557067166018
      ],
      [
        "▁mild",
        -10.617788427118562
      ],
      [
        "\n\nJoe",
        -10.618454806530718
      ],
      [
        "▁between",
        -10.618647161655462
      ],
      [
        ".\n\n\"Okay,",
        -10.619008024939175
      ],
      [
        "▁adorable",
        -10.619365530059031
      ],
      [
        "▁kiss.",
        -10.61958029130127
      ],
      [
        "▁Papa",
        -10.620249125517562
      ],
      [
        "▁bracelet",
        -10.620838066670004
      ],
      [
        "▁bushes.",
        -10.620978406278592
      ],
      [
        "▁view",
        -10.621059549850763
      ],
      [
        "▁gather",
        -10.621226261687333
      ],
      [
        "▁bigger.",
        -10.621547969005274
      ],
      [
        "▁owner.",
        -10.622455119952345
      ],
      [
        "▁jar.",
        -10.623150802636182
      ],
      [
        "▁him.\n\nThe",
        -10.62378246590939
      ],
      [
        "▁snacks.",
        -10.62404797032767
      ],
      [
        "▁trip.",
        -10.624563105237863
      ],
      [
        "▁gasped",
        -10.62495868205809
      ],
      [
        "▁steps",
        -10.625603809395672
      ],
      [
        "▁dog's",
        -10.625705573759351
      ],
      [
        "▁asked.\n\n\"I",
        -10.625753248021823
      ],
      [
        "▁shine",
        -10.62596615745385
      ],
      [
        "▁hoop",
        -10.626058122595305
      ],
      [
        "▁spring",
        -10.626170389422558
      ],
      [
        "▁polish",
        -10.628190524155567
      ],
      [
        "▁true",
        -10.628256565119788
      ],
      [
        ".\n\n\"You",
        -10.628595734323017
      ],
      [
        "▁pilot",
        -10.62864446962338
      ],
      [
        "▁comfort",
        -10.629330459512863
      ],
      [
        "▁travel",
        -10.629630061427072
      ],
      [
        "▁band",
        -10.62983393494559
      ],
      [
        "▁key.",
        -10.630647968191536
      ],
      [
        "▁swung",
        -10.63081457939712
      ],
      [
        "▁jug",
        -10.631068291407493
      ],
      [
        "▁harsh",
        -10.631254262334096
      ],
      [
        "▁ants",
        -10.632122537455228
      ],
      [
        "\n\nIn",
        -10.633782252187514
      ],
      [
        "▁leopard",
        -10.634120471756475
      ],
      [
        "▁show.",
        -10.63626592675999
      ],
      [
        "\n\nMum",
        -10.636553463733831
      ],
      [
        "▁pair",
        -10.636772842836885
      ],
      [
        "▁afternoon",
        -10.636838246348328
      ],
      [
        "▁pretty!\"",
        -10.637017304538778
      ],
      [
        "▁roof",
        -10.638498563801683
      ],
      [
        "▁cop",
        -10.638767416419396
      ],
      [
        "▁thief",
        -10.639566303002356
      ],
      [
        ".\n\nLucy",
        -10.639898491389289
      ],
      [
        "▁crystal",
        -10.64018905485095
      ],
      [
        "▁case",
        -10.640304851179678
      ],
      [
        "▁summer",
        -10.640556922368532
      ],
      [
        "▁week",
        -10.640788984362747
      ],
      [
        "▁coat.",
        -10.641081534177015
      ],
      [
        "▁fan",
        -10.641475660160209
      ],
      [
        "▁rainbow.",
        -10.641629434908785
      ],
      [
        "▁shopkeeper",
        -10.64389278736524
      ],
      [
        "▁mule",
        -10.64432565346869
      ],
      [
        "▁stairs",
        -10.645207607049759
      ],
      [
        "▁wipe",
        -10.645780866281882
      ],
      [
        "▁higher.",
        -10.645790208407758
      ],
      [
        "▁camera",
        -10.645911792690194
      ],
      [
        "▁smells",
        -10.646760750356519
      ],
      [
        "▁careless",
        -10.646876299753854
      ],
      [
        "▁content",
        -10.647173223345531
      ],
      [
        "▁jet",
        -10.647880955837335
      ],
      [
        "▁attractive",
        -10.648209518069137
      ],
      [
        "▁unlock",
        -10.648401976439649
      ],
      [
        "▁mum.",
        -10.648448465166169
      ],
      [
        "▁themselves",
        -10.649158665353177
      ],
      [
        "▁bugs.",
        -10.64921956239917
      ],
      [
        "▁meal",
        -10.649990424869998
      ],
      [
        "▁ostrich",
        -10.65059794168558
      ],
      [
        "▁saw.",
        -10.651393263185787
      ],
      [
        "▁celebrate",
        -10.651695961715546
      ],
      [
        "▁leave.",
        -10.651815398969282
      ],
      [
        "▁names",
        -10.652867489408518
      ],
      [
        "\n\n\"It's",
        -10.653035376423176
      ],
      [
        "▁thanks",
        -10.654166002006074
      ],
      [
        "▁couldn't.",
        -10.656377082845786
      ],
      [
        "▁everything.",
        -10.656795744977146
      ],
      [
        "▁is.",
        -10.657075831535883
      ],
      [
        "▁answered,",
        -10.658061049102406
      ],
      [
        "▁enthusiastic",
        -10.6591287590459
      ],
      [
        "▁flies",
        -10.659493618433421
      ],
      [
        "▁persistent",
        -10.659856203072986
      ],
      [
        "▁Tweetie",
        -10.660419449095501
      ],
      [
        "▁Look",
        -10.660901596339153
      ],
      [
        "▁barking",
        -10.661512766239507
      ],
      [
        ".\"\n\nLila",
        -10.662283035424993
      ],
      [
        "▁bath.",
        -10.662345639125002
      ],
      [
        "▁five",
        -10.662893174159738
      ],
      [
        "▁gorilla",
        -10.663192853087125
      ],
      [
        "▁candle",
        -10.663497299113674
      ],
      [
        "▁anyway.",
        -10.663555018999888
      ],
      [
        "▁cube",
        -10.664183159468516
      ],
      [
        "▁true.",
        -10.66421736003133
      ],
      [
        "▁embarrassed.",
        -10.66481029510117
      ],
      [
        "▁guilty",
        -10.664844619126534
      ],
      [
        "▁stronger",
        -10.6648753036731
      ],
      [
        "▁throws",
        -10.664880270473672
      ],
      [
        "▁ahead",
        -10.664930063705711
      ],
      [
        "▁hippo",
        -10.665161698028056
      ],
      [
        "▁yours.",
        -10.666209600146482
      ],
      [
        "▁arrow",
        -10.66752031102409
      ],
      [
        "▁comb",
        -10.668170834779003
      ],
      [
        "▁imagine",
        -10.669360849349609
      ],
      [
        "▁evening",
        -10.669384293937783
      ],
      [
        "▁flute",
        -10.669637497882084
      ],
      [
        "▁climbing",
        -10.669938952967057
      ],
      [
        "▁dive",
        -10.670422893548533
      ],
      [
        "▁second",
        -10.67063771498271
      ],
      [
        "▁bedroom.",
        -10.670784774438014
      ],
      [
        "▁neat",
        -10.670840356618731
      ],
      [
        ".\"\n\nMia",
        -10.67107021956525
      ],
      [
        "▁animal.",
        -10.671813167551418
      ],
      [
        "▁Sophie",
        -10.673163703780599
      ],
      [
        "▁shadow",
        -10.674259696414591
      ],
      [
        "▁frustrated.",
        -10.674364553238307
      ],
      [
        "▁Fin",
        -10.674808539342447
      ],
      [
        "▁panda",
        -10.676156672828393
      ],
      [
        "▁shout",
        -10.676237593483668
      ],
      [
        "▁Or",
        -10.677307028164863
      ],
      [
        "▁envious",
        -10.677416478309924
      ],
      [
        "▁ride.",
        -10.67746682232134
      ],
      [
        "▁ignorant",
        -10.67763281051811
      ],
      [
        "▁jelly",
        -10.678601363950516
      ],
      [
        "▁lend",
        -10.679211919140895
      ],
      [
        "▁morning.",
        -10.680077185110713
      ],
      [
        "▁fall.",
        -10.680328825137085
      ],
      [
        "▁diamond",
        -10.680446024621583
      ],
      [
        "▁tray",
        -10.680609186484393
      ],
      [
        "▁Brownie",
        -10.681139463037011
      ],
      [
        "▁remind",
        -10.681965275197156
      ],
      [
        "▁support",
        -10.682027077652606
      ],
      [
        "▁message",
        -10.682344232628372
      ],
      [
        "▁cricket",
        -10.68236755640731
      ],
      [
        "?\"\n\nMom",
        -10.683009295418096
      ],
      [
        "▁ghost",
        -10.683121433158
      ],
      [
        "▁alligator",
        -10.683353597666972
      ],
      [
        "▁jeep",
        -10.683904897356593
      ],
      [
        "▁picnic.",
        -10.684577500103483
      ],
      [
        "▁parade",
        -10.684686444429095
      ],
      [
        "▁playground.",
        -10.685720801630325
      ],
      [
        "▁big.",
        -10.686296528464243
      ],
      [
        "▁judge",
        -10.687508547935645
      ],
      [
        "▁twist",
        -10.687523874728297
      ],
      [
        "▁gentle.",
        -10.689067930421094
      ],
      [
        "▁anyone.",
        -10.689237958561465
      ],
      [
        "▁stack",
        -10.689293329750763
      ],
      [
        "▁tool",
        -10.689790386149673
      ],
      [
        "here,",
        -10.691604555159639
      ],
      [
        "▁Lily!\"",
        -10.691926777271219
      ],
      [
        "▁letters",
        -10.692427023214117
      ],
      [
        "▁sailor",
        -10.692762810341344
      ],
      [
        "▁lions",
        -10.692876390033875
      ],
      [
        "▁square",
        -10.693081455644846
      ],
      [
        "▁seeing",
        -10.693173815966281
      ],
      [
        "▁thunder",
        -10.693825430757736
      ],
      [
        "▁happening.",
        -10.694553836240713
      ],
      [
        "▁falling",
        -10.69476962526795
      ],
      [
        "▁cheer",
        -10.695255849712217
      ],
      [
        "▁Will",
        -10.695270522196466
      ],
      [
        "▁Bunny",
        -10.69584168285158
      ],
      [
        "▁deliver",
        -10.695918282726952
      ],
      [
        "▁suit",
        -10.696011147342144
      ],
      [
        "▁low",
        -10.696113864532572
      ],
      [
        "▁leash",
        -10.696134326167979
      ],
      [
        "▁hanging",
        -10.696544069167532
      ],
      [
        "▁marry",
        -10.696675589258696
      ],
      [
        ".\n\nEvery",
        -10.69805342302217
      ],
      [
        "▁Red",
        -10.698072800407562
      ],
      [
        "▁Billy.",
        -10.698081815567443
      ],
      [
        "▁stupid",
        -10.699999239095021
      ],
      [
        "\n\n\"I'm",
        -10.700661938390299
      ],
      [
        "▁Paul",
        -10.701302117286637
      ],
      [
        "▁Baby",
        -10.70131505702708
      ],
      [
        "red",
        -10.702035651619452
      ],
      [
        "▁cocoa",
        -10.702085696705158
      ],
      [
        "\"They",
        -10.702832869289287
      ],
      [
        "▁machine.",
        -10.703219144466026
      ],
      [
        "▁boring.",
        -10.703697798247793
      ],
      [
        "▁Jerry",
        -10.70496500970346
      ],
      [
        "▁spirit",
        -10.706051014127238
      ],
      [
        "▁cupboard",
        -10.707475223178845
      ],
      [
        "▁advice",
        -10.708051693318357
      ],
      [
        "\n\nSally",
        -10.708739826161166
      ],
      [
        "▁butterflies",
        -10.709767234545652
      ],
      [
        "▁mailbox",
        -10.710248442506826
      ],
      [
        "Instead",
        -10.711191902339198
      ],
      [
        "▁content.",
        -10.712032093905519
      ],
      [
        "▁apologized",
        -10.712465061770587
      ],
      [
        "▁welcomed",
        -10.712506078943282
      ],
      [
        ".\n\n\"But",
        -10.712770144829227
      ],
      [
        "▁along.",
        -10.713469395600445
      ],
      [
        "▁mask",
        -10.713641991658697
      ],
      [
        "▁flapped",
        -10.71463266163845
      ],
      [
        "▁throwing",
        -10.714926890990213
      ],
      [
        "▁class",
        -10.714931785258432
      ],
      [
        "\"Let",
        -10.716117671593452
      ],
      [
        "▁taxi",
        -10.71630503252871
      ],
      [
        "▁competitive",
        -10.716337269287074
      ],
      [
        "side",
        -10.716595571962909
      ],
      [
        "!\"\n\nSo",
        -10.716703715934932
      ],
      [
        "▁pine",
        -10.718022018486096
      ],
      [
        "▁mind.",
        -10.718560430459362
      ],
      [
        "▁hurry",
        -10.718659352784696
      ],
      [
        "▁cage.",
        -10.719078701006605
      ],
      [
        "▁track",
        -10.719327620197703
      ],
      [
        "▁clapping",
        -10.71934680954853
      ],
      [
        "▁shocked",
        -10.720865116088344
      ],
      [
        "▁healthy.",
        -10.721153357163592
      ],
      [
        "▁rope.",
        -10.721728947388893
      ],
      [
        "▁mommy's",
        -10.72243791455947
      ],
      [
        "▁full.",
        -10.723228494723003
      ],
      [
        "▁plane.",
        -10.72421710447246
      ],
      [
        "▁penguin",
        -10.724240214678245
      ],
      [
        "▁half",
        -10.72455105790431
      ],
      [
        "▁baking",
        -10.725026125760248
      ],
      [
        "▁disappointed.",
        -10.725857510802324
      ],
      [
        "▁doing.",
        -10.72621201035314
      ],
      [
        "▁village.",
        -10.726421005057308
      ],
      [
        "▁ladder.",
        -10.72776791486144
      ],
      [
        "▁excitement",
        -10.728162780893289
      ],
      [
        "▁Henry",
        -10.72821442501795
      ],
      [
        "▁raft",
        -10.72938009400816
      ],
      [
        "▁again.\n\nThe",
        -10.729568043285614
      ],
      [
        "▁chance",
        -10.730078106354066
      ],
      [
        "▁away!",
        -10.730087151894198
      ],
      [
        "\n\nBen",
        -10.730777148653958
      ],
      [
        "▁missing",
        -10.731496977653926
      ],
      [
        "ach",
        -10.73151859579408
      ],
      [
        "▁kangaroo",
        -10.732283243719095
      ],
      [
        "▁dish",
        -10.733712525308023
      ],
      [
        "▁land.",
        -10.73442514635491
      ],
      [
        "▁rescue",
        -10.734554829599393
      ],
      [
        "\n\nA",
        -10.734646916387371
      ],
      [
        "▁waving",
        -10.734789497085522
      ],
      [
        "'ve",
        -10.735686449748464
      ],
      [
        "▁empty.",
        -10.735841038224224
      ],
      [
        "▁pepper",
        -10.736141794206347
      ],
      [
        "▁nuts",
        -10.736319178604782
      ],
      [
        "\"Oh,",
        -10.736489429776945
      ],
      [
        "▁questions.",
        -10.736520339093936
      ],
      [
        "▁golden",
        -10.736677822387195
      ],
      [
        "▁thread",
        -10.736751087041903
      ],
      [
        "▁bathroom.",
        -10.736763298676559
      ],
      [
        "▁fox.",
        -10.736878221649697
      ],
      [
        "▁Lucy's",
        -10.737786761666683
      ],
      [
        "▁collar",
        -10.738211576329954
      ],
      [
        "▁cap",
        -10.738364652238502
      ],
      [
        "▁invite",
        -10.738478979152298
      ],
      [
        "▁anxious",
        -10.739240195510254
      ],
      [
        "!\"\n\nMom",
        -10.739479720993385
      ],
      [
        "▁celebrated",
        -10.740350810477961
      ],
      [
        "▁shirt.",
        -10.741844563900488
      ],
      [
        "▁Fluffy.",
        -10.742112520976553
      ],
      [
        "▁pasta",
        -10.74245662271075
      ],
      [
        "▁worth",
        -10.742706845558894
      ],
      [
        "▁cardboard",
        -10.743357176847566
      ],
      [
        "▁talk.",
        -10.743703451895978
      ],
      [
        "▁doing?",
        -10.743834045158701
      ],
      [
        "▁object",
        -10.74438840430437
      ],
      [
        "▁bubble",
        -10.744472233273521
      ],
      [
        "▁peek",
        -10.745027330699655
      ],
      [
        "▁stage",
        -10.745323845145403
      ],
      [
        "re",
        -10.745668098031414
      ],
      [
        "▁gem",
        -10.74582199895342
      ],
      [
        "▁slept",
        -10.746021928147366
      ],
      [
        "▁sink",
        -10.746034407437348
      ],
      [
        "▁ten",
        -10.747180856609429
      ],
      [
        "▁desk",
        -10.747838481292327
      ],
      [
        "▁computer",
        -10.749762135880376
      ],
      [
        "▁blowing",
        -10.749949603891226
      ],
      [
        "▁you.\"\n\nThe",
        -10.750094491694112
      ],
      [
        "▁resist",
        -10.750122451099509
      ],
      [
        "▁Sandy",
        -10.750863503935973
      ],
      [
        "▁sheet",
        -10.75107297918175
      ],
      [
        "▁\"A",
        -10.751168928156265
      ],
      [
        "▁present.",
        -10.751732369337335
      ],
      [
        "▁please.",
        -10.75199150522652
      ],
      [
        "▁Danny",
        -10.752245157605145
      ],
      [
        ".\n\nMommy",
        -10.7522799829053
      ],
      [
        "▁mistake",
        -10.752353293695325
      ],
      [
        "▁fighting.",
        -10.752501596633453
      ],
      [
        "▁sprayed",
        -10.752718762788021
      ],
      [
        "▁leaf.",
        -10.75305379058222
      ],
      [
        "▁Jill.",
        -10.753268943380728
      ],
      [
        "▁happening",
        -10.753278265074698
      ],
      [
        "▁piano",
        -10.753762023206894
      ],
      [
        "▁mechanic",
        -10.754286030727062
      ],
      [
        "▁radio",
        -10.754359916080542
      ],
      [
        "▁belt",
        -10.75453592304232
      ],
      [
        "▁had.",
        -10.755584191751709
      ],
      [
        "▁popped",
        -10.755848603806562
      ],
      [
        "▁sounds.",
        -10.756378268311298
      ],
      [
        "▁fork",
        -10.756379842060387
      ],
      [
        "▁yell",
        -10.756857515036206
      ],
      [
        "▁said.\n\nMom",
        -10.757445130233501
      ],
      [
        "\"Sorry,",
        -10.757807013804369
      ],
      [
        "▁find.",
        -10.759751293994405
      ],
      [
        "▁running.",
        -10.759843120353581
      ],
      [
        "▁Lee",
        -10.762793789432363
      ],
      [
        "▁E",
        -10.76284756040488
      ],
      [
        ".\n\n\"Sure,",
        -10.76304550101948
      ],
      [
        "▁wheat",
        -10.763356448306002
      ],
      [
        "▁Buddy",
        -10.765192336588054
      ],
      [
        "▁brother,",
        -10.765695597046328
      ],
      [
        "▁vendor",
        -10.766730859223491
      ],
      [
        "▁tire",
        -10.76760501878499
      ],
      [
        "▁bucket.",
        -10.76836089901709
      ],
      [
        "▁gate.",
        -10.768437705327813
      ],
      [
        "▁accepted",
        -10.769295413978265
      ],
      [
        "▁Charlie",
        -10.769310679833023
      ],
      [
        "▁helpful.",
        -10.769470472821412
      ],
      [
        "?\".",
        -10.769948643054722
      ],
      [
        "▁scolded",
        -10.770712901367368
      ],
      [
        "▁interesting.",
        -10.771730375555391
      ],
      [
        "▁bright.",
        -10.772516261687947
      ],
      [
        "▁mug",
        -10.772568300760284
      ],
      [
        "\n\nMia",
        -10.773983729124541
      ],
      [
        "▁carpet",
        -10.774178634791884
      ],
      [
        "▁ice-cream",
        -10.77428024333953
      ],
      [
        "▁rice",
        -10.775068450304499
      ],
      [
        "▁lie",
        -10.775087903005721
      ],
      [
        "▁garage",
        -10.775224817123092
      ],
      [
        "▁stickers",
        -10.775290944676332
      ],
      [
        "▁made.",
        -10.77531789642445
      ],
      [
        "▁explain",
        -10.77548376144309
      ],
      [
        "▁friendship",
        -10.775583461360217
      ],
      [
        "▁shoe",
        -10.777168002146247
      ],
      [
        "▁points",
        -10.777435361631822
      ],
      [
        "▁enough.",
        -10.778802653956513
      ],
      [
        "▁tomato",
        -10.778910107094658
      ],
      [
        "▁eagerly",
        -10.77892334601286
      ],
      [
        "▁scream",
        -10.779025524720195
      ],
      [
        "▁created",
        -10.779458601501124
      ],
      [
        "▁nature",
        -10.779546509400978
      ],
      [
        "▁ducks.",
        -10.779585565344869
      ],
      [
        "▁tooth",
        -10.779937278863143
      ],
      [
        "▁knot",
        -10.78037162295992
      ],
      [
        "▁triangle",
        -10.780600730260097
      ],
      [
        "▁station",
        -10.780878009215504
      ],
      [
        "▁windows",
        -10.780884917744965
      ],
      [
        "▁trusted",
        -10.780913364220574
      ],
      [
        "▁Smith",
        -10.781091818359963
      ],
      [
        "\".\n\nThe",
        -10.781537757887923
      ],
      [
        "▁pipe",
        -10.781841272488988
      ],
      [
        "▁fearful",
        -10.781874031122422
      ],
      [
        ".\n\n\"Don't",
        -10.781925122236922
      ],
      [
        "▁melon",
        -10.782250806423466
      ],
      [
        "▁either.",
        -10.78241827015743
      ],
      [
        "▁entered",
        -10.782692491536853
      ],
      [
        "▁dust",
        -10.782992258154493
      ],
      [
        "▁wire",
        -10.783146856658254
      ],
      [
        "▁Lily?\"",
        -10.78346866718918
      ],
      [
        "▁accept",
        -10.783813083752586
      ],
      [
        "▁scooter",
        -10.783858950630139
      ],
      [
        ".\n\nSo,",
        -10.784522784553388
      ],
      [
        "▁carrots.",
        -10.784643447065678
      ],
      [
        "▁forgotten",
        -10.7851491838077
      ],
      [
        "▁holes",
        -10.785268093481422
      ],
      [
        "▁salt",
        -10.785350180478552
      ],
      [
        "▁wags",
        -10.785642758894994
      ],
      [
        "▁tunnel",
        -10.786715820115823
      ],
      [
        "▁sniffed",
        -10.786947444724074
      ],
      [
        "\n\nAnna",
        -10.787051286473462
      ],
      [
        "▁cats",
        -10.787191187097307
      ],
      [
        "▁twig",
        -10.787208405337866
      ],
      [
        "▁sign.",
        -10.787255007050138
      ],
      [
        "▁speed",
        -10.787475021514911
      ],
      [
        ".\"\n\nMax",
        -10.787946436399446
      ],
      [
        "▁messy.",
        -10.787994627472012
      ],
      [
        "▁Whiskers",
        -10.790168307637842
      ],
      [
        "▁crack",
        -10.790654876505187
      ],
      [
        "▁reindeer",
        -10.790930508575222
      ],
      [
        "▁brighter",
        -10.791897927090767
      ],
      [
        "▁human",
        -10.792318944467961
      ],
      [
        "▁golf",
        -10.792397166510568
      ],
      [
        "▁wait.",
        -10.792501420240919
      ],
      [
        "▁vine",
        -10.79403872833263
      ],
      [
        "▁strawberry",
        -10.794983130998292
      ],
      [
        "▁slow.",
        -10.79550813017431
      ],
      [
        "▁behave",
        -10.796500266274997
      ],
      [
        "▁bouncing",
        -10.797508932927057
      ],
      [
        "▁Ted",
        -10.797748916883322
      ],
      [
        ".\n\nSue",
        -10.798200580644046
      ],
      [
        "▁sofa",
        -10.800465993459309
      ],
      [
        "▁rod",
        -10.800649269080171
      ],
      [
        "▁squash",
        -10.801090285722506
      ],
      [
        "▁helicopter",
        -10.801661863273788
      ],
      [
        "▁ever!\"",
        -10.801830047153864
      ],
      [
        "▁jellyfish",
        -10.802087367313456
      ],
      [
        "▁drawer",
        -10.802574017835974
      ],
      [
        "▁me!",
        -10.80303317316946
      ],
      [
        "▁glowing",
        -10.803467768619768
      ],
      [
        ".\n\nIt",
        -10.80361815615925
      ],
      [
        "▁welcome.",
        -10.803885609041096
      ],
      [
        "▁ignored",
        -10.803932929204896
      ],
      [
        "▁kitty",
        -10.80422763673179
      ],
      [
        "▁fishing",
        -10.804797365966364
      ],
      [
        "▁magnet",
        -10.806830995506095
      ],
      [
        "▁parent",
        -10.807450558756516
      ],
      [
        "▁cared",
        -10.80758978295073
      ],
      [
[...]
