{
  "version": "1.0",
  "truncation": null,
  "padding": null,
  "added_tokens": [
    {
      "id": 0,
      "content": "<unk>",
      "single_word": false,
      "lstrip": false,
      "rstrip": false,
      "normalized": false,
      "special": true
    },
    {
      "id": 1,
      "content": "<pad>",
      "single_word": false,
      "lstrip": false,
      "rstrip": false,
      "normalized": false,
      "special": true
    },
    {
      "id": 2,
      "content": "<s>",
      "single_word": false,
      "lstrip": false,
      "rstrip": false,
      "normalized": false,
      "special": true
    },
    {
      "id": 3,
      "content": "</s>",
      "single_word": false,
      "lstrip": false,
      "rstrip": false,
      "normalized": false,
      "special": true
    }
  ],
  "normalizer": {
    "type": "Sequence",
    "normalizers": [
      {
        "type": "Replace",
        "pattern": {
          "String": "``"
        },
        "content": "\""
      },
      {
        "type": "Replace",
        "pattern": {
          "String": "''"
        },
        "content": "\""
      },
      {
        "type": "NFKD"
      },
      {
        "type": "StripAccents"
      },
      {
        "type": "Replace",
        "pattern": {
          "Regex": " {2,}"
        },
        "content": " "
      }
    ]
  },
  "pre_tokenizer": {
    "type": "Metaspace",
    "replacement": "▁",
    "add_prefix_space": true,
    "prepend_scheme": "always"
  },
  "post_processor": {
    "type": "TemplateProcessing",
    "single": [
      {
        "Sequence": {
          "id": "A",
          "type_id": 0
        }
      },
      {
        "SpecialToken": {
          "id": "</s>",
          "type_id": 0
        }
      },
      {
        "SpecialToken": {
          "id": "<s>",
          "type_id": 2
        }
      }
    ],
    "pair": [
      {
        "Sequence": {
          "id": "A",
          "type_id": 0
        }
      },
      {
        "Sequence": {
          "id": "B",
          "type_id": 1
        }
      }
    ],
    "special_tokens": {
      "</s>": {
        "id": "</s>",
        "ids": [
          3
        ],
        "tokens": [
          "</s>"
        ]
      },
      "<s>": {
        "id": "<s>",
        "ids": [
          2
        ],
        "tokens": [
          "<s>"
        ]
      }
    }
  },
  "decoder": {
    "type": "Metaspace",
    "replacement": "▁",
    "add_prefix_space": true,
    "prepend_scheme": "always"
  },
  "model": {
    "type": "Unigram",
    "unk_id": 0,
    "vocab": [
      [
        "<unk>",
        0.0
      ],
      [
        "<pad>",
        0.0
      ],
      [
        "<s>",
        0.0
      ],
      [
        "</s>",
        0.0
      ],
      [
        "▁",
        -2.549901713709904
      ],
      [
        "▁and",
        -3.156327965080333
      ],
      [
        "▁the",
        -3.225925601348436
      ],
      [
        "a",
        -3.466570610670388
      ],
      [
        "▁to",
        -3.498428475853146
      ],
      [
        "▁was",
        -3.7924711377707503
      ],
      [
        ",",
        -4.111292108475951
      ],
      [
        "▁She",
        -4.541031308815372
      ],
      [
        "▁her",
        -4.580218350686504
      ],
      [
        "▁He",
        -4.5838484828207875
      ],
      [
        "▁it",
        -4.64415976778894
      ],
      [
        "They",
        -4.649364202408222
      ],
      [
        "▁he",
        -4.7868708435471365
      ],
      [
        "▁in",
        -4.899498493438458
      ],
      [
        "▁she",
        -4.9089437653748345
      ],
      [
        "▁with",
        -4.927818221839516
      ],
      [
        "▁his",
        -4.9899355232756335
      ],
      [
        "▁of",
        -5.0673525111399975
      ],
      [
        "▁that",
        -5.088376738946881
      ],
      [
        "▁had",
        -5.165187686192285
      ],
      [
        "▁they",
        -5.167603678732133
      ],
      [
        "▁so",
        -5.177314364377672
      ],
      [
        "The",
        -5.283600467073194
      ],
      [
        "▁for",
        -5.338892758222627
      ],
      [
        "▁on",
        -5.386259075612973
      ],
      [
        "very",
        -5.403397606935158
      ],
      [
        "▁you",
        -5.4068019133059515
      ],
      [
        "▁Lily",
        -5.444986780742656
      ],
      [
        "▁little",
        -5.4466589469366316
      ],
      [
        "▁said,",
        -5.477244322152346
      ],
      [
        "▁there",
        -5.494318678100042
      ],
      [
        "▁is",
        -5.529056516684145
      ],
      [
        "▁saw",
        -5.544880455300843
      ],
      [
        "▁not",
        -5.545640229192097
      ],
      [
        "▁big",
        -5.547041216314538
      ],
      [
        "▁It",
        -5.549667227201175
      ],
      [
        "▁day,",
        -5.565426826942115
      ],
      [
        "▁but",
        -5.639158293243783
      ],
      [
        "▁were",
        -5.656862105078204
      ],
      [
        "Once",
        -5.67485538615745
      ],
      [
        "▁mom",
        -5.682376040792757
      ],
      [
        "I",
        -5.685474973310853
      ],
      [
        "▁play",
        -5.757061536513056
      ],
      [
        "▁are",
        -5.782206266988982
      ],
      [
        "▁said",
        -5.795783392385916
      ],
      [
        "▁upon",
        -5.796533614496498
      ],
      [
        "▁wanted",
        -5.80022358886001
      ],
      [
        "s",
        -5.809405622983109
      ],
      [
        "t",
        -5.827745033445543
      ],
      [
        "▁their",
        -5.846663713416177
      ],
      [
        "▁happy",
        -5.85004141075261
      ],
      [
        "▁girl",
        -5.887593500420634
      ],
      [
        "▁have",
        -5.904638476393137
      ],
      [
        "▁be",
        -5.905065940951802
      ],
      [
        "▁went",
        -5.987375542633194
      ],
      [
        "▁time,",
        -5.992938469691559
      ],
      [
        "▁up",
        -6.04144461969714
      ],
      [
        "One",
        -6.0516307815779555
      ],
      [
        "▁go",
        -6.060459816829383
      ],
      [
        "▁all",
        -6.0952059532913
      ],
      [
        "▁them",
        -6.149701431981134
      ],
      [
        "▁named",
        -6.160562847798541
      ],
      [
        "▁can",
        -6.163159395860122
      ],
      [
        "▁him",
        -6.166320649373626
      ],
      [
        "▁loved",
        -6.191210920272519
      ],
      [
        "▁like",
        -6.216055991280918
      ],
      [
        "▁felt",
        -6.223187854842262
      ],
      [
        "▁day",
        -6.223731238399067
      ],
      [
        "▁looked",
        -6.2322877625644875
      ],
      [
        "▁Ben",
        -6.234291726092058
      ],
      [
        "▁could",
        -6.2543791532860205
      ],
      [
        "▁Tom",
        -6.303274804324362
      ],
      [
        "▁back",
        -6.329317250013492
      ],
      [
        "▁would",
        -6.361561766081465
      ],
      [
        "▁make",
        -6.376685803499928
      ],
      [
        "▁what",
        -6.377134290056114
      ],
      [
        "▁some",
        -6.379465254964355
      ],
      [
        "▁But",
        -6.3876329861393
      ],
      [
        "▁see",
        -6.395086044828934
      ],
      [
        "▁out",
        -6.400785272662445
      ],
      [
        "▁did",
        -6.409477410993741
      ],
      [
        "▁started",
        -6.413848493598689
      ],
      [
        "▁ran",
        -6.417261426119536
      ],
      [
        "▁boy",
        -6.417373968190818
      ],
      [
        "▁You",
        -6.41764224957738
      ],
      [
        "▁smiled",
        -6.4219345846523606
      ],
      [
        "▁it.",
        -6.422198525498386
      ],
      [
        "▁around",
        -6.422663693501317
      ],
      [
        "▁time",
        -6.447630013061396
      ],
      [
        "▁made",
        -6.453343320474646
      ],
      [
        "▁asked",
        -6.453446036426609
      ],
      [
        "▁want",
        -6.457652441872174
      ],
      [
        ",\"",
        -6.475084062930957
      ],
      [
        "▁put",
        -6.495603617604322
      ],
      [
        "▁something",
        -6.49679871014715
      ],
      [
        "▁from",
        -6.508840122486468
      ],
      [
        ".",
        -6.515823670608757
      ],
      [
        "▁new",
        -6.556775922109438
      ],
      [
        "▁help",
        -6.5756419744424175
      ],
      [
        "▁when",
        -6.5871376261354815
      ],
      [
        "▁Timmy",
        -6.588886322770822
      ],
      [
        "▁found",
        -6.589530670666635
      ],
      [
        "▁too",
        -6.599282419595955
      ],
      [
        "\n\nThe",
        -6.6054948879525615
      ],
      [
        "▁who",
        -6.613082306389144
      ],
      [
        "'s",
        -6.61487584874131
      ],
      [
        "▁liked",
        -6.657837258526646
      ],
      [
        "▁we",
        -6.667478698973156
      ],
      [
        "▁got",
        -6.668182733166953
      ],
      [
        "▁decided",
        -6.684341259838444
      ],
      [
        "▁friends",
        -6.700468534795087
      ],
      [
        "▁an",
        -6.708501505898152
      ],
      [
        "▁came",
        -6.713039703928896
      ],
      [
        "▁playing",
        -6.7160776077497495
      ],
      [
        "▁fun",
        -6.7161007989222
      ],
      [
        "▁do",
        -6.722454270059323
      ],
      [
        "▁find",
        -6.782263399671049
      ],
      [
        "▁your",
        -6.789391752620954
      ],
      [
        "▁get",
        -6.797692753069953
      ],
      [
        "▁will",
        -6.802316215661039
      ],
      [
        "▁bird",
        -6.807031265197747
      ],
      [
        "▁took",
        -6.817544150729972
      ],
      [
        "▁always",
        -6.818176604045183
      ],
      [
        "▁about",
        -6.828237146332624
      ],
      [
        "▁didn't",
        -6.836019869782419
      ],
      [
        "▁one",
        -6.847784630405785
      ],
      [
        "▁man",
        -6.851655827892207
      ],
      [
        "▁then",
        -6.862437075748735
      ],
      [
        "▁Lily.",
        -6.866286101544121
      ],
      [
        "▁my",
        -6.876143247134161
      ],
      [
        "▁other",
        -6.909642074698647
      ],
      [
        "▁happy.",
        -6.916525433762631
      ],
      [
        "▁take",
        -6.916560916872868
      ],
      [
        "▁sad",
        -6.917182506080003
      ],
      [
        "▁thought",
        -6.926797070752965
      ],
      [
        "▁Tim",
        -6.9268747526574685
      ],
      [
        "▁knew",
        -6.936062553175926
      ],
      [
        "▁down",
        -6.946226845802681
      ],
      [
        "▁mommy",
        -6.969940149511249
      ],
      [
        "▁\"I",
        -6.970214348806797
      ],
      [
        "▁good",
        -6.974800143685945
      ],
      [
        ".\n\nOne",
        -6.979425073908031
      ],
      [
        "▁old",
        -6.993643683556016
      ],
      [
        "▁friends.",
        -6.999687096781765
      ],
      [
        "▁how",
        -7.001681911043095
      ],
      [
        "▁said.",
        -7.005407335097974
      ],
      [
        "▁more",
        -7.006204126162022
      ],
      [
        "▁excited",
        -7.019973631661891
      ],
      [
        "▁things",
        -7.024343610097079
      ],
      [
        "▁dog",
        -7.037723052842301
      ],
      [
        "▁into",
        -7.070327544873594
      ],
      [
        "▁tried",
        -7.07503802015936
      ],
      [
        "▁told",
        -7.084548943664876
      ],
      [
        "if",
        -7.084678663781306
      ],
      [
        "▁special",
        -7.0854420574306545
      ],
      [
        "!",
        -7.087092393578816
      ],
      [
        "▁know",
        -7.094803372300131
      ],
      [
        "▁gave",
        -7.099046125241845
      ],
      [
        "▁heard",
        -7.102035111284028
      ],
      [
        "▁never",
        -7.10516084248351
      ],
      [
        "▁each",
        -7.1160054121273735
      ],
      [
        "▁again.",
        -7.125254885501688
      ],
      [
        "▁We",
        -7.126336641183389
      ],
      [
        "▁outside",
        -7.149383112535881
      ],
      [
        "▁played",
        -7.1519488079168845
      ],
      [
        "▁just",
        -7.151964955063608
      ],
      [
        "▁couldn't",
        -7.163949237418915
      ],
      [
        "▁Sam",
        -7.169214388157819
      ],
      [
        "▁look",
        -7.169321057347897
      ],
      [
        "▁hugged",
        -7.1749505649708585
      ],
      [
        "▁on,",
        -7.176319280160483
      ],
      [
        "▁because",
        -7.184220800756812
      ],
      [
        "▁this",
        -7.191581640938432
      ],
      [
        "▁over",
        -7.195988692639538
      ],
      [
        "▁many",
        -7.199826221442564
      ],
      [
        "▁away",
        -7.203492728863786
      ],
      [
        "▁together",
        -7.203845106996717
      ],
      [
        "▁toy",
        -7.204279060852844
      ],
      [
        "▁toys",
        -7.214105373534954
      ],
      [
        "▁Max",
        -7.217198341511107
      ],
      [
        "▁much",
        -7.222165379794186
      ],
      [
        "▁Anna",
        -7.226033672003032
      ],
      [
        "▁him.",
        -7.250162400019644
      ],
      [
        "▁proud",
        -7.261935248448527
      ],
      [
        "▁park.",
        -7.263778832388525
      ],
      [
        "▁park",
        -7.2662267021320215
      ],
      [
        "▁until",
        -7.26812415961119
      ],
      [
        "▁dad",
        -7.2740019529136255
      ],
      [
        "▁scared",
        -7.288813561103813
      ],
      [
        "▁car",
        -7.289620935615167
      ],
      [
        "▁learned",
        -7.291987519547909
      ],
      [
        "▁Mom",
        -7.297082309841121
      ],
      [
        "▁them.",
        -7.314674545066964
      ],
      [
        "▁her.",
        -7.36430830827074
      ],
      [
        "▁thanked",
        -7.366652888648302
      ],
      [
        "▁don't",
        -7.36748852433011
      ],
      [
        "▁small",
        -7.374677092849117
      ],
      [
        "▁no",
        -7.3774612033907605
      ],
      [
        "▁Her",
        -7.380785565331255
      ],
      [
        "▁And",
        -7.381985486129803
      ],
      [
        "▁me",
        -7.390824154530421
      ],
      [
        "▁best",
        -7.390944438494948
      ],
      [
        "▁even",
        -7.391749976803334
      ],
      [
        "!\"",
        -7.3922389504507855
      ],
      [
        "▁come",
        -7.4102526829297215
      ],
      [
        "▁together.",
        -7.415424774847677
      ],
      [
        "▁lots",
        -7.420754535836837
      ],
      [
        "▁friend",
        -7.430545611824639
      ],
      [
        "▁home",
        -7.433847967687489
      ],
      [
        "▁still",
        -7.453334459493281
      ],
      [
        "▁away.",
        -7.4635522159939125
      ],
      [
        "His",
        -7.467185355272649
      ],
      [
        "▁tree",
        -7.467350975417901
      ],
      [
        "▁ball",
        -7.469679213754599
      ],
      [
        "▁by",
        -7.475805572917132
      ],
      [
        "▁love",
        -7.478241339155218
      ],
      [
        "From",
        -7.478645158640084
      ],
      [
        "▁both",
        -7.484227859630444
      ],
      [
        "▁Mia",
        -7.486852948656553
      ],
      [
        "▁Jack",
        -7.4870588780472165
      ],
      [
        "▁too.",
        -7.498071810865538
      ],
      [
        "▁off",
        -7.4983222367027995
      ],
      [
        "▁eat",
        -7.507692962143619
      ],
      [
        "▁feel",
        -7.508475347242326
      ],
      [
        "▁bear",
        -7.509137317623674
      ],
      [
        "▁nice",
        -7.51349039856229
      ],
      [
        "▁says,",
        -7.5153129231642595
      ],
      [
        "▁lived",
        -7.516210551053604
      ],
      [
        "▁fun.",
        -7.518190978503727
      ],
      [
        "▁two",
        -7.521479260636314
      ],
      [
        "▁walked",
        -7.5291829157564525
      ],
      [
        "▁water",
        -7.541532155840185
      ],
      [
        "▁day.",
        -7.548065503177789
      ],
      [
        "▁flew",
        -7.550888209489013
      ],
      [
        "▁sorry",
        -7.551008558111096
      ],
      [
        "▁called",
        -7.55848404026055
      ],
      [
        "▁every",
        -7.562131693906549
      ],
      [
        "▁give",
        -7.563368016815689
      ],
      [
        "▁kept",
        -7.570658625632186
      ],
      [
        "d",
        -7.5752926904244
      ],
      [
        "▁home.",
        -7.575919843738459
      ],
      [
        "▁beautiful",
        -7.58224863369275
      ],
      [
        "▁red",
        -7.585049473331537
      ],
      [
        "▁its",
        -7.5858163124062
      ],
      [
        "▁laughed",
        -7.590809897410953
      ],
      [
        "▁mom.",
        -7.590887188560336
      ],
      [
        "▁cat",
        -7.59643295155891
      ],
      [
        "▁Sara",
        -7.598265928758419
      ],
      [
        "▁long",
        -7.601691325579047
      ],
      [
        "▁or",
        -7.60566345167414
      ],
      [
        "▁box",
        -7.606092055401945
      ],
      [
        "▁says.",
        -7.6274127836892145
      ],
      [
        "▁inside",
        -7.628892737921017
      ],
      [
        "▁try",
        -7.640845811678382
      ],
      [
        "▁loud",
        -7.642392758336525
      ],
      [
        "▁kind",
        -7.644226092953607
      ],
      [
        "▁should",
        -7.645108804527371
      ],
      [
        ".\n\nThey",
        -7.653040557185692
      ],
      [
        "▁opened",
        -7.6570595683902845
      ],
      [
        "e",
        -7.6575894453262965
      ],
      [
        "▁\"You",
        -7.659330530292156
      ],
      [
        "▁also",
        -7.662875806788188
      ],
      [
        "▁going",
        -7.675849115026702
      ],
      [
        "▁sad.",
        -7.6783221330433165
      ],
      [
        "When",
        -7.67867555370912
      ],
      [
        "▁people",
        -7.694466346796183
      ],
      [
        "▁keep",
        -7.6945125246093244
      ],
      [
        "?\"",
        -7.7007933276360685
      ],
      [
        "▁picked",
        -7.706623529152923
      ],
      [
        "▁feeling",
        -7.7067152542836155
      ],
      [
        "▁has",
        -7.720652800932202
      ],
      [
        "\n\nLily",
        -7.7207451804149585
      ],
      [
        "▁share",
        -7.721773989304685
      ],
      [
        "▁Lily's",
        -7.722856426228404
      ],
      [
        "▁next",
        -7.729309186390651
      ],
      [
        "▁hard",
        -7.736926606056409
      ],
      [
        "▁animals",
        -7.738067830101922
      ],
      [
        "▁run",
        -7.73866178167272
      ],
      [
        "▁walking",
        -7.750464175071182
      ],
      [
        "▁sun",
        -7.754713600661907
      ],
      [
        "▁being",
        -7.757916589449387
      ],
      [
        "▁careful",
        -7.760305405352584
      ],
      [
        "▁you,",
        -7.7682082477651555
      ],
      [
        "▁shiny",
        -7.779762393425969
      ],
      [
        "▁room",
        -7.783722394172701
      ],
      [
        "▁house",
        -7.788721272038904
      ],
      [
        "▁hurt",
        -7.792267341620281
      ],
      [
        "▁need",
        -7.798664788382904
      ],
      [
        "▁way",
        -7.801988579656729
      ],
      [
        "▁say",
        -7.8059445953412006
      ],
      [
        "▁lot",
        -7.807469784242649
      ],
      [
        "▁looking",
        -7.808812141237201
      ],
      [
        "▁you.",
        -7.815279741242424
      ],
      [
        "▁brave",
        -7.8180233734739755
      ],
      [
        "▁show",
        -7.819402231878177
      ],
      [
        "▁smiled.",
        -7.8267070155193945
      ],
      [
        "Then",
        -7.827249879432909
      ],
      [
        "▁noticed",
        -7.832024060105201
      ],
      [
        "▁Every",
        -7.833949962692602
      ],
      [
        "\n\nThey",
        -7.852878963555645
      ],
      [
        "▁tree.",
        -7.867039062502176
      ],
      [
        "\"Yes,",
        -7.869424272321503
      ],
      [
        "I'm",
        -7.870070946748282
      ],
      [
        "▁showed",
        -7.871404739572384
      ],
      [
        "▁family",
        -7.87277688589154
      ],
      [
        "\"",
        -7.873212175997407
      ],
      [
        "▁stopped",
        -7.878927946050643
      ],
      [
        "▁bad",
        -7.883588010128266
      ],
      [
        "▁great",
        -7.888179573700192
      ],
      [
        "▁pretty",
        -7.894817825178304
      ],
      [
        "▁says",
        -7.897646562889824
      ],
      [
        "▁explore",
        -7.900677681590356
      ],
      [
        "▁watched",
        -7.907558752339339
      ],
      [
        "\n\nOne",
        -7.918031478410747
      ],
      [
        "▁scared.",
        -7.918429188024541
      ],
      [
        "▁where",
        -7.921082476914998
      ],
      [
        "▁better",
        -7.922158871752352
      ],
      [
        "▁room.",
        -7.923298309517579
      ],
      [
        "▁been",
        -7.9274243688931545
      ],
      [
        "▁stay",
        -7.927770461107041
      ],
      [
        "Suddenly,",
        -7.9308443725434685
      ],
      [
        "▁So",
        -7.945306757063587
      ],
      [
        ".\"",
        -7.945611764679704
      ],
      [
        "▁became",
        -7.946553820656316
      ],
      [
        "▁things.",
        -7.946847682042646
      ],
      [
        "▁safe",
        -7.947822814842416
      ],
      [
        "▁house.",
        -7.9537395256332655
      ],
      [
        "▁important",
        -7.955185232220959
      ],
      [
        "▁soon",
        -7.95645647201207
      ],
      [
        "▁then,",
        -7.958188635181129
      ],
      [
        "▁again",
        -7.95844560408581
      ],
      [
        "▁clean",
        -7.965975395387609
      ],
      [
        "▁Lucy",
        -7.968376093170987
      ],
      [
        ".\n\nBut",
        -7.970417721193527
      ],
      [
        "▁sure",
        -7.972827018850438
      ],
      [
        "▁end.",
        -7.984639776508242
      ],
      [
        "▁our",
        -7.984893424633521
      ],
      [
        "▁quickly",
        -7.994826791147155
      ],
      [
        "▁blue",
        -7.99759385490356
      ],
      [
        "▁grabbed",
        -8.033318708095775
      ],
      [
        "▁everyone",
        -8.034927947087894
      ],
      [
        "▁only",
        -8.046022275597657
      ],
      [
        "▁different",
        -8.046889607843028
      ],
      [
        "▁use",
        -8.047301047660792
      ],
      [
        "▁fast",
        -8.048169766224126
      ],
      [
        "▁toys.",
        -8.055048706568737
      ],
      [
        "▁before",
        -8.07184193166971
      ],
      [
        "▁nodded",
        -8.072185859599802
      ],
      [
        "▁jumped",
        -8.073143398693642
      ],
      [
        "▁let",
        -8.077175350296747
      ],
      [
        "▁three",
        -8.078634833278718
      ],
      [
        "▁helped",
        -8.080552307214484
      ],
      [
        "▁am",
        -8.085029537536506
      ],
      [
        "▁Timmy.",
        -8.091892371410548
      ],
      [
        "▁does",
        -8.091963686486883
      ],
      [
        "▁garden.",
        -8.092243648768873
      ],
      [
        "▁hug",
        -8.093159132187063
      ],
      [
        "▁up.",
        -8.09411119894792
      ],
      [
        "▁friend.",
        -8.09546483553867
      ],
      [
        "▁closer",
        -8.095634421326404
      ],
      [
        "-",
        -8.095897289266768
      ],
      [
        "▁door",
        -8.10111933516961
      ],
      [
        "▁tell",
        -8.107219901218132
      ],
      [
        "\"Let's",
        -8.107401497202908
      ],
      [
        "n",
        -8.109291897082038
      ],
      [
        "▁fell",
        -8.11044960491061
      ],
      [
        "▁glad",
        -8.112523116373898
      ],
      [
        "▁reached",
        -8.114367590404045
      ],
      [
        "▁realized",
        -8.1163747458077
      ],
      [
        "▁sees",
        -8.116720604980578
      ],
      [
        "h",
        -8.121951371991548
      ],
      [
        "▁after",
        -8.124783565470024
      ],
      [
        "▁idea.",
        -8.125510234766693
      ],
      [
        "▁rabbit",
        -8.125794151750355
      ],
      [
        "▁fish",
        -8.125922664338747
      ],
      [
        "ate",
        -8.130036777989009
      ],
      [
        "▁\"Thank",
        -8.130143477433935
      ],
      [
        "▁having",
        -8.132076113349955
      ],
      [
        "▁goodbye",
        -8.13531477145536
      ],
      [
        "'re",
        -8.135932718840396
      ],
      [
        "▁eyes",
        -8.13653291432847
      ],
      [
        "Everyone",
        -8.140170775141224
      ],
      [
        "▁wait",
        -8.141574474486744
      ],
      [
        "▁fly",
        -8.146163929716677
      ],
      [
        "▁As",
        -8.14993791154502
      ],
      [
        "▁sky.",
        -8.150209504839836
      ],
      [
        "▁really",
        -8.156892792506277
      ],
      [
        "▁other.",
        -8.158807427013064
      ],
      [
        "▁favorite",
        -8.159086969651254
      ],
      [
        "▁high",
        -8.15951653812378
      ],
      [
        "▁Sue",
        -8.159629544896713
      ],
      [
        ".\n\nThe",
        -8.15975382870397
      ],
      [
        "▁walk",
        -8.164064564878327
      ],
      [
        "▁play.",
        -8.16554476039081
      ],
      [
        "▁\"We",
        -8.168963665143282
      ],
      [
        "▁began",
        -8.172048103670148
      ],
      [
        "▁Can",
        -8.17264840661077
      ],
      [
        "▁through",
        -8.173333303816113
      ],
      [
        "▁ground.",
        -8.173973571772482
      ],
      [
        "▁home,",
        -8.176952424598014
      ],
      [
        "it's",
        -8.182409318964293
      ],
      [
        "▁looks",
        -8.182820130619715
      ],
      [
        "▁ever",
        -8.18572974217511
      ],
      [
        "▁Mommy",
        -8.187903794269216
      ],
      [
        "▁it,",
        -8.187950675713884
      ],
      [
        "▁making",
        -8.188982658421033
      ],
      [
        "\"I'm",
        -8.190165615127066
      ],
      [
        "▁bit",
        -8.194442078950042
      ],
      [
        "▁right",
        -8.196291349682987
      ],
      [
        "▁now",
        -8.196570311534405
      ],
      [
        "▁help.",
        -8.196594047652262
      ],
      [
        "▁Spot",
        -8.198183447734468
      ],
      [
        "▁near",
        -8.200724772997017
      ],
      [
        "▁learn",
        -8.201196182859054
      ],
      [
        "▁than",
        -8.202959808384795
      ],
      [
        "▁John",
        -8.20529991371937
      ],
      [
        "▁Do",
        -8.207319210292653
      ],
      [
        "▁food",
        -8.208081320619286
      ],
      [
        "▁bright",
        -8.211004810007113
      ],
      [
        "▁flowers",
        -8.211314524550389
      ],
      [
        "▁waved",
        -8.213090918297283
      ],
      [
        "▁inside.",
        -8.216441441858066
      ],
      [
        "▁sky",
        -8.220857255631689
      ],
      [
        "▁used",
        -8.229048743099447
      ],
      [
        "▁watch",
        -8.230477274592857
      ],
      [
        "▁angry",
        -8.232880497967102
      ],
      [
        "\n\nWhen",
        -8.234678202447158
      ],
      [
        "▁why",
        -8.235456609044231
      ],
      [
        "▁under",
        -8.235891425112719
      ],
      [
        "▁hopped",
        -8.236728946173912
      ],
      [
        "Let's",
        -8.238459481530167
      ],
      [
        "▁outside.",
        -8.239987927274893
      ],
      [
        "▁back.",
        -8.239994027298987
      ],
      [
        "▁Bob",
        -8.241812535378463
      ],
      [
        "▁warm",
        -8.243745069058019
      ],
      [
        "▁listen",
        -8.244376462232086
      ],
      [
        "▁truck",
        -8.245742070020336
      ],
      [
        "▁bunny",
        -8.246744158031667
      ],
      [
        "▁water.",
        -8.250856238276715
      ],
      [
        "▁hands",
        -8.259332077024036
      ],
      [
        "▁noise",
        -8.260795552271151
      ],
      [
        "▁garden",
        -8.26715497717605
      ],
      [
        "▁store",
        -8.269429152412265
      ],
      [
        "▁hand",
        -8.271863842289818
      ],
      [
        "▁mum",
        -8.27240122956424
      ],
      [
        "▁birds",
        -8.272894934791113
      ],
      [
        "▁another",
        -8.274230335811419
      ],
      [
        "▁anymore.",
        -8.27588490668194
      ],
      [
        "▁open",
        -8.27638740313758
      ],
      [
        "▁mean",
        -8.28299679872109
      ],
      [
        "▁car.",
        -8.286949236167564
      ],
      [
        "▁wished",
        -8.288134527470527
      ],
      [
        "▁excited.",
        -8.2881790930018
      ],
      [
        "▁\"What",
        -8.288446377290246
      ],
      [
        "▁touch",
        -8.289056577993735
      ],
      [
        "▁story",
        -8.289547781346666
      ],
      [
        "▁think",
        -8.293756883919787
      ],
      [
        "▁years",
        -8.298506362047268
      ],
      [
        "▁lady",
        -8.299832482235269
      ],
      [
        "▁angry.",
        -8.301145599526299
      ],
      [
        "▁pick",
        -8.301659074683144
      ],
      [
        "▁catch",
        -8.30371661535546
      ],
      [
        "▁let's",
        -8.304128401593609
      ],
      [
        "▁place",
        -8.305240206677247
      ],
      [
        "▁replied,",
        -8.3060977372969
      ],
      [
        "▁end",
        -8.314436639411957
      ],
      [
        "▁likes",
        -8.314727438064407
      ],
      [
        ".\n\nLily",
        -8.316467181324551
      ],
      [
        "▁better.",
        -8.319078175609834
      ],
      [
        "▁coming",
        -8.321406975814407
      ],
      [
        "▁green",
        -8.323482033109023
      ],
      [
        "▁Jane",
        -8.324631291830796
      ],
      [
        "▁remembered",
        -8.326775944629885
      ],
      [
        "▁held",
        -8.326862484564765
      ],
      [
        "▁Tom.",
        -8.329842531921893
      ],
      [
        "▁while",
        -8.330701718826676
      ],
      [
        "▁can't",
        -8.333371296097827
      ],
      [
        "▁Ben.",
        -8.333862183684555
      ],
      [
        "▁boat",
        -8.33670436144181
      ],
      [
        "▁do.",
        -8.33895750772341
      ],
      [
        "\"No,",
        -8.339143604690541
      ],
      [
        "\"It's",
        -8.340453075643609
      ],
      [
        "▁smile",
        -8.344005035387505
      ],
      [
        "▁slide",
        -8.34401869570754
      ],
      [
        "▁sorry.",
        -8.344924212361066
      ],
      [
        "▁first",
        -8.349498292634783
      ],
      [
        "▁yellow",
        -8.353752666647194
      ],
      [
        "▁Sarah",
        -8.355189826504033
      ],
      [
        "▁Dad",
        -8.358511009694285
      ],
      [
        "▁sat",
        -8.35927360150013
      ],
      [
        "▁time.",
        -8.36348080249194
      ],
      [
        ".\"\n\nLily",
        -8.364472466520422
      ],
      [
        "▁behind",
        -8.364923825487779
      ],
      [
        "▁running",
        -8.365080515777317
      ],
      [
        "▁enjoyed",
        -8.365466672936455
      ],
      [
        "▁curious",
        -8.369052369396208
      ],
      [
        "▁full",
        -8.374174127592843
      ],
      [
        "▁hear",
        -8.377537856388011
      ],
      [
        "▁voice",
        -8.377761491060621
      ],
      [
        "▁soft",
        -8.381091929011237
      ],
      [
        "▁buy",
        -8.382889697148565
      ],
      [
        "▁worked",
        -8.384119943451685
      ],
      [
        "▁followed",
        -8.38490643210228
      ],
      [
        "▁doll",
        -8.394062056277008
      ],
      [
        "▁ready",
        -8.395986400481378
      ],
      [
        "▁There",
        -8.39636800245603
      ],
      [
        "▁needed",
        -8.405224194502182
      ],
      [
        "▁seen",
        -8.407322152336013
      ],
      [
        "able",
        -8.408093716686203
      ],
      [
        "▁parents",
        -8.40964692528843
      ],
      [
        "After",
        -8.40996880164601
      ],
      [
        "▁forest",
        -8.414123360557777
      ],
      [
        "▁work",
        -8.414661416390945
      ],
      [
        "▁mouse",
        -8.41607040322972
      ],
      [
        "▁friend,",
        -8.41655003966193
      ],
      [
        "▁cake",
        -8.418844371179743
      ],
      [
        "▁care",
        -8.41959927141091
      ],
      [
        "▁yummy",
        -8.420293176117275
      ],
      [
        "Timmy's",
        -8.421387995958016
      ],
      [
        ".\n\nWhen",
        -8.421943496366628
      ],
      [
        "▁funny",
        -8.42346891837869
      ],
      [
        "\n\nBut",
        -8.426578813108343
      ],
      [
        "▁dog.",
        -8.434878983514329
      ],
      [
        "▁thing",
        -8.435359558156462
      ],
      [
        "▁bed",
        -8.440812223273772
      ],
      [
        "▁girl.",
        -8.4452439067201
      ],
      [
        "▁down.",
        -8.445765699994848
      ],
      [
        "▁Lila",
        -8.446402846986965
      ],
      [
        "▁carefully",
        -8.45579847478086
      ],
      [
        "▁filled",
        -8.457617241526362
      ],
      [
        "▁ball.",
        -8.461253813170442
      ],
      [
        "▁name",
        -8.46353317937655
      ],
      [
        "▁strong",
        -8.467578890639409
      ],
      [
        "▁Joe",
        -8.46803301506677
      ],
      [
        "▁happily",
        -8.46824421425214
      ],
      [
        "▁left",
        -8.470997073188304
      ],
      [
        "▁around.",
        -8.471018973005823
      ],
      [
        "▁continued",
        -8.47236090724951
      ],
      [
        "▁book",
        -8.474285061372603
      ],
      [
        "'ll",
        -8.476580802884595
      ],
      [
        "▁dress",
        -8.479044708306136
      ],
      [
        "▁stop",
        -8.484255966489618
      ],
      [
        "▁lost",
        -8.485710250951431
      ],
      [
        "▁noise.",
        -8.48848272324898
      ],
      [
        "\"Don't",
        -8.488550291231048
      ],
      [
        "That",
        -8.491515573355445
      ],
      [
        "▁wonderful",
        -8.491559849435548
      ],
      [
        "▁rock",
        -8.49247739113482
      ],
      [
        "?",
        -8.498820419051242
      ],
      [
        "▁someone",
        -8.506402408250693
      ],
      [
        "▁wants",
        -8.510180322627516
      ],
      [
        "▁box.",
        -8.511074467140286
      ],
      [
        "▁cars",
        -8.512995802670064
      ],
      [
        "▁finally",
        -8.513268121257003
      ],
      [
        "▁getting",
        -8.515180768534732
      ],
      [
        "▁top",
        -8.522647809103447
      ],
      [
        "A",
        -8.525454904750504
      ],
      [
        "▁stayed",
        -8.526755746986119
      ],
      [
        "▁read",
        -8.527633150087363
      ],
      [
        "▁asked,",
        -8.529545457157955
      ],
      [
        "▁ask",
        -8.530909545176021
      ],
      [
        "▁any",
        -8.534849637624788
      ],
      [
        "Maybe",
        -8.535823074230144
      ],
      [
        "▁ice",
        -8.53792881562927
      ],
      [
        "▁pink",
        -8.53918770756186
      ],
      [
        "▁tall",
        -8.539864729715125
      ],
      [
        "▁head",
        -8.540624971766261
      ],
      [
        "▁few",
        -8.543586692354323
      ],
      [
        "▁forgot",
        -8.544460826569505
      ],
      [
        "▁climb",
        -8.545503254263478
      ],
      [
        "▁turned",
        -8.545580351610063
      ],
      [
        "\"That's",
        -8.549908206563272
      ],
      [
        "▁kids",
        -8.555117057001798
      ],
      [
        "▁own",
        -8.555776154818632
      ],
      [
        "▁flower",
        -8.558375781086397
      ],
      [
        "▁close",
        -8.561750382593004
      ],
      [
        "This",
        -8.563513718989986
      ],
      [
        "\n\nSuddenly,",
        -8.563954217406343
      ],
      [
        "▁wind",
        -8.56401323058088
      ],
      [
        "▁climbed",
        -8.57058452163812
      ],
      [
        "▁picture",
        -8.570777396054648
      ],
      [
        "▁jump",
        -8.578469214060924
      ],
      [
        "It's",
        -8.578680152199993
      ],
      [
        "▁baby",
        -8.581566017108111
      ],
      [
        "\n\nHe",
        -8.58176067586944
      ],
      [
        "▁\"Can",
        -8.587896549484705
      ],
      [
        "▁dark",
        -8.588174462134885
      ],
      [
        "▁tired",
        -8.589777940779797
      ],
      [
        "▁makes",
        -8.591970507669199
      ],
      [
        "▁far",
        -8.592294865683732
      ],
      [
        "▁brother",
        -8.597192191045233
      ],
      [
        "▁fix",
        -8.59915310631988
      ],
      [
        "▁happened.",
        -8.599268556379673
      ],
      [
        "▁friendly",
        -8.604115758630012
      ],
      [
        "Then,",
        -8.606917469436462
      ],
      [
        "▁us",
        -8.608143265344708
      ],
      [
        "▁trying",
        -8.609077275997715
      ],
      [
        ".\n\nShe",
        -8.61393834573064
      ],
      [
        "▁sometimes",
        -8.616100025038376
      ],
      [
        "▁frog",
        -8.617835766401402
      ],
      [
        "▁Tommy",
        -8.618877358588769
      ],
      [
        "▁dad.",
        -8.62049610041702
      ],
      [
        "▁away,",
        -8.62110656770844
      ],
      [
        "▁paper",
        -8.621656750272372
      ],
      [
        "▁bird.",
        -8.622063072482566
      ],
      [
        "▁brought",
        -8.623010275429229
      ],
      [
        "▁trees",
        -8.624031399980005
      ],
      [
        "▁listened",
        -8.634846542469601
      ],
      [
        "▁surprise",
        -8.63506205319729
      ],
      [
        "▁surprised",
        -8.637193542749346
      ],
      [
        "▁face",
        -8.638660521030888
      ],
      [
        "What",
        -8.639865414614757
      ],
      [
        "▁Sally",
        -8.64404856956569
      ],
      [
        "▁finished",
        -8.647124065011441
      ],
      [
        "▁game",
        -8.647472100853925
      ],
      [
        "▁white",
        -8.647950321524307
      ],
      [
        "▁set",
        -8.648916872344309
      ],
      [
        "▁pulled",
        -8.6492422543393
      ],
      [
        "▁Now",
        -8.65101720421551
      ],
      [
        "▁sweet",
        -8.651324507156342
      ],
      [
        "So,",
        -8.652379579306022
      ],
      [
        "▁thank",
        -8.655533071003134
      ],
      [
        "▁butterfly",
        -8.658587335207205
      ],
      [
        "▁ground",
        -8.662062401551928
      ],
      [
        "▁Daisy",
        -8.662779109806573
      ],
      [
        "▁safe.",
        -8.664229616414092
      ],
      [
        "▁wasn't",
        -8.666120596052822
      ],
      [
        "▁worry,",
        -8.669424963903808
      ],
      [
        "▁children",
        -8.67130360303299
      ],
      [
        "▁towards",
        -8.678354224516674
      ],
      [
        "▁world",
        -8.679894616044527
      ],
      [
        "▁toy.",
        -8.68334300858797
      ],
      [
        "▁cold",
        -8.686725082263127
      ],
      [
        "▁teddy",
        -8.688231502756624
      ],
      [
        "▁face.",
        -8.692131898931784
      ],
      [
        "▁anything",
        -8.69299860077489
      ],
      [
        "▁forest.",
        -8.694600760037849
      ],
      [
        "▁kitchen",
        -8.695264788616871
      ],
      [
        "▁might",
        -8.696835105512081
      ],
      [
        "▁Benny",
        -8.697192583181144
      ],
      [
        "▁mother",
        -8.69866182549745
      ],
      [
        "a€TMs",
        -8.69876776349458
      ],
      [
        "▁hole",
        -8.699180181555557
      ],
      [
        "▁out.",
        -8.704547017493738
      ],
      [
        "▁sit",
        -8.70576114342434
      ],
      [
        "▁runs",
        -8.709891300684394
      ],
      [
        "▁living",
        -8.710798193323418
      ],
      [
        "▁done",
        -8.716399132220118
      ],
      [
        "▁moral",
        -8.718240996968614
      ],
      [
        ".\n\nSuddenly,",
        -8.719523862727165
      ],
      [
        "▁cry.",
        -8.719839510502368
      ],
      [
        "▁lion",
        -8.719964597832481
      ],
      [
        "▁smile.",
        -8.726893037136012
      ],
      [
        "▁promised",
        -8.726964018164402
      ],
      [
        "▁swing",
        -8.727331185911027
      ],
      [
        "▁Billy",
        -8.729503301742646
      ],
      [
        "▁friends,",
        -8.73185114318062
      ],
      [
        "▁shared",
        -8.732616177797075
      ],
      [
        "▁grass",
        -8.732883133226998
      ],
      [
        "▁while,",
        -8.733352761396397
      ],
      [
        "▁blocks",
        -8.736363622377274
      ],
      [
        "▁agreed",
        -8.740026006897951
      ],
      [
        "▁delicious",
        -8.741295163930149
      ],
      [
        "▁hot",
        -8.742526357212768
      ],
      [
        "ing",
        -8.745021366167174
      ],
      [
        "▁cried",
        -8.746065288535311
      ],
      [
        ".\n\n\"Look,",
        -8.746175351132543
      ],
      [
        "▁boy.",
        -8.746492663685332
      ],
      [
        "▁cool",
        -8.746694818168935
      ],
      [
        "▁pretend",
        -8.748231509028642
      ],
      [
        "▁door.",
        -8.75171089731658
      ],
      [
        "\n\nAfter",
        -8.752495824961558
      ],
      [
        "▁talk",
        -8.753229416763455
      ],
      [
        "▁stick",
        -8.754364205863977
      ],
      [
        "▁thinks",
        -8.754874760669013
      ],
      [
        "▁doing",
        -8.755564715645903
      ],
      [
        ".\"\n\nThe",
        -8.764111235452734
      ],
      [
        "\n\nFrom",
        -8.76500307039618
      ],
      [
        "▁mom,",
        -8.774900990116286
      ],
      [
        "▁everything",
        -8.776122865549466
      ],
      [
        "▁pond",
        -8.778308777801259
      ],
      [
        "▁broken",
        -8.781567357552962
      ],
      [
        "▁deep",
        -8.786025665750481
      ],
      [
        "▁Tim.",
        -8.786676765853029
      ],
      [
        "▁squirrel",
        -8.78683991450347
      ],
      [
        "▁colors",
        -8.789169142027168
      ],
      [
        "▁suc",
        -8.789839151174867
      ],
      [
        "▁waited",
        -8.793528245921513
      ],
      [
        "▁bag",
        -8.796814354477489
      ],
      [
        "▁flying",
        -8.801383122343417
      ],
      [
        "▁All",
        -8.80226043864034
      ],
      [
        "\n\nHer",
        -8.805062768117148
      ],
      [
        "▁say,",
        -8.805665174621044
      ],
      [
        "▁ride",
        -8.811209267606252
      ],
      [
        "▁leave",
        -8.812026405200605
      ],
      [
        "▁animals.",
        -8.814159099660172
      ],
      [
        "▁fox",
        -8.814362635542803
      ],
      [
        "▁Max.",
        -8.814983015268776
      ],
      [
        "▁draw",
        -8.815647621257453
      ],
      [
        "▁move",
        -8.816244062466303
      ],
      [
        "▁across",
        -8.821958887213553
      ],
      [
        "▁shouted",
        -8.826718309402963
      ],
      [
        "▁join",
        -8.827592993763384
      ],
      [
        ":",
        -8.828023418549929
      ],
      [
        "▁himself",
        -8.829711983184676
      ],
      [
        "▁slowly",
        -8.83281977465429
      ],
      [
        "▁much.",
        -8.834697736789087
      ],
      [
        "▁kitchen.",
        -8.834911352037674
      ],
      [
        "▁duck",
        -8.838189386744888
      ],
      [
        "▁wear",
        -8.838710432317088
      ],
      [
        ".\n\nHe",
        -8.838956293129316
      ],
      [
        "▁nodded.",
        -8.842547767763781
      ],
      [
        "▁helping",
        -8.843860045595937
      ],
      [
        "\"That",
        -8.84402235970308
      ],
      [
        "▁puppy",
        -8.844601543072601
      ],
      [
        "▁threw",
        -8.84514147761277
      ],
      [
        "▁stepped",
        -8.845427218074189
      ],
      [
        "▁most",
        -8.847676032962806
      ],
      [
        "▁family.",
        -8.850146416840651
      ],
      [
        "▁lesson",
        -8.850602653431256
      ],
      [
        "▁magical",
        -8.854200890281728
      ],
      [
        "▁rain",
        -8.85423889739316
      ],
      [
        "▁hug.",
        -8.856013621759368
      ],
      [
        "▁before.",
        -8.857129822279543
      ],
      [
        "▁scary",
        -8.857395593640263
      ],
      [
        "▁owner",
        -8.861101975121123
      ],
      [
        "▁sing",
        -8.861737069294616
      ],
      [
        "▁colorful",
        -8.864283434944914
      ],
      [
        "▁believe",
        -8.864646301589774
      ],
      [
        "▁Molly",
        -8.865065821667478
      ],
      [
        "▁cut",
        -8.865076031894219
      ],
      [
        "▁adventure.",
        -8.866493976358907
      ],
      [
        "▁leaves",
        -8.867812464190584
      ],
      [
        "▁park,",
        -8.867857571296968
      ],
      [
        "▁sound",
        -8.870659508580234
      ],
      [
        "▁head.",
        -8.87117401612491
      ],
      [
        "\"This",
        -8.873718414623076
      ],
      [
        "\".",
        -8.882913599857773
      ],
      [
        "▁Mom.",
        -8.883440060493692
      ],
      [
        "▁perfect",
        -8.883838236352998
      ],
      [
        "▁met",
        -8.884299338220519
      ],
      [
        "▁nice.",
        -8.88630812227246
      ],
      [
        "\"It",
        -8.887171268022373
      ],
      [
        "▁amazing",
        -8.893081544509977
      ],
      [
        "▁window",
        -8.89368098531519
      ],
      [
        "▁daddy",
        -8.89455005045041
      ],
      [
        "▁must",
        -8.896036215596173
      ],
      [
        "▁pictures",
        -8.897168095421629
      ],
      [
        "▁books",
        -8.897462383791702
      ],
      [
        "▁slide.",
        -8.898085660873566
      ],
      [
        "▁hoped",
        -8.900882575091066
      ],
      [
        "▁floor.",
        -8.901374000051366
      ],
      [
        "▁hand.",
        -8.903010524204761
      ],
      [
        "▁farmer",
        -8.903869415418544
      ],
      [
        "▁fire",
        -8.904153942558775
      ],
      [
        "▁remember",
        -8.905149035089755
      ],
      [
        "▁visit",
        -8.906902868362756
      ],
      [
        "▁reach",
        -8.906956082419732
      ],
      [
        "▁Amy",
        -8.907360959250749
      ],
      [
        "▁careful.",
        -8.909584454567034
      ],
      [
        "▁strange",
        -8.911538459871984
      ],
      [
        "▁scared,",
        -8.913010319094129
      ],
      [
        "▁wouldn't",
        -8.91309567697987
      ],
      [
        "▁feels",
        -8.913765772313312
      ],
      [
        "▁hide",
        -8.91791390868487
      ],
      [
        "hat",
        -8.921955254856908
      ],
      [
        "▁night,",
        -8.923433160528317
      ],
      [
        "▁understand",
        -8.923434461390856
      ],
      [
        "▁enough",
        -8.92607253361007
      ],
      [
        "▁special.",
        -8.926110454532385
      ],
      [
        "▁rest",
        -8.927396493737639
      ],
      [
        "▁hands.",
        -8.931298421670434
      ],
      [
        "▁light",
        -8.93391585819209
      ],
      [
        "▁wet",
        -8.93537246786256
      ],
      [
        "▁drove",
        -8.937619677285037
      ],
      [
        "▁grass.",
        -8.938418394124467
      ],
      [
        "\n\nHis",
        -8.940528469175527
      ],
      [
        "▁closed",
        -8.941437026024063
      ],
      [
        "▁same",
        -8.9416847803295
      ],
      [
        "▁start",
        -8.942206002978715
      ],
      [
        "▁cookies",
        -8.943786398949419
      ],
      [
        "▁without",
        -8.944297376683604
      ],
      [
        "▁else",
        -8.944866813033823
      ],
      [
        "▁pushed",
        -8.946280968065237
      ],
      [
        "▁hair",
        -8.947570619485795
      ],
      [
        "▁bed.",
        -8.948505223552916
      ],
      [
        "▁food.",
        -8.956376723835874
      ],
      [
        "▁arrived",
        -8.95708530609468
      ],
      [
        "\n\nAs",
        -8.96280406669817
      ],
      [
        "▁eating",
        -8.962980996591348
      ],
      [
        "▁bear.",
        -8.964163783009223
      ],
      [
        "▁broke",
        -8.966358860009258
      ],
      [
        "▁bigger",
        -8.967843924731039
      ],
      [
        "▁grateful",
        -8.971121269623906
      ],
      [
        "▁moment",
        -8.974883805296395
      ],
      [
        "▁brown",
        -8.975118721343673
      ],
      [
        "▁\"But",
        -8.976616685650018
      ],
      [
        "▁clothes",
        -8.976660414239804
      ],
      [
        "▁Daddy",
        -8.977726561716594
      ],
      [
        "▁man.",
        -8.981718990087101
      ],
      [
        "▁black",
        -8.982744053735818
      ],
      [
        "▁cream",
        -8.984402202821528
      ],
      [
        "Their",
        -8.984463601677689
      ],
      [
        "▁adventure",
        -8.987405030795154
      ],
      [
        "▁fast.",
        -8.99540356566454
      ],
      [
        "y",
        -8.995880035417361
      ],
      [
        "o",
        -8.9998701212901
      ],
      [
        "▁clapped",
        -9.00117572152506
      ],
      [
        "▁there.",
        -9.004081543291354
      ],
      [
        "▁night",
        -9.005469775723268
      ],
      [
        "▁me.",
        -9.007184092544785
      ],
      [
        "▁laugh",
        -9.00976310639112
      ],
      [
        "▁asked.",
        -9.01282201738561
      ],
      [
        "▁wrong.",
        -9.014644757141335
      ],
      [
        "▁silly",
        -9.01600944229534
      ],
      [
        "▁cry",
        -9.0186049798423
      ],
      [
        "▁Sam.",
        -9.02123121093885
      ],
      [
        "▁sang",
        -9.023547361461935
      ],
      [
        "▁more.",
        -9.02426092400063
      ],
      [
        "▁herself",
        -9.02540770444591
      ],
      [
        "▁build",
        -9.027240860317407
      ],
      [
        "▁flowers.",
        -9.034414752534827
      ],
      [
        "▁hill",
        -9.03471442474591
      ],
      [
        "▁around,",
        -9.038563929897764
      ],
      [
        "▁you.\"",
        -9.038929140907532
      ],
      [
        "▁piece",
        -9.039485782714442
      ],
      [
        "▁Jill",
        -9.041291423122015
      ],
      [
        "sorry,",
        -9.043320791655994
      ],
      [
        "and",
        -9.04647926642722
      ],
      [
        ".\n\nAs",
        -9.047125347686418
      ],
      [
        "▁shook",
        -9.05144270832629
      ],
      [
        "▁turn",
        -9.055736901545847
      ],
      [
        "▁bad.",
        -9.055861175365585
      ],
      [
        "▁pond.",
        -9.05595239190519
      ],
      [
        "▁hugs",
        -9.057132699905678
      ],
      [
        "▁work.",
        -9.058121236974017
      ],
      [
        "▁train",
        -9.059111599231786
      ],
      [
        "▁listen.",
        -9.061410409041262
      ],
      [
        "▁seemed",
        -9.06165507417025
      ],
      [
        "▁child",
        -9.062012365039456
      ],
      [
        "▁longer",
        -9.064364348660991
      ],
      [
        "▁young",
        -9.064481087418018
      ],
      [
        "▁okay",
        -9.066143356664574
      ],
      [
        "▁stuck",
        -9.066618048037586
      ],
      [
        "▁hold",
        -9.068106474217117
      ],
      [
        "▁amazed",
        -9.068490870855562
      ],
      [
        "\n\nTimmy",
        -9.071575306946256
      ],
      [
        "▁dropped",
        -9.07345663046315
      ],
      [
        "▁swam",
        -9.074514327427229
      ],
      [
        "▁monster",
        -9.075735066816542
      ],
      [
        ".\n\nTom",
        -9.076123533088365
      ],
      [
        "▁taking",
        -9.078736065686098
      ],
      [
        "▁floor",
        -9.079457589600551
      ],
      [
        "▁grandma",
        -9.081799230207656
      ],
      [
        "▁woke",
        -9.082474554309679
      ],
      [
        "▁table",
        -9.083847039376106
      ],
      [
        "▁dance",
        -9.084935383579776
      ],
      [
        "▁caught",
        -9.08504743306252
      ],
      [
        ".\n\n\"Wow,",
        -9.08525608014552
      ],
      [
        "▁year",
        -9.086577439738214
      ],
      [
        "▁fairy",
        -9.086646866017098
      ],
      [
        "▁castle",
        -9.088569958315741
      ],
      [
        "▁swim",
        -9.089313123684015
      ],
      [
        "▁bug",
        -9.094339228767112
      ],
      [
        "▁one.",
        -9.096520656638301
      ],
      [
        "▁spot",
        -9.10144058512201
      ],
      [
        "▁beach",
        -9.101609056350577
      ],
      [
        "▁eyes.",
        -9.102169291077571
      ],
      [
        "▁hit",
        -9.102189943460521
      ],
      [
        "▁pet",
        -9.102256111469474
      ],
      [
        "▁moved",
        -9.104796639143506
      ],
      [
        "okay,",
        -9.104961477967226
      ],
      [
        "f",
        -9.105461788018795
      ],
      [
        "!a€",
        -9.106217542312885
      ],
      [
        "▁\"Why",
        -9.106884969458813
      ],
      [
        "▁bite",
        -9.113499571914101
      ],
      [
        "▁enjoy",
        -9.11356969610051
      ],
      [
        "▁break",
        -9.11451405098522
      ],
      [
        "▁wise",
        -9.115660279771022
      ],
      [
        "▁wondered",
        -9.115957212945965
      ],
      [
        "▁tiny",
        -9.11599227063789
      ],
      [
        "▁gentle",
        -9.118341859377265
      ],
      [
        "▁though",
        -9.121139647440486
      ],
      [
        "▁hungry",
        -9.121662657936485
      ],
      [
        "▁lesson.",
        -9.12185398425957
      ],
      [
        "▁dragon",
        -9.12282267872903
      ],
      [
        "▁Anna.",
        -9.124059204472468
      ],
      [
        "▁together,",
        -9.124325465985976
      ],
      [
        "▁holding",
        -9.125339809246366
      ],
      [
        "▁sitting",
        -9.125892116979196
      ],
      [
        "▁job",
        -9.131629326157011
      ],
      [
        "▁race",
        -9.134092578300722
      ],
      [
        "▁princess",
        -9.135430898320674
      ],
      [
        "▁table.",
        -9.135842735977366
      ],
      [
        "▁turns",
        -9.137742908977597
      ],
      [
        "▁Inside",
        -9.138318626867635
      ],
      [
        "▁takes",
        -9.140070927960503
      ],
      [
        "▁it!",
        -9.140784849137024
      ],
      [
        "▁money",
        -9.141206097410034
      ],
      [
        "▁smiles",
        -9.142480049819504
      ],
      [
        "▁explained",
        -9.14372287602764
      ],
      [
        "▁hard.",
        -9.145272775789051
      ],
      [
        "▁side",
        -9.149205477117276
      ],
      [
        "▁Mary",
        -9.153466927183242
      ],
      [
        ".\n\n\"Let's",
        -9.153872401253771
      ],
      [
        "▁magic",
        -9.154747652322769
      ],
      [
        "▁Thank",
        -9.15629938755157
      ],
      [
        "▁excited!",
        -9.156864275261858
      ],
      [
        "▁sister",
        -9.15801739842434
      ],
      [
        "▁forget",
        -9.158168389242253
      ],
      [
        "▁said:",
        -9.159252327893425
      ],
      [
        "▁purple",
        -9.161980524811394
      ],
      [
        "▁animal",
        -9.164483051718
      ],
      [
        "▁again,",
        -9.165848616521597
      ],
      [
        "▁Come",
        -9.168063056685561
      ],
      [
        "▁idea",
        -9.168283454450146
      ],
      [
        "▁pull",
        -9.169248685956742
      ],
      [
        "▁good.",
        -9.171155960421075
      ],
      [
        "▁brave.",
        -9.17183676756985
      ],
      [
        "▁higher",
        -9.171884482042978
      ],
      [
        "▁voice.",
        -9.172229953081573
      ],
      [
        "▁curious.",
        -9.17331763655515
      ],
      [
        "▁bring",
        -9.1755506413394
      ],
      [
        "▁pieces",
        -9.176121167894852
      ],
      [
        "▁heavy",
        -9.177352597698446
      ],
      [
        "▁suddenly",
        -9.1774536741082
      ],
      [
        "▁grab",
        -9.180031458730555
      ],
      [
        "▁sign",
        -9.180854723725863
      ],
      [
        "▁faster",
        -9.18091570469617
      ],
      [
        "▁go.",
        -9.182302047830232
      ],
      [
        "▁onto",
        -9.187368622100102
      ],
      [
        "▁dolls",
        -9.187604469280325
      ],
      [
        "▁happy!",
        -9.18797916231557
      ],
      [
        "▁wish",
        -9.188550030922812
      ],
      [
        "▁Mama",
        -9.18919551331633
      ],
      [
        "▁morning,",
        -9.190302006171672
      ],
      [
        "▁owl",
        -9.192195008528659
      ],
      [
        "▁3",
        -9.193783943419163
      ],
      [
        "▁touched",
        -9.194672369435438
      ],
      [
        "▁orange",
        -9.196073224534667
      ],
      [
        "\n\nShe",
        -9.19665137205518
      ],
      [
        "▁huge",
        -9.200839289037836
      ],
      [
        "▁along",
        -9.201035067007965
      ],
      [
        ".\n\n\"Can",
        -9.202347941113752
      ],
      [
        "▁teacher",
        -9.20248930645846
      ],
      [
        "▁monkey",
        -9.20259940861565
      ],
      [
        "▁air",
        -9.202659434114711
      ],
      [
        "▁laughed.",
        -9.203420208548511
      ],
      [
        "▁exploring",
        -9.203476439408316
      ],
      [
        "▁worried",
        -9.203639047928592
      ],
      [
        "▁music",
        -9.203746059013396
      ],
      [
        "▁bowl",
        -9.203923222308216
      ],
      [
        "▁gone",
        -9.204293836567642
      ],
      [
        "▁paint",
        -9.207633578569347
      ],
      [
        "▁was.",
        -9.21037849394504
      ],
      [
        "▁bike",
        -9.210600011636695
      ],
      [
        "▁sunny",
        -9.214039569448037
      ],
      [
        "▁won't",
        -9.216336951441468
      ],
      [
        "▁smart",
        -9.21734821079041
      ],
      [
        "▁welcome",
        -9.220789813870411
      ],
      [
        "▁comes",
        -9.222242834437852
      ],
      [
        "▁mommy.",
        -9.223692630044251
      ],
      [
        "▁bee",
        -9.227412812795938
      ],
      [
        "▁cheered",
        -9.229485794323155
      ],
      [
        "▁accidentally",
        -9.230295423786309
      ],
      [
        "▁it!\"",
        -9.231475013995816
      ],
      [
        "▁candy",
        -9.233813268256938
      ],
      [
        "▁tail",
        -9.234349471701377
      ],
      [
        ".\"\n\nTom",
        -9.236340356314834
      ],
      [
        "▁himself.",
        -9.23850180530237
      ],
      [
        "▁real",
        -9.240048428747468
      ],
      [
        "▁him,",
        -9.241583299791182
      ],
      [
        "Finally,",
        -9.243238222510524
      ],
      [
        "▁follow",
        -9.243398289811829
      ],
      [
        "▁world.",
        -9.244027693553157
      ],
      [
        "▁\"Do",
        -9.244564356295982
      ],
      [
        "\n\nSo",
        -9.245095544329034
      ],
      [
        "▁nothing",
        -9.245347864797118
      ],
      [
        ".\n\nMom",
        -9.246347698598454
      ],
      [
        "▁long.",
        -9.249998718625765
      ],
      [
        "▁game.",
        -9.251189058677314
      ],
      [
        "▁doctor",
        -9.251450785666016
      ],
      [
        "▁blocks.",
        -9.253488611032056
      ],
      [
        "▁pointed",
        -9.254856273789672
      ],
      [
        "▁searched",
        -9.25885449291422
      ],
      [
        "▁quiet",
        -9.26091101685723
      ],
      [
        "!\"\n\nThe",
        -9.26151786668079
      ],
      [
        "▁watching",
        -9.261652341742993
      ],
      [
        "▁Jimmy",
        -9.263572086962952
      ],
      [
        "▁cat.",
        -9.263809160013691
      ],
      [
        "▁tower",
        -9.265281667875653
      ],
      [
        "▁party",
        -9.26581895577676
      ],
      [
        "▁Mr.",
        -9.266488717900945
      ],
      [
        "▁others",
        -9.268178109414475
      ],
      [
        "▁singing",
        -9.2690332384087
      ],
      [
        "▁soon.",
        -9.269058708470922
      ],
      [
        "▁place.",
        -9.269342344153385
      ],
      [
        "▁wings",
        -9.269471661748453
      ],
      [
        "▁happened",
        -9.271570360280275
      ],
      [
        "▁cake.",
        -9.272226772220408
      ],
      [
        "▁bought",
        -9.273616143500131
      ],
      [
        "▁words",
        -9.276033821745857
      ],
      [
        "▁truck.",
        -9.276339758164859
      ],
      [
        ".\n\nAfter",
        -9.27692632181803
      ],
      [
        "▁explore.",
        -9.277010345952903
      ],
      [
        "▁jar",
        -9.278736368677238
      ],
      [
        "▁lake",
        -9.279720154690176
      ],
      [
        "▁way.",
        -9.281316544175322
      ],
      [
        "▁fit",
        -9.285009726037279
      ],
      [
        "▁cried.",
        -9.285154379877975
      ],
      [
        "▁blanket",
        -9.286351712159417
      ],
      [
        "▁Emma",
        -9.286377460428143
      ],
      [
        "▁hurt.",
        -9.286989242785147
      ],
      [
        "▁alone",
        -9.28731102474842
      ],
      [
        "\"Mommy,",
        -9.290313451435301
      ],
      [
        "▁talked",
        -9.292599183808703
      ],
      [
        "\n\nAt",
        -9.293296133654717
      ],
      [
        "▁swimming",
        -9.296659459788197
      ],
      [
        "▁late.",
        -9.297069537227532
      ],
      [
        "With",
        -9.297764240435207
      ],
      [
        "▁sleep",
        -9.298745203329508
      ],
      [
        "▁busy",
        -9.298979859211395
      ],
      [
        "▁town",
        -9.306323710486941
      ],
      [
        "▁swings",
        -9.306498603664586
      ],
      [
        "▁okay.",
        -9.308057339016443
      ],
      [
        "▁wrong",
        -9.310655572065087
      ],
      [
        "?\"\n\nLily",
        -9.311273571845605
      ],
      [
        "\"Okay,",
        -9.312867990440218
      ],
      [
        "▁sun.",
        -9.312886491983248
      ],
      [
        "▁driver",
        -9.31300034946169
      ],
      [
        "▁mess.",
        -9.31368686725188
      ],
      [
        "▁kind.",
        -9.31436827815089
      ],
      [
        "▁Grandma",
        -9.31513315293431
      ],
      [
        "▁it?\"",
        -9.315332760922102
      ],
      [
        "▁dry",
        -9.316105349001688
      ],
      [
        "▁sounds",
        -9.318884662981226
      ],
      [
        "▁fun!",
        -9.320373334225314
      ],
      [
        "▁Jack.",
        -9.321413565047562
      ],
      [
        "▁apple",
        -9.321877102733866
      ],
      [
        "▁with.",
        -9.32417922062266
      ],
      [
        "▁smelled",
        -9.325183121483485
      ],
      [
        "\"Wow,",
        -9.325335860944582
      ],
      [
        "▁house,",
        -9.326049382357294
      ],
      [
        "▁shoes",
        -9.326098951507342
      ],
      [
        "▁woods",
        -9.32692153367207
      ],
      [
        "▁hope",
        -9.328533816101759
      ],
      [
        "▁gone.",
        -9.328792817970793
      ],
      [
        "▁spotted",
        -9.328954712535579
      ],
      [
        "▁dinner.",
        -9.32944622141813
      ],
      [
        "▁in.",
        -9.32946291326161
      ],
      [
        "▁yes",
        -9.330454700695272
      ],
      [
        "▁dirty",
        -9.330878886242465
      ],
      [
        "▁mess",
        -9.335046759984332
      ],
      [
        "!\n\nThe",
        -9.33710613430286
      ],
      [
        "▁games",
        -9.339704563542831
      ],
      [
        "▁round",
        -9.33973671757571
      ],
      [
        ".\n\n\"No,",
        -9.344193560422566
      ],
      [
        "▁sharp",
        -9.344509631839152
      ],
      [
        "▁naughty",
        -9.34452491605665
      ],
      [
        "▁eat.",
        -9.344549397716568
      ],
      [
        "▁balloon",
        -9.345158557104117
      ],
      [
        "▁woods.",
        -9.345264596442027
      ],
      [
        "▁which",
        -9.347628692810533
      ],
      [
        "\n\nJohn",
        -9.347673664182748
      ],
      [
        "▁Sammy",
        -9.354309406249756
      ],
      [
        "▁tired.",
        -9.354626099571945
      ],
      [
        "\n\nJack",
        -9.35791835821735
      ],
      [
        "▁front",
        -9.3596949721322
      ],
      [
        "▁joy",
        -9.359799569111065
      ],
      [
        "▁stories",
        -9.360507501769087
      ],
      [
        "▁stars",
        -9.36378286425868
      ],
      [
        "▁secret",
        -9.363868812487777
      ],
      [
        "▁store.",
        -9.36494840688691
      ],
      [
        "?\"\n\nThe",
        -9.36987421114703
      ],
      [
        "▁elephant",
        -9.37153919309386
      ],
      [
        ".\n\nAt",
        -9.376138944635763
      ],
      [
        "▁whole",
        -9.377162591657175
      ],
      [
        "▁right.",
        -9.378386885525947
      ],
      [
        "▁wearing",
        -9.37842707628007
      ],
      [
        "▁forgive",
        -9.382741557516638
      ],
      [
        "▁nearby",
        -9.383749699253663
      ],
      [
        "▁please",
        -9.384417665697487
      ],
      [
        "▁daughter",
        -9.385293489269612
      ],
      [
        "▁field",
        -9.385388676632076
      ],
      [
        "▁goes",
        -9.385672221507015
      ],
      [
        "▁school",
        -9.385951607489547
      ],
      [
        "▁tight",
        -9.386783089758447
      ],
      [
        "That's",
        -9.38698828368263
      ],
      [
        "▁strong.",
        -9.387058476261954
      ],
      [
        "▁rocks",
        -9.387343878547092
      ],
      [
        "'",
        -9.387581596799617
      ],
      [
        "▁danced",
        -9.392039789866134
      ],
      [
        "▁bucket",
        -9.392412279718123
      ],
      [
        "▁tries",
        -9.392657462583552
      ],
      [
        ".\"\n\nBen",
        -9.394828417477806
      ],
      [
        "▁\"Maybe",
        -9.3963888132045
      ],
      [
        "▁song",
        -9.396437523404865
      ],
      [
        "▁doll.",
        -9.397466715826425
      ],
      [
        "▁chair",
        -9.399826465871609
      ],
      [
        "▁smiled,",
        -9.400420077700318
      ],
      [
        "▁hill.",
        -9.402729557032172
      ],
      [
        "▁Fluffy",
        -9.40280332050857
      ],
      [
        "▁mom's",
        -9.40327535714106
      ],
      [
        ".\n\nBen",
        -9.403997296836394
      ],
      [
        "▁woman",
        -9.40406760283784
      ],
      [
        "▁book.",
        -9.404322061642665
      ],
      [
        "▁on.",
        -9.406852604581067
      ],
      [
        "▁days",
        -9.408151161447574
      ],
      [
        "▁pile",
        -9.40840160779757
      ],
      [
        "▁upset",
        -9.409148842850223
      ],
      [
        "▁rolled",
        -9.409862469672252
      ],
      [
        "▁matter",
        -9.411342245619066
      ],
      [
        "▁wide",
        -9.41162546950397
      ],
      [
        "▁shining",
        -9.414949387360032
      ],
      [
        "▁bottle",
        -9.415536504568298
      ],
      [
        "▁fight",
        -9.416387170533985
      ],
      [
        "▁spent",
        -9.416525774556074
      ],
      [
        "▁river",
        -9.416966318842176
      ],
      [
        "▁cute",
        -9.41957306613276
      ],
      [
        "▁beach.",
        -9.420055783575892
      ],
      [
        "▁star",
        -9.421573505978868
      ],
      [
        "▁proud.",
        -9.422946624873033
      ],
      [
        "▁drink",
        -9.423991696074884
      ],
      [
        "▁window.",
        -9.424352810173168
      ],
      [
        "▁sound.",
        -9.426490704880878
      ],
      [
        "▁shouted,",
        -9.426893877427297
      ],
      [
        "▁replied",
        -9.428628636549663
      ],
      [
        "▁arrived,",
        -9.429512635182286
      ],
      [
        "▁pretended",
        -9.430812696232401
      ],
      [
        "▁arms",
        -9.430862594652877
      ],
      [
        "▁soup",
        -9.43250867754729
      ],
      [
        "▁noises",
        -9.43499368824976
      ],
      [
        "▁lucky",
        -9.437225373053321
      ],
      [
        "▁afraid",
        -9.441287951507176
      ],
      [
        "▁playing.",
        -9.442366912266362
      ],
      [
        "▁lovely",
        -9.443795050500329
      ],
      [
        "▁herself.",
        -9.446483071495582
      ],
      [
        "▁you!\"",
        -9.448094941463278
      ],
      [
        "▁cozy",
        -9.449190532459191
      ],
      [
        "▁loves",
        -9.449960347437818
      ],
      [
        "▁Lucy.",
        -9.452890146609432
      ],
      [
        "▁person",
        -9.453779078888749
      ],
      [
        ".\n\nTim",
        -9.45590442921246
      ],
      [
        "▁kite",
        -9.456704096793953
      ],
      [
        "ly",
        -9.456814476767505
      ],
      [
        "▁fall",
        -9.457433498846806
      ],
      [
        "▁air.",
        -9.458384384587276
      ],
      [
        "▁crying",
        -9.45877063708889
      ],
      [
        "here",
        -9.460257445897138
      ],
      [
        "▁everywhere",
        -9.461910220475183
      ],
      [
        "▁old.",
        -9.465300548464763
      ],
      [
        "▁giant",
        -9.465689864774935
      ],
      [
        "▁promise",
        -9.466200575125471
      ],
      [
        "▁lonely",
        -9.466997129422309
      ],
      [
        "▁smiles.",
        -9.467437798279894
      ],
      [
        "▁throw",
        -9.467722603499483
      ],
      [
        "▁dangerous",
        -9.468109457862678
      ],
      [
        "▁now.",
        -9.469699508398586
      ],
      [
        "▁Tom's",
        -9.469903661147159
      ],
      [
        "\"Lily,",
        -9.472239629680047
      ],
      [
        ".a€",
        -9.472304535292249
      ],
      [
        "▁key",
        -9.472537128356542
      ],
      [
        "▁\"The",
        -9.47280079409681
      ],
      [
        "▁exciting",
        -9.474523990229123
      ],
      [
        "▁mouth",
        -9.474537466379996
      ],
      [
        "▁hungry.",
        -9.47461407701664
      ],
      [
        "▁treasure",
        -9.475026807522832
      ],
      [
        "▁asks",
        -9.476467721453028
      ],
      [
        "\"Hello,",
        -9.478436563191401
      ],
      [
        "▁tail.",
        -9.47862304780662
      ],
      [
        "▁last",
        -9.480236224338205
      ],
      [
        "▁rock.",
        -9.480512783159778
      ],
      [
        "▁storm",
        -9.480984432295534
      ],
      [
        "▁basket",
        -9.481939544064614
      ],
      [
        "▁alone.",
        -9.482084797687
      ],
      [
        "▁happy,",
        -9.482262624712684
      ],
      [
        "▁dream",
        -9.484168473012
      ],
      [
        ".\n\n",
        -9.485378073833783
      ],
      [
        "▁morning",
        -9.48955904980938
      ],
      [
        "▁wore",
        -9.489924986700538
      ],
      [
        "▁chased",
        -9.490376869710246
      ],
      [
        "▁pot",
        -9.493758504045706
      ],
      [
        "▁relieved",
        -9.494143465238862
      ],
      [
        "▁shapes",
        -9.494586725274718
      ],
      [
        "▁heart",
        -9.496477468851241
      ],
      [
        "▁wild",
        -9.497076587467998
      ],
      [
        "▁Jen",
        -9.502668262502153
      ],
      [
        "▁grow",
        -9.504662396293568
      ],
      [
        "▁pretty.",
        -9.505559754645926
      ],
      [
        "▁fish.",
        -9.50808984047102
      ],
      [
        "▁joy.",
        -9.509798420672533
      ],
      [
        "whenever",
        -9.510889098046734
      ],
      [
        "▁\"Oh",
        -9.511256556554285
      ],
      [
        "▁Spot.",
        -9.514637169614502
      ],
      [
        "▁maybe",
        -9.515490001081186
      ],
      [
        "▁furry",
        -9.516476830181986
      ],
      [
        "\nThe",
        -9.518690020347286
      ],
      [
        "▁Mia.",
        -9.518876983722777
      ],
      [
        "r",
        -9.520698484056155
      ],
      [
        "▁yard.",
        -9.521534900437338
      ],
      [
        "▁lay",
        -9.52418811800881
      ],
      [
        "▁cheese",
        -9.525253237350789
      ],
      [
        "▁blew",
        -9.525775351670202
      ],
      [
        "▁part",
        -9.527283850897373
      ],
      [
        "▁bread",
        -9.530878682622394
      ],
      [
        "▁finish",
        -9.532367363556295
      ],
      [
        "▁call",
        -9.53259447098241
      ],
      [
        "▁tasted",
        -9.53292917355774
      ],
      [
        "▁large",
        -9.534624547493609
      ],
      [
        "▁Everywhere",
        -9.534718258793902
      ],
      [
        "▁Sometimes",
        -9.535166236667502
      ],
      [
        "▁push",
        -9.538800957653581
      ],
      [
        "▁twins.",
        -9.539037398857984
      ],
      [
        "▁it.\"",
        -9.539155235977343
      ],
      [
        "▁anyone",
        -9.539491341792598
      ],
      [
        "▁something.",
        -9.541315780524393
      ],
      [
        "▁off.",
        -9.54412443290103
      ],
      [
        "Just",
        -9.545637281775228
      ],
      [
        "▁pocket",
        -9.546620837970798
      ],
      [
        "▁books.",
        -9.546999209192977
      ],
      [
        "▁juice",
        -9.547424337419544
      ],
      [
        "▁laughing",
        -9.551245146650356
      ],
      [
        "▁cannot",
        -9.55346909425968
      ],
      [
        "▁move.",
        -9.553741091917376
      ],
      [
        "▁wave",
        -9.554336410197692
      ],
      [
        "▁says.\n\n",
        -9.556350554369294
      ],
      [
        "▁dress.",
        -9.55776327459048
      ],
      [
        ".\"\n\n",
        -9.55776461498991
      ],
      [
        "▁clever",
        -9.558244236195359
      ],
      [
        "i",
        -9.558354607188992
      ],
      [
        "▁adventures",
        -9.55860685642337
      ],
      [
        "▁tasty",
        -9.558876693766482
      ],
      [
        "▁twins",
        -9.559843247221048
      ],
      [
        "▁spread",
        -9.560240059717357
      ],
      [
        "▁Tim's",
        -9.561271229233057
      ],
      [
        "▁laugh.",
        -9.56264181827464
      ],
      [
        ".\n\n\"What",
        -9.563618614770494
      ],
      [
        ".\n\n\"Hello,",
        -9.564385872940585
      ],
      [
        "▁waiting",
        -9.564843113845898
      ],
      [
        "▁Mum",
        -9.56657542049445
      ],
      [
        "▁eventually",
        -9.568682947767595
      ],
      [
        "▁landed",
        -9.569795512352682
      ],
      [
        "▁hole.",
        -9.569980530471497
      ],
      [
        "▁me?\"",
        -9.570615674748806
      ],
      [
        "▁wall",
        -9.570626036624123
      ],
      [
        "\"Mom,",
        -9.571021951511867
      ],
      [
        "▁meet",
        -9.572239748148334
      ],
      [
        "▁paper.",
        -9.573091900591747
      ],
      [
        "▁king",
        -9.573197863533752
      ],
      [
        "l",
        -9.573681522634931
      ],
      [
        "▁trees.",
        -9.573992699315841
      ],
      [
        "▁drive",
        -9.574561561780648
      ],
      [
        "▁people.",
        -9.579159739558715
      ],
      [
        "▁dinner",
        -9.581991621571147
      ],
      [
        "▁after.",
        -9.582129580942194
      ],
      [
        "▁Emily",
        -9.582149570846568
      ],
      [
        "▁kids.",
        -9.582959981726653
      ],
      [
        "▁\"Of",
        -9.583557691500532
      ],
      [
        "▁flower.",
        -9.58431481399045
      ],
      [
        "▁else.",
        -9.584665580956205
      ],
      [
        "▁course,",
        -9.585820831347982
      ],
      [
        "▁fence",
        -9.586735133683609
      ],
      [
        "▁How",
        -9.586965335393586
      ],
      [
        "▁rain.",
        -9.589296902908968
      ],
      [
        "▁ducks",
        -9.58982685036756
      ],
      [
        "▁mad",
        -9.589837018932359
      ],
      [
        "▁hears",
        -9.590093091796994
      ],
      [
        "▁rainbow",
        -9.590683390057713
      ],
      [
        "▁cup",
        -9.590692529037623
      ],
      [
        "▁hiding",
        -9.592113246111866
      ],
      [
        "▁talking",
        -9.593026962265998
      ],
      [
        "▁interesting",
        -9.5942240327943
      ],
      [
        "▁stood",
        -9.595719323478063
      ],
      [
        "▁missed",
        -9.59663128886452
      ],
      [
        "▁Jenny",
        -9.59741117311436
      ],
      [
        "▁hid",
        -9.59882563501215
      ],
      [
        "▁gently",
        -9.60053812757148
      ],
      [
        "▁no.",
        -9.601019533580287
      ],
      [
        "▁smell",
        -9.601401378795444
      ],
      [
        "▁almost",
        -9.602524594583528
      ],
      [
        "▁boat.",
        -9.602642690484059
      ],
      [
        "▁nest",
        -9.603131855654324
      ],
      [
        "▁Please",
        -9.60404966849057
      ],
      [
        "▁nose",
        -9.604759057438516
      ],
      [
        "▁others.",
        -9.604988298015531
      ],
      [
        "▁hello",
        -9.605255024852585
      ],
      [
        "▁teach",
        -9.605281645005983
      ],
      [
        "▁healthy",
        -9.60557679141937
      ],
      [
        "▁write",
        -9.606050945378504
      ],
      [
        "▁cars.",
        -9.606441229571383
      ],
      [
        "▁backyard.",
        -9.60644461213062
      ],
      [
        "▁plane",
        -9.606562012521952
      ],
      [
        "▁protect",
        -9.608430434957542
      ],
      [
        "▁knocked",
        -9.61027282962569
      ],
      [
        "▁patient",
        -9.610570011437519
      ],
      [
        "▁gift",
        -9.611105417707941
      ],
      [
        "▁wall.",
        -9.614761464718791
      ],
      [
        "▁walk.",
        -9.615841509821564
      ],
      [
        ".\n\n\"I'm",
        -9.61604892638814
      ],
      [
        "▁playing,",
        -9.618691195397096
      ],
      [
        "▁rope",
        -9.618953026129876
      ],
      [
        "▁branch",
        -9.6211843252829
      ],
      [
        "▁carried",
        -9.623108979906547
      ],
      [
        "▁save",
        -9.623296653725687
      ],
      [
        "Don't",
        -9.624866290860087
      ],
      [
        "▁lake.",
        -9.625180664130248
      ],
      [
        ".\n\nAnna",
        -9.626106661671653
      ],
      [
        "▁Why",
        -9.626200485901643
      ],
      [
        "▁forever.",
        -9.627350225989444
      ],
      [
        "▁castle.",
        -9.629718188071802
      ],
      [
        "▁barked",
        -9.630809048119026
      ],
      [
        "▁horse",
        -9.633012408044547
      ],
      [
        "▁a€œI",
        -9.635048546143336
      ],
      [
        "▁Jim",
        -9.635627961336501
      ],
      [
        "▁grew",
        -9.63570528007074
      ],
      [
        "▁carry",
        -9.639942005487775
      ],
      [
        "Even",
        -9.643866181058058
      ],
      [
        "▁taste",
        -9.646133072769283
      ],
      [
        "▁apples",
        -9.646666516914852
      ],
      [
        "▁hat.",
        -9.647240514719629
      ],
      [
        "▁\n\n",
        -9.650481713978111
      ],
      [
        "▁first.",
        -9.651672630405379
      ],
      [
        "▁count",
        -9.652034783353637
      ],
      [
        "▁jumping",
        -9.652959555723026
      ],
      [
        ".\"\n\nAnna",
        -9.653252857211216
      ],
      [
        "▁On",
        -9.656019755629638
      ],
      [
        "▁farm",
        -9.657010989622117
      ],
      [
        "▁snow",
        -9.658471510390502
      ],
      [
        "▁bow",
        -9.659592755751179
      ],
      [
        "▁taught",
        -9.660827895743159
      ],
      [
        "▁cow",
        -9.661145207670518
      ],
      [
        "\n\nFinally,",
        -9.663072898037331
      ],
      [
        "▁coat",
        -9.66504669914259
      ],
      [
        "▁sort",
        -9.665628919497337
      ],
      [
        "▁shouted.",
        -9.665920109146077
      ],
      [
        "▁me,",
        -9.667854934159859
      ],
      [
        "▁sharing",
        -9.670498094789256
      ],
      [
        "▁journey",
        -9.671213640479976
      ],
      [
        "▁share.",
        -9.673934826828901
      ],
      [
        "▁knowing",
        -9.6754534227425
      ],
      [
        "▁Ben's",
        -9.677198591207246
      ],
      [
        "\"Look,",
        -9.67761268008281
      ],
      [
        "▁tree,",
        -9.678178311092633
      ],
      [
        "▁did.",
        -9.679411156794668
      ],
      [
        ".\"\n\nMom",
        -9.681432135763783
      ],
      [
        "▁standing",
        -9.683829111883812
      ],
      [
        "▁hair.",
        -9.684012170153759
      ],
      [
        "▁screamed",
        -9.684307562380225
      ],
      [
        "Soon,",
        -9.68458675791246
      ],
      [
        "▁know.",
        -9.685341219506938
      ],
      [
        "▁milk",
        -9.686726756244568
      ],
      [
        "▁snake",
        -9.688455555578884
      ],
      [
        "▁button",
        -9.689014855372752
      ],
      [
        "▁Sara.",
        -9.68920545860313
      ],
      [
        "▁surprise.",
        -9.689593274998918
      ],
      [
        "▁spider",
        -9.690767375344532
      ],
      [
        "▁worry",
        -9.69271357437151
      ],
      [
        "▁snowman",
        -9.692824109247344
      ],
      [
        "▁gray",
        -9.693128764527444
      ],
      [
        "▁help,",
        -9.69320263643737
      ],
      [
        "▁leaves.",
        -9.694768274420431
      ],
      [
        "\n\nTom",
        -9.695985716504536
      ],
      [
        "▁Jake",
        -9.696664783322436
      ],
      [
        "▁birthday",
        -9.699037663158014
      ],
      [
        "▁these",
        -9.700226066357965
      ],
      [
        "▁bench",
        -9.700329714909945
      ],
      [
        "▁win",
        -9.70097778283174
      ],
      [
        "▁goodbye.",
        -9.701107703340675
      ],
      [
        "▁\"Look",
        -9.701355570801706
      ],
      [
        "▁could.",
        -9.701364597918795
      ],
      [
        "▁cold.",
        -9.70229304851647
      ],
      [
        "▁thing.",
        -9.70315303350201
      ],
      [
        "▁clouds",
        -9.706502416807488
      ],
      [
        "▁shiny.",
        -9.707195133707595
      ],
      [
        "▁drew",
        -9.707580386033857
      ],
      [
        "▁colors.",
        -9.710107684604035
      ],
      [
        "▁calm",
        -9.712831045702451
      ],
      [
        "▁new.",
        -9.714086888366598
      ],
      [
        "▁well",
        -9.714299553886889
      ],
      [
        "▁hidden",
        -9.718229403528293
      ],
      [
        "▁cookies.",
        -9.720630320849963
      ],
      [
        "▁Mittens",
        -9.72137079896219
      ],
      [
        ".\n\n\"I",
        -9.72332788038711
      ],
      [
        "▁top.",
        -9.723638123085593
      ],
      [
        "▁spoon",
        -9.72385461047984
      ],
      [
        "▁gathered",
        -9.724447196833072
      ],
      [
        "▁returned",
        -9.731643567683765
      ],
      [
        "▁garden,",
        -9.734808991223947
      ],
      [
        "▁dangerous.",
        -9.736483318962874
      ],
      [
        "▁later",
        -9.737423112800379
      ],
      [
        "▁mud",
        -9.7382395254597
      ],
      [
        "\"Sure,",
        -9.739428845839264
      ],
      [
        "▁sea",
        -9.7403767450965
      ],
      [
        "ting",
        -9.742624268595417
      ],
      [
        "▁surprised.",
        -9.743086688584006
      ],
      [
        "▁mysterious",
        -9.744845063192159
      ],
      [
        "▁kissed",
        -9.745935030230665
      ],
      [
        ".\n\n\"Mom,",
        -9.746047934456607
      ],
      [
        "▁lunch",
        -9.746283896085613
      ],
      [
        "▁crying.",
        -9.748237278730382
      ],
      [
        "▁lit",
        -9.748866821243087
      ],
      [
        "\n\nMommy",
        -9.750268580201237
      ],
      [
        "▁letter",
        -9.752701183360974
      ],
      [
        "▁path",
        -9.752822884425813
      ],
      [
        "▁river.",
        -9.753293523625567
      ],
      [
        "▁mean.",
        -9.755552003748388
      ],
      [
        "▁passed",
        -9.756573627060815
      ],
      [
        "▁machine",
        -9.757584154404828
      ],
      [
        "▁smooth",
        -9.757861427625079
      ],
      [
        "▁wood",
        -9.760073671601145
      ],
      [
        "▁back,",
        -9.760703551357876
      ],
      [
        "▁corner",
        -9.76117570156434
      ],
      [
        "▁stand",
        -9.761919434359054
      ],
      [
        "▁hopping",
        -9.762603462242035
      ],
      [
        "▁wagged",
        -9.763272221211857
      ],
      [
        "▁building",
        -9.763626139509025
      ],
      [
        "▁shy",
        -9.76388033449599
      ],
      [
        "▁group",
        -9.76442209266504
      ],
      [
        "▁street.",
        -9.764489427107096
      ],
      [
        "▁hop",
        -9.76510179100448
      ],
      [
        "▁Go",
        -9.766307573373455
      ],
      [
        "▁Little",
        -9.768123056785578
      ],
      [
        "▁moment.",
        -9.76858687349678
      ],
      [
        "▁field.",
        -9.768723517823643
      ],
      [
        "▁nap",
        -9.770832746362904
      ],
      [
        "?a€",
        -9.771889056404
      ],
      [
        "▁minutes",
        -9.772235002195703
      ],
      [
        "▁today",
        -9.774938402854254
      ],
      [
        "▁fancy",
        -9.775108870353781
      ],
      [
        ".\n\nHer",
        -9.775863615389959
      ],
      [
        "▁tea",
        -9.776510174996506
      ],
      [
        "▁street",
        -9.777021379227195
      ],
      [
        "▁anything.",
        -9.778234371697168
      ],
      [
        "▁fruit",
        -9.779776095125698
      ],
      [
        "▁fun!\"",
        -9.780534943137239
      ],
      [
        "▁cave",
        -9.78160497165957
      ],
      [
        ".\n\n\"Yes,",
        -9.781748610124056
      ],
      [
        "▁poor",
        -9.78409378152639
      ],
      [
        "▁picks",
        -9.785069680126531
      ],
      [
        "▁shop",
        -9.786845276774844
      ],
      [
        "▁that?\"",
        -9.787527243094814
      ],
      [
        "▁Lisa",
        -9.7891626261217
      ],
      [
        "▁smiling",
        -9.789243668302325
      ],
      [
        "\"What's",
        -9.78971992609144
      ],
      [
        ".\n\nSara",
        -9.789835664280764
      ],
      [
        "▁taken",
        -9.791708199606386
      ],
      [
        "▁plant",
        -9.792467493037826
      ],
      [
        "▁fixed",
        -9.79271110648482
      ],
      [
        "▁party.",
        -9.794998019144558
      ],
      [
        "▁night.",
        -9.795273034097535
      ],
      [
        "▁chocolate",
        -9.795582150462463
      ],
      [
        "▁tight.",
        -9.796922153880244
      ],
      [
        "▁treat",
        -9.79750211150683
      ],
      [
        "▁packed",
        -9.797806979446438
      ],
      [
        "▁creature",
        -9.798272989572286
      ],
      [
        "▁bush",
        -9.799624559421126
      ],
      [
        "▁especially",
        -9.80041062625797
      ],
      [
        "▁thankful",
        -9.801143060673404
      ],
      [
        "▁determined",
        -9.802724834327563
      ],
      [
        "▁cloud",
        -9.802961619598072
      ],
      [
        "▁worried.",
        -9.80377941583412
      ],
      [
        "▁carrot",
        -9.803891708540531
      ],
      [
        "\n\nSo,",
        -9.804810904785874
      ],
      [
        "▁life",
        -9.805578146373543
      ],
      [
        "▁mouth.",
        -9.80584068938649
      ],
      [
        "▁them,",
        -9.806419360271141
      ],
      [
        "▁arm",
        -9.8069280107632
      ],
      [
        "▁you?\"",
        -9.807444171299629
      ],
      [
        "▁sea.",
        -9.80832526141996
      ],
      [
        "▁clothes.",
        -9.808367232914904
      ],
      [
        "▁helpful",
        -9.808636883571653
      ],
      [
        "▁splash",
        -9.810111589692186
      ],
      [
        "▁village",
        -9.810573849474208
      ],
      [
        "▁meant",
        -9.814215020358976
      ],
      [
        "▁\"My",
        -9.81479329984896
      ],
      [
        "▁slow",
        -9.815356011224639
      ],
      [
        "▁saved",
        -9.816368507051825
      ],
      [
        "▁phone",
        -9.816681415362797
      ],
      [
        "▁peaceful",
        -9.817710382037587
      ],
      [
        "▁string",
        -9.817799431857468
      ],
      [
        "▁Peter",
        -9.819211007641544
      ],
      [
        "licked",
        -9.821756121467935
      ],
      [
        "▁cloth",
        -9.82264908423132
      ],
      [
        ".\n\nThen,",
        -9.82361279123824
      ],
      [
        "▁pay",
        -9.823674258380857
      ],
      [
        "▁feed",
        -9.82383504607811
      ],
      [
        "▁appeared",
        -9.824201023516018
      ],
      [
        "▁sticks",
        -9.824656810490358
      ],
      [
        "▁honey",
        -9.82479736276353
      ],
      [
        "▁sand.",
        -9.825277035530101
      ],
      [
        "▁ladder",
        -9.826433369541139
      ],
      [
        "▁mummy",
        -9.829573786685165
      ],
      [
        "▁powerful",
        -9.829789848208614
      ],
      [
        "▁yard",
        -9.831930034830256
      ],
      [
        "▁picnic",
        -9.832088567284933
      ],
      [
        "▁sack",
        -9.833452575871688
      ],
      [
        "▁often",
        -9.83364328160938
      ],
      [
        "▁robot",
        -9.833961054391796
      ],
      [
        "▁dirt",
        -9.834480274089298
      ],
      [
        "\n\nAnd",
        -9.835921387991613
      ],
      [
        "▁sail",
        -9.837339924120052
      ],
      [
        "▁birds.",
        -9.838498430992864
      ],
      [
        "▁bag.",
        -9.839754536572213
      ],
      [
        "▁prince",
        -9.839775842173962
      ],
      [
        "▁figure",
        -9.840230101035393
      ],
      [
        "▁won",
        -9.84167065031185
      ],
      [
        "▁breath",
        -9.843679439226102
      ],
      [
        "▁all.",
        -9.844997519418065
      ],
      [
        "▁mix",
        -9.84555422154454
      ],
      [
        "▁splashed",
        -9.84659755420532
      ],
      [
        "▁well.",
        -9.847745426669462
      ],
      [
        "▁that.",
        -9.84834983758769
      ],
      [
        "▁cook",
        -9.852052132555118
      ],
      [
        "▁roll",
        -9.85262396038757
      ],
      [
        "▁gets",
        -9.854426483602062
      ],
      [
        "▁become",
        -9.85451226455053
      ],
      [
        "▁bus",
        -9.855103129630102
      ],
      [
        "▁ever.",
        -9.856275994016213
      ],
      [
        "▁broken.",
        -9.856737769393872
      ],
      [
        "▁crab",
        -9.859254424987553
      ],
      [
        "▁kitten",
        -9.859550542745222
      ],
      [
        "▁crayons",
        -9.859560884271543
      ],
      [
        "▁lot.",
        -9.859831543017686
      ],
      [
        "▁hours",
        -9.860075880094747
      ],
      [
        "▁beautiful.",
        -9.860381602786564
      ],
      [
        "▁elderly",
        -9.86436447724384
      ],
      [
        "▁cookie",
        -9.86674355435413
      ],
      [
        "▁coin",
        -9.866840756132543
      ],
      [
        "▁calling",
        -9.867972672321638
      ],
      [
        "▁over.",
        -9.86875661524256
      ],
      [
        "▁sick",
        -9.869335962497999
      ],
      [
        "▁fence.",
        -9.869360544125357
      ],
      [
        "▁sparkly",
        -9.869488687010731
      ],
      [
        "▁honest",
        -9.869865082524724
      ],
      [
        "▁school.",
        -9.870441887545828
      ],
      [
        "▁by.",
        -9.870483136696182
      ],
      [
        "▁Johnny",
        -9.871003475390792
      ],
      [
        "▁skipped",
        -9.871064883923511
      ],
      [
        "▁doing?\"",
        -9.873791248594939
      ],
      [
        "▁inside,",
        -9.873833980053613
      ],
      [
        "done,",
        -9.874735332737249
      ],
      [
        "▁oven",
        -9.874736807108691
      ],
      [
        "▁lunch.",
        -9.874788173864317
      ],
      [
        "▁Teddy",
        -9.876387611232255
      ],
      [
        "▁At",
        -9.876404098973232
      ],
      [
        "▁fill",
        -9.879024813605412
      ],
      [
        ".\n\nFinally,",
        -9.880977577685492
      ],
      [
        "▁mind",
        -9.881738444439081
      ],
      [
        "▁Some",
        -9.881904894585697
      ],
      [
        "▁lose",
        -9.88238853741249
      ],
      [
        "▁Sue.",
        -9.884182664930774
      ],
      [
        "▁fire.",
        -9.885815973589903
      ],
      [
        "▁sheep",
        -9.885900601387943
      ],
      [
        "▁feet",
        -9.886650102108764
      ],
      [
        "▁stone",
        -9.887177348349718
      ],
      [
        "▁fair",
        -9.887535929020837
      ],
      [
        "▁instead",
        -9.888103575104783
      ],
      [
        "▁bench.",
        -9.888793133578854
      ],
      [
        "▁wrote",
        -9.888895177573684
      ],
      [
        ".\n\n\"Thank",
        -9.888949103131337
      ],
      [
        "▁high.",
        -9.890358953407238
      ],
      [
        "▁covered",
        -9.891208853648147
      ],
      [
        "▁wolf",
        -9.892490073263374
      ],
      [
        "▁sailed",
        -9.893219916148025
      ],
      [
        "▁middle",
        -9.893857272120787
      ],
      [
        "▁lying",
        -9.895746089196349
      ],
      [
        "▁seat",
        -9.896042980248634
      ],
      [
        "▁song.",
        -9.896189395312323
      ],
      [
        "▁drank",
        -9.896471391418947
      ],
      [
        "▁careful,",
        -9.89671176568394
      ],
      [
        "▁can.",
        -9.897136131493333
      ],
      [
        "▁realised",
        -9.899442844952597
      ],
      [
        "▁bugs",
        -9.900004359092389
      ],
      [
        "▁yes.",
        -9.90376256627183
      ],
      [
        "re",
        -9.905750667458717
      ],
      [
        "▁us.",
        -9.906678755842249
      ],
      [
        "▁swing.",
        -9.907929866943935
      ],
      [
        "▁warm.",
        -9.90816252288352
      ],
      [
        "▁lift",
        -9.90824819135079
      ],
      [
        "▁leaf",
        -9.908258791355903
      ],
      [
        "▁generous",
        -9.90832184322937
      ],
      [
        "▁bell",
        -9.910689317884637
      ],
      [
        "▁sunshine.",
        -9.910776546354283
      ],
      [
        "▁sleep.",
        -9.912933973588297
      ],
      [
        "▁eager",
        -9.913138901831012
      ],
      [
        "▁tie",
        -9.913906072615621
      ],
      [
        ".\n\nTimmy",
        -9.915219136803271
      ],
      [
        "▁enough,",
        -9.915857091868336
      ],
      [
        "▁tidy",
        -9.915966128765893
      ],
      [
        "▁way,",
        -9.91731324209446
      ],
      [
        "▁decide",
        -9.918413386854501
      ],
      [
        "▁spicy",
        -9.918803956749246
      ],
      [
        ".\n\nThen",
        -9.918892322568514
      ],
      [
        "▁rude",
        -9.918979594513965
      ],
      [
        "▁words.",
        -9.919099982474775
      ],
      [
        "▁color",
        -9.91919805276339
      ],
      [
        "▁said.\n\nLily",
        -9.919589463844456
      ],
      [
        "▁plate",
        -9.919680922653951
      ],
      [
        "▁places",
        -9.919698165425961
      ],
      [
        "▁free",
        -9.920071380471926
      ],
      [
        ".\"\n\nSara",
        -9.921536354612956
      ],
      [
        "▁me!\"",
        -9.921738233124737
      ],
      [
        "▁walks",
        -9.922120289012858
      ],
      [
        "▁offered",
        -9.92334450264377
      ],
      [
        "▁pieces.",
        -9.92373100594255
      ],
      [
        "▁look.",
        -9.924766442487208
      ],
      [
        "▁understood",
        -9.926785601089195
      ],
      [
        "▁lifted",
        -9.927516903923703
      ],
      [
        "▁nap.",
        -9.92898374246615
      ],
      [
        "▁plan",
        -9.92904221841883
      ],
      [
        "▁cream.",
        -9.929324275073974
      ],
      [
        "▁grumpy",
        -9.929984906559678
      ],
      [
        "?\"\n\nHer",
        -9.930024705172057
      ],
      [
        "▁dirty.",
        -9.932424975972268
      ],
      [
        "\n\nMax",
        -9.932539366693899
      ],
      [
        "▁cleaned",
        -9.932799514312498
      ],
      [
        "▁sick.",
        -9.933179120277867
      ],
      [
        "▁stick.",
        -9.934000186235453
      ],
      [
        "▁spin",
        -9.935310394850795
      ],
      [
        "▁faster.",
        -9.935576874379656
      ],
      [
        "▁trip",
        -9.937271570856474
      ],
      [
        "▁discovered",
        -9.938097966239516
      ],
      [
        "▁legs",
        -9.938196212574463
      ],
      [
        "▁fur",
        -9.93881380594317
      ],
      [
        "▁pleased",
        -9.939455029175535
      ],
      [
        "▁police",
        -9.939628152653286
      ],
      [
        "▁block",
        -9.93977470361116
      ],
      [
        "▁No",
        -9.940579189006316
      ],
      [
        "▁agreed.",
        -9.940963125660133
      ],
      [
        "▁\"Come",
        -9.941898547914827
      ],
      [
        "m",
        -9.944832871106044
      ],
      [
        "▁chase",
        -9.945272679254654
      ],
      [
        "▁asleep",
        -9.946745716344076
      ],
      [
        "▁creative",
        -9.947017336695533
      ],
      [
        "▁shows",
        -9.947073672285521
      ],
      [
        "Suddenly",
        -9.947360359216509
      ],
      [
        "▁Sarah.",
        -9.949084850138894
      ],
      [
        "▁waves",
        -9.950100287004188
      ],
      [
        "▁fake",
        -9.95051822630726
      ],
      [
        "▁managed",
        -9.950985744373318
      ],
      [
        "▁respect",
        -9.9512278403701
      ],
      [
        "▁zoo",
        -9.952255453719332
      ],
      [
        "▁pig",
        -9.952785239772444
      ],
      [
        "▁necklace",
        -9.953536522286528
      ],
      [
        "▁wake",
        -9.953700953901947
      ],
      [
        "▁teeth",
        -9.954720197552982
      ],
      [
        "▁wet.",
        -9.954959825191294
      ],
      [
        "▁caterpillar",
        -9.955720240214418
      ],
      [
        "\"OK,",
        -9.956765185926415
      ],
      [
        "!\"\n\nLily",
        -9.958266568137956
      ],
      [
        "▁crawled",
        -9.958601165128814
      ],
      [
        "▁pictures.",
        -9.95882571746328
      ],
      [
        "▁father",
        -9.95963929731881
      ],
      [
        "▁needs",
        -9.960115837994477
      ],
      [
        "▁brush",
        -9.960720523338788
      ],
      [
        "▁Dad.",
        -9.96230564736301
      ],
      [
        "▁children.",
        -9.962699471015785
      ],
      [
        "▁famous",
        -9.963622207152126
      ],
      [
        "▁glue",
        -9.965518014412742
      ],
      [
        "▁Bob.",
        -9.966442739911754
      ],
      [
        "▁dig",
        -9.96726619017294
      ],
      [
        "▁dark.",
        -9.968156082525734
      ],
      [
        "▁daddy.",
        -9.968803252539507
      ],
      [
        "▁snack",
        -9.969739930510096
      ],
      [
        "▁deer",
        -9.970235030506165
      ],
      [
        "\n\nThen",
        -9.97323212878984
      ],
      [
        "▁extra",
        -9.973595543607631
      ],
      [
        "▁carrots",
        -9.974654374123512
      ],
      [
        "▁added",
        -9.97506417969209
      ],
      [
        "▁lock",
        -9.975422478598615
      ],
      [
        "▁favourite",
        -9.97555734546845
      ],
      [
        "▁grandma.",
        -9.975772755811848
      ],
      [
        "▁rare",
        -9.977427618042322
      ],
      [
        "▁puddle",
        -9.977949586878493
      ],
      [
        "▁candy.",
        -9.979333703190758
      ],
      [
        ".\"\n\nBut",
        -9.979433537751325
      ],
      [
        "▁ugly",
        -9.979689502193168
      ],
      [
        "▁Jane.",
        -9.981854473835313
      ],
      [
        "▁measure",
        -9.98219100534398
      ],
      [
        "▁rabbit.",
        -9.983492846442733
      ],
      [
        "▁pointing",
        -9.984317155579964
      ],
      [
        "▁here.",
        -9.984354814021977
      ],
      [
        "▁shirt",
        -9.984390221743798
      ],
      [
        "▁farm.",
        -9.984549179108708
      ],
      [
        "▁couch",
        -9.985102271571375
      ],
      [
        "▁loyal",
        -9.98569881014522
      ],
      [
        "▁stop.",
        -9.986054711612383
      ],
      [
        "▁sunshine",
        -9.98620424448658
      ],
      [
        "▁enjoying",
        -9.986627231903581
      ],
      [
        "\n\nLater",
        -9.986667858816167
      ],
      [
        "▁fighting",
        -9.987071105877238
      ],
      [
        ",a€",
        -9.987833724613076
      ],
      [
        "▁giggled",
        -9.988039544548736
      ],
      [
        "▁Leo",
        -9.988792008985962
      ],
      [
        "▁plan.",
        -9.990317778107041
      ],
      [
        "▁wrapped",
        -9.990690574159762
      ],
      [
        ".\n\n\"Hey,",
        -9.99100017300764
      ],
      [
        "▁Mommy.",
        -9.992637420122305
      ],
      [
        "▁polite",
        -9.992801656038072
      ],
      [
        "▁giving",
        -9.996332497117713
      ],
      [
        "▁whistle",
        -9.996574675162
      ],
      [
        "▁colourful",
        -9.997097662235989
      ],
      [
        "▁butterfly.",
        -10.000561505941292
      ],
      [
        "▁moon",
        -10.000672174384132
      ],
      [
        "▁bike.",
        -10.002044933090868
      ],
      [
        "▁spun",
        -10.002236558709264
      ],
      [
        "▁sour",
        -10.00330304811523
      ],
      [
        "▁land",
        -10.003638608642067
      ],
      [
        "▁money.",
        -10.004337096079807
      ],
      [
        "▁pocket.",
        -10.005121016062697
      ],
      [
        "▁glass",
        -10.005494570254362
      ],
      [
        "▁road.",
        -10.007242924527139
      ],
      [
        "▁check",
        -10.007861009569572
      ],
      [
        "▁rich",
        -10.00853610654057
      ],
      [
        ".\n\n\"It's",
        -10.010529984887919
      ],
      [
        "▁ocean",
        -10.010557852383387
      ],
      [
        "▁mighty",
        -10.01143613862849
      ],
      [
        "▁line",
        -10.01224115597023
      ],
      [
        "▁easy",
        -10.012775132991433
      ],
      [
        "▁worm",
        -10.013088394161581
      ],
      [
        "▁dreamed",
        -10.015376078763145
      ],
      [
        "yes,",
        -10.015435171172824
      ],
      [
        "▁against",
        -10.01633173105611
      ],
      [
        "▁already",
        -10.017887775347717
      ],
      [
        "▁invited",
        -10.018226596665281
      ],
      [
        "▁working",
        -10.018767828089102
      ],
      [
        "▁live",
        -10.020570207091875
      ],
      [
        "▁lazy",
        -10.021410112006109
      ],
      [
        "▁zoom",
        -10.021793114976083
      ],
      [
        "▁number",
        -10.02187039775885
      ],
      [
        ".\"\n\nShe",
        -10.022011528791731
      ],
      [
        "▁rest.",
        -10.023211483186858
      ],
      [
        "▁adventures.",
        -10.0235318732728
      ],
      [
        "▁change",
        -10.025997138621616
      ],
      [
        "▁trouble.",
        -10.026669360142792
      ],
      [
        "▁once",
        -10.027404480638369
      ],
      [
        "▁plants",
        -10.029324351316427
      ],
      [
        "▁snow.",
        -10.029997376099105
      ],
      [
        "▁treats",
        -10.030330898841354
      ],
      [
        "▁everywhere.",
        -10.030343811821954
      ],
      [
        "▁forward",
        -10.030900641704216
      ],
      [
        "▁closer.",
        -10.031958094600169
      ],
      [
        "▁it.\n\nThe",
        -10.032332598706908
      ],
      [
        "▁kiss",
        -10.033532675814014
      ],
      [
        "▁noises.",
        -10.033828236262524
      ],
      [
        "▁pizza",
        -10.034042287949767
      ],
      [
        "\n\nThen,",
        -10.035144547899428
      ],
      [
        "▁bush.",
        -10.035154352491938
      ],
      [
        "▁asking",
        -10.035411292754631
      ],
      [
        "▁\"No",
        -10.035875515440372
      ],
      [
        "▁miss",
        -10.037572800388727
      ],
      [
        "▁bald",
        -10.039594859140852
      ],
      [
        "▁sky,",
        -10.03993337303289
      ],
      [
        "▁bird,",
        -10.041243631878933
      ],
      [
        "▁out,",
        -10.0413017332734
      ],
      [
        "▁understand.",
        -10.041765010664998
      ],
      [
        "▁bake",
        -10.04195295490357
      ],
      [
        "▁again!",
        -10.04325203017008
      ],
      [
        "▁choose",
        -10.046025278266114
      ],
      [
        "▁ship",
        -10.046586527618446
      ],
      [
        "▁mail",
        -10.046931774098669
      ],
      [
        "▁amazed.",
        -10.047807946566742
      ],
      [
        "Together,",
        -10.049496874372993
      ],
      [
        "▁empty",
        -10.049552486383604
      ],
      [
        "▁clean.",
        -10.049775781725025
      ],
      [
        "▁disappointed",
        -10.050344520938586
      ],
      [
        "▁dancing",
        -10.05207879892012
      ],
      [
        "▁search",
        -10.052097236305187
      ],
      [
        "▁scary.",
        -10.052282313615825
      ],
      [
        "▁sugar",
        -10.052714538719448
      ],
      [
        "▁music.",
        -10.055116690094772
      ],
      [
        "▁replied.",
        -10.056864082205273
      ],
      [
        ";",
        -10.057802052370675
      ],
      [
        "▁sandwich",
        -10.058079616644259
      ],
      [
        "▁dad,",
        -10.058219545224132
      ],
      [
        "▁yummy.",
        -10.058596038046854
      ],
      [
        "▁thin",
        -10.06030234874423
      ],
      [
        "▁trust",
        -10.060323738436027
      ],
      [
        ".\n\nLater",
        -10.06049328838789
      ],
      [
        "▁Bobby",
        -10.062827024226753
      ],
      [
        "▁My",
        -10.063229420248634
      ],
      [
        "▁\"Now",
        -10.064186642415367
      ],
      [
        "▁card",
        -10.064565127498561
      ],
      [
        "▁thick",
        -10.065377303274824
      ],
      [
        "▁songs",
        -10.06563614513281
      ],
      [
        "▁anymore",
        -10.066514184685051
      ],
      [
        "▁tape",
        -10.067089977282366
      ],
      [
        "▁learning",
        -10.067414770332235
      ],
      [
        "▁lonely.",
        -10.067676117574507
      ],
      [
        "▁pool",
        -10.069433926909605
      ],
      [
        "▁edge",
        -10.069576430007395
      ],
      [
        "▁mixed",
        -10.071095282418126
      ],
      [
        "▁wiped",
        -10.072084623989157
      ],
      [
        "▁borrow",
        -10.072328430917258
      ],
      [
        "▁scarf",
        -10.072571575580712
      ],
      [
        "▁poured",
        -10.073061323105932
      ],
      [
        "▁ancient",
        -10.073821986497931
      ],
      [
        "▁belong",
        -10.074083980128654
      ],
      [
        "▁faces.",
        -10.07621156441021
      ],
      [
        "▁tower.",
        -10.07634992339856
      ],
      [
        "▁smart.",
        -10.076373056516454
      ],
      [
        "\n\nJust",
        -10.077495243307528
      ],
      [
        "▁fluffy",
        -10.078030214961787
      ],
      [
        "▁Max's",
        -10.078771106909752
      ],
      [
        "▁four",
        -10.080054999108377
      ],
      [
        "▁clear",
        -10.0802344194166
      ],
      [
        "End.",
        -10.081140270440214
      ],
      [
        "▁strange.",
        -10.086374578278196
      ],
      [
        "▁drawing",
        -10.086838399723998
      ],
      [
        "led",
        -10.08717247346016
      ],
      [
        "▁road",
        -10.087897383699127
      ],
      [
        "▁comfortable",
        -10.090139367158516
      ],
      [
        "▁juicy",
        -10.091186090842063
      ],
      [
        ".\n\nSoon",
        -10.091770385528035
      ],
      [
        "▁yelled",
        -10.092299056222458
      ],
      [
        "▁slipped",
        -10.093571918194911
      ],
      [
        "▁fly.",
        -10.094080007103821
      ],
      [
        "▁belonged",
        -10.094279714302179
      ],
      [
        "▁collect",
        -10.094377356885152
      ],
      [
        "▁sounded",
        -10.094977570263818
      ],
      [
        "▁scissors",
        -10.096429486655984
      ],
      [
        "▁fat",
        -10.097092720676924
      ],
      [
        "▁done.",
        -10.098420942719853
      ],
      [
        "▁nose.",
        -10.098548389115349
      ],
      [
        "▁TV",
        -10.099294589990219
      ],
      [
        "▁things,",
        -10.09979988772188
      ],
      [
        "▁showing",
        -10.09987857354871
      ],
      [
        "▁scare",
        -10.10049054299434
      ],
      [
        "▁cross",
        -10.101021500225093
      ],
      [
        "▁confused.",
        -10.10124356441691
      ],
      [
        "Whenever",
        -10.101847121798947
      ],
      [
        "▁unique",
        -10.101898840003564
      ],
      [
        "▁selfish",
        -10.101999876171968
      ],
      [
        "▁smelly",
        -10.102383985013269
      ],
      [
        "▁answer",
        -10.105215997296755
      ],
      [
        "▁said.\n\nThe",
        -10.105814825552295
      ],
      [
        "▁match",
        -10.106733158934764
      ],
      [
        ".\n\nSam",
        -10.107096003251414
      ],
      [
        "▁Rex",
        -10.107124145828255
      ],
      [
        "▁means",
        -10.108013607115039
      ],
      [
        "▁problem.",
        -10.10825699999505
      ],
      [
        ".\n\nFrom",
        -10.108561436693007
      ],
      [
        "▁happen",
        -10.10983381659085
      ],
      [
        "▁friendly.",
        -10.110328617535545
      ],
      [
        "▁fruits",
        -10.112288995620926
      ],
      [
        "▁meadow",
        -10.113012854321013
      ],
      [
        "▁\"Good",
        -10.114645405949956
      ],
      [
        "▁rode",
        -10.114821437277813
      ],
      [
        "▁kick",
        -10.115247203600076
      ],
      [
        "▁cool.",
        -10.115588917193044
      ],
      [
        "▁eggs",
        -10.115960527647246
      ],
      [
        "▁valuable",
        -10.116319442641638
      ],
      [
        "▁knows",
        -10.117089322001812
      ],
      [
        "▁bridge",
        -10.117398512321849
      ],
      [
        "▁answer.",
        -10.11840917020533
      ],
      [
        "▁kinds",
        -10.119109162983802
      ],
      [
        "▁balance",
        -10.11937099145328
      ],
      [
        "▁knee",
        -10.119469838377176
      ],
      [
        "▁admired",
        -10.119977582822552
      ],
      [
        "▁dolls.",
        -10.120542900630262
      ],
      [
        "▁puzzle",
        -10.122531782014835
      ],
      [
        "▁medicine",
        -10.123630707253989
      ],
      [
        "▁explored",
        -10.12474419773452
      ],
      [
        "▁incredible",
        -10.124881800553656
      ],
      [
        "▁test",
        -10.12489929664992
      ],
      [
        "▁kid",
        -10.1252524626975
      ],
      [
        "▁queen",
        -10.125652383421412
      ],
      [
        "▁raced",
        -10.12578710558465
      ],
      [
        "Now,",
        -10.125985863317629
      ],
      [
        "▁stumbled",
        -10.127467600491523
      ],
      [
        "▁Mark",
        -10.128197131884527
      ],
      [
        "▁reminded",
        -10.128319425726952
      ],
      [
        "▁me.\"",
        -10.128552025626622
      ],
      [
        "▁quiet.",
        -10.130894795946759
      ],
      [
        "▁suggested",
        -10.132059551197756
      ],
      [
        "er",
        -10.13265518182969
      ],
      [
        "▁together.\"",
        -10.133087651078936
      ],
      [
        "▁town.",
        -10.133247190831657
      ],
      [
        ".\n\nSo",
        -10.133976071062243
      ],
      [
        "▁noisy",
        -10.134090561891357
      ],
      [
        "▁bedroom",
        -10.134282834960363
      ],
      [
        "▁shell",
        -10.134354069612733
      ],
      [
        "▁girl's",
        -10.134593571390754
      ],
      [
        "▁using",
        -10.135916027241642
      ],
      [
        "▁handed",
        -10.136289597923781
      ],
      [
        "▁tough",
        -10.13646503216324
      ],
      [
        "▁present",
        -10.136812666311911
      ],
      [
        "▁say.",
        -10.136838936404528
      ],
      [
        "▁embarrassed",
        -10.136946278750536
      ],
      [
        "▁notice",
        -10.136951401091784
      ],
      [
        "▁Susie",
        -10.137175211672698
      ],
      [
        "▁snacks",
        -10.137384481368054
      ],
      [
        "▁gate",
        -10.138161672120743
      ],
      [
        "▁tears",
        -10.138185473785125
      ],
      [
        "▁chose",
        -10.138309173289839
      ],
      [
        "▁moving",
        -10.138368950189633
      ],
      [
        "finished,",
        -10.13857841708296
      ],
      [
        "▁wanted.",
        -10.138846049459348
      ],
      [
        "▁race.",
        -10.139542119297365
      ],
      [
        "▁loud.",
        -10.140334080082738
      ],
      [
        "▁rocket",
        -10.141160511140319
      ],
      [
        "▁branch.",
        -10.141430070488415
      ],
      [
        "▁games.",
        -10.142369244617749
      ],
      [
        "▁backyard",
        -10.14269708039304
      ],
      [
        "▁kicked",
        -10.143505415346858
      ],
      [
        "▁weird",
        -10.143911522280368
      ],
      [
        "▁tiger",
        -10.143994613610523
      ],
      [
        "▁chicken",
        -10.14478657020884
      ],
      [
        "▁spend",
        -10.145725534148362
      ],
      [
        "▁vase",
        -10.145779671246403
      ],
      [
        "▁cave.",
        -10.145967644839859
      ],
      [
        "▁a€œ",
        -10.14682210720468
      ],
      [
        "▁falls",
        -10.14788428325967
      ],
      [
        "\"Hi,",
        -10.148124540095646
      ],
      [
        "Soon",
        -10.149698825034282
      ],
      [
        ".\"\n\nHer",
        -10.149997635704858
      ],
      [
        "▁Anna's",
        -10.151684653511643
      ],
      [
        "▁counted",
        -10.151998976606224
      ],
      [
        "▁shone",
        -10.154116387746532
      ],
      [
        "Your",
        -10.154542762487393
      ],
      [
        "▁distance.",
        -10.155007137972826
      ],
      [
        "▁ring",
        -10.155260832464315
      ],
      [
        "▁light.",
        -10.155935527721347
      ],
      [
        "▁step",
        -10.156152749718574
      ],
      [
        "▁wonder",
        -10.156466610529185
      ],
      [
        "▁finding",
        -10.157097055786203
      ],
      [
        "▁joined",
        -10.158219064638432
      ],
      [
        "▁crayons.",
        -10.159006226083529
      ],
      [
        "▁knight",
        -10.159033649073475
      ],
      [
        "▁picture.",
        -10.160267877065902
      ],
      [
        "▁difficult",
        -10.16106673854753
      ],
      [
        "▁upset.",
        -10.16107890615435
      ],
      [
        "▁Kitty",
        -10.16150142540821
      ],
      [
        "▁everyone.",
        -10.162712384062019
      ],
      [
        "▁away.\n\nThe",
        -10.16283682606122
      ],
      [
        "▁mad.",
        -10.162954004344533
      ],
      [
        "▁brilliant",
        -10.163370868477903
      ],
      [
        "▁dance.",
        -10.16439185317873
      ],
      [
        "▁picking",
        -10.164659134549936
      ],
      [
        ".\n\n\"Maybe",
        -10.164701491021178
      ],
      [
        "▁bath",
        -10.16712510361465
      ],
      [
        "▁mouse.",
        -10.167406795044052
      ],
      [
        "▁jungle",
        -10.167830581203395
      ],
      [
        "▁frustrated",
        -10.170806012483654
      ],
      [
        "▁too!\"",
        -10.170835414940885
      ],
      [
        "▁bottom",
        -10.170890400812393
      ],
      [
        "▁solve",
        -10.172403654593936
      ],
      [
        "\n",
        -10.172531743742843
      ],
      [
        "▁care.",
        -10.173844116383567
      ],
      [
        "▁turtle",
        -10.174507275335387
      ],
      [
        ".\n\nJohn",
        -10.175255492541776
      ],
      [
        "▁funny.",
        -10.175400595570485
      ],
      [
        ".\n\n\"That",
        -10.17596848164981
      ],
      [
        "▁nosy",
        -10.17627966692014
      ],
      [
        "▁brother.",
        -10.176343392672814
      ],
      [
        "he'd",
        -10.17661047530666
      ],
      [
        "▁Mummy",
        -10.177059224698915
      ],
      [
        "▁vegetables",
        -10.178019375330631
      ],
      [
        ".\"\n\nTim",
        -10.17815926766159
      ],
      [
        "▁birdie",
        -10.178191253491098
      ],
      [
        "▁painted",
        -10.179346992471434
      ],
      [
        "▁messy",
        -10.179473962228402
      ],
      [
        "▁delicate",
        -10.179553214169172
      ],
      [
        "▁cheerful",
        -10.181939279829232
      ],
      [
        "▁adventurous",
        -10.181976949324115
      ],
      [
        "▁clown",
        -10.182164607678587
      ],
      [
        "▁built",
        -10.182373933953023
      ],
      [
        "▁icy",
        -10.18597462180066
      ],
      [
        "▁shapes.",
        -10.18612524323373
      ],
      [
        "\n\nLucy",
        -10.18729668411153
      ],
      [
        "▁sighed",
        -10.188239904493297
      ],
      [
        "▁enormous",
        -10.189233957798166
      ],
      [
        "▁net",
        -10.18938132197464
      ],
      [
        "▁pain",
        -10.189416438059974
      ],
      [
        "▁silly.",
        -10.189620857797129
      ],
      [
        "▁holds",
        -10.189682295447259
      ],
      [
        "▁ruined",
        -10.189699597572465
      ],
      [
        "▁unusual",
        -10.18993561891948
      ],
      [
        "▁rushed",
        -10.190586087122231
      ],
      [
        "p",
        -10.191148468103362
      ],
      [
        "▁telling",
        -10.193059491234406
      ],
      [
        "▁stones",
        -10.193680989319297
      ],
      [
        "▁side.",
        -10.194122493352001
      ],
      [
        "▁whale",
        -10.194352222747327
      ],
      [
        "▁neighbor",
        -10.194752744049163
      ],
      [
        "▁butter",
        -10.19499436328483
      ],
      [
        "▁allowed",
        -10.196067079407413
      ],
      [
        "▁those",
        -10.197706635157372
      ],
      [
        "▁leaving",
        -10.198008432417536
      ],
      [
        "▁fierce",
        -10.198692170099354
      ],
      [
        "▁shelf.",
        -10.199784713173463
      ],
      [
        "▁shelf",
        -10.200975764823912
      ],
      [
        "▁job.",
        -10.20257774939779
      ],
      [
        "▁please!\"",
        -10.202826156267411
      ],
      [
        "▁hats",
        -10.203199337857798
      ],
      [
        "▁heavy.",
        -10.204006133920016
      ],
      [
        "▁mine",
        -10.204617500997804
      ],
      [
        "▁balloon.",
        -10.204794154460751
      ],
      [
        "▁add",
        -10.204863571746133
      ],
      [
        "▁okay?\"",
        -10.205561757494042
      ],
      [
        "▁chest",
        -10.205704904519655
      ],
      [
        "▁swings.",
        -10.206540778744943
      ],
      [
        "▁spinning",
        -10.206697985118835
      ],
      [
        "▁different.",
        -10.208067470503892
      ],
      [
        "▁faces",
        -10.210030218607246
      ],
      [
        "▁tightly",
        -10.210049087369136
      ],
      [
        "▁Pete",
        -10.210625382482322
      ],
      [
        "▁heart.",
        -10.21063024350159
      ],
      [
        "▁Benny.",
        -10.212695398184882
      ],
      [
        "▁ever!",
        -10.213057741366208
      ],
      [
        "▁word",
        -10.213542823953606
      ],
      [
        "!\"\n\nBut",
        -10.214841848640342
      ],
      [
        "▁stories.",
        -10.215014318234594
      ],
      [
        "▁important.",
        -10.21679989787257
      ],
      [
        "▁ashamed.",
        -10.217221657116072
      ],
      [
        "▁nervous",
        -10.218476319919361
      ],
      [
        "▁expensive",
        -10.21877928946102
      ],
      [
        "▁Lily!",
        -10.219967227536735
      ],
      [
        "▁hairy",
        -10.220208844447368
      ],
      [
        "▁life.",
        -10.221267609087848
      ],
      [
        "▁create",
        -10.222084873870187
      ],
      [
        "▁birthday.",
        -10.222216614814203
      ],
      [
        "▁Sam,",
        -10.222388053493688
      ],
      [
        "▁snack.",
        -10.222699509563514
      ],
      [
        "▁sister.",
        -10.222749791032184
      ],
      [
        "▁jolly",
        -10.22319233973013
      ],
      [
        "▁nest.",
        -10.223326914176175
      ],
      [
        "▁doesn't",
        -10.223517998298687
      ],
      [
        "▁smiling.",
        -10.22369030716707
      ],
      [
        "▁lamp",
        -10.223859760555593
      ],
      [
        ".\n\nMax",
        -10.22481816151996
      ],
      [
        "▁normal",
        -10.22540747115424
      ],
      [
        "▁tied",
        -10.226266571634996
      ],
      [
        "▁sleepy",
        -10.226347383965281
      ],
      [
        "▁body",
        -10.228239903743333
      ],
      [
        "▁crown",
        -10.22845342466726
      ],
      [
        "▁course",
        -10.231371303647622
      ],
      [
        "▁bowl.",
        -10.231584572144827
      ],
      [
        "▁map",
        -10.231615592655748
      ],
      [
        "▁modern",
        -10.231765050704794
      ],
      [
        "▁practice",
        -10.232979571109196
      ],
      [
        "▁thinking",
        -10.233074658157562
      ],
      [
        "▁rubbed",
        -10.234420934945017
      ],
      [
        "\n\nSam",
        -10.235880963477193
      ],
      [
        "▁Blue",
        -10.236134230765032
      ],
      [
        "▁instead.",
        -10.23629051354136
      ],
      [
        "a€",
        -10.236357602715104
      ],
      [
        "▁carrying",
        -10.236870891918173
      ],
      [
        "▁soap",
        -10.237498281024703
      ],
      [
        "▁circle",
        -10.237640141040128
      ],
      [
        "▁sudden",
        -10.237843075394704
      ],
      [
        "▁spray",
        -10.238495676018045
      ],
      [
        "▁cleaning",
        -10.23866556584323
      ],
      [
        "▁washed",
        -10.238771158359
      ],
      [
        "▁print",
        -10.238877203646348
      ],
      [
        "▁while.",
        -10.238879439781687
      ],
      [
        "▁today.",
        -10.23928590157753
      ],
      [
        "▁original",
        -10.23995463760348
      ],
      [
        "▁bone",
        -10.240422763864174
      ],
      [
        "▁treat.",
        -10.240528072881931
      ],
      [
        "▁blanket.",
        -10.242263502034831
      ],
      [
        "▁searching",
        -10.24400666278159
      ],
      [
        "▁asleep.",
        -10.244854534015454
      ],
      [
        "▁wheel",
        -10.246865948467537
      ],
      [
        "▁story.",
        -10.249102823106977
      ],
      [
        "▁fight.",
        -10.249490116590827
      ],
      [
        "▁\"Hi",
        -10.250229811955851
      ],
      [
        "▁proudly",
        -10.250319381243214
      ],
      [
        "▁no!\"",
        -10.250932812349333
      ],
      [
        "▁hang",
        -10.251245243668219
      ],
      [
        "▁honey.",
        -10.252225970533043
      ],
      [
        "▁treasure.",
        -10.2525614013474
      ],
      [
        "▁Alice",
        -10.254407868787778
      ],
      [
        "▁rough",
        -10.254737198448284
      ],
      [
        "▁swan",
        -10.255884695357949
      ],
      [
        "▁peeked",
        -10.256060311445422
      ],
      [
        "▁wrap",
        -10.256553604047587
      ],
      [
        "▁bunny.",
        -10.256665257639652
      ],
      [
        "▁opens",
        -10.257978827579995
      ],
      [
        "▁hospital",
        -10.25843725498354
      ],
      [
        "▁clap",
        -10.25910327855233
      ],
      [
        "▁bird's",
        -10.259376795753651
      ],
      [
        "▁finger",
        -10.259709597475977
      ],
      [
        "▁lion.",
        -10.259725080549309
      ],
      [
        "▁journey.",
        -10.26028459999471
      ],
      [
        "▁spilled",
        -10.26082203572802
      ],
      [
        "▁flag",
        -10.262039324962952
      ],
      [
        "▁Sam's",
        -10.262237097380407
      ],
      [
        "▁trouble",
        -10.26257988027765
      ],
      [
        "▁nods.",
        -10.262675586704791
      ],
      [
        "▁bossy",
        -10.264435316997456
      ],
      [
        "▁\"Where",
        -10.265191203395002
      ],
      [
        "▁seek",
        -10.265378417929384
      ],
      [
        "▁mine!\"",
        -10.266340767052691
      ],
      [
        "▁ocean.",
        -10.267873799481782
      ],
      [
        "▁knife",
        -10.268211735579417
      ],
      [
        "▁Ellie",
        -10.270022141316353
      ],
      [
        "▁regular",
        -10.270130064798366
      ],
      [
        "▁Tweety",
        -10.270199797015282
      ],
      [
        "▁towel",
        -10.271795811316366
      ],
      [
        "▁lady.",
        -10.273623508841832
      ],
      [
        "▁juice.",
        -10.273671616771082
      ],
      [
        "▁gift.",
        -10.27423978528307
      ],
      [
        "▁wealthy",
        -10.275722670238068
      ],
      [
        "▁board",
        -10.276216282053102
      ],
      [
        "▁driving",
        -10.276618948237779
      ],
      [
        "▁\"Please",
        -10.276821111791506
      ],
      [
        "▁dreaming",
        -10.277207659508809
      ],
      [
        "▁dinosaur",
        -10.277433724944357
      ],
      [
        "▁mistake.",
        -10.278557763876519
      ],
      [
        "▁aunt",
        -10.278913420562159
      ],
      [
        "▁places.",
        -10.280120289425515
      ],
      [
        "▁To",
        -10.281355368531763
      ],
      [
        "▁placed",
        -10.28187664291316
      ],
      [
        "▁unknown",
        -10.281951171940898
      ],
      [
        "Whil",
        -10.283326259799413
      ],
      [
        "▁biggest",
        -10.283970809012093
      ],
      [
        "▁above",
        -10.28578558971874
      ],
      [
        "▁pillow",
        -10.285936122021345
      ],
      [
        "▁Mrs.",
        -10.286322313441278
      ],
      [
        "▁couldna€TMt",
        -10.286408168232157
      ],
      [
        "▁cage",
        -10.28711023132088
      ],
      [
        "▁goat",
        -10.28723355502108
      ],
      [
        ".\"\n\nSam",
        -10.287985042686236
      ],
      [
        "▁gun",
        -10.288133015412377
      ],
      [
        "▁feathers",
        -10.28837528665221
      ],
      [
        "▁no!",
        -10.289156700901327
      ],
      [
        "▁act",
        -10.289234781578985
      ],
      [
        "▁tag",
        -10.28924854299665
      ],
      [
        "▁see.",
        -10.289732386957121
      ],
      [
        "▁happily.",
        -10.290193498703164
      ],
      [
        "▁bounce",
        -10.29124803959319
      ],
      [
        "▁asks.",
        -10.29241073338331
      ],
      [
        "Give",
        -10.292447937440183
      ],
      [
        "▁wand",
        -10.292788779952954
      ],
      [
        "?\"\n\nBen",
        -10.293382358158325
      ],
      [
        "▁coins",
        -10.293400410029092
      ],
      [
        "▁organized",
        -10.29439330473151
      ],
      [
        "▁small,",
        -10.295479255550067
      ],
      [
        "▁closet",
        -10.295881941306659
      ],
      [
        "?\"\n\nTom",
        -10.29618243324656
      ],
      [
        "▁eye",
        -10.296500046491362
      ],
      [
        "▁pass",
        -10.296504938708246
      ],
      [
        "▁dependable",
        -10.2968985353971
      ],
      [
        "▁shake",
        -10.29710350577099
      ],
      [
        "▁tent",
        -10.298119636526463
      ],
      [
        "▁ones",
        -10.298515332518424
      ],
      [
        "▁sparkled",
        -10.298905786349943
      ],
      [
        "▁impressed",
        -10.299121899910054
      ],
      [
        "▁bent",
        -10.299133936321875
      ],
      [
        "▁smaller",
        -10.300410541895834
      ],
      [
        "▁hose",
        -10.300855046139151
      ],
      [
        "▁rose",
        -10.300952245515397
      ],
      [
        "▁problem",
        -10.303067307729792
      ],
      [
        "▁knee.",
        -10.303125268176677
      ],
      [
        "\n\nSarah",
        -10.303896496036147
      ],
      [
        "▁smoke",
        -10.304478440750943
      ],
      [
        "▁parents.",
        -10.30506383581363
      ],
      [
        "▁confused",
        -10.305914206128733
      ],
      [
        "▁milk.",
        -10.306824893871678
      ],
      [
        "▁balls",
        -10.30723543686554
      ],
      [
        "▁painting",
        -10.307531416915598
      ],
      [
        "▁metal",
        -10.30762511745706
      ],
      [
        "▁roar",
        -10.307848404512157
      ],
      [
        "▁weak",
        -10.308199222088037
      ],
      [
        "▁dove",
        -10.308912729769684
      ],
      [
        "▁teeth.",
        -10.309887145264623
      ],
      [
        "▁warned",
        -10.309970836806688
      ],
      [
        "▁slid",
        -10.312576906487
      ],
      [
        "▁nearby.",
        -10.313143282731556
      ],
      [
        "▁Fred",
        -10.313257735139603
      ],
      [
        "▁suddenly,",
        -10.315670732322893
      ],
      [
        "▁hot.",
        -10.316716870696263
      ],
      [
        "▁go!\"",
        -10.318365652261216
      ],
      [
        "▁snuggled",
        -10.319811929596659
      ],
      [
        ".\n\n\"OK,",
        -10.320001854317177
      ],
      [
        "▁stopped.",
        -10.321355610861902
      ],
      [
        "▁chasing",
        -10.322706024121178
      ],
      [
        "▁seen.",
        -10.322718708682775
      ],
      [
        "▁Bobo",
        -10.322812189281182
      ],
      [
        ".\n\nJack",
        -10.32380203211117
      ],
      [
        "▁jealous",
        -10.323974052771387
      ],
      [
        "▁movie",
        -10.324783708379561
      ],
      [
        "▁walls",
        -10.325417027908237
      ],
      [
        "▁soup.",
        -10.325423795079784
      ],
      [
        "▁frog.",
        -10.326415876873195
      ],
      [
        ".\n\n\"Oh",
        -10.327252965711823
      ],
      [
        "▁best.",
        -10.327500721154234
      ],
      [
        "▁Ella",
        -10.327575007002231
      ],
      [
        "▁too!",
        -10.329214818176434
      ],
      [
        "▁dream.",
        -10.330876939166926
      ],
      [
        "▁yourself",
        -10.331210645501704
      ],
      [
        "▁playful",
        -10.332451865354637
      ],
      [
        "▁dogs",
        -10.33264058436863
      ],
      [
        "▁shoes.",
        -10.333285891350599
      ],
      [
        "▁joke",
        -10.33425520315682
      ],
      [
        ".\n\nLila",
        -10.334365022061192
      ],
      [
        "▁gold",
        -10.335046444150139
      ],
      [
        "▁\"Hello",
        -10.335842308017414
      ],
      [
        "▁saying",
        -10.336517918900809
      ],
      [
        "▁witch",
        -10.337332943077767
      ],
      [
        "▁it,\"",
        -10.33774041427773
      ],
      [
        "▁Rose",
        -10.338114438389752
      ],
      [
        "▁jog",
        -10.339153626610015
      ],
      [
        "▁zip",
        -10.341088082955729
      ],
      [
        "▁arm.",
        -10.342984231319576
      ],
      [
        ".a€\n\nThe",
        -10.343394876162478
      ],
      [
        "\n\nBob",
        -10.343666968630686
      ],
      [
        "▁worry.",
        -10.344418335345996
      ],
      [
        "▁harder",
        -10.344491444735722
      ],
      [
        "▁buttons",
        -10.344662801220695
      ],
      [
        "▁imagined",
        -10.344683901419526
      ],
      [
        "▁hung",
        -10.34528818661466
      ],
      [
        "▁train.",
        -10.345413172191483
      ],
      [
        "▁drop",
        -10.34549815130131
      ],
      [
        "▁banana",
        -10.34615043389683
      ],
      [
        "▁please?\"",
        -10.346965570632907
      ],
      [
        "▁soon,",
        -10.347125061958232
      ],
      [
        "▁Bella",
        -10.347640844330138
      ],
      [
        "▁lost.",
        -10.347657703528274
      ],
      [
        "▁fine",
        -10.347803214007532
      ],
      [
        "▁this?\"",
        -10.349465032295784
      ],
      [
        "▁pour",
        -10.350838255052848
      ],
      [
        "▁reading",
        -10.351998408514644
      ],
      [
        "▁graceful",
        -10.352401442567734
      ],
      [
        "▁rat",
        -10.352941533297658
      ],
      [
        "▁sell",
        -10.3532428324366
      ],
      [
        "▁bored.",
        -10.353274656749807
      ],
      [
        "▁shoot",
        -10.35342970853159
      ],
      [
        "▁Nemo",
        -10.35388208236276
      ],
      [
        "▁Joe.",
        -10.354408390488771
      ],
      [
        "▁open.",
        -10.354882213193664
      ],
      [
        "▁log",
        -10.356574250648576
      ],
      [
        "▁name.",
        -10.357305411995899
      ],
      [
        "▁Daisy.",
        -10.35746813003597
      ],
      [
        "▁Mandy",
        -10.357877238382695
      ],
      [
        "a€œLeta€TMs",
        -10.358212257228432
      ],
      [
        "▁wagon",
        -10.358700146764798
      ],
      [
        "▁spoke",
        -10.358735006954205
      ],
      [
        "▁bored",
        -10.358778079843997
      ],
      [
        "▁Sally.",
        -10.359719478122882
      ],
      [
        "▁tummy",
        -10.360201934987979
      ],
      [
        "▁boring",
        -10.360899239475486
      ],
      [
        "▁leg",
        -10.362119560840059
      ],
      [
        "▁past",
        -10.362450037115124
      ],
      [
        "▁fresh",
        -10.362456326213682
      ],
      [
        "▁thoughtful",
        -10.363834922841773
      ],
      [
        "▁bags",
        -10.364641865353336
      ],
      [
        "▁cries",
        -10.364861258985691
      ],
      [
        "▁basket.",
        -10.366148805785832
      ],
      [
        "▁went.",
        -10.366497966618343
      ],
      [
        "▁songs.",
        -10.369033218720178
      ],
      [
        "▁pirate",
        -10.369104349358384
      ],
      [
        "▁houses",
        -10.369178390287567
      ],
      [
        "▁twirled",
        -10.36986927474772
      ],
      [
        "▁nod.",
        -10.369930958768684
      ],
      [
        "▁team",
        -10.370127477437366
      ],
      [
        ".\n\nMia",
        -10.370511543594336
      ],
      [
        "▁parrot",
        -10.370768839926829
      ],
      [
        "\n\nIt",
        -10.372050274856724
      ],
      [
        "▁boxes",
        -10.372967866058346
      ],
      [
        "▁sword",
        -10.373826443523685
      ],
      [
        "▁not.",
        -10.374397075704609
      ],
      [
        "\n\nMom",
        -10.375391316498321
      ],
      [
        "▁pretending",
        -10.37546668423361
      ],
      [
        "▁dug",
        -10.376254433184442
      ],
      [
        "▁lead",
        -10.37682316300689
      ],
      [
        "▁bubbles",
        -10.377077030527177
      ],
      [
        "▁pale",
        -10.377130847361965
      ],
      [
        "▁brightly",
        -10.377217972096693
      ],
      [
        "▁older",
        -10.37739750506372
      ],
      [
        "▁spoiled",
        -10.37901764272248
      ],
      [
        "▁stubborn",
        -10.37932988353088
      ],
      [
        "▁market",
        -10.37991170172725
      ],
      [
        "▁ashamed",
        -10.38099699856195
      ],
      [
        "▁nobody",
        -10.382578573576586
      ],
      [
        "▁reliable",
        -10.382968706365117
      ],
      [
        "▁obedient",
        -10.383029790039526
      ],
      [
        "▁frightened",
        -10.3830387208711
      ],
      [
        "▁chair.",
        -10.3832195837774
      ],
      [
        "▁angel",
        -10.383374708781478
      ],
      [
        "▁mark",
        -10.384235671037954
      ],
      [
        "▁Today",
        -10.384367554295293
      ],
      [
        "▁boys",
        -10.384810496240904
      ],
      [
        "▁power",
        -10.385389276864446
      ],
      [
        "▁here?\"",
        -10.386665413628734
      ],
      [
        "▁pool.",
        -10.386726686019275
      ],
      [
        "▁Are",
        -10.386877452075346
      ],
      [
        "▁barber",
        -10.387323621184876
      ],
      [
        "▁patch",
        -10.387704482353344
      ],
      [
        "▁wings.",
        -10.388571173253018
      ],
      [
        "▁mirror",
        -10.388800557114017
      ],
      [
        "▁humble",
        -10.389395610552096
      ],
      [
        "▁jungle.",
        -10.38964175740034
      ],
      [
        "▁tools",
        -10.389877472043882
      ],
      [
        "▁useful",
        -10.390235239151725
      ],
      [
        "▁shore.",
        -10.39034804027229
      ],
      [
        "▁bite.",
        -10.39063981597141
      ],
      [
        "▁bounced",
        -10.39140443420825
      ],
      [
        "▁drum",
        -10.39190189968836
      ],
      [
        "▁ordinary",
        -10.39199781395215
      ],
      [
        "▁bathroom",
        -10.392008567784487
      ],
      [
        "▁Max,",
        -10.394603124990734
      ],
      [
        "▁balloons",
        -10.394855641239495
      ],
      [
        "▁foolish",
        -10.394924301461467
      ],
      [
        "▁paint.",
        -10.395397793674706
      ],
      [
        "▁dolphin",
        -10.395437976647864
      ],
      [
        "▁berries",
        -10.396029306135043
      ],
      [
        "▁clumsy",
        -10.396658456386218
      ],
      [
        "▁terrible",
        -10.39698913969849
      ],
      [
        "▁shape",
        -10.397177640522283
      ],
      [
        "▁pressed",
        -10.397375163239555
      ],
      [
        "▁carefully.",
        -10.397528713403082
      ],
      [
        "▁pie",
        -10.397737025575749
      ],
      [
        "▁march",
        -10.398084345627604
      ],
      [
        "gave",
        -10.39816630814953
      ],
      [
        "▁rocks.",
        -10.398398538260073
      ],
      [
        "▁practiced",
        -10.39928252015628
      ],
      [
        "▁jumps",
        -10.399560156272452
      ],
      [
        "▁Grandpa",
        -10.400227168981699
      ],
      [
        "▁cover",
        -10.400320596632415
      ],
      [
        "▁sweet.",
        -10.400762770811628
      ],
      [
        "▁dough",
        -10.40148492435154
      ],
      [
        "▁nods",
        -10.40193742616931
      ],
      [
        "\nOne",
        -10.402571842220617
      ],
      [
        "▁questions",
        -10.402740713732088
      ],
      [
        "▁love.",
        -10.40278292562215
      ],
      [
        "▁Amy.",
        -10.403091928780869
      ],
      [
        "▁fragile",
        -10.403375528838342
      ],
      [
        "▁may",
        -10.405079602389078
      ],
      [
        "▁chew",
        -10.405296145300113
      ],
      [
        "▁foot",
        -10.405596817980351
      ],
      [
        "▁stirred",
        -10.405626995909122
      ],
      [
        "▁pen",
        -10.406060832132475
      ],
      [
        "▁puppy.",
        -10.406572614850708
      ],
      [
        "▁kindness",
        -10.407357143815707
      ],
      [
        "▁changed",
        -10.407575673154785
      ],
      [
        "b",
        -10.40775452472678
      ],
      [
        "▁goose",
        -10.4081649200885
      ],
      [
        "▁stretched",
        -10.408295237053512
      ],
      [
        "▁chubby",
        -10.40832812371468
      ],
      [
        "▁bees",
        -10.40836003351967
      ],
      [
        "▁sleeping",
        -10.408658246389528
      ],
      [
        "▁free.",
        -10.408935320196203
      ],
      [
        "▁clock",
        -10.409810667752126
      ],
      [
        "▁sing.",
        -10.410239586479266
      ],
      [
        "▁pack",
        -10.410287783697692
      ],
      [
        "▁hammer",
        -10.410522404310706
      ],
      [
        "▁value",
        -10.410586089011387
      ],
      [
        "▁seem",
        -10.411327743830773
      ],
      [
        "▁Ducky",
        -10.411586768553365
      ],
      [
        "▁egg",
        -10.412041344335973
      ],
      [
        "▁louder",
        -10.412419729890892
      ],
      [
        "▁paw",
        -10.412716813116997
      ],
      [
        "▁selfish.",
        -10.413266362278764
      ],
      [
        "▁shore",
        -10.413417341304179
      ],
      [
        "▁circles",
        -10.413499932230101
      ],
      [
        "▁found.",
        -10.414186605185382
      ],
      [
        "▁rude.",
        -10.41459758846732
      ],
      [
        "▁less",
        -10.415424799021615
      ],
      [
        "▁lights",
        -10.415545690651028
      ],
      [
        "▁a€œIt",
        -10.415616216426503
      ],
      [
        "▁too.\"",
        -10.4166588129137
      ],
      [
        "▁small.",
        -10.417829490431524
      ],
      [
        "▁blow",
        -10.418056961236891
      ],
      [
        "▁Kim",
        -10.418697432534403
      ],
      [
        "▁trunk",
        -10.41878916876118
      ],
      [
        ".\n\n\"Tom,",
        -10.419471059193391
      ],
      [
        "▁pumpkin",
        -10.4199017979959
      ],
      [
        "Would",
        -10.420199977429656
      ],
      [
        "▁clay",
        -10.42077080269414
      ],
      [
        "▁couch.",
        -10.422208903599936
      ],
      [
        "▁charming",
        -10.422497657818539
      ],
      [
        "▁mountain",
        -10.422954518401774
      ],
      [
        "▁late",
        -10.423474742595765
      ],
      [
        "▁friend's",
        -10.423475474827256
      ],
      [
        "▁crayon",
        -10.424349960321425
      ],
      [
        "▁shark",
        -10.42450205168568
      ],
      [
        "g",
        -10.425966562027106
      ],
      [
        "▁gifted",
        -10.426411658442664
      ],
      [
        "▁Bear",
        -10.427063220169574
      ],
      [
        ".\n\n\"Ben,",
        -10.427721917780797
      ],
      [
        "▁delicious.",
        -10.42781752433411
      ],
      [
        "▁popular",
        -10.427939910705335
      ],
      [
        "▁growing",
        -10.427991131409174
      ],
      [
        "▁shop.",
        -10.428082688970202
      ],
      [
        "▁stranger",
        -10.428272667998106
      ],
      [
        "▁tightly.",
        -10.428344336554368
      ],
      [
        "▁ingredients",
        -10.429078614601865
      ],
      [
        ".\n\nHis",
        -10.429452620393105
      ],
      [
        "\n\n\"I",
        -10.430080725732152
      ],
      [
        "▁spot.",
        -10.430566201676942
      ],
      [
        "▁dad's",
        -10.430758044701218
      ],
      [
        "▁counting",
        -10.430833460564823
      ],
      [
        "▁Where",
        -10.432440944534099
      ],
      [
        "▁close.",
        -10.432835988431885
      ],
      [
        "▁happen.",
        -10.434547903992355
      ],
      [
        "▁delighted",
        -10.434787629203212
      ],
      [
        "▁barn",
        -10.434963527389215
      ],
      [
        "▁laughing.",
        -10.435437291815271
      ],
      [
        "▁day!",
        -10.435683987460019
      ],
      [
        "▁Dave",
        -10.435931981941726
      ],
      [
        "▁guitar",
        -10.436283175192683
      ],
      [
        "▁a€œWhat",
        -10.436740511425517
      ],
      [
        "▁Let",
        -10.4374440933695
      ],
      [
        "▁guard",
        -10.438711875630577
      ],
      [
        "▁Toby",
        -10.440150550738744
      ],
      [
        "▁stars.",
        -10.440282251000708
      ],
      [
        "▁dull",
        -10.440404004722884
      ],
      [
        "▁quite",
        -10.440434219700842
      ],
      [
        "▁playground",
        -10.440737126721364
      ],
      [
        "▁oven.",
        -10.44123460173507
      ],
      [
        "!\"\n\nTom",
        -10.444265241667857
      ],
      [
        "▁dirt.",
        -10.444566176923379
      ],
      [
        "▁run.",
        -10.446426337717982
      ],
      [
        "▁space",
        -10.446687565689993
      ],
      [
        "▁ready.",
        -10.44697555714087
      ],
      [
        "▁pan",
        -10.448277970695413
      ],
      [
        "▁independent",
        -10.450580083379178
      ],
      [
        "▁hurts",
        -10.450984711971358
      ],
      [
        "▁successful",
        -10.451148497498782
      ],
      [
        "▁starts",
        -10.45236603245817
      ],
      [
        "▁Sara's",
        -10.452429279604798
      ],
      [
        "▁Everything",
        -10.452472243287513
      ],
      [
        "▁decorate",
        -10.452910782099003
      ],
      [
        "▁flour",
        -10.452959804280113
      ],
      [
        "▁branches",
        -10.454059078132707
      ],
      [
        "▁lively",
        -10.455234809426464
      ],
      [
        "▁coming.",
        -10.455569736945016
      ],
      [
        "▁didna€TMt",
        -10.45637740249221
      ],
      [
        "▁admire",
        -10.45721687992847
      ],
      [
        "▁mole",
        -10.45810221261879
      ],
      [
        "▁\"Be",
        -10.458490048601995
      ],
      [
        "\"Are",
        -10.458684844194682
      ],
      [
        "▁stops",
        -10.46010165002984
      ],
      [
        "▁do?\"",
        -10.46097970699012
      ],
      [
        "▁sweetie.",
        -10.461089522734472
      ],
      [
        "▁toast",
        -10.462016475326513
      ],
      [
        "▁boats",
        -10.462561106095846
      ],
      [
        "▁cheap",
        -10.464087229397661
      ],
      [
        "▁paid",
        -10.46462199594505
      ],
      [
        "\n\nMolly",
        -10.464724504142835
      ],
      [
        "▁flexible",
        -10.467847637149164
      ],
      [
        "▁mine.",
        -10.468417811991698
      ],
      [
        "▁escape",
        -10.468445521292121
      ],
      [
        "▁crazy",
        -10.468912527372979
      ],
      [
        "▁relieved.",
        -10.469013122900702
      ],
      [
        "▁towers",
        -10.47003593838599
      ],
      [
        "▁baby.",
        -10.470317421056505
      ],
      [
        "▁shut",
        -10.470648798666174
      ],
      [
        "▁ok",
        -10.470743248928798
      ],
      [
        "▁excitement.",
        -10.470994859841488
      ],
      [
        "▁shells",
        -10.471211739663904
      ],
      [
        "▁tripped",
        -10.473146344863405
      ],
      [
        "?\"\n\nAnna",
        -10.473202554024677
      ],
      [
        "▁rub",
        -10.473936581947
      ],
      [
        "▁early",
        -10.475823930167108
      ],
      [
        "▁George",
        -10.476939373621654
      ],
      [
        "▁Bill",
        -10.477725184876325
      ],
      [
        "▁sent",
        -10.477978159336278
      ],
      [
        "▁lemon",
        -10.480234103866433
      ],
      [
        "▁whispered",
        -10.480250154807154
      ],
      [
        "▁came.",
        -10.480561897658985
      ],
      [
        "▁jam",
        -10.481191962418213
      ],
      [
        "▁duck.",
        -10.48149119298721
      ],
      [
        "▁zoo.",
        -10.481888834140198
      ],
      [
        "▁dragon.",
        -10.484416884241833
      ],
      [
        "▁island",
        -10.485133691355504
      ],
      [
        "▁sadly",
        -10.485340528951406
      ],
      [
        "▁dead",
        -10.485823921366475
      ],
      [
        "▁Joey",
        -10.487407221409484
      ],
      [
        "▁hello.",
        -10.487450935110472
      ],
      [
        "▁John.",
        -10.487688811522341
      ],
      [
        "▁Be",
        -10.4885213664538
      ],
      [
        "▁crane",
        -10.489513820251942
      ],
      [
        "▁stared",
        -10.48964679000105
      ],
      [
        "▁uncle",
        -10.49016392129716
      ],
      [
        "▁grandpa",
        -10.490591801799065
      ],
      [
        "▁starting",
        -10.491067364508709
      ],
      [
        "▁design",
        -10.49119307191442
      ],
      [
        "in",
        -10.491207064454668
      ],
      [
        "▁bull",
        -10.491492068953525
      ],
      [
        "▁you!",
        -10.491505797814245
      ],
      [
        "▁safely",
        -10.491551329341169
      ],
      [
        "▁Ann",
        -10.491788215107384
      ],
      [
        "▁wishes",
        -10.491992771813498
      ],
      [
        ".\"\n\nTimmy",
        -10.49215647021738
      ],
      [
        "▁serious",
        -10.492295589211617
      ],
      [
        "▁stir",
        -10.492316578857864
      ],
      [
        ".\n\nJust",
        -10.493703951579224
      ],
      [
        "▁hospital.",
        -10.493840027403333
      ],
      [
        "▁neck",
        -10.493856235957614
      ],
      [
        "▁given",
        -10.494471616428847
      ],
      [
        "▁record",
        -10.495108323847175
      ],
      [
        "▁Jack's",
        -10.495321087552943
      ],
      [
        "▁sauce",
        -10.495438372288596
      ],
      [
        "▁ears",
        -10.495520916390266
      ],
      [
        "▁guess",
        -10.495827440083078
      ],
      [
        "▁try.",
        -10.49690333643472
      ],
      [
        ".\n\nA",
        -10.497008337298787
      ],
      [
        "▁clouds.",
        -10.497917563660017
      ],
      [
        "▁nurse",
        -10.49830627211718
      ],
      [
        "▁locked",
        -10.49868735330038
      ],
      [
        ".\n\n\"Hi,",
        -10.499583107246606
      ],
      [
        "▁cooking",
        -10.500730337500944
      ],
      [
        "▁tomorrow",
        -10.500772354749834
      ],
      [
        "▁feet.",
        -10.5014764814049
      ],
      [
        "▁a€œThat",
        -10.502043735489547
      ],
      [
        "▁blue.",
        -10.502392138091562
      ],
      [
        "▁crawl",
        -10.502985239818086
      ],
      [
        "▁pulls",
        -10.50317892683228
      ],
      [
        "▁fridge",
        -10.503206847009052
      ],
      [
        "▁afraid.",
        -10.503403275286287
      ],
      [
        "▁cooked",
        -10.503421316759693
      ],
      [
        "▁mud.",
        -10.504160967125856
      ],
      [
        "▁hunter",
        -10.504165748169193
      ],
      [
        "▁Mike",
        -10.504527196292521
      ],
      [
        "▁organize",
        -10.504789754301989
      ],
      [
        "▁shout",
        -10.504839250556815
      ],
      [
        "▁bandage",
        -10.504953007985977
      ],
      [
        "▁arms.",
        -10.506045113952085
      ],
      [
        "▁popcorn",
        -10.506808973234326
      ],
      [
        "!\"\n\nBen",
        -10.507460821152259
      ],
      [
        "▁distant",
        -10.507625761337733
      ],
      [
        "▁pencil",
        -10.507710972839083
      ],
      [
        "▁raven",
        -10.507961814086244
      ],
      [
        "▁cone",
        -10.50838976288341
      ],
      [
        "▁order",
        -10.508529139467804
      ],
      [
        "▁dry.",
        -10.50899857906856
      ],
      [
        "▁pushing",
        -10.509110042997934
      ],
      [
        "▁send",
        -10.510668136270988
      ],
      [
        "▁ear",
        -10.510921664314326
      ],
      [
        "▁dreams",
        -10.512517354433305
      ],
      [
        "\n\nTommy",
        -10.513070576722573
      ],
      [
        "▁somewhere",
        -10.513880490432157
      ],
      [
        "▁closet.",
        -10.514498260336685
      ],
      [
        ".\"\n\nSo",
        -10.514822687017997
      ],
      [
        "▁princess.",
        -10.515370805189614
      ],
      [
        "▁TV.",
        -10.515715847021362
      ],
      [
        "ucked",
        -10.516874595354999
      ],
      [
        "▁naughty.",
        -10.51689394349819
      ],
      [
        "▁split",
        -10.516968153668872
      ],
      [
        "▁dizzy",
        -10.51899112465403
      ],
      [
        "▁knock",
        -10.519805827723147
      ],
      [
        "▁engine",
        -10.52058820293653
      ],
      [
        "▁office",
        -10.520856213705573
      ],
      [
        "!\"\n\n",
        -10.521806677279967
      ],
      [
        "▁garage.",
        -10.52334186797441
      ],
      [
        "▁sandwiches",
        -10.523670710478239
      ],
      [
        "▁fur.",
        -10.523731485318843
      ],
      [
        "▁Tommy.",
        -10.526805506410609
      ],
      [
        "▁return",
        -10.526835598933703
      ],
      [
        "▁gloomy",
        -10.526856042155199
      ],
      [
        "▁spaghetti",
        -10.526985645013488
      ],
      [
        "▁beetle",
        -10.527328953823776
      ],
      [
        "▁treats.",
        -10.528266591213823
      ],
      [
        "▁\"How",
        -10.528713098223367
      ],
      [
        "▁kite.",
        -10.528966884558244
      ],
      [
        "▁soar",
        -10.531071475773443
      ],
      [
        ".\n\n\"Come",
        -10.531877005380592
      ],
      [
        "▁flashlight",
        -10.532438788159276
      ],
      [
        "▁courage",
        -10.532766869782126
      ],
      [
        "▁Lola",
        -10.533858628033373
      ],
      [
        "▁soft.",
        -10.53392679074025
      ],
      [
        "▁fold",
        -10.535732402609552
      ],
      [
        "▁gum",
        -10.536419020051593
      ],
      [
        "▁pushes",
        -10.537324733879004
      ],
      [
        "▁seeds",
        -10.537501120979002
      ],
      [
        "\n\nTim",
        -10.537514762731293
      ],
      [
        "\n\nOn",
        -10.537635236002204
      ],
      [
        "▁squirrel.",
        -10.538003023411195
      ],
      [
        "▁doctor.",
        -10.538169316851766
      ],
      [
        "▁\"He",
        -10.538439920769777
      ],
      [
        "▁apple.",
        -10.538666064341783
      ],
      [
        "▁now.\"",
        -10.538838718617999
      ],
      [
        "▁mama",
        -10.540045413992344
      ],
      [
        ".\n\n\"Are",
        -10.540689710520796
      ],
      [
        "▁riding",
        -10.540707759838991
      ],
      [
        "▁grandma's",
        -10.540767272221105
      ],
      [
        "▁going.",
        -10.54153745379854
      ],
      [
        "▁path.",
        -10.542283920645549
      ],
      [
        "▁grateful.",
        -10.542765742610635
      ],
      [
        "▁leaned",
        -10.543427067735921
      ],
      [
        "▁corner.",
        -10.543612537659069
      ],
      [
        "▁fireman",
        -10.544455251360077
      ],
      [
        "▁harmless",
        -10.544888668147662
      ],
      [
        "▁zoomed",
        -10.545138741374998
      ],
      [
        "▁bitter",
        -10.54535304630069
      ],
      [
        "▁cries.",
        -10.546974267397765
      ],
      [
        "▁stretch",
        -10.547037653230616
      ],
      [
        "▁skip",
        -10.547383911075704
      ],
      [
        "▁friend.\"",
        -10.547806527559587
      ],
      [
        "▁nowhere",
        -10.549117917103938
      ],
      [
        "▁delicious!",
        -10.549317563891702
      ],
      [
        "▁checked",
        -10.54951204796764
      ],
      [
        "▁jacket",
        -10.549627117071552
      ],
      [
        "▁\"Yes",
        -10.550350106024595
      ],
      [
        "▁fingers",
        -10.55049272069473
      ],
      [
        "▁laughs",
        -10.550671192567666
      ],
      [
        "▁belongs",
        -10.551811186233614
      ],
      [
        "▁turkey",
        -10.552000893176734
      ],
      [
        "▁hay",
        -10.552499958286068
      ],
      [
        "▁sunflower",
        -10.553408780288805
      ],
      [
        "▁marched",
        -10.553743226861416
      ],
      [
        "▁brothers",
        -10.55401128428497
      ],
      [
        ".\n\n\"Look",
        -10.554937133645653
      ],
      [
        "▁fountain",
        -10.555586258644674
      ],
      [
        "▁name?\"",
        -10.555981929461854
      ],
      [
        "▁shakes",
        -10.55672499699384
      ],
      [
        "▁singing.",
        -10.557398225059478
      ],
      [
        "▁zebra",
        -10.55753093388773
      ],
      [
        "▁wind.",
        -10.558223534295859
      ],
      [
        "▁finger.",
        -10.558566179396223
      ],
      [
        "▁bread.",
        -10.558733373057636
      ],
      [
        "▁tank",
        -10.559357864517354
      ],
      [
        "w",
        -10.559514142456942
      ],
      [
        "▁seal",
        -10.559993721976223
      ],
      [
        "▁rolling",
        -10.560018770292674
      ],
      [
        "▁too?\"",
        -10.560237075880767
      ],
      [
        "▁crocodile",
        -10.560431657040859
      ],
      [
        "▁learnt",
        -10.561249882021016
      ],
      [
        "▁yarn",
        -10.562756207323577
      ],
      [
        "▁monster.",
        -10.563705619396858
      ],
      [
        "▁dona€TMt",
        -10.563892771227698
      ],
      [
        "▁salad",
        -10.56437907118288
      ],
      [
        "▁phone.",
        -10.565076921212784
      ],
      [
        "▁city",
        -10.56627963378854
      ],
      [
        "▁forever",
        -10.566367977376764
      ],
      [
        ".\n\nIn",
        -10.56648431838544
      ],
      [
        ".\n\n\"Okay,",
        -10.566946136876764
      ],
      [
        "▁further",
        -10.566992527184139
      ],
      [
        "▁stream",
        -10.567111368942461
      ],
      [
        "▁study",
        -10.567398750983363
      ],
      [
        "▁spoon.",
        -10.567926708988471
      ],
      [
        "▁pot.",
        -10.56830917482699
      ],
      [
        "▁intelligent",
        -10.56870340902588
      ],
      [
        "▁Lila.",
        -10.568924598740827
      ],
      [
        "▁appeared.",
        -10.569509399797612
      ],
      [
        "▁umbrella",
        -10.569803918549358
      ],
      [
        "▁octopus",
        -10.570240758996423
      ],
      [
        "▁amazing.",
        -10.570360631294323
      ],
      [
        "▁pigeon",
        -10.570378040996724
      ],
      [
        "▁later.",
        -10.571072093901291
      ],
      [
        ".\"\n\nHe",
        -10.571344143950213
      ],
      [
        "▁boy's",
        -10.57166515096024
      ],
      [
        "▁puddle.",
        -10.572060194262502
      ],
      [
        "▁impressive",
        -10.5723353241848
      ],
      [
        "▁together!\"",
        -10.572657374604075
      ],
      [
        "▁Polly",
        -10.57275779400092
      ],
      [
        "▁hoping",
        -10.572790394788912
      ],
      [
        "▁apples.",
        -10.5740625112379
      ],
      [
        "▁disappeared",
        -10.574592294019515
      ],
      [
        "▁penny",
        -10.57500705565289
      ],
      [
        "▁leg.",
        -10.575089190022013
      ],
      [
        "\n\n\"Let's",
        -10.5755692233743
      ],
      [
        "▁statue",
        -10.575972326365857
      ],
      [
        "▁cheese.",
        -10.57657911349058
      ],
      [
        "\"Tom,",
        -10.576716197318202
      ],
      [
        ".\n\n\"We",
        -10.57675980114915
      ],
      [
        "▁steal",
        -10.576985076144966
      ],
      [
        "▁beauty",
        -10.577844199083554
      ],
      [
        "a€“",
        -10.578122854101728
      ],
      [
        "▁modest",
        -10.578173203710318
      ],
      [
        "▁tomorrow.",
        -10.578276969203804
      ],
      [
        "▁idea!",
        -10.579298494854907
      ],
      [
        "▁drops",
        -10.579595056099317
      ],
      [
        "▁handle",
        -10.579819932560365
      ],
      [
        "▁refused",
        -10.579826021729794
      ],
      [
        ".\n\nMommy",
        -10.580175077501648
      ],
      [
        "▁leopard",
        -10.580179258804224
      ],
      [
        "▁roared",
        -10.580715931836203
      ],
      [
        "▁soldier",
        -10.580780291159522
      ],
      [
        "▁himself,",
        -10.581069768688735
      ],
      [
        "▁cheered.",
        -10.581284391481008
      ],
      [
        "▁man's",
        -10.581910496129067
      ],
      [
        "▁listening",
        -10.581915220487106
      ],
      [
        "▁post",
        -10.583145311419075
      ],
      [
        "▁happy.\n\nThe",
        -10.584045071789182
      ],
      [
        "▁broke.",
        -10.585921321203795
      ],
      [
        "▁excitedly",
        -10.586108277909094
      ],
      [
        "▁view",
        -10.58617644459602
      ],
      [
        "▁skin",
        -10.586294634156479
      ],
      [
        "\n\nSoon",
        -10.586470497618873
      ],
      [
        "▁button.",
        -10.587677873512988
      ],
      [
        "▁band-aid",
        -10.587841431285412
      ],
      [
        "▁loudly",
        -10.588141356476266
      ],
      [
        "▁alert",
        -10.58846855135923
      ],
      [
        "▁sighed.",
        -10.588586197318797
      ],
      [
        "!\"\n\nHer",
        -10.58862798779283
      ],
      [
        "▁Alex",
        -10.588819832132925
      ],
      [
        "▁visited",
        -10.589269368211259
      ],
      [
        "▁bug.",
        -10.58928181999622
      ],
      [
        "▁horn",
        -10.590131933831383
      ],
      [
        "▁Mia's",
        -10.590379859380963
      ],
      [
        "▁fair.",
        -10.590480149033889
      ],
      [
        "▁cereal",
        -10.59122026340314
      ],
      [
        "▁cows",
        -10.591352373638252
      ],
      [
        "▁corn",
        -10.591962323281532
      ],
      [
        "\n\n\"What",
        -10.592152883531892
      ],
      [
        "▁rug",
        -10.592228891616285
      ],
      [
        "▁pony",
        -10.592685100066381
      ],
      [
        "▁slides",
        -10.593340319154192
      ],
      [
        "▁silver",
        -10.59360440615225
      ],
      [
        "▁needle",
        -10.59372196351892
      ],
      [
        "Eventually,",
        -10.593807205929371
      ],
      [
        "?\"\n\n\"Yes,",
        -10.593836657740239
      ],
      [
        "▁mountain.",
        -10.594243628617418
      ],
      [
        "▁nut",
        -10.594668035850582
      ],
      [
        "▁ways",
        -10.594877731227982
      ],
      [
        "▁again.\"",
        -10.595436348826984
      ],
      [
        "▁creatures",
        -10.595800681424894
      ],
      [
        "▁left.",
        -10.596348828446027
      ],
      [
        "▁compassionate",
        -10.596407651713694
      ],
      [
        "▁ended",
        -10.597271626715337
      ],
      [
        "▁shaking",
        -10.59743774446787
      ],
      [
        "▁wander",
        -10.597508956740345
      ],
      [
        "▁envelope",
        -10.597923035642024
      ],
      [
        "▁poke",
        -10.598198849273528
      ],
      [
        "▁band",
        -10.598717074091091
      ],
      [
        ".\n\nOn",
        -10.599378193877106
      ],
      [
        "▁own.",
        -10.599429933424942
      ],
      [
        ".\n\n\"Sorry,",
        -10.599699319046804
      ],
      [
        "▁numbers",
        -10.600237757779865
      ],
      [
        "▁lizard",
        -10.600367047265198
      ],
      [
        "▁happiness",
        -10.600798520822812
      ],
      [
        "▁nicely",
        -10.601949545411433
      ],
      [
        "▁otter",
        -10.602210838267622
      ],
      [
        "▁stuffed",
        -10.602749510385962
      ],
      [
        "▁meadow.",
        -10.603177160760756
      ],
      [
        "▁kiss.",
        -10.603758094423197
      ],
      [
        "▁other's",
        -10.603872219511752
      ],
      [
        "▁feather",
        -10.604471463774674
      ],
      [
        "▁sleepy.",
        -10.605403413593752
      ],
      [
        "▁true",
        -10.606892402145071
      ],
      [
        "▁forth",
        -10.60785828804822
      ],
      [
        "▁bracelet",
        -10.60829179100556
      ],
      [
        "▁scale",
        -10.608528171100195
      ],
      [
        "▁swinging",
        -10.609097144584071
      ],
      [
        "▁deaf",
        -10.609651680292252
      ],
      [
        "▁Together",
        -10.610070647096048
      ],
      [
        "▁stove",
        -10.610349034850644
      ],
      [
        "\n\nJoe",
        -10.610461628592104
      ],
      [
        "▁headed",
        -10.610663650854596
      ],
      [
        "▁breakfast",
        -10.611502804927785
      ],
      [
        "▁gasped",
        -10.611630551571006
      ],
      [
        "▁quickly.",
        -10.611715571266767
      ],
      [
        "▁package",
        -10.612835949556127
      ],
      [
        "▁monkeys",
        -10.612886959680418
      ],
      [
        "▁answered",
        -10.612992686855513
      ],
      [
        "▁wheels",
        -10.613008498501163
      ],
      [
        "▁crystal",
        -10.613158576477597
      ],
      [
        "▁trucks",
        -10.61321450580612
      ],
      [
        "▁hoop",
        -10.613839793891232
      ],
      [
        "▁helmet",
        -10.615128292071923
      ],
      [
        "▁star.",
        -10.615170633750186
      ],
      [
        "▁jar.",
        -10.615252868968494
      ],
      [
        "▁Papa",
        -10.615597590264539
      ],
      [
        "▁polish",
        -10.615774948003729
      ],
      [
        "▁cookie.",
        -10.617572397075737
      ],
      [
        "▁between",
        -10.618262332727417
      ],
      [
        "\n\nJane",
        -10.61890246372933
      ],
      [
        "▁fruit.",
        -10.620581380907163
      ],
      [
        "▁five",
        -10.620860287081406
      ],
      [
        "▁repair",
        -10.621001291048222
      ],
      [
        "▁swung",
        -10.622179837119406
      ],
      [
        "▁snacks.",
        -10.622280559056296
      ],
      [
        "▁hadn't",
        -10.622614828488048
      ],
      [
        "▁shine",
        -10.624051155361288
      ],
      [
        "▁him.\n\nThe",
        -10.624118998236499
      ],
      [
        "▁adorable",
        -10.624205727076387
      ],
      [
        "▁bigger.",
        -10.624361481723021
      ],
      [
        "▁library",
        -10.62567931918933
      ],
      [
        "▁mild",
        -10.626636137982592
      ],
      [
        "E",
        -10.627406468129887
      ],
      [
        "▁gather",
        -10.627580183094564
      ],
      [
        "▁jug",
        -10.627861869790609
      ],
      [
        "▁bushes.",
        -10.6285748958236
      ],
      [
        "red",
        -10.62886010881428
      ],
      [
        "▁coat.",
        -10.62920584663821
      ],
      [
        "▁rubber",
        -10.630159266641849
      ],
      [
        "▁perform",
        -10.630338578497858
      ],
      [
        "▁key.",
        -10.630542929169033
      ],
      [
        "▁steps",
        -10.630610240901005
      ],
      [
        "▁\"Who",
        -10.631058265829742
      ],
      [
        "▁thief",
        -10.631508830418525
      ],
      [
        "▁owner.",
        -10.632009409585686
      ],
      [
        ".\"\n\nLila",
        -10.632102004767496
      ],
      [
        "▁mule",
        -10.632479360252201
      ],
      [
        ".\n\n\"You",
        -10.632759895539381
      ],
      [
        "▁roof",
        -10.632819814698246
      ],
      [
        "▁now!\"",
        -10.633022687371415
      ],
      [
        "▁pilot",
        -10.63304353298669
      ],
      [
        "\n\nMum",
        -10.63319116199324
      ],
      [
        "▁Andy",
        -10.634109131745287
      ],
      [
        "▁harsh",
        -10.63460300424765
      ],
      [
        "▁trip.",
        -10.634693874461547
      ],
      [
        "▁rainbow.",
        -10.635133408832383
      ],
      [
        "▁smells",
        -10.635172473981207
      ],
      [
        "▁flies",
        -10.635345290168313
      ],
      [
        "▁asked.\n\n\"I",
        -10.63536968970321
      ],
      [
        "▁show.",
        -10.635844143768027
      ],
      [
        "▁\"There",
        -10.63629759422341
      ],
      [
        "▁comfort",
        -10.636819355788413
      ],
      [
        "▁spring",
        -10.637496783285924
      ],
      [
        "▁cop",
        -10.637685310736249
      ],
      [
        "▁pair",
        -10.638773700906176
      ],
      [
        "▁afternoon",
        -10.639531999390574
      ],
      [
        "▁shopkeeper",
        -10.640470763968047
      ],
      [
        "▁ostrich",
        -10.64114852904933
      ],
      [
        "▁fan",
        -10.641887282601658
      ],
      [
        "▁week",
        -10.642063032820674
      ],
      [
        "▁themselves",
        -10.642560142947167
      ],
      [
        "▁summer",
        -10.642587185931609
      ],
      [
        "▁cube",
        -10.64269745044729
      ],
      [
        "▁camera",
        -10.642718015251292
      ],
      [
        "▁bugs.",
        -10.643068744265218
      ],
      [
        "▁higher.",
        -10.644203477101994
      ],
      [
        "▁Or",
        -10.644415535784873
      ],
      [
        "▁content",
        -10.645035334573846
      ],
      [
        "▁said.\n\n",
        -10.64574068277188
      ],
      [
        "▁travel",
        -10.646100564473148
      ],
      [
        "▁wipe",
        -10.646212025642203
      ],
      [
        "\n\nIn",
        -10.646347553861094
      ],
      [
        "▁yours.",
        -10.64691805056772
      ],
      [
        "▁mum.",
        -10.64791471744364
      ],
      [
        "▁stairs",
        -10.647972607689992
      ],
      [
        "▁leave.",
        -10.648035659461627
      ],
      [
        "▁throws",
        -10.648232549494875
      ],
      [
        "▁celebrate",
        -10.648289592782644
      ],
      [
        "▁ants",
        -10.648712694618588
      ],
      [
        "▁attractive",
        -10.648809013916958
      ],
      [
        "▁names",
        -10.650795752295675
      ],
      [
        "▁case",
        -10.65255046464401
      ],
      [
        "▁everything.",
        -10.65297585633092
      ],
      [
        "▁thanks",
        -10.654663107856178
      ],
      [
        "▁meal",
        -10.656042281536992
      ],
      [
        "▁true.",
        -10.657215010012424
      ],
      [
        "▁jet",
        -10.657377436174748
      ],
      [
        "▁ahead",
        -10.658411332774564
      ],
      [
        "▁answered,",
        -10.658555654134622
      ],
      [
        "▁gorilla",
        -10.658832427350077
      ],
      [
        "▁careless",
        -10.658917398390606
      ],
      [
        "▁second",
        -10.659444069911036
      ],
      [
        "▁candle",
        -10.660048485110671
      ],
      [
        "▁embarrassed.",
        -10.661720366000274
      ],
      [
        "▁unlock",
        -10.663357976211826
      ],
      [
        "▁pretty!\"",
        -10.663991301531425
      ],
      [
        "▁barking",
        -10.664511716026064
      ],
      [
        "?\"\n\nSara",
        -10.6652604000414
      ],
      [
        "▁Look",
        -10.665548346349446
      ],
      [
        "▁neat",
        -10.66576462664163
      ],
      [
        "▁shouldn't",
        -10.666001926118353
      ],
      [
        "▁diamond",
        -10.666198945240568
      ],
      [
        "▁enthusiastic",
        -10.666318755775354
      ],
      [
        "▁Sophie",
        -10.66773695298448
      ],
      [
        "▁dinner,",
        -10.668799652214224
      ],
      [
        "▁arrow",
        -10.669002636297137
      ],
      [
        "▁stronger",
        -10.669117221030298
      ],
      [
        "▁flute",
        -10.669166211852959
      ],
      [
        "▁bath.",
        -10.669223583854931
      ],
      [
        "▁comb",
        -10.670205047792408
      ],
      [
        "▁persistent",
        -10.670308149413277
      ],
      [
        "▁animal.",
        -10.671247096250584
      ],
      [
        "▁hippo",
        -10.671261817230967
      ],
      [
        "▁peek",
        -10.674628735516118
      ],
      [
        "▁dive",
        -10.674738837439035
      ],
      [
        "here,",
        -10.675349473095219
      ],
      [
        "▁imagine",
        -10.675634749312175
      ],
      [
        "▁frustrated.",
        -10.675896229975367
      ],
      [
        "▁remind",
        -10.675962233278371
      ],
      [
        "▁lend",
        -10.67674151015394
      ],
      [
        "▁evening",
        -10.677047823954092
      ],
      [
        "▁shadow",
        -10.67706817925193
      ],
      [
        "▁bedroom.",
        -10.677728104051168
      ],
      [
        "▁climbing",
        -10.678795163675641
      ],
      [
        "▁Paul",
        -10.679054919038549
      ],
      [
        "▁support",
        -10.679930728150365
      ],
      [
        "▁ride.",
        -10.68112734630365
      ],
      [
        "▁ghost",
        -10.681138815834974
      ],
      [
        "▁tray",
        -10.681858385878362
      ],
      [
        "▁gentle.",
        -10.682609405825783
      ],
      [
        "▁guilty",
        -10.68280407174573
      ],
      [
        "▁fall.",
        -10.682811821175383
      ],
      [
        "▁anyway.",
        -10.682875418384166
      ],
      [
        "▁stack",
        -10.683025183161913
      ],
      [
        "▁envious",
        -10.683345391076676
      ],
      [
        "▁square",
        -10.684028071834327
      ],
      [
        "▁alligator",
        -10.684413638781303
      ],
      [
        "▁anyone.",
        -10.684865710258947
      ],
      [
        "▁playground.",
        -10.685261823012741
      ],
      [
        "▁cricket",
        -10.68586127501865
      ],
      [
        "▁morning.",
        -10.685965335654615
      ],
      [
        "▁Will",
        -10.685996621853286
      ],
      [
        "▁twist",
        -10.687294583655099
      ],
      [
        "▁cheer",
        -10.687943452493524
      ],
      [
        "▁chance",
        -10.68824205259648
      ],
      [
        "▁ignorant",
        -10.688329859907181
      ],
      [
        "▁picnic.",
        -10.68864847659342
      ],
      [
        "\n\nAnna",
        -10.689555101535232
      ],
      [
        "▁jelly",
        -10.689689638360232
      ],
      [
        "▁tool",
        -10.689723824794658
      ],
      [
        "▁lions",
        -10.689741082922223
      ],
      [
        "▁letters",
        -10.689901439202746
      ],
      [
        "▁judge",
        -10.690540022637773
      ],
      [
        ".\"\n\nMia",
        -10.691154628319497
      ],
      [
        ".\n\nEvery",
        -10.691449766988717
      ],
      [
        "▁is.",
        -10.69227646647453
      ],
      [
        "▁leash",
        -10.69249483238627
      ],
      [
        "▁jeep",
        -10.692618598188355
      ],
      [
        "▁suit",
        -10.694246662521635
      ],
      [
        "▁sailor",
        -10.694257491379696
      ],
      [
        "▁away!",
        -10.69426101310907
      ],
      [
        "▁seeing",
        -10.694805100736643
      ],
      [
        "▁machine.",
        -10.69500376191199
      ],
      [
        "a€œYes,",
        -10.696196733383102
      ],
      [
        "▁message",
        -10.696580083684035
      ],
      [
        "▁idea,",
        -10.696915124099936
      ],
      [
        ".\n\n\"But",
        -10.698124717386774
      ],
      [
        "▁deliver",
        -10.698580464940868
      ],
      [
        "▁stupid",
        -10.6986574791767
      ],
      [
        "▁sink",
        -10.699166419204937
      ],
      [
        "▁taxi",
        -10.699776705299982
      ],
      [
        "▁thunder",
        -10.70008849295002
      ],
      [
        "▁rope.",
        -10.700636574090792
      ],
      [
        "?\"\n\nMom",
        -10.700670020781962
      ],
      [
        "▁hanging",
        -10.700804088353188
      ],
      [
        "▁happening.",
        -10.701249868043913
      ],
      [
        "▁saw.",
        -10.701442776340969
      ],
      [
        "▁boring.",
        -10.701809322617194
      ],
      [
        "▁marry",
        -10.702059251038934
      ],
      [
        "\n\nSally",
        -10.702405001823905
      ],
      [
        "▁shocked",
        -10.702553278661094
      ],
      [
        "▁parade",
        -10.703056561440965
      ],
      [
        "▁Baby",
        -10.704123983096508
      ],
      [
        "▁falling",
        -10.704302311126291
      ],
      [
        "▁Lily!\"",
        -10.705288570998245
      ],
      [
        "▁cupboard",
        -10.706575151254917
      ],
      [
        "▁cocoa",
        -10.706921174854417
      ],
      [
        "\n\nBen",
        -10.707402348299945
      ],
      [
        "\"Oh,",
        -10.70746456847575
      ],
      [
        "▁half",
        -10.708935307972048
      ],
      [
        "c",
        -10.709564723772909
      ],
      [
        "▁Fin",
        -10.70958085570921
      ],
      [
        "▁along.",
        -10.711134855932377
      ],
      [
        "▁couldn't.",
        -10.7113825732181
      ],
      [
        "▁spirit",
        -10.711941696385221
      ],
      [
        "▁advice",
        -10.712599510847733
      ],
      [
        "▁welcomed",
        -10.71273186803179
      ],
      [
        "▁healthy.",
        -10.713308699970012
      ],
      [
        "▁Tweetie",
        -10.713700315501484
      ],
      [
        "▁hurry",
        -10.714679686733717
      ],
      [
        "▁mask",
        -10.71480228899431
      ],
      [
        "▁flapped",
        -10.715187608832307
      ],
      [
        "\"They",
        -10.715790397928227
      ],
      [
        "Instead",
        -10.716160128290689
      ],
      [
        "side",
        -10.716610890348612
      ],
      [
        "▁panda",
        -10.716695884140616
      ],
      [
        "▁clapping",
        -10.716810515658329
      ],
      [
        "▁ladder.",
        -10.71769156068657
      ],
      [
        "▁mind.",
        -10.718439889451338
      ],
      [
        "▁content.",
        -10.718858165550294
      ],
      [
        "▁cage.",
        -10.71921905591658
      ],
      [
        "▁throwing",
        -10.719858419539392
      ],
      [
        "▁low",
        -10.720068313968971
      ],
      [
        "▁doing?",
        -10.721972016497782
      ],
      [
        "▁disappointed.",
        -10.722224152732627
      ],
      [
        "▁track",
        -10.723636122732572
      ],
      [
        "▁ten",
        -10.723840751606513
      ],
      [
        "▁village.",
        -10.724079341095926
      ],
      [
        "▁class",
        -10.72424287127259
      ],
      [
        "▁pine",
        -10.724519019167396
      ],
      [
        "▁plane.",
        -10.724758098929556
      ],
      [
        "▁waving",
        -10.724863006936257
      ],
      [
        "▁Henry",
        -10.725671771291365
      ],
      [
        "▁bubble",
        -10.72584015820576
      ],
      [
        "▁excitement",
        -10.726712964063266
      ],
      [
        "▁again.\n\nThe",
        -10.726979366496593
      ],
      [
        "▁doing.",
        -10.727137658136705
      ],
      [
        "▁mailbox",
        -10.727857977702325
      ],
      [
        "▁Brownie",
        -10.728105434871468
      ],
      [
        "▁pepper",
        -10.72898341688871
      ],
      [
        "ach",
        -10.729782585069374
      ],
      [
        "▁Billy.",
        -10.730403070087982
      ],
      [
        "▁land.",
        -10.730796538324396
      ],
      [
        "▁please.",
        -10.730873855146093
      ],
      [
        "v",
        -10.731334118721557
      ],
      [
        "▁bathroom.",
        -10.731693783516581
      ],
      [
        "▁said.\n\nMom",
        -10.732581924896227
      ],
      [
        "▁dish",
        -10.73271383924368
      ],
      [
        "▁Red",
        -10.733039908807447
      ],
      [
        "▁questions.",
        -10.733168050490683
      ],
      [
        "▁full.",
        -10.733309152767982
      ],
      [
        "▁Bunny",
        -10.733915688331498
      ],
      [
        "▁golden",
        -10.734690132832492
      ],
      [
        "▁apologized",
        -10.735014686489201
      ],
      [
        "▁raft",
        -10.735233820385485
      ],
      [
        "▁Jerry",
        -10.736247751430938
      ],
      [
        "▁kangaroo",
        -10.73657758281669
      ],
      [
        "▁celebrated",
        -10.73672614813802
      ],
      [
        "▁rescue",
        -10.737091627912816
      ],
      [
        "▁Lee",
        -10.73742300877794
      ],
      [
        "▁collar",
        -10.737569244294574
      ],
      [
        "▁baking",
        -10.738180428682046
      ],
      [
        "▁penguin",
        -10.738285989708782
      ],
      [
        "▁big.",
        -10.739021903112349
      ],
      [
        "▁nuts",
        -10.73916542811031
      ],
      [
        "▁cardboard",
        -10.739347171790499
      ],
      [
        "\n\nMia",
        -10.739593321669163
      ],
      [
        "▁invite",
        -10.73963991560361
      ],
      [
        "▁empty.",
        -10.740296093929231
      ],
      [
        "▁Sandy",
        -10.74047972018278
      ],
      [
        "▁thread",
        -10.741162936088847
      ],
      [
        "▁sounds.",
        -10.741960439507036
      ],
      [
        ".\n\n\"Sure,",
        -10.741971147209384
      ],
      [
        "\"Sorry,",
        -10.74201071260451
      ],
      [
        "▁cap",
        -10.742072588587751
      ],
      [
        "\n\n\"I'm",
        -10.743919703300431
      ],
      [
        "▁pasta",
        -10.744072327862613
      ],
      [
        "▁talk.",
        -10.744085591382873
      ],
      [
        "▁missing",
        -10.744405996921257
      ],
      [
        "▁fox.",
        -10.744788105751068
      ],
      [
        "▁fighting.",
        -10.745114665361315
      ],
      [
        "▁yell",
        -10.745183283043383
      ],
      [
        "!\"\n\nMom",
        -10.745611962978392
      ],
      [
        "▁worth",
        -10.747741020859987
      ],
      [
        "\n\n\"It's",
        -10.747977789845867
      ],
      [
        "\n\nA",
        -10.748197766563946
      ],
      [
        "▁stage",
        -10.748379608818134
      ],
      [
        "▁gem",
        -10.749096445014304
      ],
      [
        "▁anxious",
        -10.749329365185673
      ],
      [
        "▁sheet",
        -10.749788363977325
      ],
      [
        "▁Jill.",
        -10.750732848196229
      ],
      [
        "▁happening",
        -10.751649785814005
      ],
      [
        "▁object",
        -10.752042984969652
      ],
      [
        "▁Fluffy.",
        -10.752120742410849
      ],
      [
        "▁shirt.",
        -10.752749937784106
      ],
      [
        "▁sprayed",
        -10.753046049853836
      ],
      [
        "▁fork",
        -10.753263259656768
      ],
      [
        "▁stickers",
        -10.75351992791453
      ],
      [
        "▁desk",
        -10.753575694392188
      ],
      [
        "▁wags",
        -10.75372565978034
      ],
      [
        "le",
        -10.754041610678359
      ],
      [
        "▁present.",
        -10.755016027619401
      ],
      [
        "▁Danny",
        -10.75542876825697
      ],
      [
        "▁radio",
        -10.75561129578934
      ],
      [
        "▁mistake",
        -10.75665020356399
      ],
      [
        "▁speed",
        -10.757786052960087
      ],
      [
        "▁gate.",
        -10.75790861811941
      ],
      [
        "▁blowing",
        -10.758894871659658
      ],
      [
        "▁shoe",
        -10.759331462929405
      ],
      [
        "▁belt",
        -10.759462099010607
      ],
      [
        "▁vendor",
        -10.760262613876984
      ],
      [
        "▁bucket.",
        -10.760563715673971
      ],
      [
        "▁popped",
        -10.760621826692228
      ],
      [
        "▁scolded",
        -10.76091794592799
      ],
      [
        "▁points",
        -10.761015981139604
      ],
      [
        "▁running.",
        -10.763853711719422
      ],
      [
        "▁everywhere,",
        -10.76441304670965
      ],
      [
        "▁leaf.",
        -10.765062563777617
      ],
      [
        "▁slept",
        -10.76525862840892
      ],
      [
        "▁resist",
        -10.765542257934221
      ],
      [
        "▁brother,",
        -10.765948954597217
      ],
      [
        "▁Charlie",
        -10.766210580109796
      ],
      [
        "▁sign.",
        -10.766772187699196
      ],
      [
        "▁nature",
        -10.767103071672626
      ],
      [
        "▁accepted",
        -10.767677762565695
      ],
      [
        "▁reindeer",
        -10.76796511289012
      ],
      [
        "▁scream",
        -10.768966730721294
      ],
      [
        "▁salt",
        -10.769512162991791
      ],
      [
        "▁mechanic",
        -10.769625314499939
      ],
      [
        "▁ducks.",
        -10.770360518242944
      ],
      [
        "▁ice-cream",
        -10.770911135818745
      ],
      [
        "▁human",
        -10.771237443971161
      ],
      [
        "▁computer",
        -10.773923306360054
      ],
      [
        "▁mug",
        -10.774170729984233
      ],
      [
        "▁tooth",
        -10.774264910340197
      ],
      [
        "▁interesting.",
        -10.774294345713386
      ],
      [
        "▁helpful.",
        -10.774753317325354
      ],
      [
        "▁sofa",
        -10.774831782985236
      ],
      [
        "▁behave",
        -10.77531737293839
      ],
      [
        "▁piano",
        -10.776556124217525
      ],
      [
        "▁garage",
        -10.776660181362015
      ],
      [
        ".\n\nLucy",
        -10.77681626817612
      ],
      [
        "▁explain",
        -10.777074656541975
      ],
      [
        "▁windows",
        -10.777726800826233
      ],
      [
        "▁eagerly",
        -10.777864626503703
      ],
      [
        "▁friendship",
        -10.778981317687949
      ],
      [
        "▁tomato",
        -10.77900474442585
      ],
      [
        "▁crack",
        -10.779202035840235
      ],
      [
        "▁created",
        -10.779434383851873
      ],
      [
        "▁enough.",
        -10.77975051208742
      ],
      [
        "▁bright.",
        -10.77981463129641
      ],
      [
        "▁tunnel",
        -10.780067719049706
      ],
      [
        "▁lie",
        -10.780090423932988
      ],
      [
        "▁scooter",
        -10.780229599000728
      ],
      [
        "▁either.",
        -10.780812249540066
      ],
      [
        "▁find.",
        -10.781222379143507
      ],
      [
        "▁forgotten",
        -10.781502268767076
      ],
      [
        "\"Let",
        -10.781770152700384
      ],
      [
        "ow,",
        -10.7828825716785
      ],
      [
        "▁math",
        -10.783106987028377
      ],
      [
        "▁wheat",
        -10.783209395854675
      ],
      [
        "▁dust",
        -10.783273038597299
      ],
      [
        "▁cord",
        -10.783455923150122
      ],
      [
        "▁rice",
        -10.783695633025703
      ],
      [
        "▁melon",
        -10.783804344895284
      ],
      [
        "▁squash",
        -10.783998897416863
      ],
      [
        "▁carpet",
        -10.784363471136738
      ],
      [
        "▁sniffed",
        -10.784981665334225
      ],
      [
        "▁knot",
        -10.78520530298402
      ],
      [
        "▁tire",
        -10.78610119392747
      ],
      [
        "▁hopes",
        -10.786117912783
      ],
      [
        "▁messy.",
        -10.786240336645237
      ],
      [
        "▁entered",
        -10.787041116748048
      ],
      [
        "▁wire",
        -10.787184309031135
      ],
      [
        "▁vine",
        -10.787507170526181
      ],
      [
        "▁\"Yes!",
        -10.787551612442359
      ],
      [
        "▁pipe",
        -10.788598961085727
      ],
      [
        "▁trusted",
        -10.788714833270415
      ],
      [
        "▁drawer",
        -10.788996365486277
      ],
      [
        "▁me!",
        -10.78982344557261
      ],
      [
        "▁follows",
        -10.789883511186037
      ],
      [
        "▁wait.",
        -10.790888177977454
      ],
      [
        "▁fearful",
        -10.790889952589582
      ],
      [
        "▁Ted",
        -10.790994315027245
      ],
      [
        "▁holes",
        -10.791096958716789
      ],
      [
        "▁accept",
        -10.79194750182339
      ],
      [
        "▁trumpet",
        -10.792225495922104
      ],
      [
        "▁welcome.",
        -10.792610839254802
      ],
      [
        "▁brighter",
        -10.794659437531005
      ],
      [
        "▁bouncing",
        -10.79529190223083
      ],
      [
        "▁jellyfish",
        -10.795349337847574
      ],
      [
        "▁\"A",
        -10.795708975284063
      ],
      [
        "▁mommy's",
        -10.79683133274619
      ],
      [
        "▁forward,",
        -10.797475604105719
      ],
      [
        ".\n\nSo,",
        -10.797534049659768
      ],
      [
        "▁slow.",
        -10.798731332111672
      ],
      [
        "▁ignored",
        -10.79904357323803
      ],
      [
        "▁crossed",
        -10.799175949760434
      ],
      [
        "▁carrots.",
[...]
